<pad>	0
<unk>	0
<s>	0
</s>	0
se	-0
in	-1
on	-2
re	-3
te	-4
or	-5
st	-6
de	-7
▁=	-8
at	-9
▁t	-10
al	-11
sel	-12
er	-13
self	-14
me	-15
ar	-16
le	-17
▁i	-18
an	-19
he	-20
ion	-21
▁c	-22
▁f	-23
▁'	-24
as	-25
ro	-26
en	-27
▁self	-28
▁"	-29
▁p	-30
▁re	-31
--	-32
ce	-33
it	-34
ct	-35
ur	-36
ge	-37
▁n	-38
▁#	-39
):	-40
ame	-41
mp	-42
▁s	-43
pe	-44
▁de	-45
▁in	-46
lo	-47
▁o	-48
ing	-49
ue	-50
▁the	-51
li	-52
ut	-53
▁a	-54
ate	-55
ser	-56
',	-57
▁d	-58
▁e	-59
nt	-60
▁def	-61
id	-62
fi	-63
▁b	-64
ra	-65
co	-66
▁m	-67
▁w	-68
ri	-69
ter	-70
is	-71
ul	-72
un	-73
ort	-74
()	-75
▁if	-76
ot	-77
ck	-78
urn	-79
ype	-80
turn	-81
one	-82
----	-83
▁(	-84
name	-85
ad	-86
':	-87
and	-88
__	-89
pt	-90
get	-91
ch	-92
il	-93
ation	-94
val	-95
ab	-96
et	-97
▁""	-98
▁for	-99
ol	-100
ata	-101
▁T	-102
▁"""	-103
▁return	-104
▁is	-105
sert	-106
el	-107
up	-108
▁to	-109
es	-110
None	-111
arg	-112
di	-113
assert	-114
ver	-115
')	-116
test	-117
ode	-118
",	-119
qu	-120
ma	-121
ss	-122
con	-123
▁imp	-124
ke	-125
ent	-126
str	-127
▁1	-128
type	-129
rom	-130
▁[	-131
('	-132
▁of	-133
▁:	-134
th	-135
▁import	-136
ult	-137
ed	-138
um	-139
._	-140
ass	-141
set	-142
ect	-143
am	-144
args	-145
),	-146
▁{	-147
▁0	-148
xt	-149
']	-150
par	-151
iz	-152
der	-153
ap	-154
00	-155
▁from	-156
ic	-157
value	-158
ith	-159
ment	-160
▁S	-161
▁A	-162
▁ex	-163
res	-164
▁C	-165
age	-166
od	-167
▁con	-168
vi	-169
▁_	-170
['	-171
ath	-172
##	-173
▁*	-174
bj	-175
all	-176
ve	-177
▁-	-178
ig	-179
per	-180
ction	-181
))	-182
▁not	-183
▁h	-184
ption	-185
int	-186
ime	-187
ted	-188
▁th	-189
able	-190
orm	-191
rue	-192
("	-193
▁and	-194
▁res	-195
lass	-196
▁None	-197
▁l	-198
▁u	-199
key	-200
pro	-201
--------	-202
ror	-203
to	-204
ase	-205
sion	-206
▁2	-207
ile	-208
▁==	-209
ub	-210
▁g	-211
ta	-212
▁test	-213
▁I	-214
po	-215
],	-216
tr	-217
▁co	-218
ex	-219
file	-220
▁F	-221
data	-222
▁P	-223
ay	-224
▁st	-225
0,	-226
▁or	-227
list	-228
us	-229
":	-230
Re	-231
▁+	-232
put	-233
our	-234
▁r	-235
▁L	-236
ht	-237
▁be	-238
end	-239
")	-240
odel	-241
path	-242
ow	-243
che	-244
form	-245
ize	-246
que	-247
ance	-248
▁assert	-249
▁with	-250
py	-251
fa	-252
fig	-253
ag	-254
alse	-255
==	-256
kw	-257
ure	-258
qual	-259
▁lo	-260
pec	-261
1,	-262
pl	-263
▁as	-264
▁di	-265
ource	-266
bu	-267
bject	-268
ine	-269
text	-270
▁D	-271
param	-272
▁name	-273
kwargs	-274
fo	-275
='	-276
01	-277
mo	-278
ack	-279
▁pro	-280
ew	-281
out	-282
len	-283
sc	-284
▁\	-285
Er	-286
▁me	-287
▁str	-288
om	-289
ise	-290
Error	-291
▁%	-292
tem	-293
art	-294
ial	-295
sh	-296
eld	-297
wor	-298
pon	-299
date	-300
lic	-301
▁class	-302
])	-303
stance	-304
red	-305
▁data	-306
▁M	-307
quest	-308
app	-309
▁se	-310
oc	-311
ity	-312
ip	-313
▁**	-314
▁`	-315
▁el	-316
▁file	-317
ponse	-318
mple	-319
dex	-320
ray	-321
▁__	-322
▁)	-323
▁value	-324
####	-325
▁@	-326
▁v	-327
▁else	-328
tri	-329
reate	-330
▁N	-331
▁y	-332
time	-333
add	-334
▁x	-335
lient	-336
ies	-337
pre	-338
ten	-339
ff	-340
im	-341
unt	-342
ange	-343
url	-344
ist	-345
▁E	-346
▁np	-347
▁an	-348
True	-349
ly	-350
In	-351
ho	-352
atch	-353
="	-354
roup	-355
ader	-356
[0	-357
},	-358
version	-359
.0	-360
est	-361
▁O	-362
ters	-363
▁3	-364
are	-365
ind	-366
ule	-367
array	-368
init	-369
Equal	-370
ER	-371
ON	-372
ry	-373
▁ra	-374
▁The	-375
ty	-376
▁un	-377
▁G	-378
ense	-379
bo	-380
▁par	-381
ac	-382
code	-383
▁he	-384
).	-385
os	-386
▁get	-387
2,	-388
cl	-389
▁on	-390
op	-391
port	-392
low	-393
col	-394
▁{'	-395
▁set	-396
ph	-397
IN	-398
ifi	-399
▁True	-400
assertEqual	-401
config	-402
▁this	-403
ans	-404
com	-405
work	-406
▁that	-407
__(	-408
mage	-409
vice	-410
format	-411
ber	-412
ace	-413
▁B	-414
▁use	-415
ock	-416
cess	-417
ds	-418
----------------	-419
ES	-420
False	-421
net	-422
ax	-423
ask	-424
thod	-425
cal	-426
ys	-427
ant	-428
model	-429
son	-430
abel	-431
dir	-432
gg	-433
▁0.	-434
ir	-435
""	-436
ext	-437
jo	-438
["	-439
ape	-440
Con	-441
db	-442
ument	-443
▁V	-444
ive	-445
▁result	-446
▁<	-447
▁list	-448
valid	-449
ust	-450
▁W	-451
▁at	-452
rint	-453
ll	-454
ory	-455
pp	-456
▁al	-457
"""	-458
cept	-459
ill	-460
▁>	-461
scri	-462
vent	-463
dict	-464
▁out	-465
ield	-466
ample	-467
▁R	-468
ator	-469
dd	-470
▁ch	-471
tes	-472
▁by	-473
read	-474
ary	-475
tp	-476
▁Re	-477
▁raise	-478
class	-479
▁U	-480
icense	-481
▁len	-482
iv	-483
min	-484
und	-485
====	-486
ameters	-487
update	-488
▁.	-489
AT	-490
ery	-491
▁en	-492
ec	-493
umn	-494
**	-495
▁it	-496
error	-497
no	-498
[0]	-499
▁False	-500
OR	-501
ms	-502
ault	-503
ast	-504
instance	-505
"]	-506
ated	-507
ener	-508
fe	-509
fault	-510
5,	-511
//	-512
unction	-513
▁are	-514
ils	-515
ception	-516
▁type	-517
size	-518
▁key	-519
▁ro	-520
ition	-521
▁os	-522
EN	-523
ang	-524
():	-525
▁License	-526
▁4	-527
object	-528
'),	-529
0.	-530
info	-531
sp	-532
loat	-533
ft	-534
stat	-535
▁col	-536
tent	-537
IT	-538
([	-539
count	-540
tain	-541
3,	-542
load	-543
2\	-544
qui	-545
ild	-546
group	-547
sub	-548
▁default	-549
ssage	-550
AR	-551
0\	-552
ign	-553
ute	-554
umber	-555
json	-556
(*	-557
1.	-558
▁we	-559
ml	-560
append	-561
ations	-562
rect	-563
ded	-564
pected	-565
rame	-566
uct	-567
serial	-568
ces	-569
▁}	-570
ST	-571
log	-572
index	-573
temp	-574
own	-575
ard	-576
ings	-577
pi	-578
▁int	-579
query	-580
nd	-581
ave	-582
▁model	-583
▁pre	-584
gra	-585
ok	-586
ight	-587
rent	-588
tribu	-589
field	-590
client	-591
▁response	-592
ou	-593
heck	-594
dent	-595
ari	-596
ren	-597
ers	-598
########	-599
odule	-600
▁time	-601
▁{}	-602
Get	-603
cor	-604
▁object	-605
.__	-606
ool	-607
ssion	-608
ore	-609
api	-610
▁print	-611
lib	-612
▁sh	-613
Test	-614
▁will	-615
▁k	-616
create	-617
▁H	-618
user	-619
line	-620
▁py	-621
uld	-622
if	-623
ron	-624
())	-625
▁no	-626
cur	-627
comp	-628
stri	-629
▁\\	-630
ptions	-631
ump	-632
AN	-633
3\	-634
mit	-635
ann	-636
ug	-637
-1	-638
://	-639
▁new	-640
ache	-641
Ex	-642
request	-643
Type	-644
lement	-645
▁except	-646
by	-647
Pro	-648
map	-649
with	-650
[1	-651
arn	-652
uth	-653
item	-654
4,	-655
Set	-656
result	-657
lif	-658
2.	-659
AL	-660
ject	-661
node	-662
his	-663
▁sup	-664
▁request	-665
late	-666
ght	-667
SE	-668
attr	-669
alue	-670
arget	-671
lot	-672
St	-673
▁->	-674
▁0,	-675
state	-676
▁try	-677
si	-678
ree	-679
tra	-680
start	-681
join	-682
xb	-683
obj	-684
'],	-685
▁all	-686
rite	-687
▁In	-688
▁spec	-689
ress	-690
4\	-691
pen	-692
og	-693
▁elif	-694
Name	-695
▁wh	-696
default	-697
▁has	-698
sed	-699
mat	-700
shape	-701
perty	-702
LE	-703
▁comp	-704
ken	-705
▁('	-706
▁1,	-707
ther	-708
ull	-709
``	-710
lin	-711
max	-712
back	-713
Res	-714
ID	-715
lock	-716
▁whe	-717
mand	-718
5\	-719
df	-720
da	-721
method	-722
ee	-723
cation	-724
utils	-725
1\	-726
7\	-727
8\	-728
▁If	-729
9\	-730
np	-731
▁sub	-732
12	-733
▁``	-734
▁do	-735
reg	-736
nect	-737
run	-738
▁This	-739
ix	-740
main	-741
▁per	-742
from	-743
cs	-744
core	-745
▁5	-746
▁[]	-747
▁path	-748
▁expected	-749
(),	-750
6\	-751
ib	-752
RE	-753
led	-754
thon	-755
return	-756
IC	-757
fix	-758
so	-759
ual	-760
▁['	-761
xc	-762
▁so	-763
right	-764
▁id	-765
for	-766
sing	-767
▁po	-768
▁config	-769
arch	-770
▁le	-771
201	-772
▁header	-773
equal	-774
▁mock	-775
10	-776
rans	-777
tern	-778
base	-779
▁com	-780
service	-781
response	-782
point	-783
act	-784
ps	-785
▁''	-786
ake	-787
De	-788
scription	-789
arent	-790
▁node	-791
UT	-792
we	-793
params	-794
▁can	-795
ark	-796
6,	-797
ain	-798
label	-799
▁user	-800
▁app	-801
input	-802
gth	-803
ong	-804
▁Con	-805
http	-806
▁output	-807
header	-808
gger	-809
string	-810
row	-811
status	-812
▁version	-813
:`	-814
ler	-815
xf	-816
sor	-817
yn	-818
▁pl	-819
▁index	-820
argument	-821
▁/	-822
quired	-823
▁cl	-824
rid	-825
call	-826
lete	-827
server	-828
Data	-829
▁field	-830
▁isinstance	-831
▁add	-832
ION	-833
doc	-834
▁>>	-835
check	-836
xe	-837
context	-838
Co	-839
its	-840
▁li	-841
uid	-842
ized	-843
=1	-844
table	-845
0000	-846
▁cur	-847
▁dict	-848
tag	-849
▁method	-850
unc	-851
ound	-852
indow	-853
hould	-854
vel	-855
▁pass	-856
'},	-857
use	-858
▁check	-859
ail	-860
▁ne	-861
andom	-862
ud	-863
xa	-864
64	-865
pos	-866
tro	-867
umpy	-868
▁log	-869
▁>>>	-870
ref	-871
values	-872
▁resource	-873
network	-874
var	-875
mis	-876
ises	-877
▁input	-878
av	-879
clo	-880
▁function	-881
▁values	-882
ich	-883
▁create	-884
ustom	-885
8,	-886
fil	-887
▁+=	-888
AS	-889
adata	-890
ak	-891
▁ax	-892
output	-893
▁..	-894
image	-895
mon	-896
mock	-897
resource	-898
'])	-899
ach	-900
32	-901
DE	-902
az	-903
plit	-904
7,	-905
▁should	-906
▁Ex	-907
▁z	-908
view	-909
========	-910
write	-911
▁ht	-912
tribute	-913
mb	-914
izer	-915
▁item	-916
parameters	-917
▁wx	-918
▁K	-919
RO	-920
not	-921
lob	-922
▁instance	-923
▁sys	-924
▁max	-925
action	-926
space	-927
▁line	-928
float	-929
trans	-930
."""	-931
vert	-932
do	-933
etwork	-934
▁used	-935
Id	-936
'.	-937
ns	-938
▁doc	-939
ET	-940
▁contain	-941
models	-942
message	-943
word	-944
▁number	-945
ses	-946
md	-947
itle	-948
ariable	-949
vis	-950
io	-951
amp	-952
▁under	-953
99	-954
▁Return	-955
▁kwargs	-956
tension	-957
parse	-958
sg	-959
▁ac	-960
num	-961
ey	-962
AM	-963
▁Co	-964
▁image	-965
▁dis	-966
tring	-967
peration	-968
..	-969
().	-970
new	-971
▁specifi	-972
idth	-973
▁|	-974
ude	-975
▁url	-976
▁date	-977
ne	-978
=[	-979
xd	-980
AC	-981
Par	-982
▁args	-983
▁label	-984
rt	-985
be	-986
].	-987
ody	-988
▁client	-989
▁string	-990
lp	-991
[:	-992
annel	-993
".	-994
25	-995
bs	-996
tadata	-997
raw	-998
dis	-999
mt	-1000
ite	-1001
▁'''	-1002
▁array	-1003
uple	-1004
ors	-1005
▁Test	-1006
▁run	-1007
licy	-1008
0)	-1009
▁super	-1010
ution	-1011
fl	-1012
teg	-1013
uration	-1014
ature	-1015
▁!	-1016
types	-1017
▁bu	-1018
uage	-1019
alueError	-1020
cate	-1021
host	-1022
org	-1023
▁message	-1024
pert	-1025
anguage	-1026
9,	-1027
▁query	-1028
cre	-1029
man	-1030
spec	-1031
amb	-1032
template	-1033
})	-1034
"),	-1035
▁error	-1036
inter	-1037
▁other	-1038
struct	-1039
▁wor	-1040
lay	-1041
▁range	-1042
move	-1043
AA	-1044
pr	-1045
ugin	-1046
▁reg	-1047
perties	-1048
lection	-1049
frame	-1050
RI	-1051
▁call	-1052
ager	-1053
((	-1054
ash	-1055
▁]	-1056
names	-1057
ify	-1058
▁base	-1059
'))	-1060
ptional	-1061
▁tra	-1062
place	-1063
List	-1064
ding	-1065
ost	-1066
ags	-1067
▁6	-1068
module	-1069
▁which	-1070
lication	-1071
nection	-1072
ste	-1073
▁##	-1074
▁!=	-1075
ids	-1076
▁stat	-1077
02	-1078
ally	-1079
my	-1080
_.	-1081
▁X	-1082
ures	-1083
ED	-1084
▁2,	-1085
▁may	-1086
aw	-1087
▁j	-1088
▁trans	-1089
▁start	-1090
den	-1091
ci	-1092
ep	-1093
her	-1094
▁column	-1095
source	-1096
process	-1097
▁event	-1098
1)	-1099
ved	-1100
▁end	-1101
ical	-1102
▁bool	-1103
2)	-1104
ambda	-1105
cy	-1106
16	-1107
▁code	-1108
sum	-1109
▁dtype	-1110
▁float	-1111
▁one	-1112
ams	-1113
andler	-1114
ware	-1115
ick	-1116
gging	-1117
-8	-1118
▁have	-1119
00,	-1120
PI	-1121
plot	-1122
patch	-1123
options	-1124
range	-1125
▁context	-1126
feren	-1127
property	-1128
token	-1129
pri	-1130
ume	-1131
▁min	-1132
bin	-1133
filter	-1134
▁obj	-1135
▁Returns	-1136
▁db	-1137
▁De	-1138
split	-1139
tings	-1140
old	-1141
▁1.	-1142
▁http	-1143
▁valid	-1144
▁text	-1145
Ser	-1146
▁you	-1147
################	-1148
▁only	-1149
Text	-1150
File	-1151
▁when	-1152
▁Y	-1153
auth	-1154
ENT	-1155
sent	-1156
face	-1157
stra	-1158
event	-1159
aa	-1160
foo	-1161
ING	-1162
cri	-1163
ackage	-1164
▁current	-1165
▁size	-1166
▁source	-1167
AG	-1168
inal	-1169
bug	-1170
▁fl	-1171
Base	-1172
▁copy	-1173
AB	-1174
▁df	-1175
serialize	-1176
3.	-1177
▁ent	-1178
column	-1179
mark	-1180
▁state	-1181
content	-1182
11	-1183
rg	-1184
flow	-1185
clude	-1186
ream	-1187
▁must	-1188
ont	-1189
ments	-1190
mg	-1191
▁numpy	-1192
headers	-1193
{}	-1194
session	-1195
amples	-1196
the	-1197
▁port	-1198
▁update	-1199
ative	-1200
ameter	-1201
function	-1202
Up	-1203
Case	-1204
orted	-1205
quen	-1206
----------	-1207
▁direct	-1208
uc	-1209
UR	-1210
04	-1211
OT	-1212
dtype	-1213
men	-1214
▁any	-1215
ched	-1216
▁but	-1217
ner	-1218
uuid	-1219
utf	-1220
tributes	-1221
'):	-1222
▁group	-1223
stant	-1224
▁fil	-1225
▁Get	-1226
▁distri	-1227
34	-1228
pect	-1229
mport	-1230
of	-1231
ert	-1232
UL	-1233
lean	-1234
bar	-1235
ui	-1236
▁1)	-1237
cord	-1238
play	-1239
func	-1240
CT	-1241
mission	-1242
trol	-1243
select	-1244
[1]	-1245
▁read	-1246
Ch	-1247
rix	-1248
scal	-1249
target	-1250
▁mat	-1251
way	-1252
▁target	-1253
▁Par	-1254
▁Q	-1255
azure	-1256
resh	-1257
IS	-1258
order	-1259
▁format	-1260
tin	-1261
delete	-1262
rc	-1263
▁mo	-1264
ql	-1265
Se	-1266
iven	-1267
▁exp	-1268
yle	-1269
keys	-1270
filename	-1271
task	-1272
CO	-1273
length	-1274
ell	-1275
ess	-1276
CH	-1277
ks	-1278
Col	-1279
ton	-1280
Field	-1281
idget	-1282
▁table	-1283
ormal	-1284
▁gener	-1285
req	-1286
uto	-1287
items	-1288
script	-1289
river	-1290
ling	-1291
({	-1292
ord	-1293
▁201	-1294
Model	-1295
copy	-1296
▁open	-1297
▁up	-1298
project	-1299
▁pos	-1300
▁Py	-1301
emp	-1302
▁ValueError	-1303
AD	-1304
vision	-1305
ning	-1306
raph	-1307
****	-1308
▁part	-1309
cope	-1310
▁},	-1311
▁ad	-1312
def	-1313
▁msg	-1314
arning	-1315
chema	-1316
ible	-1317
util	-1318
ts	-1319
▁--	-1320
FI	-1321
eta	-1322
03	-1323
▁help	-1324
::	-1325
▁num	-1326
▁lin	-1327
close	-1328
fact	-1329
▁module	-1330
ternal	-1331
LO	-1332
mail	-1333
ca	-1334
PO	-1335
html	-1336
▁8	-1337
ference	-1338
mary	-1339
▁json	-1340
root	-1341
iter	-1342
Not	-1343
ization	-1344
wx	-1345
loc	-1346
opt	-1347
▁inter	-1348
={	-1349
job	-1350
fields	-1351
kip	-1352
PT	-1353
serialized	-1354
15	-1355
page	-1356
files	-1357
Un	-1358
orage	-1359
metadata	-1360
▁act	-1361
local	-1362
cache	-1363
▁ag	-1364
Frame	-1365
irst	-1366
▁over	-1367
train	-1368
rap	-1369
▁See	-1370
viron	-1371
random	-1372
msg	-1373
ld	-1374
go	-1375
▁files	-1376
19	-1377
otal	-1378
▁Set	-1379
teger	-1380
Di	-1381
post	-1382
▁ver	-1383
▁{"	-1384
cond	-1385
String	-1386
▁Un	-1387
unit	-1388
ply	-1389
ublic	-1390
▁row	-1391
ice	-1392
uter	-1393
open	-1394
200	-1395
exception	-1396
▁action	-1397
</	-1398
cls	-1399
▁required	-1400
ates	-1401
license	-1402
mode	-1403
(_	-1404
18	-1405
Item	-1406
▁7	-1407
Lo	-1408
ists	-1409
14	-1410
gram	-1411
Is	-1412
parent	-1413
▁given	-1414
ister	-1415
Exception	-1416
▁ext	-1417
▁["	-1418
Key	-1419
address	-1420
ran	-1421
▁network	-1422
ync	-1423
ker	-1424
▁J	-1425
ox	-1426
1_	-1427
Response	-1428
PE	-1429
debug	-1430
imum	-1431
sw	-1432
block	-1433
command	-1434
change	-1435
oo	-1436
"],	-1437
ersion	-1438
store	-1439
buted	-1440
formation	-1441
axis	-1442
ng	-1443
▁parameters	-1444
▁("	-1445
▁each	-1446
assertTrue	-1447
env	-1448
atab	-1449
EST	-1450
▁sp	-1451
▁datetime	-1452
DO	-1453
▁logging	-1454
20\	-1455
▁project	-1456
ifier	-1457
ulti	-1458
ous	-1459
only	-1460
2_	-1461
▁AN	-1462
ting	-1463
vider	-1464
TI	-1465
Config	-1466
over	-1467
▁raw	-1468
▁back	-1469
24	-1470
20	-1471
▁cor	-1472
level	-1473
▁params	-1474
)))	-1475
xy	-1476
▁axis	-1477
sy	-1478
rule	-1479
------	-1480
duct	-1481
raises	-1482
Po	-1483
properties	-1484
▁shape	-1485
HO	-1486
UN	-1487
err	-1488
▁uni	-1489
title	-1490
▁order	-1491
*-	-1492
ating	-1493
▁match	-1494
prefix	-1495
rel	-1496
graph	-1497
▁cls	-1498
ftware	-1499
▁Data	-1500
iod	-1501
tensor	-1502
▁0:	-1503
channel	-1504
▁token	-1505
gener	-1506
ait	-1507
exec	-1508
box	-1509
▁pri	-1510
ie	-1511
At	-1512
sys	-1513
print	-1514
gor	-1515
▁page	-1516
00\	-1517
bl	-1518
atures	-1519
link	-1520
Group	-1521
▁pytest	-1522
▁tf	-1523
mber	-1524
onent	-1525
off	-1526
atabase	-1527
▁custom	-1528
▁init	-1529
▁parser	-1530
EX	-1531
width	-1532
▁-*-	-1533
andle	-1534
cli	-1535
▁fields	-1536
▁parent	-1537
▁content	-1538
▁argument	-1539
ogle	-1540
▁cal	-1541
HT	-1542
abled	-1543
']['	-1544
location	-1545
▁fe	-1546
older	-1547
▁first	-1548
▁using	-1549
To	-1550
part	-1551
▁ass	-1552
▁distributed	-1553
▁0.0	-1554
aises	-1555
=1,	-1556
olume	-1557
search	-1558
lobal	-1559
▁----------	-1560
cript	-1561
TestCase	-1562
▁val	-1563
▁options	-1564
des	-1565
▁ret	-1566
▁3,	-1567
match	-1568
direct	-1569
(0,	-1570
rit	-1571
stamp	-1572
▁document	-1573
lease	-1574
`.	-1575
device	-1576
▁vi	-1577
▁load	-1578
try	-1579
17	-1580
56	-1581
igh	-1582
▁logger	-1583
▁Copy	-1584
▁server	-1585
13	-1586
ble	-1587
▁limit	-1588
Time	-1589
Event	-1590
agent	-1591
)]	-1592
asses	-1593
▁),	-1594
▁Parameters	-1595
000	-1596
ww	-1597
▁tuple	-1598
ility	-1599
abs	-1600
▁element	-1601
iled	-1602
Object	-1603
rest	-1604
pass	-1605
fir	-1606
ML	-1607
▁does	-1608
ither	-1609
del	-1610
▁man	-1611
current	-1612
▁task	-1613
Add	-1614
LI	-1615
Value	-1616
gen	-1617
idx	-1618
ome	-1619
1',	-1620
fg	-1621
parser	-1622
▁q	-1623
-2	-1624
▁local	-1625
uni	-1626
▁point	-1627
fter	-1628
objects	-1629
).__	-1630
zer	-1631
uture	-1632
'].	-1633
▁specified	-1634
TP	-1635
▁service	-1636
▁10	-1637
'}	-1638
The	-1639
MP	-1640
description	-1641
▁Copyright	-1642
uster	-1643
pytest	-1644
▁unit	-1645
FA	-1646
IL	-1647
▁OR	-1648
▁enum	-1649
▁Pro	-1650
▁make	-1651
datetime	-1652
su	-1653
air	-1654
'\	-1655
XX	-1656
series	-1657
cp	-1658
element	-1659
ob	-1660
ote	-1661
▁results	-1662
last	-1663
proto	-1664
dered	-1665
AP	-1666
build	-1667
www	-1668
▁An	-1669
▁pd	-1670
[0],	-1671
number	-1672
▁status	-1673
sign	-1674
Request	-1675
ailable	-1676
pop	-1677
▁root	-1678
coding	-1679
▁filename	-1680
▁rel	-1681
ights	-1682
ics	-1683
ols	-1684
33	-1685
annot	-1686
ped	-1687
06	-1688
Py	-1689
nel	-1690
▁session	-1691
istr	-1692
▁command	-1693
▁change	-1694
scope	-1695
▁case	-1696
▁host	-1697
▁av	-1698
▁form	-1699
Client	-1700
▁su	-1701
En	-1702
(1	-1703
ract	-1704
plugin	-1705
has	-1706
▁],	-1707
expected	-1708
fore	-1709
▁optional	-1710
▁CON	-1711
▁9	-1712
▁pol	-1713
▁headers	-1714
ffe	-1715
▁Gener	-1716
sets	-1717
▁more	-1718
alt	-1719
Size	-1720
"))	-1721
present	-1722
05	-1723
wo	-1724
Index	-1725
▁full	-1726
body	-1727
tric	-1728
Raises	-1729
top	-1730
▁bot	-1731
▁extension	-1732
unk	-1733
▁exception	-1734
Al	-1735
rop	-1736
▁mode	-1737
▁'/	-1738
color	-1739
lied	-1740
▁same	-1741
grid	-1742
RAN	-1743
================	-1744
]:	-1745
US	-1746
▁scal	-1747
78	-1748
pc	-1749
Com	-1750
CON	-1751
quence	-1752
down	-1753
Ar	-1754
other	-1755
queue	-1756
TY	-1757
du	-1758
assertRaises	-1759
08	-1760
au	-1761
ide	-1762
HE	-1763
[0].	-1764
import	-1765
ango	-1766
▁indi	-1767
exp	-1768
09	-1769
(1,	-1770
Form	-1771
ities	-1772
ateway	-1773
▁...	-1774
lour	-1775
▁ob	-1776
TER	-1777
▁allow	-1778
policy	-1779
cmd	-1780
sup	-1781
▁work	-1782
▁need	-1783
qa	-1784
attern	-1785
▁either	-1786
▁0)	-1787
▁off	-1788
Des	-1789
▁body	-1790
▁names	-1791
[2	-1792
find	-1793
stack	-1794
utton	-1795
▁provi	-1796
▁contin	-1797
admin	-1798
ffer	-1799
-01	-1800
▁2.	-1801
mag	-1802
▁into	-1803
round	-1804
language	-1805
python	-1806
manager	-1807
jango	-1808
make	-1809
IG	-1810
28	-1811
▁last	-1812
account	-1813
▁ap	-1814
55	-1815
▁ar	-1816
▁OF	-1817
▁St	-1818
lines	-1819
▁~	-1820
lect	-1821
▁auth	-1822
perations	-1823
IP	-1824
▁filter	-1825
child	-1826
▁ed	-1827
▁was	-1828
▁child	-1829
AME	-1830
itor	-1831
https	-1832
▁found	-1833
pha	-1834
sample	-1835
case	-1836
ultip	-1837
▁arg	-1838
itions	-1839
▁api	-1840
essage	-1841
▁directory	-1842
▁lay	-1843
▁cod	-1844
▁qu	-1845
▁del	-1846
ches	-1847
les	-1848
Ac	-1849
▁variable	-1850
less	-1851
23	-1852
▁then	-1853
▁ident	-1854
Info	-1855
Man	-1856
▁noqa	-1857
called	-1858
fn	-1859
fer	-1860
▁length	-1861
contain	-1862
ESS	-1863
▁information	-1864
▁right	-1865
utron	-1866
▁description	-1867
enter	-1868
tend	-1869
▁sy	-1870
operation	-1871
▁sa	-1872
▁property	-1873
]]	-1874
▁temp	-1875
▁You	-1876
difi	-1877
▁Exception	-1878
EL	-1879
▁1:	-1880
strip	-1881
▁ID	-1882
Mock	-1883
▁lambda	-1884
ollow	-1885
hed	-1886
▁coding	-1887
Met	-1888
txt	-1889
extension	-1890
ported	-1891
▁process	-1892
mask	-1893
cul	-1894
▁models	-1895
▁where	-1896
dot	-1897
VER	-1898
side	-1899
▁orig	-1900
▁Col	-1901
long	-1902
driver	-1903
ector	-1904
press	-1905
required	-1906
dim	-1907
domain	-1908
▁Ser	-1909
curity	-1910
07	-1911
rate	-1912
tep	-1913
uri	-1914
gno	-1915
Stat	-1916
▁opt	-1917
DI	-1918
ected	-1919
cell	-1920
tags	-1921
3_	-1922
ined	-1923
App	-1924
ports	-1925
dev	-1926
▁For	-1927
▁count	-1928
cted	-1929
remove	-1930
aster	-1931
iew	-1932
▁template	-1933
▁'%	-1934
gy	-1935
fake	-1936
▁attr	-1937
xml	-1938
27	-1939
/{	-1940
0}	-1941
batch	-1942
cent	-1943
troll	-1944
ATE	-1945
\\	-1946
▁Res	-1947
most	-1948
note	-1949
sa	-1950
Page	-1951
lambda	-1952
nown	-1953
settings	-1954
Image	-1955
▁random	-1956
').	-1957
scale	-1958
▁Name	-1959
ward	-1960
points	-1961
stall	-1962
like	-1963
▁tm	-1964
save	-1965
...	-1966
first	-1967
State	-1968
std	-1969
reak	-1970
▁continue	-1971
meta	-1972
replace	-1973
36	-1974
nodes	-1975
conf	-1976
mgmt	-1977
future	-1978
▁iter	-1979
_1	-1980
"])	-1981
columns	-1982
DB	-1983
▁op	-1984
RL	-1985
ful	-1986
An	-1987
▁info	-1988
▁IS	-1989
NU	-1990
bution	-1991
ions	-1992
▁char	-1993
▁ab	-1994
hel	-1995
attribute	-1996
bose	-1997
26	-1998
-------	-1999
ush	-2000
uccess	-2001
▁ANY	-2002
ayload	-2003
stants	-2004
▁see	-2005
ingle	-2006
repr	-2007
▁plot	-2008
ctionary	-2009
als	-2010
▁specific	-2011
▁Python	-2012
▁-1	-2013
▁containing	-2014
nan	-2015
next	-2016
▁block	-2017
ification	-2018
bot	-2019
▁ren	-2020
option	-2021
▁objects	-2022
ins	-2023
▁All	-2024
tails	-2025
▁WIT	-2026
ULT	-2027
▁IN	-2028
true	-2029
▁include	-2030
mented	-2031
step	-2032
KE	-2033
Window	-2034
vironment	-2035
[:,	-2036
Return	-2037
▁API	-2038
application	-2039
results	-2040
=0,	-2041
pol	-2042
▁tag	-2043
swith	-2044
package	-2045
ias	-2046
labels	-2047
convert	-2048
ctions	-2049
verse	-2050
44	-2051
▁some	-2052
=(	-2053
▁Type	-2054
EM	-2055
0,0,	-2056
missions	-2057
subnet	-2058
tx	-2059
timeout	-2060
dist	-2061
▁String	-2062
ident	-2063
mpty	-2064
fit	-2065
▁next	-2066
ven	-2067
29	-2068
troller	-2069
▁train	-2070
Reg	-2071
show	-2072
▁parameter	-2073
ordin	-2074
▁hasattr	-2075
-----	-2076
▁Arg	-2077
tmp	-2078
ze	-2079
▁style	-2080
▁yield	-2081
Resource	-2082
5)	-2083
register	-2084
pool	-2085
imen	-2086
▁WAR	-2087
:00	-2088
(__	-2089
▁returns	-2090
char	-2091
vm	-2092
▁send	-2093
ear	-2094
mean	-2095
('/	-2096
ked	-2097
▁aut	-2098
View	-2099
send	-2100
▁tags	-2101
▁Construct	-2102
custom	-2103
lan	-2104
connection	-2105
▁List	-2106
▁::	-2107
common	-2108
▁Not	-2109
▁exec	-2110
ready	-2111
gment	-2112
ared	-2113
▁go	-2114
EV	-2115
pk	-2116
▁'.	-2117
37	-2118
variable	-2119
_2	-2120
IM	-2121
tests	-2122
▁columns	-2123
▁HT	-2124
lis	-2125
▁python	-2126
book	-2127
delta	-2128
etch	-2129
Class	-2130
▁igno	-2131
▁sign	-2132
On	-2133
▁language	-2134
served	-2135
ular	-2136
OL	-2137
cat	-2138
exists	-2139
static	-2140
istry	-2141
Sh	-2142
let	-2143
Le	-2144
.")	-2145
day	-2146
ffect	-2147
fs	-2148
▁200	-2149
)),	-2150
▁TO	-2151
edge	-2152
38	-2153
OG	-2154
▁):	-2155
mbol	-2156
CE	-2157
▁abs	-2158
Message	-2159
Qu	-2160
▁non	-2161
wait	-2162
icro	-2163
lice	-2164
▁cache	-2165
▁while	-2166
compute	-2167
trl	-2168
▁title	-2169
gine	-2170
LIC	-2171
Dict	-2172
sl	-2173
Service	-2174
Path	-2175
▁WARRAN	-2176
▁exist	-2177
▁parse	-2178
accept	-2179
hash	-2180
▁old	-2181
numpy	-2182
alid	-2183
2',	-2184
schema	-2185
wise	-2186
gn	-2187
imal	-2188
limit	-2189
▁entry	-2190
IO	-2191
Node	-2192
▁Create	-2193
dataset	-2194
TH	-2195
He	-2196
conds	-2197
▁>=	-2198
gory	-2199
▁software	-2200
ane	-2201
=%	-2202
▁ter	-2203
▁2.0	-2204
Str	-2205
▁initial	-2206
▁level	-2207
1/	-2208
[-1	-2209
oci	-2210
AAAA	-2211
59	-2212
▁than	-2213
"):	-2214
mote	-2215
namespace	-2216
▁top	-2217
cle	-2218
arnings	-2219
andard	-2220
scriptor	-2221
501	-2222
[0])	-2223
▁here	-2224
▁frame	-2225
Me	-2226
Parser	-2227
ultiple	-2228
Result	-2229
itional	-2230
▁configuration	-2231
▁plt	-2232
vo	-2233
Instance	-2234
window	-2235
IONS	-2236
QU	-2237
ration	-2238
cloud	-2239
atform	-2240
▁4,	-2241
▁We	-2242
bool	-2243
▁rule	-2244
assertIs	-2245
dential	-2246
rtual	-2247
▁package	-2248
ries	-2249
▁ca	-2250
▁&	-2251
▁color	-2252
No	-2253
▁follow	-2254
mer	-2255
valu	-2256
ENSE	-2257
TR	-2258
▁attribute	-2259
Handler	-2260
style	-2261
initial	-2262
▁metadata	-2263
▁writ	-2264
Ro	-2265
TO	-2266
)):	-2267
NAME	-2268
validate	-2269
na	-2270
profile	-2271
ailed	-2272
gex	-2273
_01	-2274
=0.	-2275
mory	-2276
▁dest	-2277
Network	-2278
loy	-2279
▁Version	-2280
FAULT	-2281
User	-2282
Map	-2283
▁sample	-2284
54	-2285
Check	-2286
▁ref	-2287
tered	-2288
soft	-2289
Column	-2290
units	-2291
`,	-2292
quire	-2293
Box	-2294
▁utf	-2295
tf	-2296
can	-2297
Create	-2298
ould	-2299
now	-2300
loud	-2301
andas	-2302
▁location	-2303
offset	-2304
tree	-2305
pb	-2306
Lay	-2307
google	-2308
mod	-2309
Bu	-2310
5.	-2311
cket	-2312
vt	-2313
▁URL	-2314
▁dataset	-2315
bytes	-2316
groups	-2317
pack	-2318
FF	-2319
6.	-2320
▁100	-2321
********	-2322
▁Add	-2323
▁its	-2324
▁represent	-2325
39	-2326
▁after	-2327
▁find	-2328
olute	-2329
layer	-2330
tenant	-2331
ux	-2332
3)	-2333
ason	-2334
aaaa	-2335
olution	-2336
CRI	-2337
Array	-2338
very	-2339
samples	-2340
matrix	-2341
Sub	-2342
▁At	-2343
sen	-2344
88	-2345
QL	-2346
router	-2347
▁Ap	-2348
▁operation	-2349
▁Licensed	-2350
66	-2351
UP	-2352
nap	-2353
=['	-2354
perator	-2355
0.0	-2356
connect	-2357
▁graph	-2358
Per	-2359
rand	-2360
▁long	-2361
▁func	-2362
Ctrl	-2363
▁https	-2364
ffi	-2365
xture	-2366
▁ip	-2367
cated	-2368
▁channel	-2369
▁stream	-2370
Pre	-2371
imple	-2372
▁Column	-2373
▁2)	-2374
AGE	-2375
ink	-2376
▁Default	-2377
▁build	-2378
rtype	-2379
peline	-2380
22	-2381
▁option	-2382
features	-2383
][	-2384
▁tests	-2385
__)	-2386
▁show	-2387
TC	-2388
stop	-2389
uble	-2390
ability	-2391
▁job	-2392
Pl	-2393
▁bet	-2394
▁without	-2395
IND	-2396
penden	-2397
Comp	-2398
4.	-2399
wer	-2400
gin	-2401
▁there	-2402
▁matrix	-2403
=_	-2404
CRIPT	-2405
▁Key	-2406
encode	-2407
▁1.0	-2408
comple	-2409
password	-2410
30	-2411
▁lib	-2412
57	-2413
▁collection	-2414
Default	-2415
card	-2416
▁sum	-2417
(['	-2418
shot	-2419
ride	-2420
entry	-2421
ater	-2422
▁batch	-2423
lower	-2424
full	-2425
bit	-2426
▁break	-2427
▁'--	-2428
backend	-2429
▁window	-2430
MA	-2431
opts	-2432
channels	-2433
dt	-2434
asic	-2435
ination	-2436
indi	-2437
dump	-2438
▁connection	-2439
handler	-2440
▁delete	-2441
▁-------	-2442
posit	-2443
anel	-2444
dest	-2445
stream	-2446
▁deserialized	-2447
▁3.	-2448
imension	-2449
▁device	-2450
sort	-2451
▁real	-2452
▁Ch	-2453
▁true	-2454
▁view	-2455
▁ph	-2456
▁single	-2457
Trans	-2458
alog	-2459
skip	-2460
HOUT	-2461
▁down	-2462
▁cell	-2463
▁created	-2464
From	-2465
licenses	-2466
classmethod	-2467
▁[1,	-2468
record	-2469
rection	-2470
logger	-2471
58	-2472
▁WITHOUT	-2473
▁write	-2474
transform	-2475
ian	-2476
▁your	-2477
▁getattr	-2478
author	-2479
Widget	-2480
va	-2481
▁setup	-2482
aml	-2483
peri	-2484
site	-2485
ants	-2486
]),	-2487
control	-2488
web	-2489
decode	-2490
descriptor	-2491
rary	-2492
▁mark	-2493
▁Check	-2494
fferent	-2495
▁available	-2496
exc	-2497
leted	-2498
▁'-	-2499
subscription	-2500
Context	-2501
zure	-2502
▁select	-2503
rs	-2504
ithub	-2505
▁attributes	-2506
tab	-2507
volume	-2508
ship	-2509
product	-2510
ween	-2511
▁map	-2512
▁idx	-2513
provider	-2514
▁cmd	-2515
fy	-2516
ha	-2517
."	-2518
Date	-2519
bind	-2520
total	-2521
▁returned	-2522
▁step	-2523
exceptions	-2524
▁prefix	-2525
left	-2526
storage	-2527
▁provided	-2528
radi	-2529
trib	-2530
access	-2531
normal	-2532
medi	-2533
▁keys	-2534
▁tensor	-2535
▁width	-2536
ME	-2537
▁dictionary	-2538
▁arguments	-2539
▁settings	-2540
cc	-2541
]))	-2542
▁[0,	-2543
height	-2544
▁also	-2545
▁net	-2546
trics	-2547
example	-2548
words	-2549
▁offset	-2550
").	-2551
▁cre	-2552
apping	-2553
weight	-2554
member	-2555
▁<=	-2556
cry	-2557
document	-2558
security	-2559
▁labels	-2560
▁example	-2561
▁bin	-2562
▁te	-2563
']:	-2564
ssible	-2565
dified	-2566
verage	-2567
▁,	-2568
▁thread	-2569
fail	-2570
▁implied	-2571
▁two	-2572
dat	-2573
▁Args	-2574
FT	-2575
setup	-2576
Table	-2577
serv	-2578
inx	-2579
▁timeout	-2580
ctx	-2581
csv	-2582
MO	-2583
non	-2584
assed	-2585
stats	-2586
ocket	-2587
agg	-2588
IZ	-2589
Out	-2590
sv	-2591
untime	-2592
beta	-2593
email	-2594
▁search	-2595
PRO	-2596
errors	-2597
orig	-2598
zeros	-2599
77	-2600
▁LOG	-2601
▁err	-2602
inition	-2603
▁extra	-2604
this	-2605
ITY	-2606
empty	-2607
rapper	-2608
Manager	-2609
▁already	-2610
score	-2611
ESCRIPT	-2612
tools	-2613
98	-2614
ALL	-2615
▁polling	-2616
wi	-2617
ient	-2618
attributes	-2619
.')	-2620
▁No	-2621
any	-2622
▁Z	-2623
}/	-2624
▁bo	-2625
▁'_	-2626
~~	-2627
riter	-2628
ank	-2629
Line	-2630
▁record	-2631
ground	-2632
Version	-2633
▁5,	-2634
ART	-2635
cro	-2636
ilder	-2637
classes	-2638
cret	-2639
cid	-2640
src	-2641
tocol	-2642
▁account	-2643
CK	-2644
▁Client	-2645
istory	-2646
▁plugin	-2647
▁django	-2648
▁Whe	-2649
▁mask	-2650
▁var	-2651
wh	-2652
_01.	-2653
▁ker	-2654
ValueError	-2655
olver	-2656
▁items	-2657
tach	-2658
Pos	-2659
fin	-2660
cho	-2661
▁obtain	-2662
Element	-2663
▁tri	-2664
MM	-2665
stc	-2666
▁normal	-2667
active	-2668
pression	-2669
metric	-2670
▁serialized	-2671
=1)	-2672
▁"%	-2673
▁post	-2674
nn	-2675
distri	-2676
▁cfg	-2677
Spec	-2678
extend	-2679
icrosoft	-2680
phinx	-2681
cu	-2682
▁exc	-2683
poch	-2684
1:	-2685
entity	-2686
gress	-2687
CL	-2688
▁cli	-2689
EVT	-2690
▁%(	-2691
ertifi	-2692
▁resp	-2693
vate	-2694
CS	-2695
Loc	-2696
▁empty	-2697
TIES	-2698
erate	-2699
sd	-2700
img	-2701
100	-2702
48	-2703
PL	-2704
▁six	-2705
zone	-2706
▁main	-2707
▁struct	-2708
ystem	-2709
68	-2710
startswith	-2711
hent	-2712
▁Po	-2713
({'	-2714
-1,	-2715
▁requests	-2716
▁before	-2717
cast	-2718
">	-2719
▁like	-2720
ertificate	-2721
▁null	-2722
TYPE	-2723
ince	-2724
▁integer	-2725
keep	-2726
000000	-2727
br	-2728
API	-2729
▁Di	-2730
31\	-2731
▁system	-2732
DF	-2733
Policy	-2734
▁unittest	-2735
acy	-2736
ret	-2737
▁req	-2738
ivar	-2739
▁neutron	-2740
▁lines	-2741
▁been	-2742
▁remove	-2743
zip	-2744
Sp	-2745
whe	-2746
Descript	-2747
ilter	-2748
straint	-2749
▁nodes	-2750
insert	-2751
container	-2752
once	-2753
TE	-2754
issing	-2755
▁zip	-2756
▁database	-2757
hentic	-2758
▁WARRANTIES	-2759
napshot	-2760
username	-2761
Raw	-2762
▁cond	-2763
ploy	-2764
▁Public	-2765
chain	-2766
rows	-2767
','	-2768
Number	-2769
pth	-2770
0:	-2771
Status	-2772
End	-2773
__,	-2774
▁".	-2775
▁edge	-2776
sm	-2777
pping	-2778
display	-2779
▁access	-2780
aut	-2781
▁permissions	-2782
SON	-2783
execute	-2784
▁unicode	-2785
chedule	-2786
Descriptor	-2787
aded	-2788
▁display	-2789
sql	-2790
mbed	-2791
arr	-2792
NO	-2793
ators	-2794
▁namespace	-2795
math	-2796
imp	-2797
modules	-2798
generate	-2799
▁period	-2800
▁Se	-2801
inputs	-2802
+0	-2803
pare	-2804
callback	-2805
git	-2806
(**	-2807
ixed	-2808
>`	-2809
▁It	-2810
okup	-2811
ping	-2812
ift	-2813
auto	-2814
ier	-2815
▁On	-2816
▁TODO	-2817
vs	-2818
▁sorted	-2819
▁pop	-2820
Ent	-2821
▁comple	-2822
system	-2823
actions	-2824
▁total	-2825
▁convert	-2826
allow	-2827
▁between	-2828
URL	-2829
▁fin	-2830
▁DataFrame	-2831
By	-2832
▁So	-2833
67	-2834
lat	-2835
▁unique	-2836
cies	-2837
Do	-2838
readonly	-2839
▁save	-2840
abc	-2841
▁verbose	-2842
▁enumerate	-2843
unter	-2844
▁types	-2845
Dis	-2846
▁Apache	-2847
ric	-2848
▁'__	-2849
▁following	-2850
quires	-2851
UB	-2852
Imple	-2853
wd	-2854
ero	-2855
▁setUp	-2856
extra	-2857
Command	-2858
▁html	-2859
Update	-2860
▁General	-2861
periment	-2862
arguments	-2863
ire	-2864
lim	-2865
pository	-2866
sq	-2867
stead	-2868
reshold	-2869
thing	-2870
ific	-2871
ged	-2872
ools	-2873
pers	-2874
▁address	-2875
ummy	-2876
RES	-2877
1",	-2878
oken	-2879
widget	-2880
▁conn	-2881
▁tmp	-2882
▁applic	-2883
Button	-2884
seq	-2885
component	-2886
vals	-2887
Found	-2888
▁passed	-2889
50	-2890
tuple	-2891
ords	-2892
▁global	-2893
▁details	-2894
ESCRIPTOR	-2895
▁sim	-2896
License	-2897
▁param	-2898
_(	-2899
onth	-2900
Colour	-2901
cer	-2902
KEY	-2903
derr	-2904
DS	-2905
▁Base	-2906
board	-2907
ORT	-2908
▁added	-2909
▁Al	-2910
▁patch	-2911
ATION	-2912
▁tree	-2913
fill	-2914
Ad	-2915
▁reference	-2916
dentials	-2917
real	-2918
97	-2919
▁called	-2920
sk	-2921
%(	-2922
collection	-2923
Inter	-2924
Invalid	-2925
Sty	-2926
hod	-2927
▁absolute	-2928
▁fake	-2929
▁different	-2930
VE	-2931
cords	-2932
global	-2933
github	-2934
ices	-2935
▁scale	-2936
hell	-2937
testing	-2938
chemy	-2939
tail	-2940
▁(0	-2941
▁clo	-2942
stim	-2943
▁writing	-2944
reed	-2945
ixin	-2946
▁meta	-2947
ls	-2948
DIT	-2949
▁container	-2950
Point	-2951
▁layer	-2952
invalid	-2953
▁original	-2954
vartype	-2955
ivity	-2956
ba	-2957
interface	-2958
sue	-2959
anis	-2960
▁correct	-2961
(1)	-2962
vari	-2963
ORM	-2964
prop	-2965
ision	-2966
Rule	-2967
▁dimension	-2968
▁GNU	-2969
indices	-2970
alth	-2971
Implemented	-2972
OS	-2973
handle	-2974
▁policy	-2975
▁[],	-2976
exit	-2977
▁dist	-2978
comment	-2979
section	-2980
▁agent	-2981
tom	-2982
▁left	-2983
itmap	-2984
Count	-2985
▁skip	-2986
▁errors	-2987
coder	-2988
term	-2989
▁Time	-2990
folder	-2991
conn	-2992
warning	-2993
30\	-2994
▁Import	-2995
▁Comp	-2996
GET	-2997
▁dir	-2998
unittest	-2999
▁fig	-3000
ffix	-3001
▁NOT	-3002
PAT	-3003
vious	-3004
engine	-3005
sure	-3006
▁defined	-3007
▁encoding	-3008
▁"\	-3009
ocument	-3010
lish	-3011
af	-3012
32\	-3013
ves	-3014
▁sort	-3015
Logger	-3016
ATA	-3017
ifact	-3018
med	-3019
ensor	-3020
ugh	-3021
rpc	-3022
liance	-3023
▁vari	-3024
=2	-3025
serializer	-3026
▁ctx	-3027
▁KIND	-3028
▁along	-3029
▁feature	-3030
▁license	-3031
▁rece	-3032
▁express	-3033
Ed	-3034
gp	-3035
▁img	-3036
adding	-3037
ndarray	-3038
sim	-3039
bound	-3040
▁12	-3041
gest	-3042
ily	-3043
eer	-3044
angle	-3045
Label	-3046
▁methods	-3047
▁generated	-3048
▁'{	-3049
▁subnet	-3050
irt	-3051
▁</	-3052
timestamp	-3053
▁cho	-3054
Or	-3055
dirty	-3056
▁handle	-3057
pub	-3058
force	-3059
Run	-3060
"}	-3061
loads	-3062
HTTP	-3063
▁just	-3064
ived	-3065
gorith	-3066
▁TypeError	-3067
assertFalse	-3068
olve	-3069
▁control	-3070
DEFAULT	-3071
35	-3072
used	-3073
▁font	-3074
oolean	-3075
1.0	-3076
thread	-3077
ene	-3078
Operation	-3079
pair	-3080
multi	-3081
ending	-3082
ignment	-3083
[1],	-3084
▁'',	-3085
.,	-3086
▁applicable	-3087
47	-3088
-9	-3089
apache	-3090
leg	-3091
XXXX	-3092
itch	-3093
TEST	-3094
▁instead	-3095
cluster	-3096
validation	-3097
swig	-3098
As	-3099
▁position	-3100
Content	-3101
utes	-3102
▁domain	-3103
={'	-3104
unds	-3105
stract	-3106
▁async	-3107
Tree	-3108
CA	-3109
Input	-3110
▁points	-3111
▁'\	-3112
directory	-3113
▁stop	-3114
Back	-3115
▁disable	-3116
=0)	-3117
Log	-3118
cause	-3119
Property	-3120
▁"/	-3121
icle	-3122
STC	-3123
almost	-3124
attrs	-3125
selected	-3126
ested	-3127
▁Qt	-3128
▁sql	-3129
▁sk	-3130
Gener	-3131
fixture	-3132
▁comment	-3133
49	-3134
▁password	-3135
UI	-3136
3',	-3137
LICENSE	-3138
▁pi	-3139
sec	-3140
feature	-3141
▁actual	-3142
▁schema	-3143
Valid	-3144
RawResponse	-3145
rag	-3146
atic	-3147
▁std	-3148
▁warnings	-3149
termin	-3150
▁utils	-3151
▁inputs	-3152
dc	-3153
▁pandas	-3154
tex	-3155
MS	-3156
[1:	-3157
_0	-3158
-2.0	-3159
▁Optional	-3160
cols	-3161
▁law	-3162
sig	-3163
");	-3164
tz	-3165
position	-3166
cap	-3167
Format	-3168
=2,	-3169
▁-1,	-3170
scribe	-3171
duce	-3172
ose	-3173
period	-3174
staticmethod	-3175
FO	-3176
pn	-3177
conv	-3178
▁vis	-3179
▁application	-3180
pattern	-3181
▁gover	-3182
nb	-3183
ABLE	-3184
▁',	-3185
"].	-3186
enabled	-3187
ines	-3188
▁[[	-3189
reference	-3190
▁compliance	-3191
▁support	-3192
▁hash	-3193
gre	-3194
▁component	-3195
loss	-3196
22\	-3197
AND	-3198
Pol	-3199
▁author	-3200
▁env	-3201
▁Note	-3202
(0)	-3203
▁flag	-3204
rules	-3205
▁supported	-3206
▁BAS	-3207
▁DE	-3208
hy	-3209
▁link	-3210
EXT	-3211
▁pub	-3212
astype	-3213
returns	-3214
▁User	-3215
Fe	-3216
▁THE	-3217
▁limitations	-3218
▁my	-3219
▁CONDIT	-3220
▁[0.	-3221
2018	-3222
vers	-3223
tract	-3224
▁governing	-3225
Call	-3226
▁don	-3227
reset	-3228
▁router	-3229
visioning	-3230
▁ge	-3231
ImplementedError	-3232
irtual	-3233
sted	-3234
asure	-3235
Fl	-3236
▁cate	-3237
Temp	-3238
clean	-3239
▁CONDITIONS	-3240
▁0.5	-3241
(2	-3242
stdout	-3243
69	-3244
▁1),	-3245
freq	-3246
▁BASIS	-3247
norm	-3248
atio	-3249
▁[{	-3250
2",	-3251
environ	-3252
tc	-3253
known	-3254
▁Series	-3255
▁File	-3256
agic	-3257
-------------	-3258
`:	-3259
▁Unless	-3260
ynam	-3261
▁height	-3262
▁transform	-3263
vars	-3264
resources	-3265
2019	-3266
_,	-3267
)"""	-3268
sage	-3269
deserialize	-3270
▁contains	-3271
Mo	-3272
Th	-3273
achine	-3274
dec	-3275
commit	-3276
compile	-3277
▁callback	-3278
▁Per	-3279
tener	-3280
▁now	-3281
Port	-3282
rough	-3283
]])	-3284
▁second	-3285
▁agreed	-3286
▁fact	-3287
▁implement	-3288
▁store	-3289
▁HTTP	-3290
▁whether	-3291
``.	-3292
▁mean	-3293
role	-3294
=4	-3295
▁alpha	-3296
plotlib	-3297
DataFrame	-3298
sym	-3299
▁validate	-3300
ERS	-3301
velo	-3302
nu	-3303
click	-3304
▁art	-3305
=[],	-3306
hook	-3307
itude	-3308
endpoint	-3309
RA	-3310
Arg	-3311
dify	-3312
▁(1,	-3313
msrest	-3314
ixel	-3315
▁associ	-3316
PY	-3317
idden	-3318
respon	-3319
▁because	-3320
▁they	-3321
▁these	-3322
Filter	-3323
head	-3324
safe	-3325
database	-3326
layers	-3327
▁calcul	-3328
route	-3329
▁want	-3330
▁ignore	-3331
desc	-3332
null	-3333
fc	-3334
▁backend	-3335
▁multiple	-3336
▁--------	-3337
▁ow	-3338
mi	-3339
dumps	-3340
Graph	-3341
▁compute	-3342
arange	-3343
chedul	-3344
▁them	-3345
INT	-3346
rer	-3347
▁equal	-3348
▁mx	-3349
bn	-3350
rec	-3351
▁sequence	-3352
ards	-3353
33\	-3354
inc	-3355
sole	-3356
▁member	-3357
▁fail	-3358
tect	-3359
la	-3360
▁bytes	-3361
Layout	-3362
▁incl	-3363
▁generate	-3364
WOR	-3365
]['	-3366
ordinates	-3367
▁charac	-3368
▁properties	-3369
▁pie	-3370
2:	-3371
ars	-3372
UG	-3373
rep	-3374
▁functions	-3375
▁Resource	-3376
Down	-3377
For	-3378
see	-3379
assertIn	-3380
unique	-3381
mount	-3382
precated	-3383
▁._	-3384
ANG	-3385
docs	-3386
▁Lo	-3387
factor	-3388
akes	-3389
▁})	-3390
ways	-3391
▁predi	-3392
parame	-3393
▁Com	-3394
vas	-3395
allclose	-3396
▁kernel	-3397
rable	-3398
▁uuid	-3399
ffici	-3400
All	-3401
dirname	-3402
END	-3403
▁0],	-3404
=0	-3405
Bar	-3406
▁salt	-3407
▁sure	-3408
ropy	-3409
▁handler	-3410
Hel	-3411
Auth	-3412
....	-3413
▁pool	-3414
▁chain	-3415
diff	-3416
▁payload	-3417
.'	-3418
▁replace	-3419
should	-3420
Font	-3421
Grid	-3422
mm	-3423
span	-3424
UM	-3425
gorithm	-3426
public	-3427
controller	-3428
]],	-3429
▁nd	-3430
75	-3431
alpha	-3432
region	-3433
We	-3434
▁interface	-3435
tk	-3436
▁split	-3437
21	-3438
axes	-3439
reshape	-3440
lex	-3441
ified	-3442
BO	-3443
lint	-3444
distance	-3445
apply	-3446
Code	-3447
igno	-3448
alan	-3449
parameter	-3450
8.	-3451
▁weights	-3452
Query	-3453
tool	-3454
login	-3455
buf	-3456
ACK	-3457
rl	-3458
Cell	-3459
alled	-3460
vide	-3461
ives	-3462
▁failed	-3463
This	-3464
tact	-3465
Source	-3466
▁"--	-3467
▁Code	-3468
requen	-3469
▁dt	-3470
bb	-3471
symbol	-3472
▁cluster	-3473
ross	-3474
▁popul	-3475
▁profile	-3476
▁pattern	-3477
pose	-3478
▁strings	-3479
▁fit	-3480
▁fill	-3481
report	-3482
([[	-3483
▁Image	-3484
fmt	-3485
▁updated	-3486
Cur	-3487
▁both	-3488
td	-3489
0',	-3490
ression	-3491
ops	-3492
▁install	-3493
master	-3494
tick	-3495
▁dec	-3496
compat	-3497
pick	-3498
Mixin	-3499
▁place	-3500
▁program	-3501
PS	-3502
▁auto	-3503
itive	-3504
▁sc	-3505
weights	-3506
heet	-3507
▁src	-3508
Tra	-3509
▁dc	-3510
alys	-3511
lem	-3512
▁draw	-3513
65\	-3514
effect	-3515
avor	-3516
[-1]	-3517
WN	-3518
▁storage	-3519
aly	-3520
alysis	-3521
▁sen	-3522
▁invalid	-3523
mid	-3524
spect	-3525
▁En	-3526
cores	-3527
▁force	-3528
dr	-3529
34\	-3530
Attribute	-3531
events	-3532
running	-3533
ECT	-3534
[3	-3535
▁Software	-3536
Integer	-3537
leep	-3538
PATH	-3539
ntax	-3540
▁exists	-3541
gr	-3542
▁10,	-3543
45	-3544
__(**	-3545
▁tool	-3546
Method	-3547
ILITY	-3548
Read	-3549
eq	-3550
▁To	-3551
▁grid	-3552
div	-3553
alchemy	-3554
factory	-3555
▁elements	-3556
learn	-3557
▁gra	-3558
moved	-3559
children	-3560
pid	-3561
9999	-3562
▁(1	-3563
warn	-3564
ROR	-3565
▁classes	-3566
ae	-3567
▁16	-3568
created	-3569
With	-3570
Tool	-3571
Token	-3572
▁ty	-3573
▁space	-3574
SC	-3575
buffer	-3576
▁IP	-3577
itial	-3578
.0.	-3579
38\	-3580
grade	-3581
seed	-3582
▁2:	-3583
grad	-3584
35\	-3585
images	-3586
▁keep	-3587
▁entity	-3588
Process	-3589
▁weight	-3590
font	-3591
help	-3592
▁based	-3593
▁virtual	-3594
[1])	-3595
button	-3596
▁web	-3597
▁sw	-3598
arge	-3599
success	-3600
ones	-3601
▁freq	-3602
▁Mock	-3603
Action	-3604
uff	-3605
trace	-3606
cfg	-3607
▁region	-3608
eric	-3609
▁stri	-3610
ranch	-3611
96	-3612
▁Model	-3613
WAR	-3614
steps	-3615
(\	-3616
lap	-3617
ki	-3618
ession	-3619
▁existing	-3620
ips	-3621
▁3)	-3622
kernel	-3623
constants	-3624
filters	-3625
Connection	-3626
86	-3627
36\	-3628
paths	-3629
lab	-3630
DC	-3631
seconds	-3632
46	-3633
argv	-3634
FILE	-3635
▁render	-3636
configuration	-3637
▁about	-3638
▁pieces	-3639
interval	-3640
none	-3641
Series	-3642
SS	-3643
▁ho	-3644
Task	-3645
▁rows	-3646
▁events	-3647
Warning	-3648
▁product	-3649
disk	-3650
pendencies	-3651
▁As	-3652
usr	-3653
▁ma	-3654
uplic	-3655
metrics	-3656
▁//	-3657
39\	-3658
Start	-3659
Sto	-3660
kg	-3661
▁stack	-3662
sid	-3663
gateway	-3664
▁multi	-3665
ai	-3666
VAL	-3667
mapping	-3668
release	-3669
▁script	-3670
(?	-3671
fetch	-3672
fficient	-3673
▁relative	-3674
▁documentation	-3675
▁parsed	-3676
▁buil	-3677
(4	-3678
"},	-3679
izes	-3680
Sec	-3681
havi	-3682
.",	-3683
PAR	-3684
install	-3685
95	-3686
NotFound	-3687
pipeline	-3688
getLogger	-3689
ometry	-3690
▁'[	-3691
operations	-3692
light	-3693
bad	-3694
▁correspon	-3695
1]	-3696
▁Do	-3697
IGN	-3698
▁common	-3699
logging	-3700
Server	-3701
gh	-3702
ggreg	-3703
▁'<	-3704
87	-3705
secret	-3706
▁rights	-3707
▁App	-3708
cd	-3709
▁6,	-3710
▁1],	-3711
▁variables	-3712
wrap	-3713
loudError	-3714
win	-3715
Qt	-3716
▁Text	-3717
AY	-3718
▁specify	-3719
dims	-3720
("\	-3721
enu	-3722
edit	-3723
states	-3724
▁day	-3725
IF	-3726
▁reserved	-3727
ority	-3728
▁success	-3729
▁pair	-3730
agicMock	-3731
cessed	-3732
▁Attribute	-3733
registry	-3734
logy	-3735
▁0.0,	-3736
▁missing	-3737
resourceGroup	-3738
roll	-3739
rowser	-3740
▁doesn	-3741
▁driver	-3742
▁distribution	-3743
center	-3744
correct	-3745
1}	-3746
▁inst	-3747
▁identifier	-3748
▁xml	-3749
▁LET	-3750
track	-3751
▁appro	-3752
▁construct	-3753
some	-3754
('--	-3755
▁mod	-3756
alle	-3757
xx	-3758
▁loc	-3759
▁pick	-3760
▁"<	-3761
ured	-3762
Obj	-3763
ANT	-3764
▁endpoint	-3765
▁how	-3766
+)	-3767
▁LETTER	-3768
▁dat	-3769
▁Number	-3770
category	-3771
misc	-3772
=3,	-3773
kind	-3774
CC	-3775
slice	-3776
▁7,	-3777
74\	-3778
▁cp	-3779
2(	-3780
uted	-3781
▁conf	-3782
dirs	-3783
ork	-3784
▁features	-3785
internal	-3786
ence	-3787
zero	-3788
include	-3789
hor	-3790
▁{0}	-3791
ored	-3792
teri	-3793
Output	-3794
year	-3795
SD	-3796
▁FOR	-3797
37\	-3798
▁STC	-3799
STR	-3800
▁'#	-3801
fra	-3802
▁])	-3803
imer	-3804
rece	-3805
trize	-3806
▁sm	-3807
▁site	-3808
DIR	-3809
OK	-3810
▁constants	-3811
basic	-3812
wall	-3813
atom	-3814
ish	-3815
Style	-3816
cheduler	-3817
▁box	-3818
▁axes	-3819
BUT	-3820
Fact	-3821
GR	-3822
Na	-3823
Tests	-3824
Control	-3825
rot	-3826
ABILITY	-3827
jobs	-3828
(0.	-3829
Contain	-3830
owner	-3831
peed	-3832
DESCRIPTOR	-3833
''	-3834
gorical	-3835
ocker	-3836
69\	-3837
amma	-3838
flags	-3839
aries	-3840
SET	-3841
▁indices	-3842
ness	-3843
virtual	-3844
[2]	-3845
▁google	-3846
▁even	-3847
uring	-3848
ignore	-3849
ause	-3850
IZE	-3851
()))	-3852
:%	-3853
▁associated	-3854
cr	-3855
fast	-3856
▁Config	-3857
parametrize	-3858
▁volume	-3859
▁running	-3860
dle	-3861
Configuration	-3862
ually	-3863
▁pylint	-3864
1),	-3865
▁queue	-3866
liter	-3867
blob	-3868
▁Use	-3869
▁clean	-3870
▁images	-3871
fd	-3872
▁Up	-3873
▁button	-3874
▁metric	-3875
prob	-3876
payload	-3877
SER	-3878
Mode	-3879
trie	-3880
SION	-3881
▁await	-3882
times	-3883
erature	-3884
Scal	-3885
cert	-3886
vr	-3887
▁section	-3888
drop	-3889
SQL	-3890
licit	-3891
▁environment	-3892
rency	-3893
encoding	-3894
▁15	-3895
▁mer	-3896
▁since	-3897
missing	-3898
▁(0,	-3899
variables	-3900
Ne	-3901
``,	-3902
ighb	-3903
cheme	-3904
identifier	-3905
where	-3906
76	-3907
remote	-3908
▁Out	-3909
▁Pre	-3910
Of	-3911
▁Or	-3912
eeded	-3913
▁Index	-3914
BA	-3915
single	-3916
▁AND	-3917
roy	-3918
tasks	-3919
bucket	-3920
[~	-3921
ialog	-3922
▁sig	-3923
▁filters	-3924
ral	-3925
▁-0.	-3926
▁Required	-3927
73\	-3928
windows	-3929
lip	-3930
▁within	-3931
binary	-3932
▁ignored	-3933
><	-3934
ridge	-3935
.',	-3936
dia	-3937
oid	-3938
deleted	-3939
(-	-3940
(["	-3941
vid	-3942
antity	-3943
▁vm	-3944
summary	-3945
optional	-3946
Function	-3947
urity	-3948
unicode	-3949
▁"-	-3950
LL	-3951
▁report	-3952
download	-3953
INE	-3954
Sizer	-3955
▁vector	-3956
Rect	-3957
▁tab	-3958
predict	-3959
(2,	-3960
calls	-3961
▁final	-3962
repo	-3963
▁Me	-3964
"]["	-3965
derer	-3966
ender	-3967
▁otherwise	-3968
▁Microsoft	-3969
▁being	-3970
sn	-3971
▁CO	-3972
/%	-3973
lu	-3974
platform	-3975
lished	-3976
simple	-3977
▁Sh	-3978
▁late	-3979
__':	-3980
mas	-3981
▁nullable	-3982
POS	-3983
_3	-3984
Int	-3985
gt	-3986
uded	-3987
Position	-3988
-0	-3989
▁terms	-3990
Gateway	-3991
gories	-3992
Ref	-3993
84	-3994
7.	-3995
▁#!	-3996
Python	-3997
tn	-3998
proxy	-3999
IR	-4000
▁{}".	-4001
▁allowed	-4002
pd	-4003
POST	-4004
ower	-4005
ategy	-4006
ordinate	-4007
ferences	-4008
Variable	-4009
[1].	-4010
Month	-4011
Ag	-4012
cm	-4013
▁distance	-4014
([1,	-4015
ories	-4016
89	-4017
updated	-4018
aaaaaaaa	-4019
sequence	-4020
▁Any	-4021
-4	-4022
▁expect	-4023
2]	-4024
▁apply	-4025
modified	-4026
▁prob	-4027
dimen	-4028
cf	-4029
▁HTML	-4030
▁every	-4031
}}	-4032
▁username	-4033
Def	-4034
.*	-4035
bi	-4036
▁widget	-4037
+00,	-4038
dimension	-4039
js	-4040
▁Window	-4041
cision	-4042
▁mon	-4043
bove	-4044
Act	-4045
▁training	-4046
Module	-4047
raise	-4048
1234	-4049
SH	-4050
vector	-4051
Range	-4052
▁samples	-4053
stderr	-4054
(201	-4055
▁previous	-4056
PC	-4057
tol	-4058
▁JSON	-4059
▁DB	-4060
ulation	-4061
▁kind	-4062
elements	-4063
▁KeyError	-4064
▁through	-4065
requests	-4066
oto	-4067
▁scope	-4068
quested	-4069
ases	-4070
relation	-4071
▁rect	-4072
gative	-4073
ircu	-4074
arm	-4075
▁hand	-4076
▁free	-4077
activ	-4078
)])	-4079
-%	-4080
sparse	-4081
UE	-4082
tty	-4083
amily	-4084
▁$	-4085
imizer	-4086
63\	-4087
▁their	-4088
external	-4089
31	-4090
dio	-4091
▁verify	-4092
aging	-4093
▁series	-4094
▁",	-4095
▁primary	-4096
79	-4097
61\	-4098
faces	-4099
▁((	-4100
short	-4101
00000000	-4102
plugins	-4103
"\	-4104
Route	-4105
Width	-4106
lear	-4107
igned	-4108
resp	-4109
por	-4110
edges	-4111
▁))	-4112
protocol	-4113
ru	-4114
▁zero	-4115
Address	-4116
vec	-4117
▁possible	-4118
▁above	-4119
loop	-4120
▁estim	-4121
Menu	-4122
flag	-4123
requency	-4124
▁keyword	-4125
controls	-4126
Char	-4127
ibility	-4128
ASS	-4129
▁binary	-4130
Max	-4131
▁0),	-4132
road	-4133
PER	-4134
=3	-4135
rm	-4136
agement	-4137
acity	-4138
render	-4139
▁bound	-4140
****************	-4141
mig	-4142
PR	-4143
PRE	-4144
▁modify	-4145
80	-4146
01\	-4147
ota	-4148
=["	-4149
lation	-4150
▁arr	-4151
DATA	-4152
predi	-4153
ely	-4154
hentication	-4155
hs	-4156
aved	-4157
utable	-4158
memory	-4159
▁changes	-4160
Min	-4161
tor	-4162
▁paths	-4163
flat	-4164
distribution	-4165
ynamic	-4166
▁ImportError	-4167
rain	-4168
mac	-4169
('\	-4170
▁maximum	-4171
▁flags	-4172
Tag	-4173
▁Date	-4174
▁rendered	-4175
)"	-4176
▁1]	-4177
iso	-4178
▁join	-4179
COMM	-4180
▁operator	-4181
Descri	-4182
6_	-4183
tack	-4184
▁"#	-4185
ynch	-4186
NS	-4187
details	-4188
▁20	-4189
utc	-4190
▁word	-4191
alancer	-4192
▁ts	-4193
▁2],	-4194
▁extensions	-4195
fixed	-4196
▁Found	-4197
istent	-4198
▁cannot	-4199
utation	-4200
Ht	-4201
▁protocol	-4202
▁public	-4203
regex	-4204
addr	-4205
band	-4206
▁useful	-4207
▁Qu	-4208
▁track	-4209
second	-4210
xff	-4211
Plugin	-4212
aged	-4213
mk	-4214
cel	-4215
chanis	-4216
▁mapping	-4217
▁collections	-4218
unct	-4219
added	-4220
Bitmap	-4221
▁git	-4222
fname	-4223
lers	-4224
72\	-4225
▁"{	-4226
available	-4227
Application	-4228
Sum	-4229
64\	-4230
ACT	-4231
▁Example	-4232
segment	-4233
Dialog	-4234
▁sci	-4235
Bind	-4236
mx	-4237
9.	-4238
blem	-4239
▁email	-4240
yaml	-4241
▁admin	-4242
archive	-4243
clear	-4244
▁register	-4245
▁math	-4246
changed	-4247
havior	-4248
omatic	-4249
loader	-4250
ef	-4251
▁card	-4252
inst	-4253
"]:	-4254
layout	-4255
▁remote	-4256
System	-4257
▁present	-4258
WS	-4259
▁static	-4260
loaded	-4261
ural	-4262
evalu	-4263
▁cap	-4264
▁gen	-4265
▁annot	-4266
TypeError	-4267
__.	-4268
allen	-4269
pred	-4270
▁timestamp	-4271
after	-4272
▁{},	-4273
▁[(	-4274
▁person	-4275
▁integ	-4276
isode	-4277
▁foo	-4278
enum	-4279
radient	-4280
▁pixel	-4281
urface	-4282
minimum	-4283
ONE	-4284
salt	-4285
cb	-4286
▁cat	-4287
iler	-4288
Change	-4289
ouse	-4290
NOT	-4291
usage	-4292
ocab	-4293
▁wait	-4294
false	-4295
▁internal	-4296
Be	-4297
▁Temp	-4298
apter	-4299
▁later	-4300
ERROR	-4301
contrib	-4302
▁norm	-4303
rb	-4304
▁Open	-4305
uting	-4306
upper	-4307
▁Trans	-4308
Parameter	-4309
estim	-4310
▁such	-4311
0,0,0,0,	-4312
png	-4313
untimeError	-4314
▁hy	-4315
gments	-4316
Load	-4317
(10	-4318
▁provider	-4319
▁structure	-4320
▁tor	-4321
▁seconds	-4322
Ax	-4323
▁download	-4324
gb	-4325
inf	-4326
▁connect	-4327
gdi	-4328
VERSION	-4329
1'	-4330
extract	-4331
Returns	-4332
formed	-4333
▁conver	-4334
++	-4335
cons	-4336
coords	-4337
epoch	-4338
draw	-4339
components	-4340
▁setting	-4341
Opt	-4342
Properties	-4343
▁score	-4344
Params	-4345
verbose	-4346
history	-4347
outputs	-4348
▁Spec	-4349
Pri	-4350
Operations	-4351
sity	-4352
pg	-4353
ited	-4354
mun	-4355
65	-4356
▁im	-4357
▁Cor	-4358
▁chunk	-4359
Virtual	-4360
Custom	-4361
ws	-4362
▁#!/	-4363
CP	-4364
ula	-4365
▁Valid	-4366
▁When	-4367
Block	-4368
▁look	-4369
▁Mo	-4370
services	-4371
UD	-4372
resses	-4373
okie	-4374
▁additional	-4375
sep	-4376
▁flask	-4377
double	-4378
abspath	-4379
2\2\	-4380
▁buf	-4381
entries	-4382
Pool	-4383
price	-4384
allenge	-4385
person	-4386
▁folder	-4387
ather	-4388
ynchron	-4389
mach	-4390
PORT	-4391
Len	-4392
terable	-4393
sphinx	-4394
lio	-4395
▁0.000000	-4396
worker	-4397
▁conv	-4398
▁separ	-4399
▁bar	-4400
uint	-4401
▁_("	-4402
▁standard	-4403
ites	-4404
structure	-4405
▁AttributeError	-4406
▁done	-4407
70\	-4408
()),	-4409
▁close	-4410
▁simple	-4411
1.0,	-4412
▁matplotlib	-4413
10,	-4414
depth	-4415
tended	-4416
▁would	-4417
▁menu	-4418
00)	-4419
GHT	-4420
hcp	-4421
▁_,	-4422
2.0	-4423
tection	-4424
Selection	-4425
74	-4426
const	-4427
Provider	-4428
UTH	-4429
▁defaults	-4430
▁reason	-4431
Bo	-4432
retry	-4433
MENT	-4434
▁note	-4435
▁Path	-4436
FORM	-4437
Delete	-4438
cv	-4439
=10,	-4440
versions	-4441
)).	-4442
▁Sub	-4443
▁units	-4444
▁side	-4445
New	-4446
▁"__	-4447
eff	-4448
Entry	-4449
functions	-4450
/>	-4451
▁[])	-4452
users	-4453
sorted	-4454
PUT	-4455
=5	-4456
hex	-4457
▁25	-4458
MD	-4459
ni	-4460
▁tz	-4461
mu	-4462
Child	-4463
messages	-4464
hes	-4465
eval	-4466
▁resources	-4467
helper	-4468
Factory	-4469
▁Azure	-4470
Art	-4471
delay	-4472
▁uses	-4473
2),	-4474
pdf	-4475
'})	-4476
zz	-4477
('-	-4478
▁again	-4479
deg	-4480
▁He	-4481
0]	-4482
▁disk	-4483
Store	-4484
▁trace	-4485
94	-4486
cpu	-4487
▁our	-4488
▁perform	-4489
▁ndarray	-4490
▁high	-4491
plan	-4492
▁what	-4493
2017	-4494
:`~	-4495
Float	-4496
menu	-4497
▁stdout	-4498
revision	-4499
virt	-4500
▁loss	-4501
']))	-4502
▁slice	-4503
mes	-4504
]):	-4505
pendency	-4506
Cl	-4507
▁cpp	-4508
▁platform	-4509
unks	-4510
meth	-4511
coded	-4512
▁evalu	-4513
Failed	-4514
FIG	-4515
fp	-4516
Job	-4517
▁exceptions	-4518
ables	-4519
ilities	-4520
2-	-4521
▁groups	-4522
ale	-4523
XML	-4524
▁prop	-4525
Dir	-4526
Net	-4527
=2)	-4528
▁ensure	-4529
▁Foundation	-4530
setter	-4531
▁received	-4532
boot	-4533
verify	-4534
▁memory	-4535
~~~~	-4536
azy	-4537
▁ang	-4538
▁sqlalchemy	-4539
▁cause	-4540
.0,	-4541
Draw	-4542
▁attrs	-4543
▁ast	-4544
2/	-4545
reader	-4546
Top	-4547
chanism	-4548
require	-4549
▁expression	-4550
Level	-4551
('_	-4552
▁active	-4553
cii	-4554
just	-4555
sr	-4556
OUT	-4557
enable	-4558
▁FIT	-4559
final	-4560
▁extract	-4561
▁Uni	-4562
subscriptionId	-4563
3:	-4564
▁populated	-4565
sleep	-4566
counts	-4567
▁reverse	-4568
snapshot	-4569
uous	-4570
ACE	-4571
')),	-4572
integer	-4573
servation	-4574
ATIN	-4575
DR	-4576
istered	-4577
SV	-4578
processing	-4579
ICE	-4580
({"	-4581
▁Make	-4582
▁OS	-4583
▁14	-4584
If	-4585
dm	-4586
▁always	-4587
▁selected	-4588
▁entries	-4589
▁finally	-4590
AX	-4591
FieldDescriptor	-4592
UID	-4593
▁fn	-4594
▁compat	-4595
▁outputs	-4596
▁Examples	-4597
oreign	-4598
▁bl	-4599
▁opts	-4600
Layer	-4601
uce	-4602
Session	-4603
codes	-4604
chunk	-4605
home	-4606
▁"",	-4607
Template	-4608
▁needs	-4609
0),	-4610
dic	-4611
oth	-4612
Exp	-4613
▁EX	-4614
Almost	-4615
sci	-4616
tokens	-4617
rich	-4618
keh	-4619
▁Ar	-4620
▁3],	-4621
▁0.,	-4622
▁2),	-4623
upload	-4624
Parameters	-4625
HER	-4626
AlmostEqual	-4627
orary	-4628
▁util	-4629
▁org	-4630
GB	-4631
Document	-4632
▁8,	-4633
issue	-4634
▁segment	-4635
▁nova	-4636
ished	-4637
rong	-4638
▁Bu	-4639
power	-4640
▁(2,	-4641
alias	-4642
andid	-4643
ming	-4644
aws	-4645
support	-4646
▁Th	-4647
[0,	-4648
▁delta	-4649
Gui	-4650
▁Inter	-4651
▁Ac	-4652
▁PRO	-4653
tence	-4654
▁times	-4655
▁padding	-4656
▁security	-4657
hand	-4658
ND	-4659
ORS	-4660
ilar	-4661
utor	-4662
▁division	-4663
props	-4664
environment	-4665
▁mu	-4666
generator	-4667
▁arrays	-4668
__()	-4669
__.__	-4670
▁RE	-4671
▁engine	-4672
Storage	-4673
("/	-4674
Search	-4675
▁lat	-4676
ving	-4677
MIN	-4678
ircuit	-4679
▁dep	-4680
32,	-4681
pix	-4682
▁LATIN	-4683
▁Dict	-4684
▁Whether	-4685
FL	-4686
identity	-4687
▁io	-4688
AAAAAAAA	-4689
▁Value	-4690
Api	-4691
nx	-4692
ateri	-4693
ployment	-4694
▁library	-4695
85	-4696
undle	-4697
SO	-4698
▁ids	-4699
ti	-4700
Sy	-4701
fire	-4702
▁stats	-4703
_4	-4704
auss	-4705
']),	-4706
lb	-4707
▁messages	-4708
pad	-4709
▁short	-4710
:\	-4711
workflow	-4712
_{	-4713
threshold	-4714
▁loop	-4715
Core	-4716
pted	-4717
-0.	-4718
cos	-4719
efficient	-4720
▁corresponding	-4721
▁ds	-4722
▁way	-4723
pat	-4724
sqrt	-4725
warnings	-4726
-01-01	-4727
▁Le	-4728
area	-4729
LECT	-4730
▁require	-4731
raction	-4732
unch	-4733
▁subject	-4734
reen	-4735
▁NO	-4736
101	-4737
1')	-4738
shared	-4739
▁Input	-4740
▁subprocess	-4741
ons	-4742
defaults	-4743
literals	-4744
expect	-4745
floating	-4746
▁operations	-4747
▁needed	-4748
urls	-4749
0_	-4750
Row	-4751
▁aggreg	-4752
trained	-4753
▁Node	-4754
▁could	-4755
▁AR	-4756
Use	-4757
ao	-4758
JECT	-4759
▁Ad	-4760
Exec	-4761
signal	-4762
▁manager	-4763
pendent	-4764
>'	-4765
1(	-4766
merge	-4767
obs	-4768
Color	-4769
'][	-4770
amo	-4771
phys	-4772
month	-4773
Names	-4774
1-	-4775
tected	-4776
▁Auth	-4777
▁debug	-4778
jor	-4779
sync	-4780
▁kw	-4781
diag	-4782
lookup	-4783
18\	-4784
assertIsInstance	-4785
fun	-4786
[0]['	-4787
▁tenant	-4788
▁best	-4789
ancel	-4790
:]	-4791
TRI	-4792
panel	-4793
private	-4794
`")	-4795
▁EV	-4796
Attr	-4797
Location	-4798
Metadata	-4799
mitted	-4800
ueue	-4801
▁conditions	-4802
▁MIT	-4803
See	-4804
lier	-4805
▁validation	-4806
scriptions	-4807
▁seed	-4808
bed	-4809
▁LIC	-4810
Types	-4811
▁boolean	-4812
▁Loc	-4813
▁Dis	-4814
django	-4815
▁diff	-4816
rides	-4817
(5	-4818
LOG	-4819
▁By	-4820
▁tick	-4821
roadcast	-4822
32)	-4823
vlan	-4824
-1]	-4825
▁wrap	-4826
MAX	-4827
rence	-4828
extensions	-4829
▁radi	-4830
▁role	-4831
original	-4832
▁flow	-4833
ano	-4834
And	-4835
▁false	-4836
complex	-4837
Bin	-4838
▁behavior	-4839
▁enabled	-4840
dence	-4841
dx	-4842
▁means	-4843
forms	-4844
crypt	-4845
BE	-4846
COL	-4847
▁ste	-4848
shift	-4849
css	-4850
CI	-4851
expand	-4852
Options	-4853
DA	-4854
CR	-4855
▁mp	-4856
CONF	-4857
licies	-4858
▁fixed	-4859
SIZE	-4860
ratio	-4861
▁matches	-4862
▁seq	-4863
Enum	-4864
▁contents	-4865
▁SO	-4866
▁via	-4867
▁symbol	-4868
Proxy	-4869
exist	-4870
▁deri	-4871
▁instances	-4872
ULAR	-4873
▁4.	-4874
peat	-4875
rank	-4876
serve	-4877
▁LICENSE	-4878
▁repr	-4879
async	-4880
MET	-4881
▁Met	-4882
▁metrics	-4883
▁requires	-4884
12\	-4885
amount	-4886
hn	-4887
records	-4888
asset	-4889
targets	-4890
3",	-4891
tems	-4892
Link	-4893
▁Table	-4894
proc	-4895
lite	-4896
▁category	-4897
variance	-4898
▁callable	-4899
()]	-4900
PG	-4901
></	-4902
▁cons	-4903
▁0]	-4904
▁accept	-4905
reater	-4906
▁representation	-4907
devices	-4908
_)	-4909
()):	-4910
▁PART	-4911
pkg	-4912
colors	-4913
two	-4914
▁Update	-4915
RIGHT	-4916
curs	-4917
▁blob	-4918
▁registry	-4919
4',	-4920
duration	-4921
POSE	-4922
▁"_	-4923
▁pe	-4924
found	-4925
▁pad	-4926
▁sent	-4927
▁click	-4928
Part	-4929
-3	-4930
▁directly	-4931
▁lis	-4932
▁deleted	-4933
Ass	-4934
▁retrie	-4935
▁buffer	-4936
deredDict	-4937
forward	-4938
▁tokens	-4939
▁lower	-4940
67\	-4941
Select	-4942
CRE	-4943
▁atom	-4944
▁center	-4945
scalar	-4946
endswith	-4947
*.	-4948
▁definition	-4949
ends	-4950
NESS	-4951
▁external	-4952
▁removed	-4953
▁rules	-4954
buil	-4955
Security	-4956
▁release	-4957
▁enable	-4958
▁scalar	-4959
MB	-4960
ia	-4961
▁retry	-4962
yg	-4963
topic	-4964
▁children	-4965
pages	-4966
Ali	-4967
subject	-4968
pture	-4969
IST	-4970
▁exit	-4971
Ab	-4972
▁MER	-4973
(3	-4974
alance	-4975
vim	-4976
▁states	-4977
suffix	-4978
▁scipy	-4979
REQU	-4980
Ext	-4981
▁who	-4982
############	-4983
linear	-4984
attach	-4985
▁{}'.	-4986
SP	-4987
ailability	-4988
▁coordinates	-4989
▁Run	-4990
ga	-4991
▁Service	-4992
▁rate	-4993
▁RuntimeError	-4994
▁Language	-4995
▁direction	-4996
▁#:	-4997
packages	-4998
▁fp	-4999
ja	-5000
▁Possible	-5001
▁changed	-5002
▁PUR	-5003
▁activ	-5004
Ident	-5005
Accept	-5006
02\	-5007
90	-5008
lyph	-5009
▁).	-5010
Protocol	-5011
('%	-5012
=10	-5013
().__	-5014
CHANT	-5015
ascii	-5016
aggreg	-5017
256	-5018
eek	-5019
▁issue	-5020
TextCtrl	-5021
▁MERCHANT	-5022
.\	-5023
▁PURPOSE	-5024
urse	-5025
Dataset	-5026
binding	-5027
outer	-5028
ifiers	-5029
▁1))	-5030
=5,	-5031
artifact	-5032
▁FITNESS	-5033
▁Network	-5034
▁MERCHANTABILITY	-5035
Stream	-5036
ONT	-5037
▁hel	-5038
▁PARTIC	-5039
2019_	-5040
▁PARTICULAR	-5041
changes	-5042
93	-5043
▁relation	-5044
LIST	-5045
counter	-5046
ectors	-5047
basename	-5048
providers	-5049
anization	-5050
blank	-5051
Monthly	-5052
complete	-5053
▁reset	-5054
builder	-5055
requires	-5056
▁bad	-5057
,)	-5058
gl	-5059
▁ms	-5060
argin	-5061
▁shutil	-5062
istic	-5063
▁fetch	-5064
▁testing	-5065
▁another	-5066
GE	-5067
XXXXXXXX	-5068
before	-5069
holder	-5070
monitor	-5071
VI	-5072
NA	-5073
links	-5074
super	-5075
mult	-5076
inv	-5077
▁drop	-5078
DER	-5079
▁bind	-5080
ndim	-5081
parts	-5082
▁tr	-5083
nl	-5084
▁automatic	-5085
pace	-5086
cording	-5087
▁Ne	-5088
schedule	-5089
>\	-5090
▁'{}	-5091
Container	-5092
creen	-5093
bute	-5094
ampling	-5095
IX	-5096
2'	-5097
Panel	-5098
cmp	-5099
uding	-5100
77\	-5101
izont	-5102
▁Call	-5103
members	-5104
media	-5105
Extension	-5106
▁desc	-5107
kit	-5108
switch	-5109
▁indent	-5110
▁most	-5111
5_	-5112
10.	-5113
Settings	-5114
Tensor	-5115
▁stored	-5116
▁characters	-5117
▁SM	-5118
▁master	-5119
mar	-5120
ulate	-5121
▁decor	-5122
)',	-5123
ris	-5124
tt	-5125
12,	-5126
unknown	-5127
▁interval	-5128
Ph	-5129
aff	-5130
destination	-5131
▁socket	-5132
▁*,	-5133
networks	-5134
Interface	-5135
▁put	-5136
prepare	-5137
Ver	-5138
Mat	-5139
Summary	-5140
high	-5141
DU	-5142
▁colour	-5143
methods	-5144
▁(3,	-5145
▁Generator	-5146
Account	-5147
("%	-5148
cut	-5149
bc	-5150
▁	-5151
e	-5152
t	-5153
s	-5154
a	-5155
r	-5156
i	-5157
o	-5158
n	-5159
l	-5160
d	-5161
_	-5162
c	-5163
p	-5164
f	-5165
u	-5166
m	-5167
.	-5168
,	-5169
)	-5170
(	-5171
'	-5172
g	-5173
h	-5174
=	-5175
"	-5176
:	-5177
b	-5178
y	-5179
-	-5180
x	-5181
v	-5182
0	-5183
w	-5184
k	-5185
1	-5186
T	-5187
#	-5188
E	-5189
[	-5190
]	-5191
S	-5192
2	-5193
N	-5194
\	-5195
A	-5196
I	-5197
C	-5198
R	-5199
P	-5200
D	-5201
3	-5202
O	-5203
L	-5204
q	-5205
F	-5206
*	-5207
/	-5208
M	-5209
4	-5210
j	-5211
5	-5212
z	-5213
6	-5214
8	-5215
G	-5216
{	-5217
}	-5218
9	-5219
`	-5220
B	-5221
U	-5222
7	-5223
>	-5224
V	-5225
H	-5226
+	-5227
W	-5228
%	-5229
X	-5230
Y	-5231
K	-5232
<	-5233
@	-5234
Q	-5235
J	-5236
|	-5237
Z	-5238
;	-5239
!	-5240
~	-5241
?	-5242
$	-5243
&	-5244
^	-5245
é	-5246
о	-5247
е	-5248
и	-5249
а	-5250
н	-5251
的	-5252
т	-5253
р	-5254
с	-5255
α	-5256
в	-5257
ا	-5258
ο	-5259
л	-5260
ι	-5261
─	-5262
τ	-5263
ä	-5264
数	-5265
д	-5266
。	-5267
к	-5268
м	-5269
ν	-5270
ρ	-5271
ε	-5272
ن	-5273
п	-5274
ö	-5275
κ	-5276
у	-5277
م	-5278
σ	-5279
μ	-5280
ы	-5281
λ	-5282
’	-5283
为	-5284
い	-5285
я	-5286
ر	-5287
ü	-5288
г	-5289
з	-5290
う	-5291
ς	-5292
á	-5293
π	-5294
ش	-5295
一	-5296
用	-5297
ی	-5298
б	-5299
า	-5300
õ	-5301
不	-5302
ч	-5303
è	-5304
ت	-5305
═	-5306
د	-5307
ل	-5308
あ	-5309
个	-5310
و	-5311
น	-5312
ά	-5313
有	-5314
日	-5315
是	-5316
ร	-5317
à	-5318
ό	-5319
š	-5320
中	-5321
成	-5322
文	-5323
ه	-5324
ь	-5325
х	-5326
ω	-5327
据	-5328
え	-5329
对	-5330
出	-5331
时	-5332
й	-5333
件	-5334
υ	-5335
取	-5336
ب	-5337
ก	-5338
值	-5339
्	-5340
行	-5341
ç	-5342
–	-5343
γ	-5344
ί	-5345
ó	-5346
可	-5347
η	-5348
δ	-5349
ा	-5350
س	-5351
í	-5352
‘	-5353
”	-5354
ã	-5355
参	-5356
在	-5357
“	-5358
ô	-5359
│	-5360
回	-5361
入	-5362
分	-5363
名	-5364
χ	-5365
ั	-5366
φ	-5367
象	-5368
表	-5369
ð	-5370
大	-5371
动	-5372
ê	-5373
อ	-5374
式	-5375
到	-5376
定	-5377
子	-5378
เ	-5379
果	-5380
码	-5381
่	-5382
化	-5383
字	-5384
类	-5385
要	-5386
最	-5387
้	-5388
°	-5389
ي	-5390
上	-5391
ง	-5392
标	-5393
置	-5394
进	-5395
έ	-5396
人	-5397
下	-5398
输	-5399
त	-5400
股	-5401
算	-5402
、	-5403
்	-5404
ม	-5405
计	-5406
获	-5407
息	-5408
の	-5409
以	-5410
ย	-5411
ú	-5412
查	-5413
β	-5414
和	-5415
结	-5416
接	-5417
期	-5418
本	-5419
信	-5420
返	-5421
量	-5422
目	-5423
ή	-5424
©	-5425
新	-5426
ว	-5427
ต	-5428
ส	-5429
█	-5430
П	-5431
म	-5432
ท	-5433
请	-5434
代	-5435
于	-5436
य	-5437
群	-5438
法	-5439
应	-5440
发	-5441
如	-5442
票	-5443
图	-5444
点	-5445
单	-5446
得	-5447
因	-5448
所	-5449
列	-5450
指	-5451
开	-5452
方	-5453
æ	-5454
ж	-5455
ә	-5456
ع	-5457
多	-5458
间	-5459
生	-5460
â	-5461
前	-5462
存	-5463
ш	-5464
理	-5465
ύ	-5466
ц	-5467
体	-5468
บ	-5469
函	-5470
后	-5471
自	-5472
解	-5473
价	-5474
种	-5475
া	-5476
平	-5477
公	-5478
å	-5479
天	-5480
始	-5481
®	-5482
θ	-5483
程	-5484
す	-5485
ิ	-5486
元	-5487
خ	-5488
过	-5489
ā	-5490
模	-5491
则	-5492
认	-5493
之	-5494
实	-5495
求	-5496
变	-5497
を	-5498
设	-5499
स	-5500
し	-5501
ด	-5502
ح	-5503
ю	-5504
能	-5505
ج	-5506
询	-5507
小	-5508
ک	-5509
号	-5510
例	-5511
न	-5512
ี	-5513
否	-5514
事	-5515
卦	-5516
情	-5517
ف	-5518
作	-5519
ı	-5520
加	-5521
重	-5522
├	-5523
利	-5524
户	-5525
ห	-5526
配	-5527
收	-5528
家	-5529
型	-5530
这	-5531
交	-5532
—	-5533
录	-5534
ン	-5535
ー	-5536
ώ	-5537
พ	-5538
地	-5539
必	-5540
示	-5541
选	-5542
ล	-5543
र	-5544
合	-5545
当	-5546
ë	-5547
使	-5548
内	-5549
通	-5550
े	-5551
商	-5552
度	-5553
ค	-5554
क	-5555
会	-5556
失	-5557
č	-5558
ز	-5559
考	-5560
ζ	-5561
จ	-5562
现	-5563
þ	-5564
性	-5565
默	-5566
格	-5567
ø	-5568
调	-5569
る	-5570
ि	-5571
ป	-5572
ে	-5573
务	-5574
路	-5575
处	-5576
需	-5577
该	-5578
ق	-5579
व	-5580
ト	-5581
َ	-5582
高	-5583
同	-5584
业	-5585
ñ	-5586
ะ	-5587
或	-5588
└	-5589
均	-5590
保	-5591
统	-5592
了	-5593
口	-5594
ī	-5595
র	-5596
包	-5597
消	-5598
お	-5599
除	-5600
关	-5601
次	-5602
ी	-5603
ு	-5604
此	-5605
ф	-5606
ك	-5607
者	-5608
ξ	-5609
器	-5610
支	-5611
来	-5612
ū	-5613
运	-5614
О	-5615
初	-5616
ž	-5617
策	-5618
▓	-5619
に	-5620
将	-5621
ř	-5622
É	-5623
试	-5624
і	-5625
đ	-5626
ß	-5627
其	-5628
意	-5629
机	-5630
ช	-5631
功	-5632
传	-5633
正	-5634
无	-5635
异	-5636
भ	-5637
组	-5638
щ	-5639
ク	-5640
Д	-5641
面	-5642
好	-5643
转	-5644
错	-5645
ː	-5646
注	-5647
并	-5648
空	-5649
持	-5650
测	-5651
更	-5652
资	-5653
ி	-5654
制	-5655
学	-5656
ह	-5657
比	-5658
移	-5659
盘	-5660
ま	-5661
序	-5662
里	-5663
金	-5664
国	-5665
基	-5666
位	-5667
区	-5668
证	-5669
த	-5670
か	-5671
我	-5672
决	-5673
板	-5674
详	-5675
线	-5676
相	-5677
ē	-5678
แ	-5679
二	-5680
گ	-5681
而	-5682
力	-5683
€	-5684
败	-5685
你	-5686
建	-5687
符	-5688
台	-5689
易	-5690
片	-5691
系	-5692
已	-5693
י	-5694
安	-5695
等	-5696
→	-5697
常	-5698
็	-5699
提	-5700
色	-5701
心	-5702
ं	-5703
ル	-5704
部	-5705
た	-5706
ি	-5707
க	-5708
态	-5709
属	-5710
改	-5711
ศ	-5712
で	-5713
▄	-5714
ไ	-5715
ו	-5716
ः	-5717
ப	-5718
完	-5719
称	-5720
向	-5721
与	-5722
节	-5723
误	-5724
ス	-5725
服	-5726
义	-5727
明	-5728
长	-5729
外	-5730
¡	-5731
ă	-5732
ą	-5733
市	-5734
只	-5735
状	-5736
î	-5737
‖	-5738
须	-5739
্	-5740
全	-5741
द	-5742
从	-5743
С	-5744
Р	-5745
付	-5746
»	-5747
三	-5748
题	-5749
ط	-5750
年	-5751
记	-5752
月	-5753
য	-5754
이	-5755
启	-5756
验	-5757
修	-5758
ন	-5759
连	-5760
备	-5761
未	-5762
ক	-5763
每	-5764
て	-5765
は	-5766
别	-5767
权	-5768
ض	-5769
创	-5770
ु	-5771
ம	-5772
条	-5773
ł	-5774
特	-5775
پ	-5776
池	-5777
经	-5778
非	-5779
ص	-5780
送	-5781
手	-5782
率	-5783
ć	-5784
根	-5785
操	-5786
第	-5787
ى	-5788
な	-5789
ï	-5790
问	-5791
复	-5792
没	-5793
Č	-5794
ư	-5795
容	-5796
载	-5797
打	-5798
执	-5799
ל	-5800
删	-5801
э	-5802
イ	-5803
主	-5804
«	-5805
库	-5806
登	-5807
다	-5808
止	-5809
矩	-5810
·	-5811
ो	-5812
ذ	-5813
页	-5814
ة	-5815
В	-5816
ত	-5817
键	-5818
А	-5819
段	-5820
タ	-5821
限	-5822
ุ	-5823
と	-5824
Т	-5825
就	-5826
装	-5827
被	-5828
但	-5829
志	-5830
仓	-5831
И	-5832
宜	-5833
چ	-5834
ј	-5835
阵	-5836
典	-5837
ব	-5838
界	-5839
断	-5840
き	-5841
流	-5842
أ	-5843
ื	-5844
が	-5845
简	-5846
径	-5847
━	-5848
ܐ	-5849
अ	-5850
先	-5851
束	-5852
ロ	-5853
原	-5854
プ	-5855
他	-5856
微	-5857
ْ	-5858
及	-5859
प	-5860
赋	-5861
์	-5862
也	-5863
换	-5864
Ö	-5865
待	-5866
含	-5867
ý	-5868
写	-5869
ث	-5870
ன	-5871
染	-5872
ณ	-5873
物	-5874
略	-5875
产	-5876
任	-5877
步	-5878
索	-5879
ํ	-5880
れ	-5881
即	-5882
ų	-5883
优	-5884
Н	-5885
く	-5886
工	-5887
像	-5888
去	-5889
语	-5890
ě	-5891
维	-5892
さ	-5893
见	-5894
额	-5895
形	-5896
ட	-5897
插	-5898
ِ	-5899
ہ	-5900
ה	-5901
放	-5902
ா	-5903
▒	-5904
ң	-5905
网	-5906
北	-5907
员	-5908
ُ	-5909
密	-5910
析	-5911
ู	-5912
构	-5913
总	-5914
若	-5915
×	-5916
ジ	-5917
周	-5918
א	-5919
ใ	-5920
ế	-5921
́	-5922
ल	-5923
反	-5924
吉	-5925
Α	-5926
ù	-5927
布	-5928
ข	-5929
两	-5930
择	-5931
确	-5932
说	-5933
述	-5934
端	-5935
编	-5936
아	-5937
ì	-5938
头	-5939
整	-5940
어	-5941
画	-5942
ল	-5943
Ω	-5944
域	-5945
给	-5946
ż	-5947
ئ	-5948
フ	-5949
串	-5950
准	-5951
ɛ	-5952
然	-5953
源	-5954
가	-5955
ச	-5956
话	-5957
都	-5958
ア	-5959
找	-5960
直	-5961
ர	-5962
ッ	-5963
检	-5964
命	-5965
址	-5966
描	-5967
管	-5968
К	-5969
约	-5970
顺	-5971
′	-5972
款	-5973
起	-5974
Е	-5975
增	-5976
订	-5977
Ü	-5978
素	-5979
ェ	-5980
块	-5981
ψ	-5982
ல	-5983
ş	-5984
バ	-5985
‐	-5986
ผ	-5987
难	-5988
メ	-5989
添	-5990
ō	-5991
ম	-5992
集	-5993
ے	-5994
效	-5995
詞	-5996
道	-5997
வ	-5998
山	-5999
视	-6000
超	-6001
Á	-6002
ए	-6003
低	-6004
助	-6005
令	-6006
净	-6007
œ	-6008
各	-6009
水	-6010
¿	-6011
Å	-6012
়	-6013
场	-6014
防	-6015
知	-6016
ת	-6017
匹	-6018
填	-6019
立	-6020
续	-6021
โ	-6022
由	-6023
غ	-6024
ษ	-6025
品	-6026
ś	-6027
广	-6028
్	-6029
版	-6030
آ	-6031
ấ	-6032
コ	-6033
账	-6034
ज	-6035
ष	-6036
样	-6037
身	-6038
释	-6039
卡	-6040
教	-6041
ّ	-6042
读	-6043
少	-6044
项	-6045
看	-6046
征	-6047
识	-6048
词	-6049
ธ	-6050
己	-6051
益	-6052
ు	-6053
女	-6054
险	-6055
风	-6056
স	-6057
西	-6058
边	-6059
일	-6060
ė	-6061
Σ	-6062
−	-6063
势	-6064
华	-6065
差	-6066
父	-6067
û	-6068
再	-6069
想	-6070
还	-6071
Ä	-6072
Δ	-6073
控	-6074
ę	-6075
ん	-6076
テ	-6077
核	-6078
ग	-6079
省	-6080
级	-6081
하	-6082
ภ	-6083
随	-6084
ğ	-6085
切	-6086
报	-6087
按	-6088
Ó	-6089
且	-6090
损	-6091
课	-6092
京	-6093
具	-6094
ھ	-6095
Ι	-6096
ら	-6097
引	-6098
强	-6099
么	-6100
规	-6101
言	-6102
门	-6103
Ε	-6104
众	-6105
מ	-6106
联	-6107
규	-6108
칙	-6109
М	-6110
ạ	-6111
ả	-6112
券	-6113
显	-6114
ש	-6115
ய	-6116
⁄	-6117
达	-6118
那	-6119
链	-6120
シ	-6121
签	-6122
哪	-6123
搜	-6124
东	-6125
供	-6126
展	-6127
退	-6128
ɔ	-6129
停	-6130
采	-6131
些	-6132
च	-6133
ญ	-6134
判	-6135
营	-6136
况	-6137
离	-6138
费	-6139
ラ	-6140
ớ	-6141
卖	-6142
こ	-6143
导	-6144
章	-6145
시	-6146
ב	-6147
ึ	-6148
▀	-6149
♙	-6150
್	-6151
ⲟ	-6152
リ	-6153
秒	-6154
ள	-6155
ా	-6156
±	-6157
ू	-6158
句	-6159
适	-6160
자	-6161
り	-6162
ァ	-6163
做	-6164
继	-6165
邮	-6166
ъ	-6167
ற	-6168
║	-6169
很	-6170
快	-6171
致	-6172
불	-6173
Ć	-6174
時	-6175
┃	-6176
Ł	-6177
ŋ	-6178
З	-6179
把	-6180
足	-6181
̄	-6182
ి	-6183
ョ	-6184
ờ	-6185
街	-6186
造	-6187
ظ	-6188
ை	-6189
ถ	-6190
才	-6191
母	-6192
预	-6193
排	-6194
斯	-6195
绘	-6196
দ	-6197
ノ	-6198
海	-6199
白	-6200
音	-6201
스	-6202
サ	-6203
夹	-6204
ब	-6205
≤	-6206
지	-6207
ם	-6208
せ	-6209
何	-6210
清	-6211
হ	-6212
活	-6213
һ	-6214
ר	-6215
ố	-6216
历	-6217
细	-6218
》	-6219
四	-6220
档	-6221
累	-6222
角	-6223
世	-6224
ə	-6225
Л	-6226
ں	-6227
┐	-6228
ド	-6229
寻	-6230
デ	-6231
客	-6232
终	-6233
•	-6234
着	-6235
ṣ	-6236
み	-6237
オ	-6238
星	-6239
财	-6240
雷	-6241
♐	-6242
企	-6243
ү	-6244
ನ	-6245
买	-6246
绩	-6247
報	-6248
照	-6249
环	-6250
의	-6251
إ	-6252
ड	-6253
న	-6254
Б	-6255
《	-6256
も	-6257
储	-6258
君	-6259
조	-6260
ै	-6261
亞	-6262
候	-6263
双	-6264
،	-6265
।	-6266
告	-6267
ї	-6268
ण	-6269
প	-6270
阳	-6271
ブ	-6272
校	-6273
火	-6274
至	-6275
频	-6276
满	-6277
̪	-6278
ϊ	-6279
사	-6280
용	-6281
ò	-6282
ো	-6283
ந	-6284
ⲉ	-6285
极	-6286
️	-6287
आ	-6288
干	-6289
真	-6290
观	-6291
‒	-6292
万	-6293
南	-6294
带	-6295
病	-6296
£	-6297
ɪ	-6298
亏	-6299
叉	-6300
受	-6301
左	-6302
范	-6303
נ	-6304
今	-6305
层	-6306
종	-6307
ɑ	-6308
响	-6309
们	-6310
כ	-6311
✓	-6312
料	-6313
较	-6314
는	-6315
┌	-6316
라	-6317
卷	-6318
阅	-6319
ө	-6320
乐	-6321
仅	-6322
Κ	-6323
┘	-6324
跳	-6325
ậ	-6326
ケ	-6327
困	-6328
慎	-6329
江	-6330
ర	-6331
裡	-6332
ু	-6333
ๆ	-6334
老	-6335
速	-6336
ע	-6337
ἀ	-6338
饰	-6339
ầ	-6340
托	-6341
盈	-6342
科	-6343
荣	-6344
闭	-6345
Ú	-6346
州	-6347
掉	-6348
积	-6349
語	-6350
ș	-6351
滑	-6352
ฑ	-6353
け	-6354
マ	-6355
推	-6356
电	-6357
畫	-6358
़	-6359
ἐ	-6360
パ	-6361
击	-6362
气	-6363
Γ	-6364
Г	-6365
ܝ	-6366
湾	-6367
Î	-6368
ܪ	-6369
ಿ	-6370
局	-6371
§	-6372
ё	-6373
似	-6374
守	-6375
投	-6376
Π	-6377
対	-6378
ண	-6379
だ	-6380
ち	-6381
感	-6382
际	-6383
니	-6384
Ф	-6385
五	-6386
精	-6387
코	-6388
充	-6389
尼	-6390
श	-6391
爱	-6392
绝	-6393
书	-6394
Š	-6395
坐	-6396
德	-6397
資	-6398
ই	-6399
境	-6400
į	-6401
క	-6402
张	-6403
游	-6404
ừ	-6405
„	-6406
承	-6407
车	-6408
钟	-6409
Ś	-6410
つ	-6411
固	-6412
斗	-6413
映	-6414
っ	-6415
ダ	-6416
宽	-6417
留	-6418
変	-6419
神	-6420
இ	-6421
ಾ	-6422
右	-6423
吊	-6424
美	-6425
ܢ	-6426
জ	-6427
几	-6428
十	-6429
聊	-6430
데	-6431
Ż	-6432
ం	-6433
ⲧ	-6434
专	-6435
著	-6436
고	-6437
Ą	-6438
Ę	-6439
ழ	-6440
ි	-6441
ὸ	-6442
≥	-6443
克	-6444
啊	-6445
射	-6446
批	-6447
회	-6448
ʊ	-6449
У	-6450
ḥ	-6451
共	-6452
归	-6453
授	-6454
违	-6455
Ź	-6456
依	-6457
友	-6458
往	-6459
近	-6460
활	-6461
ट	-6462
╗	-6463
占	-6464
Ń	-6465
এ	-6466
覆	-6467
¦	-6468
ơ	-6469
ּ	-6470
ὴ	-6471
便	-6472
印	-6473
替	-6474
서	-6475
한	-6476
త	-6477
ದ	-6478
ể	-6479
喜	-6480
米	-6481
ϋ	-6482
ד	-6483
ট	-6484
ರ	-6485
截	-6486
普	-6487
般	-6488
评	-6489
그	-6490
ן	-6491
ὶ	-6492
余	-6493
红	-6494
许	-6495
首	-6496
︎	-6497
份	-6498
冲	-6499
某	-6500
수	-6501
오	-6502
Ψ	-6503
җ	-6504
ও	-6505
窗	-6506
站	-6507
虚	-6508
͡	-6509
அ	-6510
ⲛ	-6511
光	-6512
院	-6513
静	-6514
ő	-6515
इ	-6516
ῶ	-6517
唯	-6518
太	-6519
拉	-6520
є	-6521
勿	-6522
ً	-6523
थ	-6524
ల	-6525
ව	-6526
ᄇ	-6527
免	-6528
望	-6529
臺	-6530
載	-6531
주	-6532
̃	-6533
গ	-6534
ೆ	-6535
婚	-6536
马	-6537
¬	-6538
ು	-6539
覧	-6540
追	-6541
르	-6542
우	-6543
̣	-6544
ছ	-6545
ద	-6546
ệ	-6547
ⲩ	-6548
動	-6549
場	-6550
検	-6551
货	-6552
চ	-6553
∫	-6554
临	-6555
争	-6556
养	-6557
坚	-6558
缩	-6559
間	-6560
Μ	-6561
ϩ	-6562
ٌ	-6563
ⲙ	-6564
そ	-6565
六	-6566
围	-6567
泽	-6568
缺	-6569
负	-6570
闻	-6571
ג	-6572
レ	-6573
云	-6574
巴	-6575
师	-6576
独	-6577
ΐ	-6578
ề	-6579
ⲁ	-6580
借	-6581
英	-6582
込	-6583
로	-6584
ซ	-6585
┼	-6586
划	-6587
司	-6588
善	-6589
歌	-6590
菜	-6591
震	-6592
거	-6593
మ	-6594
ộ	-6595
ⲱ	-6596
よ	-6597
互	-6598
屏	-6599
育	-6600
队	-6601
터	-6602
め	-6603
エ	-6604
副	-6605
百	-6606
福	-6607
良	-6608
複	-6609
න	-6610
久	-6611
亚	-6612
泰	-6613
润	-6614
記	-6615
辞	-6616
ਾ	-6617
ತ	-6618
ᄒ	-6619
债	-6620
允	-6621
數	-6622
疾	-6623
突	-6624
访	-6625
诚	-6626
销	-6627
ಲ	-6628
ὲ	-6629
亂	-6630
循	-6631
急	-6632
您	-6633
暂	-6634
년	-6635
ů	-6636
ప	-6637
ฟ	-6638
ᄂ	-6639
ᄋ	-6640
ὰ	-6641
塞	-6642
隔	-6643
¥	-6644
Ž	-6645
থ	-6646
ষ	-6647
材	-6648
民	-6649
Â	-6650
Ø	-6651
उ	-6652
්	-6653
ὐ	-6654
」	-6655
绑	-6656
络	-6657
試	-6658
었	-6659
פ	-6660
ே	-6661
ṃ	-6662
ỏ	-6663
╝	-6664
グ	-6665
チ	-6666
缓	-6667
诸	-6668
À	-6669
̈	-6670
Τ	-6671
ứ	-6672
キ	-6673
凶	-6674
升	-6675
國	-6676
景	-6677
組	-6678
聞	-6679
钥	-6680
ܡ	-6681
ध	-6682
শ	-6683
හ	-6684
影	-6685
確	-6686
轴	-6687
ය	-6688
ợ	-6689
讼	-6690
遍	-6691
阻	-6692
আ	-6693
「	-6694
カ	-6695
ユ	-6696
儿	-6697
兑	-6698
割	-6699
坎	-6700
城	-6701
木	-6702
林	-6703
測	-6704
走	-6705
Ā	-6706
Đ	-6707
ʃ	-6708
ܬ	-6709
‚	-6710
刚	-6711
努	-6712
叠	-6713
士	-6714
散	-6715
曲	-6716
概	-6717
热	-6718
社	-6719
誤	-6720
나	-6721
파	-6722
ء	-6723
ắ	-6724
尚	-6725
箱	-6726
让	-6727
银	-6728
ļ	-6729
ű	-6730
ং	-6731
ự	-6732
・	-6733
巽	-6734
機	-6735
深	-6736
滤	-6737
申	-6738
递	-6739
목	-6740
👍	-6741
ἰ	-6742
┛	-6743
╚	-6744
半	-6745
压	-6746
厦	-6747
撤	-6748
欢	-6749
Β	-6750
ฉ	-6751
∆	-6752
ど	-6753
乾	-6754
折	-6755
案	-6756
治	-6757
盛	-6758
补	-6759
论	-6760
诉	-6761
̥	-6762
Я	-6763
ভ	-6764
ொ	-6765
ట	-6766
✗	-6767
封	-6768
短	-6769
艮	-6770
요	-6771
Ã	-6772
Θ	-6773
Φ	-6774
њ	-6775
ܠ	-6776
尽	-6777
灾	-6778
王	-6779
脚	-6780
谨	-6781
錯	-6782
ń	-6783
̆	-6784
ס	-6785
ị	-6786
┓	-6787
济	-6788
読	-6789
髮	-6790
ţ	-6791
Х	-6792
ח	-6793
ܚ	-6794
ூ	-6795
ා	-6796
ᄅ	-6797
危	-6798
抛	-6799
聚	-6800
轻	-6801
遇	-6802
Ç	-6803
ț	-6804
Ο	-6805
ெ	-6806
╔	-6807
ⲓ	-6808
住	-6809
声	-6810
它	-6811
食	-6812
ƒ	-6813
ΰ	-6814
ौ	-6815
ザ	-6816
亨	-6817
佳	-6818
册	-6819
坤	-6820
故	-6821
旧	-6822
波	-6823
附	-6824
리	-6825
에	-6826
Í	-6827
ọ	-6828
ồ	-6829
ἔ	-6830
↓	-6831
∈	-6832
┴	-6833
习	-6834
史	-6835
夜	-6836
苦	-6837
Ν	-6838
ಗ	-6839
┻	-6840
◼	-6841
ム	-6842
亲	-6843
假	-6844
吃	-6845
智	-6846
谦	-6847
避	-6848
래	-6849
ங	-6850
ナ	-6851
偏	-6852
東	-6853
渐	-6854
紐	-6855
辑	-6856
阴	-6857
구	-6858
ǣ	-6859
ɣ	-6860
ܒ	-6861
ख	-6862
ী	-6863
ಕ	-6864
ක	-6865
七	-6866
凡	-6867
千	-6868
午	-6869
议	-6870
远	-6871
러	-6872
ġ	-6873
ˀ	-6874
ँ	-6875
খ	-6876
八	-6877
姓	-6878
帮	-6879
書	-6880
胎	-6881
製	-6882
贷	-6883
기	-6884
대	-6885
동	-6886
을	-6887
ɐ	-6888
ћ	-6889
┬	-6890
削	-6891
査	-6892
男	-6893
青	-6894
頭	-6895
గ	-6896
ⲣ	-6897
ⲥ	-6898
奶	-6899
春	-6900
架	-6901
만	-6902
은	-6903
ź	-6904
ữ	-6905
≠	-6906
宅	-6907
店	-6908
應	-6909
担	-6910
框	-6911
薄	-6912
எ	-6913
∂	-6914
☕	-6915
ⲕ	-6916
個	-6917
吗	-6918
思	-6919
早	-6920
網	-6921
贵	-6922
锁	-6923
국	-6924
부	-6925
›	-6926
严	-6927
宋	-6928
恋	-6929
招	-6930
苏	-6931
质	-6932
았	-6933
ק	-6934
┏	-6935
┗	-6936
〔	-6937
〕	-6938
セ	-6939
委	-6940
後	-6941
拟	-6942
業	-6943
降	-6944
Æ	-6945
Λ	-6946
Ы	-6947
ն	-6948
ᄏ	-6949
≈	-6950
喵	-6951
珍	-6952
训	-6953
ܫ	-6954
డ	-6955
ฐ	-6956
♥	-6957
什	-6958
又	-6959
孕	-6960
扫	-6961
曰	-6962
標	-6963
破	-6964
織	-6965
ٹ	-6966
অ	-6967
ල	-6968
わ	-6969
仁	-6970
汇	-6971
約	-6972
虽	-6973
設	-6974
途	-6975
월	-6976
트	-6977
ט	-6978
ặ	-6979
ở	-6980
ῦ	-6981
【	-6982
ば	-6983
む	-6984
愿	-6985
房	-6986
缀	-6987
ܘ	-6988
ܥ	-6989
ฮ	-6990
宁	-6991
播	-6992
陆	-6993
麵	-6994
장	-6995
ז	-6996
ත	-6997
ฎ	-6998
ằ	-6999
ἶ	-7000
ピ	-7001
丂	-7002
傳	-7003
另	-7004
楼	-7005
浦	-7006
融	-7007
软	-7008
경	-7009
도	-7010
🍆	-7011
Υ	-7012
ੇ	-7013
ோ	-7014
┤	-7015
】	-7016
劳	-7017
宫	-7018
技	-7019
田	-7020
落	-7021
성	-7022
	-7023
̲	-7024
ϣ	-7025
ⲏ	-7026
じ	-7027
や	-7028
丁	-7029
丰	-7030
佩	-7031
実	-7032
私	-7033
耀	-7034
背	-7035
藏	-7036
Χ	-7037
Ч	-7038
ಯ	-7039
ἄ	-7040
居	-7041
無	-7042
狛	-7043
狜	-7044
纯	-7045
览	-7046
邵	-7047
를	-7048
미	-7049
ܩ	-7050
‹	-7051
兴	-7052
扩	-7053
盖	-7054
越	-7055
距	-7056
铭	-7057
電	-7058
颜	-7059
모	-7060
인	-7061
ŭ	-7062
̊	-7063
̓	-7064
ড	-7065
య	-7066
ර	-7067
ස	-7068
ᄉ	-7069
傅	-7070
儒	-7071
尝	-7072
括	-7073
稳	-7074
繁	-7075
荡	-7076
輸	-7077
雍	-7078
體	-7079
魅	-7080
피	-7081
𝅥	-7082
̞	-7083
צ	-7084
ܟ	-7085
ਹ	-7086
☺	-7087
尔	-7088
幹	-7089
怎	-7090
族	-7091
昨	-7092
讯	-7093
黑	-7094
齄	-7095
약	-7096
정	-7097
Э	-7098
ో	-7099
ᄊ	-7100
ῖ	-7101
○	-7102
审	-7103
尾	-7104
川	-7105
幸	-7106
殊	-7107
永	-7108
花	-7109
蓝	-7110
録	-7111
针	-7112
상	-7113
ť	-7114
फ	-7115
ਰ	-7116
ද	-7117
←	-7118
喝	-7119
室	-7120
尤	-7121
延	-7122
逻	-7123
達	-7124
龙	-7125
Ñ	-7126
ũ	-7127
ـ	-7128
ฯ	-7129
∑	-7130
☃	-7131
妄	-7132
岛	-7133
政	-7134
晴	-7135
松	-7136
耐	-7137
見	-7138
谷	-7139
題	-7140
세	-7141
🚀	-7142
ÿ	-7143
̅	-7144
ವ	-7145
∞	-7146
ィ	-7147
ャ	-7148
伦	-7149
币	-7150
戳	-7151
汉	-7152
监	-7153
禁	-7154
結	-7155
該	-7156
認	-7157
餡	-7158
ĩ	-7159
ɫ	-7160
ె	-7161
ᄃ	-7162
ᅡ	-7163
ủ	-7164
减	-7165
团	-7166
旋	-7167
ধ	-7168
ಡ	-7169
ṭ	-7170
ⲗ	-7171
ォ	-7172
伙	-7173
刻	-7174
哥	-7175
害	-7176
淮	-7177
牌	-7178
衝	-7179
開	-7180
😁	-7181
¢	-7182
̰	-7183
Ρ	-7184
ஆ	-7185
ම	-7186
ᄀ	-7187
Ἀ	-7188
∮	-7189
▌	-7190
❤	-7191
ツ	-7192
冒	-7193
够	-7194
奋	-7195
換	-7196
欲	-7197
毛	-7198
础	-7199
関	-7200
馬	-7201
락	-7202
마	-7203
매	-7204
ܕ	-7205
ृ	-7206
ಮ	-7207
ᾶ	-7208
ῆ	-7209
介	-7210
刷	-7211
媒	-7212
官	-7213
巨	-7214
忽	-7215
慢	-7216
旅	-7217
横	-7218
檔	-7219
為	-7220
班	-7221
發	-7222
蒙	-7223
贞	-7224
跌	-7225
领	-7226
랗	-7227
실	-7228
으	-7229
전	-7230
퍼	-7231
¶	-7232
ǝ	-7233
ʇ	-7234
̟	-7235
̼	-7236
͙	-7237
ᅥ	-7238
᛫	-7239
听	-7240
威	-7241
富	-7242
希	-7243
虫	-7244
請	-7245
阿	-7246
원	-7247
유	-7248
ǐ	-7249
举	-7250
哈	-7251
季	-7252
宝	-7253
戏	-7254
死	-7255
河	-7256
笑	-7257
练	-7258
赖	-7259
進	-7260
작	-7261
উ	-7262
ಂ	-7263
ა	-7264
►	-7265
亦	-7266
享	-7267
係	-7268
凭	-7269
协	-7270
售	-7271
惊	-7272
會	-7273
混	-7274
牛	-7275
球	-7276
蛋	-7277
보	-7278
­	-7279
Õ	-7280
Ь	-7281
љ	-7282
ך	-7283
ܦ	-7284
వ	-7285
ὅ	-7286
ὺ	-7287
╧	-7288
★	-7289
ウ	-7290
問	-7291
圆	-7292
塔	-7293
警	-7294
連	-7295
삼	-7296
😢	-7297
÷	-7298
̺	-7299
Η	-7300
స	-7301
ᅳ	-7302
ὁ	-7303
♈	-7304
♌	-7305
內	-7306
恒	-7307
敗	-7308
杰	-7309
柔	-7310
畅	-7311
計	-7312
逆	-7313
鬆	-7314
여	-7315
영	-7316
호	-7317
̬	-7318
చ	-7319
⇒	-7320
倍	-7321
兼	-7322
吴	-7323
念	-7324
滚	-7325
疑	-7326
症	-7327
納	-7328
胜	-7329
豪	-7330
锋	-7331
隻	-7332
문	-7333
학	-7334
	-7335
ǎ	-7336
ǫ	-7337
̳	-7338
ؤ	-7339
ਦ	-7340
ྷ	-7341
⃣	-7342
✔	-7343
乱	-7344
健	-7345
庆	-7346
底	-7347
庭	-7348
朋	-7349
树	-7350
浮	-7351
眼	-7352
終	-7353
耗	-7354
虑	-7355
衣	-7356
衰	-7357
跟	-7358
迟	-7359
공	-7360
Ê	-7361
Ò	-7362
Й	-7363
ი	-7364
ỉ	-7365
べ	-7366
ほ	-7367
座	-7368
欄	-7369
秋	-7370
血	-7371
車	-7372
陷	-7373
香	-7374
과	-7375
면	-7376
음	-7377
ħ	-7378
ͅ	-7379
ਕ	-7380
ే	-7381
ᚢ	-7382
吸	-7383
夫	-7384
帶	-7385
摘	-7386
瓦	-7387
番	-7388
祸	-7389
笔	-7390
筛	-7391
纵	-7392
迎	-7393
隐	-7394
먹	-7395
였	-7396
～	-7397
È	-7398
ņ	-7399
̝	-7400
ւ	-7401
छ	-7402
ਿ	-7403
ಠ	-7404
ễ	-7405
ụ	-7406
☠	-7407
乘	-7408
圖	-7409
弹	-7410
忌	-7411
挂	-7412
碼	-7413
谋	-7414
购	-7415
逐	-7416
長	-7417
雨	-7418
있	-7419
중	-7420
Ì	-7421
̘	-7422
̦	-7423
Ж	-7424
ᄆ	-7425
ổ	-7426
ỗ	-7427
▼	-7428
ゃ	-7429
冷	-7430
尋	-7431
弃	-7432
戻	-7433
拜	-7434
施	-7435
献	-7436
現	-7437
瓜	-7438
皆	-7439
聯	-7440
訊	-7441
鸡	-7442
울	-7443
푸	-7444
ȥ	-7445
͍	-7446
Ц	-7447
؟	-7448
ܛ	-7449
झ	-7450
ठ	-7451
ণ	-7452
ஓ	-7453
ἂ	-7454
ἅ	-7455
ὡ	-7456
乎	-7457
康	-7458
恶	-7459
护	-7460
温	-7461
演	-7462
激	-7463
灵	-7464
莫	-7465
蕩	-7466
變	-7467
費	-7468
遗	-7469
革	-7470
입	-7471
합	-7472
¤	-7473
Þ	-7474
Є	-7475
ੀ	-7476
ᅩ	-7477
ᅮ	-7478
ẽ	-7479
†	-7480
ニ	-7481
却	-7482
參	-7483
土	-7484
弱	-7485
忍	-7486
既	-7487
浏	-7488
纠	-7489
軸	-7490
钱	-7491
개	-7492
까	-7493
너	-7494
ڑ	-7495
ਂ	-7496
ై	-7497
ា	-7498
ὑ	-7499
⿱	-7500
ご	-7501
ペ	-7502
仕	-7503
區	-7504
卜	-7505
孩	-7506
帕	-7507
术	-7508
涨	-7509
異	-7510
維	-7511
综	-7512
郁	-7513
예	-7514
좋	-7515
할	-7516
ċ	-7517
ľ	-7518
ˈ	-7519
̇	-7520
̠	-7521
̻	-7522
घ	-7523
ಳ	-7524
ẹ	-7525
▐	-7526
彩	-7527
毕	-7528
灰	-7529
甚	-7530
碍	-7531
草	-7532
谈	-7533
阶	-7534
風	-7535
명	-7536
탈	-7537
화	-7538
🧙	-7539
ƿ	-7540
ȳ	-7541
͇	-7542
ϫ	-7543
Ш	-7544
ٰ	-7545
ஒ	-7546
భ	-7547
↑	-7548
ガ	-7549
ベ	-7550
匀	-7551
医	-7552
拼	-7553
摇	-7554
暴	-7555
港	-7556
腾	-7557
舍	-7558
触	-7559
贝	-7560
렇	-7561
분	-7562
💩	-7563
̤	-7564
̯	-7565
͂	-7566
͓	-7567
͜	-7568
అ	-7569
ಅ	-7570
ං	-7571
რ	-7572
ᅵ	-7573
┫	-7574
ず	-7575
兆	-7576
冰	-7577
博	-7578
喻	-7579
幕	-7580
晚	-7581
桶	-7582
様	-7583
狗	-7584
祥	-7585
胆	-7586
迴	-7587
郎	-7588
들	-7589
형	-7590
ա	-7591
ո	-7592
ਨ	-7593
ු	-7594
∕	-7595
╩	-7596
♪	-7597
ⲃ	-7598
亮	-7599
値	-7600
古	-7601
啦	-7602
嗎	-7603
坏	-7604
奈	-7605
握	-7606
爾	-7607
県	-7608
罗	-7609
肉	-7610
蓄	-7611
補	-7612
贪	-7613
辨	-7614
門	-7615
반	-7616
🎸	-7617
😂	-7618
ď	-7619
Ş	-7620
˥	-7621
̖	-7622
ґ	-7623
ঁ	-7624
ට	-7625
ฒ	-7626
ῇ	-7627
√	-7628
╤	-7629
休	-7630
伯	-7631
佣	-7632
办	-7633
县	-7634
咸	-7635
履	-7636
拿	-7637
氣	-7638
派	-7639
涉	-7640
祖	-7641
讲	-7642
隆	-7643
금	-7644
등	-7645
좆	-7646
차	-7647
타	-7648
해	-7649
Ð	-7650
ˆ	-7651
̗	-7652
ਤ	-7653
ਲ	-7654
ਸ	-7655
ಹ	-7656
ἡ	-7657
╯	-7658
ⲡ	-7659
ミ	-7660
坦	-7661
奇	-7662
察	-7663
柄	-7664
榜	-7665
沿	-7666
灣	-7667
玩	-7668
租	-7669
织	-7670
羅	-7671
轨	-7672
靠	-7673
飞	-7674
번	-7675
산	-7676
티	-7677
ɒ	-7678
Ю	-7679
ե	-7680
ਜ	-7681
਼	-7682
ಪ	-7683
ප	-7684
ฝ	-7685
ე	-7686
ᅲ	-7687
ᚱ	-7688
■	-7689
モ	-7690
佈	-7691
勤	-7692
妹	-7693
宠	-7694
對	-7695
恢	-7696
態	-7697
抽	-7698
捨	-7699
摩	-7700
森	-7701
污	-7702
硬	-7703
竞	-7704
節	-7705
聖	-7706
醒	-7707
깨	-7708
남	-7709
돌	-7710
🌴	-7711
̀	-7712
๋	-7713
∩	-7714
ワ	-7715
乃	-7716
仍	-7717
勇	-7718
厄	-7719
叶	-7720
央	-7721
抱	-7722
柱	-7723
樂	-7724
湖	-7725
瞧	-7726
研	-7727
纳	-7728
职	-7729
茶	-7730
視	-7731
遵	-7732
钉	-7733
顶	-7734
체	-7735
ɯ	-7736
ɹ	-7737
̚	-7738
̱	-7739
͎	-7740
Ё	-7741
ђ	-7742
մ	-7743
உ	-7744
ீ	-7745
ಬ	-7746
ᅧ	-7747
ᛁ	-7748
ṅ	-7749
ょ	-7750
九	-7751
務	-7752
吧	-7753
壮	-7754
島	-7755
战	-7756
曆	-7757
村	-7758
漢	-7759
皮	-7760
税	-7761
線	-7762
缘	-7763
赛	-7764
這	-7765
글	-7766
능	-7767
무	-7768
신	-7769
저	-7770
ɜ	-7771
ɡ	-7772
ɦ	-7773
ओ	-7774
ਪ	-7775
ూ	-7776
ಇ	-7777
ಷ	-7778
ฤ	-7779
ნ	-7780
∀	-7781
╡	-7782
ソ	-7783
妇	-7784
姻	-7785
悦	-7786
扣	-7787
敢	-7788
澳	-7789
脱	-7790
與	-7791
辅	-7792
類	-7793
驱	-7794
點	-7795
더	-7796
려	-7797
커	-7798
̭	-7799
͚	-7800
Ζ	-7801
ܗ	-7802
బ	-7803
ෙ	-7804
ᄌ	-7805
ᚾ	-7806
ᛅ	-7807
╘	-7808
╛	-7809
⿰	-7810
ホ	-7811
ュ	-7812
井	-7813
伤	-7814
夏	-7815
導	-7816
忧	-7817
怕	-7818
拆	-7819
拓	-7820
拥	-7821
昵	-7822
朝	-7823
汽	-7824
漫	-7825
猫	-7826
石	-7827
秀	-7828
穀	-7829
脑	-7830
航	-7831
過	-7832
響	-7833
龍	-7834
검	-7835
별	-7836
씹	-7837
와	-7838
져	-7839
폐	-7840
현	-7841
Ï	-7842
ʌ	-7843
̧	-7844
ր	-7845
ڈ	-7846
ܓ	-7847
ధ	-7848
ష	-7849
ೇ	-7850
ὀ	-7851
ὦ	-7852
∇	-7853
⋅	-7854
ポ	-7855
丝	-7856
併	-7857
她	-7858
峡	-7859
彼	-7860
拖	-7861
旺	-7862
末	-7863
桃	-7864
牙	-7865
瑞	-7866
答	-7867
署	-7868
脸	-7869
菌	-7870
說	-7871
雪	-7872
頻	-7873
색	-7874
센	-7875
워	-7876
🍔	-7877
ʒ	-7878
̨	-7879
͖	-7880
Ξ	-7881
۔	-7882
ई	-7883
ᄑ	-7884
ᅯ	-7885
┳	-7886
╒	-7887
⚡	-7888
⟨	-7889
⟩	-7890
ハ	-7891
ビ	-7892
哦	-7893
坡	-7894
巧	-7895
律	-7896
拷	-7897
拾	-7898
旦	-7899
杭	-7900
杯	-7901
桩	-7902
翻	-7903
脏	-7904
艰	-7905
荐	-7906
號	-7907
貝	-7908
轉	-7909
轮	-7910
迷	-7911
酷	-7912
項	-7913
간	-7914
닥	-7915
랄	-7916
했	-7917
𝅘	-7918
🏽	-7919
ĺ	-7920
ǒ	-7921
ϥ	-7922
ೂ	-7923
๊	-7924
ἴ	-7925
╕	-7926
✘	-7927
丽	-7928
來	-7929
倒	-7930
処	-7931
厂	-7932
宗	-7933
帐	-7934
応	-7935
患	-7936
捕	-7937
津	-7938
爬	-7939
稱	-7940
義	-7941
舌	-7942
話	-7943
踏	-7944
選	-7945
邦	-7946
錶	-7947
零	-7948
露	-7949
麻	-7950
량	-7951
름	-7952
새	-7953
처	-7954
초	-7955
Û	-7956
İ	-7957
ň	-7958
̔	-7959
͔	-7960
ܣ	-7961
ੋ	-7962
ಜ	-7963
ಸ	-7964
ᄎ	-7965
ᄐ	-7966
ᅢ	-7967
ᅪ	-7968
ᚦ	-7969
ᛏ	-7970
្	-7971
ẫ	-7972
ử	-7973
―	-7974
∙	-7975
⊗	-7976
⚠	-7977
『	-7978
別	-7979
剩	-7980
匯	-7981
味	-7982
套	-7983
寫	-7984
扰	-7985
榴	-7986
權	-7987
気	-7988
沙	-7989
洛	-7990
熱	-7991
猪	-7992
畜	-7993
磁	-7994
礼	-7995
责	-7996
辛	-7997
迁	-7998
酒	-7999
雞	-8000
네	-8001
되	-8002
발	-8003
벗	-8004
비	-8005
💯	-8006
Ë	-8007
Œ	-8008
ʼ	-8009
ʾ	-8010
̩	-8011
̫	-8012
̹	-8013
ঙ	-8014
ḫ	-8015
‵	-8016
╞	-8017
╦	-8018
ズ	-8019
ネ	-8020
ヘ	-8021
冬	-8022
則	-8023
噬	-8024
敏	-8025
救	-8026
毫	-8027
滋	-8028
烦	-8029
甘	-8030
睦	-8031
秘	-8032
糖	-8033
绍	-8034
聪	-8035
萬	-8036
調	-8037
译	-8038
透	-8039
钮	-8040
锦	-8041
雲	-8042
鼎	-8043
ꜣ	-8044
률	-8045
Ô	-8046
ऐ	-8047
ढ	-8048
ੰ	-8049
අ	-8050
ཱ	-8051
ᅦ	-8052
ẳ	-8053
』	-8054
ぼ	-8055
並	-8056
傲	-8057
兰	-8058
厚	-8059
吹	-8060
废	-8061
從	-8062
挥	-8063
捷	-8064
據	-8065
暗	-8066
歡	-8067
氏	-8068
湛	-8069
犯	-8070
绿	-8071
罚	-8072
苑	-8073
蒸	-8074
阈	-8075
驦	-8076
답	-8077
물	-8078
제	-8079
😅	-8080
ǔ	-8081
̜	-8082
̢	-8083
̮	-8084
Ά	-8085
қ	-8086
Ա	-8087
ٴ	-8088
औ	-8089
ਆ	-8090
ਵ	-8091
ஸ	-8092
་	-8093
ྀ	-8094
ာ	-8095
ს	-8096
ᴉ	-8097
ἠ	-8098
ἢ	-8099
ἤ	-8100
ἥ	-8101
ἦ	-8102
ἧ	-8103
ὠ	-8104
ὥ	-8105
ῥ	-8106
↔	-8107
✶	-8108
ヤ	-8109
乡	-8110
叫	-8111
呼	-8112
圳	-8113
培	-8114
惧	-8115
愈	-8116
振	-8117
渲	-8118
準	-8119
烈	-8120
禮	-8121
絲	-8122
纷	-8123
耳	-8124
船	-8125
艺	-8126
莲	-8127
蘭	-8128
觉	-8129
較	-8130
辈	-8131
迭	-8132
野	-8133
韩	-8134
飛	-8135
黄	-8136
鼓	-8137
천	-8138
￼	-8139
🤖	-8140
Ù	-8141
˨	-8142
ի	-8143
ٍ	-8144
ఎ	-8145
ಭ	-8146
ᚴ	-8147
᛬	-8148
ḍ	-8149
ἑ	-8150
░	-8151
▲	-8152
♀	-8153
ぶ	-8154
卸	-8155
寧	-8156
嵐	-8157
幅	-8158
忘	-8159
恐	-8160
惠	-8161
戒	-8162
朗	-8163
李	-8164
武	-8165
沒	-8166
沟	-8167
渡	-8168
猴	-8169
碌	-8170
筹	-8171
紧	-8172
胡	-8173
萌	-8174
諾	-8175
趋	-8176
镜	-8177
饡	-8178
骤	-8179
鱼	-8180
감	-8181
안	-8182
온	-8183
🇸	-8184
🏿	-8185
😀	-8186
🙈	-8187
ɨ	-8188
˧	-8189
Ґ	-8190
ָ	-8191
ژ	-8192
ঠ	-8193
്	-8194
๓	-8195
ẑ	-8196
ἁ	-8197
ἃ	-8198
ἆ	-8199
ἇ	-8200
ἣ	-8201
ὃ	-8202
ὄ	-8203
ὢ	-8204
ὣ	-8205
ὤ	-8206
ὧ	-8207
ῷ	-8208
□	-8209
♬	-8210
⚙	-8211
〈	-8212
價	-8213
冻	-8214
勉	-8215
奥	-8216
妈	-8217
宏	-8218
爻	-8219
狀	-8220
獲	-8221
盧	-8222
祝	-8223
筆	-8224
纬	-8225
藉	-8226
詢	-8227
論	-8228
識	-8229
赔	-8230
赵	-8231
铁	-8232
頁	-8233
麦	-8234
齐	-8235
달	-8236
바	-8237
소	-8238
역	-8239
테	-8240
특	-8241
품	-8242
ǃ	-8243
ɱ	-8244
ʂ	-8245
͈	-8246
҆	-8247
ִ	-8248
॥	-8249
ੈ	-8250
జ	-8251
ฏ	-8252
฿	-8253
๑	-8254
າ	-8255
ᅣ	-8256
ᅭ	-8257
ᚠ	-8258
ᛋ	-8259
∘	-8260
党	-8261
剥	-8262
單	-8263
嘉	-8264
屋	-8265
幾	-8266
怀	-8267
惑	-8268
慧	-8269
挫	-8270
杀	-8271
檢	-8272
沉	-8273
產	-8274
穷	-8275
穿	-8276
筮	-8277
範	-8278
蘋	-8279
財	-8280
跨	-8281
踪	-8282
骨	-8283
鬚	-8284
魯	-8285
黎	-8286
갈	-8287
결	-8288
곱	-8289
른	-8290
막	-8291
습	-8292
왔	-8293
첫	-8294
카	-8295
황	-8296
😃	-8297
😄	-8298
😊	-8299
🙋	-8300
ĉ	-8301
Ī	-8302
ŏ	-8303
ŝ	-8304
ŧ	-8305
ɲ	-8306
ɵ	-8307
ˇ	-8308
Έ	-8309
ϭ	-8310
Ә	-8311
ಟ	-8312
ග	-8313
ὕ	-8314
∼	-8315
⌘	-8316
╠	-8317
✪	-8318
〉	-8319
げ	-8320
ね	-8321
ギ	-8322
ヒ	-8323
亿	-8324
估	-8325
億	-8326
員	-8327
园	-8328
堪	-8329
姐	-8330
席	-8331
惕	-8332
抓	-8333
拔	-8334
敬	-8335
杂	-8336
樓	-8337
欣	-8338
當	-8339
究	-8340
籍	-8341
綠	-8342
繫	-8343
绪	-8344
肯	-8345
處	-8346
衡	-8347
裝	-8348
訂	-8349
谁	-8350
賣	-8351
轩	-8352
關	-8353
際	-8354
雁	-8355
雅	-8356
鹹	-8357
鹼	-8358
드	-8359
말	-8360
병	-8361
위	-8362
후	-8363
ĭ	-8364
ɸ	-8365
ʋ	-8366
ʖ	-8367
̵	-8368
͉	-8369
Щ	-8370
գ	-8371
յ	-8372
ץ	-8373
ۇ	-8374
ܨ	-8375
ङ	-8376
ञ	-8377
ਮ	-8378
ર	-8379
ෂ	-8380
ො	-8381
ᄁ	-8382
ᛖ	-8383
ḩ	-8384
ὔ	-8385
ὼ	-8386
ῃ	-8387
┣	-8388
╹	-8389
◌	-8390
☣	-8391
➡	-8392
ざ	-8393
ろ	-8394
゚	-8395
丑	-8396
乌	-8397
予	-8398
仙	-8399
伴	-8400
刘	-8401
呢	-8402
圣	-8403
堆	-8404
恰	-8405
拒	-8406
携	-8407
摺	-8408
擎	-8409
昂	-8410
朴	-8411
梅	-8412
極	-8413
殺	-8414
泛	-8415
泥	-8416
洪	-8417
涣	-8418
灯	-8419
營	-8420
疗	-8421
肠	-8422
药	-8423
萨	-8424
誌	-8425
遭	-8426
錄	-8427
锤	-8428
須	-8429
顯	-8430
顾	-8431
馆	-8432
麼	-8433
麽	-8434
鼠	-8435
같	-8436
계	-8437
끄	-8438
내	-8439
던	-8440
롭	-8441
료	-8442
류	-8443
않	-8444
알	-8445
🇺	-8446
💋	-8447
💪	-8448
😆	-8449
Ý	-8450
ɤ	-8451
ʤ	-8452
͕	-8453
Ί	-8454
ϝ	-8455
І	-8456
ਉ	-8457
థ	-8458
ీ	-8459
ొ	-8460
ಚ	-8461
ී	-8462
မ	-8463
ო	-8464
រ	-8465
ṛ	-8466
へ	-8467
佛	-8468
侯	-8469
凑	-8470
卤	-8471
呀	-8472
孚	-8473
寿	-8474
忠	-8475
拍	-8476
撑	-8477
朱	-8478
桑	-8479
油	-8480
浙	-8481
浪	-8482
祭	-8483
練	-8484
罪	-8485
羊	-8486
肝	-8487
胃	-8488
胸	-8489
艾	-8490
苹	-8491
藤	-8492
贤	-8493
贴	-8494
赞	-8495
輩	-8496
迪	-8497
逸	-8498
霸	-8499
館	-8500
骄	-8501
魂	-8502
鹵	-8503
건	-8504
ŕ	-8505
ƕ	-8506
۵	-8507
ঃ	-8508
ಆ	-8509
ಎ	-8510
೧	-8511
භ	-8512
๒	-8513
ᅴ	-8514
፸	-8515
ខ	-8516
ែ	-8517
Ἑ	-8518
⊙	-8519
♂	-8520
び	-8521
侧	-8522
偿	-8523
刀	-8524
剪	-8525
労	-8526
哼	-8527
塗	-8528
墨	-8529
奔	-8530
學	-8531
寸	-8532
忙	-8533
披	-8534
挨	-8535
晋	-8536
況	-8537
洋	-8538
滞	-8539
炉	-8540
犹	-8541
甲	-8542
皇	-8543
碱	-8544
統	-8545
纸	-8546
詳	-8547
躁	-8548
辣	-8549
逢	-8550
邪	-8551
顿	-8552
饮	-8553
鬼	-8554
龄	-8555
龜	-8556
넥	-8557
당	-8558
딩	-8559
레	-8560
력	-8561
선	-8562
식	-8563
채	-8564
축	-8565
통	-8566
Ÿ	-8567
ƃ	-8568
ǂ	-8569
ɥ	-8570
ʅ	-8571
ʉ	-8572
̕	-8573
̙	-8574
Ό	-8575
վ	-8576
ׁ	-8577
ਇ	-8578
ત	-8579
્	-8580
ஐ	-8581
శ	-8582
එ	-8583
ტ	-8584
უ	-8585
ṇ	-8586
ẩ	-8587
ἕ	-8588
ὗ	-8589
╣	-8590
✨	-8591
ひ	-8592
兒	-8593
兩	-8594
农	-8595
剧	-8596
励	-8597
卑	-8598
吾	-8599
喂	-8600
圈	-8601
娜	-8602
師	-8603
張	-8604
悔	-8605
慌	-8606
懲	-8607
掌	-8608
探	-8609
攸	-8610
柜	-8611
栏	-8612
株	-8613
梦	-8614
歴	-8615
毁	-8616
熟	-8617
牢	-8618
玉	-8619
珠	-8620
疆	-8621
種	-8622
細	-8623
縦	-8624
纪	-8625
腹	-8626
舒	-8627
蔽	-8628
誉	-8629
赚	-8630
趁	-8631
軟	-8632
辟	-8633
適	-8634
鉴	-8635
餐	-8636
근	-8637
된	-8638
창	-8639
😋	-8640
ķ	-8641
ʕ	-8642
ʦ	-8643
հ	-8644
ַ	-8645
ֿ	-8646
۰	-8647
ऊ	-8648
ऽ	-8649
ফ	-8650
ੂ	-8651
ુ	-8652
ஏ	-8653
ේ	-8654
ฬ	-8655
ლ	-8656
მ	-8657
ᄄ	-8658
ᄈ	-8659
ᄍ	-8660
ᄚ	-8661
ᄡ	-8662
ᅤ	-8663
ᅨ	-8664
ᅫ	-8665
ᅬ	-8666
ᅰ	-8667
ᅱ	-8668
ᆪ	-8669
ᆬ	-8670
ᆭ	-8671
ᆰ	-8672
ᆱ	-8673
ᆲ	-8674
ᆳ	-8675
ᆴ	-8676
ᆵ	-8677
ᚹ	-8678
ᛒ	-8679
ᛚ	-8680
ṡ	-8681
ỹ	-8682
ἱ	-8683
ᾖ	-8684
∅	-8685
╪	-8686
☑	-8687
♘	-8688
✅	-8689
❌	-8690
丨	-8691
亡	-8692
備	-8693
協	-8694
卢	-8695
呆	-8696
咎	-8697
圍	-8698
夷	-8699
奨	-8700
妻	-8701
孤	-8702
寒	-8703
岳	-8704
峰	-8705
帘	-8706
廊	-8707
徐	-8708
恭	-8709
恼	-8710
悲	-8711
挤	-8712
挽	-8713
撞	-8714
於	-8715
昌	-8716
曾	-8717
沈	-8718
洁	-8719
洞	-8720
漏	-8721
烟	-8722
硕	-8723
稍	-8724
紫	-8725
絞	-8726
興	-8727
華	-8728
葉	-8729
葛	-8730
蛊	-8731
讨	-8732
辰	-8733
難	-8734
靈	-8735
飓	-8736
饥	-8737
驾	-8738
鸣	-8739
깝	-8740
놈	-8741
란	-8742
랬	-8743
받	-8744
배	-8745
씨	-8746
운	-8747
익	-8748
집	-8749
행	-8750
👎	-8751
ģ	-8752
ǁ	-8753
ǿ	-8754
ʟ	-8755
̂	-8756
լ	-8757
ೀ	-8758
ජ	-8759
ฆ	-8760
ἵ	-8761
ἷ	-8762
ᾱ	-8763
ῑ	-8764
₩	-8765
▶	-8766
☀	-8767
♄	-8768
♫	-8769
♻	-8770
✌	-8771
✖	-8772
ヌ	-8773
乏	-8774
伏	-8775
军	-8776
凉	-8777
凌	-8778
刮	-8779
啥	-8780
嘴	-8781
夢	-8782
姜	-8783
尿	-8784
屮	-8785
帧	-8786
床	-8787
庫	-8788
怒	-8789
憎	-8790
抬	-8791
拦	-8792
援	-8793
敌	-8794
敦	-8795
晒	-8796
晓	-8797
桌	-8798
桥	-8799
洗	-8800
渠	-8801
狱	-8802
環	-8803
監	-8804
盤	-8805
經	-8806
總	-8807
舟	-8808
蓬	-8809
虎	-8810
诱	-8811
诺	-8812
谢	-8813
迅	-8814
逊	-8815
锅	-8816
锐	-8817
靖	-8818
날	-8819
단	-8820
두	-8821
짜	-8822
표	-8823
𝅮	-8824
𝅯	-8825
𝆹	-8826
𝆺	-8827
🍣	-8828
😍	-8829
ǵ	-8830
ɕ	-8831
ɩ	-8832
ʐ	-8833
ӳ	-8834
տ	-8835
৩	-8836
ఏ	-8837
ಶ	-8838
ല	-8839
ණ	-8840
ළ	-8841
ᚷ	-8842
ᛞ	-8843
ស	-8844
ỳ	-8845
Ἆ	-8846
Ἦ	-8847
Ὦ	-8848
↕	-8849
⇡	-8850
∧	-8851
∪	-8852
⏱	-8853
╸	-8854
╻	-8855
⿻	-8856
ぎ	-8857
仆	-8858
伪	-8859
伸	-8860
優	-8861
兢	-8862
冈	-8863
剔	-8864
唐	-8865
垂	-8866
埃	-8867
孙	-8868
尊	-8869
尺	-8870
屡	-8871
幻	-8872
庙	-8873
彙	-8874
御	-8875
復	-8876
惯	-8877
懂	-8878
戴	-8879
搭	-8880
摆	-8881
杆	-8882
梁	-8883
権	-8884
檯	-8885
櫃	-8886
欠	-8887
泌	-8888
浩	-8889
淀	-8890
潮	-8891
烏	-8892
疮	-8893
痛	-8894
発	-8895
竟	-8896
糊	-8897
続	-8898
绕	-8899
绷	-8900
腊	-8901
芝	-8902
荷	-8903
莓	-8904
莱	-8905
説	-8906
豫	-8907
買	-8908
贲	-8909
郵	-8910
阔	-8911
陵	-8912
障	-8913
霧	-8914
颐	-8915
飯	-8916
饭	-8917
龠	-8918
꼽	-8919
끼	-8920
녕	-8921
닫	-8922
런	-8923
럽	-8924
맛	-8925
생	-8926
좀	-8927
토	-8928
포	-8929
홀	-8930
히	-8931
🏼	-8932
💻	-8933
Ť	-8934
ƞ	-8935
ƭ	-8936
ǀ	-8937
ȝ	-8938
ɟ	-8939
ɰ	-8940
ɳ	-8941
ʍ	-8942
ʔ	-8943
ʘ	-8944
ʝ	-8945
ʻ	-8946
˩	-8947
Ή	-8948
Ύ	-8949
Ώ	-8950
ϯ	-8951
Һ	-8952
բ	-8953
զ	-8954
ॣ	-8955
଼	-8956
୍	-8957
ം	-8958
ത	-8959
യ	-8960
බ	-8961
๐	-8962
ད	-8963
ḗ	-8964
ḷ	-8965
ẻ	-8966
●	-8967
⬤	-8968
゙	-8969
丢	-8970
乙	-8971
伍	-8972
俭	-8973
劇	-8974
匆	-8975
匠	-8976
卫	-8977
哲	-8978
塚	-8979
宇	-8980
宣	-8981
屯	-8982
庄	-8983
弄	-8984
強	-8985
扬	-8986
掩	-8987
枚	-8988
栈	-8989
梨	-8990
毅	-8991
汗	-8992
沢	-8993
淹	-8994
滿	-8995
煙	-8996
熊	-8997
盗	-8998
矛	-8999
祈	-9000
篇	-9001
粒	-9002
綜	-9003
纲	-9004
羽	-9005
肿	-9006
臣	-9007
艹	-9008
莽	-9009
裁	-9010
裸	-9011
規	-9012
貓	-9013
赶	-9014
鍊	-9015
闪	-9016
順	-9017
颖	-9018
髒	-9019
鲜	-9020
鸟	-9021
黃	-9022
鼻	-9023
놓	-9024
버	-9025
쓰	-9026
열	-9027
출	-9028
힣	-9029
🤣	-9030
ĝ	-9031
ĵ	-9032
Ř	-9033
ɖ	-9034
ɬ	-9035
ɭ	-9036
ɽ	-9037
ɾ	-9038
ʈ	-9039
̋	-9040
̴	-9041
Ј	-9042
ף	-9043
ښ	-9044
ܙ	-9045
ळ	-9046
ঢ	-9047
ৃ	-9048
ਗ	-9049
ગ	-9050
ા	-9051
ఆ	-9052
ນ	-9053
ག	-9054
ོ	-9055
ᚪ	-9056
ᛗ	-9057
ភ	-9058
ḑ	-9059
ỡ	-9060
Ἶ	-9061
ὖ	-9062
ῄ	-9063
ῳ	-9064
∨	-9065
⊆	-9066
╱	-9067
◄	-9068
☉	-9069
♔	-9070
♞	-9071
⚒	-9072
⠆	-9073
⠇	-9074
⿲	-9075
乖	-9076
侮	-9077
促	-9078
俄	-9079
側	-9080
僧	-9081
儘	-9082
劲	-9083
勒	-9084
勺	-9085
咨	-9086
咽	-9087
哎	-9088
唤	-9089
嘆	-9090
囲	-9091
奖	-9092
廉	-9093
彻	-9094
怪	-9095
恩	-9096
惩	-9097
慈	-9098
懶	-9099
戶	-9100
押	-9101
柯	-9102
栋	-9103
梯	-9104
椭	-9105
槤	-9106
欧	-9107
欺	-9108
決	-9109
泪	-9110
浓	-9111
淡	-9112
渔	-9113
炎	-9114
煮	-9115
爵	-9116
狂	-9117
狮	-9118
玲	-9119
痣	-9120
碟	-9121
禪	-9122
粗	-9123
紅	-9124
紗	-9125
綱	-9126
繃	-9127
肾	-9128
舞	-9129
茨	-9130
菊	-9131
蓋	-9132
虜	-9133
裤	-9134
諭	-9135
諸	-9136
謁	-9137
謝	-9138
謹	-9139
證	-9140
負	-9141
質	-9142
贈	-9143
輪	-9144
迈	-9145
陈	-9146
霉	-9147
鞋	-9148
韋	-9149
饑	-9150
饼	-9151
鲁	-9152
鷹	-9153
麥	-9154
게	-9155
굴	-9156
권	-9157
긋	-9158
꺼	-9159
닉	-9160
될	-9161
봐	-9162
브	-9163
썅	-9164
애	-9165
양	-9166
없	-9167
연	-9168
점	-9169
크	-9170
🎉	-9171
📂	-9172
ƈ	-9173
ɿ	-9174
ʀ	-9175
ʁ	-9176
ʎ	-9177
ʑ	-9178
ʗ	-9179
˞	-9180
̡	-9181
ϙ	-9182
ϛ	-9183
ϟ	-9184
ϡ	-9185
ϻ	-9186
ѥ	-9187
Җ	-9188
Ң	-9189
Ү	-9190
Ө	-9191
կ	-9192
ׂ	-9193
٥	-9194
ূ	-9195
ৈ	-9196
ਣ	-9197
ਬ	-9198
ੁ	-9199
హ	-9200
ಥ	-9201
മ	-9202
ര	-9203
ච	-9204
ར	-9205
ྲ	-9206
ླ	-9207
္	-9208
დ	-9209
ន	-9210
ម	-9211
ḳ	-9212
ἒ	-9213
ἓ	-9214
ἲ	-9215
ἳ	-9216
ὂ	-9217
ὓ	-9218
ᾰ	-9219
ῡ	-9220
‰	-9221
∏	-9222
╬	-9223
╭	-9224
△	-9225
◦	-9226
♃	-9227
♦	-9228
❚	-9229
ヨ	-9230
ヲ	-9231
丧	-9232
丹	-9233
佑	-9234
俗	-9235
倘	-9236
偶	-9237
兵	-9238
冗	-9239
冠	-9240
凤	-9241
刺	-9242
効	-9243
厨	-9244
咬	-9245
哀	-9246
唇	-9247
噴	-9248
墊	-9249
墙	-9250
夕	-9251
夬	-9252
妖	-9253
妨	-9254
姆	-9255
姤	-9256
孝	-9257
寄	-9258
寝	-9259
屈	-9260
層	-9261
帅	-9262
庶	-9263
弊	-9264
怜	-9265
恳	-9266
愁	-9267
慕	-9268
扱	-9269
挑	-9270
昭	-9271
暑	-9272
杜	-9273
沪	-9274
泉	-9275
泡	-9276
涂	-9277
涅	-9278
湯	-9279
灭	-9280
玛	-9281
積	-9282
粉	-9283
緊	-9284
編	-9285
茅	-9286
裏	-9287
議	-9288
讀	-9289
谓	-9290
賓	-9291
贰	-9292
贸	-9293
赤	-9294
転	-9295
辖	-9296
迹	-9297
遊	-9298
邑	-9299
邻	-9300
鍋	-9301
鐵	-9302
钩	-9303
锈	-9304
闲	-9305
離	-9306
預	-9307
顔	-9308
顷	-9309
驰	-9310
骗	-9311
魚	-9312
鱔	-9313
鳥	-9314
ꜥ	-9315
강	-9316
또	-9317
액	-9318
야	-9319
외	-9320
취	-9321
🍰	-9322
🐔	-9323
👾	-9324
🙏	-9325
	-9326
Ġ	-9327
Ő	-9328
ȣ	-9329
ɻ	-9330
ʞ	-9331
̶	-9332
̸	-9333
͟	-9334
Ђ	-9335
Ї	-9336
ѣ	-9337
դ	-9338
խ	-9339
ֆ	-9340
ٮ	-9341
ٯ	-9342
ڡ	-9343
ۆ	-9344
ۈ	-9345
ې	-9346
۲	-9347
ऋ	-9348
ঞ	-9349
৬	-9350
੍	-9351
ఉ	-9352
ఒ	-9353
ణ	-9354
ళ	-9355
ೋ	-9356
೫	-9357
ാ	-9358
ධ	-9359
ฌ	-9360
๙	-9361
ຈ	-9362
ຫ	-9363
ྵ	-9364
თ	-9365
ር	-9366
ᚳ	-9367
ᛉ	-9368
ᛟ	-9369
ᛠ	-9370
ᛦ	-9371
ំ	-9372
ṁ	-9373
ỵ	-9374
ỷ	-9375
Ἄ	-9376
Ἅ	-9377
ᾎ	-9378
ᾞ	-9379
ᾠ	-9380
ᾮ	-9381
ᾳ	-9382
↘	-9383
⇢	-9384
≡	-9385
⊕	-9386
╰	-9387
╺	-9388
◕	-9389
☾	-9390
✰	-9391
⿳	-9392
ヽ	-9393
㮝	-9394
䀹	-9395
䨹	-9396
佐	-9397
倫	-9398
兽	-9399
凵	-9400
剋	-9401
劉	-9402
勾	-9403
匿	-9404
卓	-9405
叁	-9406
叹	-9407
吓	-9408
呵	-9409
咲	-9410
哉	-9411
哭	-9412
喙	-9413
喬	-9414
嘛	-9415
坛	-9416
垫	-9417
埋	-9418
壟	-9419
妥	-9420
媽	-9421
寇	-9422
寡	-9423
實	-9424
尢	-9425
岂	-9426
岡	-9427
府	-9428
廓	-9429
廾	-9430
徑	-9431
悬	-9432
惜	-9433
戲	-9434
拡	-9435
拨	-9436
掃	-9437
搞	-9438
摄	-9439
摊	-9440
枝	-9441
柳	-9442
構	-9443
樣	-9444
歹	-9445
残	-9446
毒	-9447
汪	-9448
沸	-9449
液	-9450
溺	-9451
滥	-9452
漂	-9453
濾	-9454
瀞	-9455
炭	-9456
烂	-9457
犬	-9458
瑱	-9459
盲	-9460
睊	-9461
睡	-9462
矇	-9463
磌	-9464
禄	-9465
禦	-9466
稿	-9467
紀	-9468
緻	-9469
肥	-9470
腔	-9471
腦	-9472
臘	-9473
舁	-9474
芳	-9475
蒂	-9476
蝹	-9477
裂	-9478
裹	-9479
讎	-9480
豆	-9481
豕	-9482
貌	-9483
賈	-9484
賴	-9485
赌	-9486
赫	-9487
遂	-9488
運	-9489
邀	-9490
郑	-9491
酪	-9492
酸	-9493
鈴	-9494
鉅	-9495
闹	-9496
闽	-9497
陸	-9498
陽	-9499
韓	-9500
頋	-9501
頓	-9502
額	-9503
颶	-9504
鬒	-9505
鹿	-9506
黴	-9507
黹	-9508
齿	-9509
ꝯ	-9510
겠	-9511
낫	-9512
뒤	-9513
뿐	-9514
살	-9515
업	-9516
적	-9517
존	-9518
줍	-9519
쿠	-9520
텄	-9521
폭	-9522
프	-9523
🇦	-9524
🍻	-9525
🎁	-9526
🎂	-9527
📄	-9528
😜	-9529
😡	-9530
🙂	-9531
ĕ	-9532
Ŋ	-9533
ǚ	-9534
Ș	-9535
ȷ	-9536
ɓ	-9537
ɗ	-9538
ɠ	-9539
˳	-9540
͠	-9541
Ў	-9542
Ӭ	-9543
ջ	-9544
ֵ	-9545
ֹ	-9546
ॐ	-9547
७	-9548
ਈ	-9549
੧	-9550
੨	-9551
੩	-9552
ା	-9553
ஊ	-9554
ೊ	-9555
ക	-9556
ഗ	-9557
ി	-9558
ു	-9559
ශ	-9560
ූ	-9561
ฃ	-9562
ฅ	-9563
ໍ	-9564
န	-9565
ြ	-9566
გ	-9567
ქ	-9568
ḏ	-9569
ḹ	-9570
ṝ	-9571
ṯ	-9572
ῐ	-9573
ῠ	-9574
⇀	-9575
∗	-9576
∴	-9577
⊂	-9578
⌚	-9579
▇	-9580
⠁	-9581
ⲑ	-9582
ⲭ	-9583
ぞ	-9584
ゲ	-9585
乍	-9586
亅	-9587
仪	-9588
伟	-9589
偵	-9590
凝	-9591
勞	-9592
卧	-9593
卿	-9594
厌	-9595
厘	-9596
吐	-9597
吕	-9598
吞	-9599
哟	-9600
嘎	-9601
嘘	-9602
嘿	-9603
噹	-9604
團	-9605
姬	-9606
婊	-9607
婦	-9608
嫁	-9609
寮	-9610
屠	-9611
屢	-9612
崙	-9613
巡	-9614
巢	-9615
幽	-9616
忆	-9617
懒	-9618
戀	-9619
戈	-9620
扶	-9621
抢	-9622
挠	-9623
揭	-9624
敛	-9625
旨	-9626
暫	-9627
植	-9628
歷	-9629
殘	-9630
毋	-9631
沧	-9632
満	-9633
潜	-9634
澎	-9635
燎	-9636
燕	-9637
爐	-9638
牲	-9639
牵	-9640
玫	-9641
琴	-9642
瑰	-9643
盒	-9644
睽	-9645
矣	-9646
硃	-9647
碰	-9648
磊	-9649
禍	-9650
禎	-9651
稀	-9652
童	-9653
筑	-9654
簡	-9655
級	-9656
絡	-9657
績	-9658
繼	-9659
肺	-9660
臭	-9661
芒	-9662
芯	-9663
芽	-9664
萃	-9665
蘆	-9666
蠟	-9667
衬	-9668
袖	-9669
袜	-9670
觀	-9671
許	-9672
誠	-9673
谐	-9674
贯	-9675
跃	-9676
跑	-9677
踢	-9678
逃	-9679
逗	-9680
遁	-9681
醫	-9682
銀	-9683
鎚	-9684
钢	-9685
雄	-9686
雠	-9687
領	-9688
願	-9689
颚	-9690
颳	-9691
馈	-9692
驗	-9693
鬍	-9694
魔	-9695
龟	-9696
ꙋ	-9697
ꜧ	-9698
값	-9699
격	-9700
관	-9701
노	-9702
렌	-9703
법	-9704
본	-9705
잔	-9706
접	-9707
플	-9708
🌈	-9709
🐍	-9710
🐺	-9711
👇	-9712
👩	-9713
🔥	-9714
😞	-9715
🤷	-9716
ĥ	-9717
Ƥ	-9718
ƫ	-9719
ǹ	-9720
ǽ	-9721
ȧ	-9722
ɴ	-9723
ʏ	-9724
͏	-9725
͞	-9726
Ϝ	-9727
Љ	-9728
Њ	-9729
҉	-9730
ҹ	-9731
Ӽ	-9732
Ԋ	-9733
Ԗ	-9734
է	-9735
ը	-9736
ծ	-9737
ճ	-9738
չ	-9739
ք	-9740
ְ	-9741
׳	-9742
۱	-9743
۳	-9744
۸	-9745
ऱ	-9746
२	-9747
६	-9748
८	-9749
৫	-9750
ਫ	-9751
ਭ	-9752
ક	-9753
જ	-9754
ન	-9755
ય	-9756
િ	-9757
ે	-9758
ଆ	-9759
ଡ	-9760
ର	-9761
ି	-9762
ஜ	-9763
ஞ	-9764
ృ	-9765
ಈ	-9766
೪	-9767
ැ	-9768
ෝ	-9769
ฦ	-9770
ฺ	-9771
๔	-9772
๕	-9773
བ	-9774
ི	-9775
ྐ	-9776
သ	-9777
်	-9778
ვ	-9779
ᚫ	-9780
ᚺ	-9781
ᛇ	-9782
ᛈ	-9783
ក	-9784
ឆ	-9785
ᴀ	-9786
ḓ	-9787
Ṱ	-9788
ẋ	-9789
ẖ	-9790
Ἁ	-9791
Ἂ	-9792
Ἃ	-9793
Ἇ	-9794
Ἠ	-9795
Ἡ	-9796
Ἢ	-9797
Ἣ	-9798
Ἤ	-9799
Ἥ	-9800
Ἧ	-9801
Ἰ	-9802
Ἴ	-9803
Ὠ	-9804
Ὡ	-9805
Ὢ	-9806
Ὣ	-9807
Ὤ	-9808
Ὥ	-9809
Ὧ	-9810
ᾂ	-9811
ᾃ	-9812
ᾆ	-9813
ᾇ	-9814
ᾌ	-9815
ᾐ	-9816
ᾑ	-9817
ᾒ	-9818
ᾓ	-9819
ᾗ	-9820
ᾡ	-9821
ᾢ	-9822
ᾣ	-9823
ᾦ	-9824
ᾧ	-9825
ᾷ	-9826
ῂ	-9827
ῲ	-9828
ῴ	-9829
‛	-9830
‡	-9831
‪	-9832
↦	-9833
↪	-9834
↳	-9835
↽	-9836
∠	-9837
≽	-9838
⊃	-9839
⊋	-9840
⎨	-9841
⎬	-9842
╙	-9843
╮	-9844
╴	-9845
▸	-9846
▽	-9847
◎	-9848
◐	-9849
☔	-9850
♉	-9851
♠	-9852
♣	-9853
♭	-9854
➤	-9855
⠊	-9856
⠥	-9857
〇	-9858
〒	-9859
丟	-9860
亠	-9861
仿	-9862
倾	-9863
債	-9864
兔	-9865
兹	-9866
刑	-9867
刪	-9868
劝	-9869
劣	-9870
勝	-9871
卅	-9872
単	-9873
叔	-9874
呂	-9875
呈	-9876
唱	-9877
嗑	-9878
園	-9879
圭	-9880
坑	-9881
垠	-9882
堂	-9883
堤	-9884
塘	-9885
壁	-9886
壘	-9887
壹	-9888
契	-9889
奸	-9890
妓	-9891
娃	-9892
婴	-9893
寬	-9894
尧	-9895
尸	-9896
屁	-9897
岁	-9898
崩	-9899
嶽	-9900
帝	-9901
帽	-9902
幼	-9903
弦	-9904
惡	-9905
惹	-9906
慨	-9907
憐	-9908
抄	-9909
択	-9910
拳	-9911
挡	-9912
捌	-9913
掠	-9914
擇	-9915
擊	-9916
擔	-9917
斤	-9918
昧	-9919
晶	-9920
曇	-9921
曼	-9922
杨	-9923
柒	-9924
栗	-9925
條	-9926
梭	-9927
樹	-9928
洲	-9929
洽	-9930
浅	-9931
浸	-9932
淆	-9933
淋	-9934
淨	-9935
湿	-9936
溢	-9937
溯	-9938
瀬	-9939
災	-9940
炸	-9941
煉	-9942
猛	-9943
玖	-9944
瑙	-9945
甜	-9946
疏	-9947
疝	-9948
皿	-9949
盾	-9950
眉	-9951
碑	-9952
祷	-9953
穩	-9954
竖	-9955
竹	-9956
築	-9957
縷	-9958
绳	-9959
罢	-9960
肆	-9961
肏	-9962
脫	-9963
脾	-9964
腐	-9965
臨	-9966
臼	-9967
芬	-9968
苔	-9969
茲	-9970
萊	-9971
蓮	-9972
藍	-9973
蘇	-9974
蘿	-9975
虹	-9976
蛮	-9977
蟲	-9978
術	-9979
衫	-9980
诞	-9981
贫	-9982
贺	-9983
赏	-9984
趣	-9985
蹇	-9986
迫	-9987
週	-9988
遲	-9989
遺	-9990
邏	-9991
酋	-9992
鍵	-9993
鏽	-9994
锻	-9995
镇	-9996
闵	-9997
陋	-9998
陳	-9999
隊	-10000
韦	-10001
頂	-10002
颓	-10003
餘	-10004
鬥	-10005
鶴	-10006
鸺	-10007
鸿	-10008
鹏	-10009
麗	-10010
黒	-10011
黨	-10012
齒	-10013
齣	-10014
급	-10015
누	-10016
덥	-10017
됐	-10018
때	-10019
똥	-10020
렀	-10021
렜	-10022
박	-10023
붓	-10024
빡	-10025
석	-10026
쉑	-10027
승	-10028
쌍	-10029
억	-10030
올	-10031
재	-10032
졌	-10033
준	-10034
줘	-10035
진	-10036
찾	-10037
청	-10038
케	-10039
키	-10040
태	-10041
툴	-10042
튜	-10043
환	-10044
힝	-10045
🇷	-10046
🍕	-10047
😓	-10048
🚨	-10049
Į	-10050
Ķ	-10051
Ō	-10052
ŵ	-10053
ƥ	-10054
ǧ	-10055
ǩ	-10056
ȯ	-10057
Ƀ	-10058
ʹ	-10059
̌	-10060
͝	-10061
ͱ	-10062
ͳ	-10063
ͷ	-10064
Ϛ	-10065
ϸ	-10066
ѐ	-10067
ў	-10068
џ	-10069
ғ	-10070
Қ	-10071
ԛ	-10072
ս	-10073
ց	-10074
٣	-10075
ڦ	-10076
ڭ	-10077
۶	-10078
৳	-10079
ਅ	-10080
੦	-10081
੪	-10082
੫	-10083
੬	-10084
੭	-10085
੮	-10086
੯	-10087
ટ	-10088
લ	-10089
ી	-10090
ఇ	-10091
ಖ	-10092
ಣ	-10093
ട	-10094
ൂ	-10095
േ	-10096
๗	-10097
ມ	-10098
པ	-10099
ུ	-10100
ྒ	-10101
ྡ	-10102
ྫ	-10103
ဘ	-10104
Ꭹ	-10105
Ꮤ	-10106
ᴅ	-10107
ḙ	-10108
ḱ	-10109
ḻ	-10110
ḽ	-10111
ḿ	-10112
ṍ	-10113
ṧ	-10114
ṱ	-10115
ẁ	-10116
ẓ	-10117
ẵ	-10118
‟	-10119
‽	-10120
⃗	-10121
⅂	-10122
↗	-10123
⇝	-10124
∃	-10125
≅	-10126
⊊	-10127
╲	-10128
☆	-10129
☐	-10130
☻	-10131
☿	-10132
♁	-10133
✈	-10134
❄	-10135
➢	-10136
⠄	-10137
⠛	-10138
⧉	-10139
ⲅ	-10140
ⲍ	-10141
ⲫ	-10142
ⵜ	-10143
ぬ	-10144
ゴ	-10145
ボ	-10146
丘	-10147
丛	-10148
丷	-10149
仇	-10150
俱	-10151
倉	-10152
偷	-10153
兄	-10154
冀	-10155
冤	-10156
凜	-10157
剛	-10158
勵	-10159
厉	-10160
叮	-10161
吳	-10162
営	-10163
墜	-10164
墳	-10165
壳	-10166
夊	-10167
夸	-10168
奏	-10169
娛	-10170
娶	-10171
嫌	-10172
嬈	-10173
宮	-10174
宿	-10175
寶	-10176
岗	-10177
崇	-10178
嶺	-10179
巩	-10180
巫	-10181
帆	-10182
廣	-10183
廬	-10184
弓	-10185
彆	-10186
彡	-10187
彳	-10188
怡	-10189
愚	-10190
慄	-10191
憤	-10192
憲	-10193
懞	-10194
戰	-10195
抗	-10196
捐	-10197
掛	-10198
採	-10199
摒	-10200
撚	-10201
撝	-10202
擄	-10203
敖	-10204
斜	-10205
斥	-10206
斷	-10207
晉	-10208
晟	-10209
晨	-10210
暈	-10211
杖	-10212
枢	-10213
柏	-10214
梳	-10215
棒	-10216
楚	-10217
櫓	-10218
櫛	-10219
歲	-10220
殮	-10221
殳	-10222
汁	-10223
汤	-10224
涵	-10225
淚	-10226
淪	-10227
渊	-10228
溫	-10229
漣	-10230
濫	-10231
瀛	-10232
燈	-10233
爛	-10234
狼	-10235
猜	-10236
獅	-10237
獵	-10238
獺	-10239
琉	-10240
瑜	-10241
瑩	-10242
璉	-10243
瓊	-10244
畏	-10245
痴	-10246
瘤	-10247
療	-10248
癩	-10249
盐	-10250
瞭	-10251
矢	-10252
砂	-10253
碎	-10254
磨	-10255
礪	-10256
祀	-10257
祿	-10258
窃	-10259
笠	-10260
箏	-10261
簾	-10262
籠	-10263
糧	-10264
紙	-10265
絛	-10266
綾	-10267
緇	-10268
縉	-10269
縣	-10270
縮	-10271
繅	-10272
缕	-10273
罈	-10274
羡	-10275
聰	-10276
聾	-10277
腰	-10278
腿	-10279
艇	-10280
荒	-10281
菩	-10282
蔡	-10283
蕴	-10284
薩	-10285
藺	-10286
虏	-10287
虧	-10288
虩	-10289
蚀	-10290
蜡	-10291
衛	-10292
袭	-10293
襤	-10294
覺	-10295
觸	-10296
討	-10297
誰	-10298
諒	-10299
诈	-10300
豈	-10301
豐	-10302
豬	-10303
販	-10304
貫	-10305
賁	-10306
賂	-10307
購	-10308
贊	-10309
贛	-10310
軔	-10311
輦	-10312
輻	-10313
轢	-10314
辉	-10315
辩	-10316
逞	-10317
逼	-10318
遥	-10319
遼	-10320
還	-10321
鈸	-10322
鉶	-10323
鍛	-10324
鍾	-10325
鏹	-10326
閭	-10327
阙	-10328
阜	-10329
阮	-10330
陣	-10331
陶	-10332
階	-10333
隶	-10334
隸	-10335
隼	-10336
韵	-10337
顽	-10338
颠	-10339
飢	-10340
飼	-10341
饿	-10342
駱	-10343
驪	-10344
驼	-10345
骂	-10346
鱗	-10347
鷺	-10348
鸞	-10349
麟	-10350
黽	-10351
黾	-10352
齊	-10353
龎	-10354
ꞌ	-10355
따	-10356
며	-10357
밥	-10358
백	-10359
옵	-10360
족	-10361
질	-10362
추	-10363
편	-10364
👏	-10365
👨	-10366
💀	-10367
💁	-10368
💔	-10369
🔗	-10370
😒	-10371
😔	-10372
😖	-10373
😠	-10374
😿	-10375
🙇	-10376
🤓	-10377
🦊	-10378
🧐	-10379
	-10380
	-10381
	-10382
	-10383
Ĥ	-10384
ŗ	-10385
Ŝ	-10386
ŷ	-10387
ƀ	-10388
ƌ	-10389
ƙ	-10390
ƚ	-10391
ƴ	-10392
ƶ	-10393
ǘ	-10394
ǜ	-10395
ǥ	-10396
ǯ	-10397
Ƿ	-10398
ǻ	-10399
ȃ	-10400
ȍ	-10401
ȏ	-10402
ȑ	-10403
ȟ	-10404
ɢ	-10405
ɺ	-10406
ˌ	-10407
͘	-10408
Ϙ	-10409
Ϟ	-10410
Ϡ	-10411
Ѕ	-10412
ѝ	-10413
ѧ	-10414
ѻ	-10415
ҥ	-10416
ҭ	-10417
ӄ	-10418
ӑ	-10419
ӓ	-10420
ӣ	-10421
ӥ	-10422
ӧ	-10423
ӭ	-10424
ӯ	-10425
ӱ	-10426
ԍ	-10427
թ	-10428
պ	-10429
ռ	-10430
؛	-10431
١	-10432
٢	-10433
٪	-10434
ٱ	-10435
ڃ	-10436
ڤ	-10437
ە	-10438
۴	-10439
۷	-10440
۹	-10441
०	-10442
१	-10443
३	-10444
४	-10445
५	-10446
९	-10447
ঐ	-10448
ৌ	-10449
ৎ	-10450
২	-10451
৯	-10452
ৰ	-10453
ਖ	-10454
ਚ	-10455
ં	-10456
ଗ	-10457
ଢ	-10458
ନ	-10459
ଲ	-10460
ୁ	-10461
ఫ	-10462
౪	-10463
ಉ	-10464
೨	-10465
അ	-10466
ന	-10467
ള	-10468
വ	-10469
ආ	-10470
ඔ	-10471
๘	-10472
ສ	-10473
້	-10474
ཀ	-10475
პ	-10476
ც	-10477
ᄲ	-10478
Ꭵ	-10479
Ꮃ	-10480
Ꮙ	-10481
Ꮝ	-10482
Ꮟ	-10483
Ꮳ	-10484
Ꮿ	-10485
ᚣ	-10486
ᚩ	-10487
ᚻ	-10488
ᛘ	-10489
ᛝ	-10490
ᴜ	-10491
ḟ	-10492
ḭ	-10493
ḯ	-10494
ṕ	-10495
ẃ	-10496
ẍ	-10497
Ẽ	-10498
Ἐ	-10499
Ἒ	-10500
Ἓ	-10501
Ἔ	-10502
Ἕ	-10503
Ἱ	-10504
Ἲ	-10505
Ἳ	-10506
Ἵ	-10507
Ἷ	-10508
Ὀ	-10509
Ὁ	-10510
Ὂ	-10511
Ὃ	-10512
Ὄ	-10513
Ὅ	-10514
ὒ	-10515
Ὑ	-10516
Ὓ	-10517
Ὕ	-10518
Ὗ	-10519
ᾀ	-10520
ᾁ	-10521
ᾄ	-10522
ᾅ	-10523
ᾈ	-10524
ᾉ	-10525
ᾊ	-10526
ᾋ	-10527
ᾍ	-10528
ᾏ	-10529
ᾔ	-10530
ᾕ	-10531
ᾘ	-10532
ᾙ	-10533
ᾚ	-10534
ᾛ	-10535
ᾜ	-10536
ᾝ	-10537
ᾟ	-10538
ᾤ	-10539
ᾥ	-10540
ᾨ	-10541
ᾩ	-10542
ᾪ	-10543
ᾫ	-10544
ᾬ	-10545
ᾭ	-10546
ᾯ	-10547
ᾲ	-10548
ᾴ	-10549
ῤ	-10550
Ῥ	-10551
‿	-10552
₣	-10553
℘	-10554
Ⅎ	-10555
∋	-10556
∖	-10557
∥	-10558
∲	-10559
⊈	-10560
⊨	-10561
⍙	-10562
⎙	-10563
⏚	-10564
┿	-10565
╌	-10566
◉	-10567
☮	-10568
♊	-10569
♎	-10570
♏	-10571
♩	-10572
⚖	-10573
✁	-10574
✏	-10575
✯	-10576
✿	-10577
➜	-10578
⠐	-10579
⠢	-10580
⠧	-10581
⠰	-10582
⦅	-10583
⦆	-10584
ⴰ	-10585
⸗	-10586
ふ	-10587
ゥ	-10588
ゼ	-10589
㚈	-10590
丸	-10591
乔	-10592
亻	-10593
仔	-10594
仲	-10595
伊	-10596
侥	-10597
俊	-10598
俘	-10599
僚	-10600
儀	-10601
儲	-10602
兮	-10603
匕	-10604
匚	-10605
匪	-10606
匸	-10607
卵	-10608
厢	-10609
召	-10610
吁	-10611
吵	-10612
呜	-10613
哗	-10614
啓	-10615
啟	-10616
喉	-10617
嗡	-10618
嚮	-10619
囗	-10620
執	-10621
堵	-10622
塌	-10623
壊	-10624
壌	-10625
売	-10626
夂	-10627
夾	-10628
奢	-10629
奧	-10630
孔	-10631
宾	-10632
尖	-10633
届	-10634
屬	-10635
岸	-10636
帳	-10637
幣	-10638
幺	-10639
廠	-10640
廳	-10641
廴	-10642
弘	-10643
弥	-10644
弧	-10645
彭	-10646
怨	-10647
惘	-10648
惟	-10649
愛	-10650
憑	-10651
憶	-10652
抑	-10653
抠	-10654
挝	-10655
捉	-10656
捲	-10657
措	-10658
撮	-10659
撾	-10660
旁	-10661
杏	-10662
杞	-10663
械	-10664
梵	-10665
棄	-10666
橋	-10667
歐	-10668
殻	-10669
汕	-10670
汶	-10671
沽	-10672
浇	-10673
涛	-10674
淫	-10675
渣	-10676
渾	-10677
湃	-10678
滷	-10679
漳	-10680
澄	-10681
濛	-10682
濟	-10683
濮	-10684
瀹	-10685
烛	-10686
烧	-10687
牺	-10688
犀	-10689
獣	-10690
玄	-10691
珊	-10692
疣	-10693
盆	-10694
碧	-10695
笺	-10696
筋	-10697
箇	-10698
籌	-10699
糕	-10700
紹	-10701
絕	-10702
総	-10703
绣	-10704
肃	-10705
肋	-10706
胶	-10707
臉	-10708
舛	-10709
舰	-10710
艳	-10711
芜	-10712
茂	-10713
茹	-10714
蒲	-10715
蔑	-10716
薪	-10717
蛙	-10718
衍	-10719
裘	-10720
褲	-10721
親	-10722
訁	-10723
訪	-10724
註	-10725
課	-10726
讠	-10727
诊	-10728
诗	-10729
責	-10730
賽	-10731
贾	-10732
跋	-10733
践	-10734
蹦	-10735
輕	-10736
辭	-10737
辶	-10738
遞	-10739
遮	-10740
邹	-10741
郓	-10742
酝	-10743
酿	-10744
針	-10745
钧	-10746
钻	-10747
铜	-10748
閱	-10749
闸	-10750
阎	-10751
陕	-10752
陛	-10753
險	-10754
雜	-10755
雾	-10756
颁	-10757
飘	-10758
餅	-10759
饶	-10760
馥	-10761
駕	-10762
騙	-10763
驶	-10764
骛	-10765
鬯	-10766
魏	-10767
鮑	-10768
黛	-10769
ꝕ	-10770
ꞑ	-10771
ꞩ	-10772
갔	-10773
것	-10774
교	-10775
껐	-10776
냥	-10777
논	-10778
됨	-10779
든	-10780
디	-10781
럼	-10782
록	-10783
릅	-10784
릈	-10785
린	-10786
링	-10787
망	-10788
맞	-10789
먼	-10790
메	-10791
못	-10792
므	-10793
방	-10794
뵙	-10795
빠	-10796
설	-10797
속	-10798
손	-10799
숫	-10800
심	-10801
십	-10802
앨	-10803
엠	-10804
옸	-10805
웍	-10806
잠	-10807
잡	-10808
줬	-10809
증	-10810
직	-10811
츠	-10812
측	-10813
핬	-10814
항	-10815
혼	-10816
흔	-10817
	-10818
𝅲	-10819
🇧	-10820
🇫	-10821
🇬	-10822
🌕	-10823
🍞	-10824
🍪	-10825
🍫	-10826
🐢	-10827
🐷	-10828
👊	-10829
👽	-10830
🔍	-10831
😎	-10832
😕	-10833
😻	-10834
😾	-10835
🙅	-10836
🦆	-10837
	-10838
Ē	-10839
ƅ	-10840
ƣ	-10841
ƨ	-10842
ƹ	-10843
ƽ	-10844
ǖ	-10845
ǟ	-10846
ǡ	-10847
ǭ	-10848
ȁ	-10849
ȅ	-10850
ȇ	-10851
ȉ	-10852
ȋ	-10853
ȓ	-10854
ȕ	-10855
ȗ	-10856
ȩ	-10857
ȫ	-10858
ȭ	-10859
ȱ	-10860
ȼ	-10861
ȿ	-10862
ɀ	-10863
ɂ	-10864
ɇ	-10865
ɉ	-10866
ɋ	-10867
ɍ	-10868
ɏ	-10869
ʧ	-10870
ʨ	-10871
ͻ	-10872
ͼ	-10873
ͽ	-10874
ϗ	-10875
ϧ	-10876
Ъ	-10877
ѓ	-10878
ѕ	-10879
ќ	-10880
ѡ	-10881
ѩ	-10882
ѫ	-10883
ѭ	-10884
ѯ	-10885
ѱ	-10886
ѳ	-10887
ѵ	-10888
ѷ	-10889
ѹ	-10890
ѽ	-10891
ѿ	-10892
ҁ	-10893
ҋ	-10894
ҍ	-10895
ҏ	-10896
ҕ	-10897
ҙ	-10898
ҝ	-10899
ҟ	-10900
ҡ	-10901
ҧ	-10902
ҩ	-10903
ҫ	-10904
ұ	-10905
ҳ	-10906
ҵ	-10907
ҷ	-10908
ҽ	-10909
ҿ	-10910
ӂ	-10911
ӆ	-10912
ӈ	-10913
ӊ	-10914
ӌ	-10915
ӎ	-10916
ӕ	-10917
ӗ	-10918
ӛ	-10919
ӝ	-10920
ӟ	-10921
ӡ	-10922
ӫ	-10923
ӵ	-10924
ӷ	-10925
ӹ	-10926
ӻ	-10927
ӽ	-10928
ӿ	-10929
ԁ	-10930
ԃ	-10931
ԅ	-10932
ԇ	-10933
ԉ	-10934
ԋ	-10935
ԏ	-10936
ԑ	-10937
ԓ	-10938
ԕ	-10939
ԗ	-10940
ԙ	-10941
ԝ	-10942
ԟ	-10943
ԡ	-10944
ԣ	-10945
ԥ	-10946
ԧ	-10947
Թ	-10948
՞	-10949
ժ	-10950
ձ	-10951
ղ	-10952
շ	-10953
փ	-10954
օ	-10955
ײ	-10956
٤	-10957
ٺ	-10958
ٻ	-10959
ٿ	-10960
ڀ	-10961
ڄ	-10962
ڇ	-10963
ڌ	-10964
ڍ	-10965
ڎ	-10966
ڱ	-10967
ڳ	-10968
ڻ	-10969
ۀ	-10970
ۅ	-10971
ۉ	-10972
ۋ	-10973
ۓ	-10974
ॉ	-10975
ঘ	-10976
ঝ	-10977
০	-10978
ਝ	-10979
ਟ	-10980
ਥ	-10981
ੱ	-10982
ભ	-10983
મ	-10984
વ	-10985
ષ	-10986
ଙ	-10987
ଟ	-10988
ஹ	-10989
ಧ	-10990
ജ	-10991
ഷ	-10992
ඉ	-10993
๖	-10994
ພ	-10995
༼	-10996
༽	-10997
ཌ	-10998
ན	-10999
ཛ	-11000
ྜ	-11001
ྦ	-11002
က	-11003
ბ	-11004
შ	-11005
ᄔ	-11006
ᄕ	-11007
ᄜ	-11008
ᄝ	-11009
ᄞ	-11010
ᄠ	-11011
ᄢ	-11012
ᄣ	-11013
ᄧ	-11014
ᄩ	-11015
ᄫ	-11016
ᄬ	-11017
ᄭ	-11018
ᄮ	-11019
ᄯ	-11020
ᄶ	-11021
ᅀ	-11022
ᅇ	-11023
ᅌ	-11024
ᅗ	-11025
ᅘ	-11026
ᅙ	-11027
ᆄ	-11028
ᆅ	-11029
ᆈ	-11030
ᆑ	-11031
ᆒ	-11032
ᆔ	-11033
ᆞ	-11034
ᆡ	-11035
ᇇ	-11036
ᇈ	-11037
ᇌ	-11038
ᇎ	-11039
ᇓ	-11040
ᇗ	-11041
ᇙ	-11042
ᇝ	-11043
ᇟ	-11044
ᇱ	-11045
ᇲ	-11046
ብ	-11047
ት	-11048
ኛ	-11049
ይ	-11050
Ꭰ	-11051
Ꭱ	-11052
Ꭲ	-11053
Ꭴ	-11054
Ꭶ	-11055
Ꭸ	-11056
Ꭿ	-11057
Ꮅ	-11058
Ꮈ	-11059
Ꮉ	-11060
Ꮎ	-11061
Ꮣ	-11062
Ꮧ	-11063
Ꮪ	-11064
Ꮫ	-11065
Ꮯ	-11066
Ᏸ	-11067
ᗧ	-11068
ᛃ	-11069
ច	-11070
ត	-11071
ប	-11072
ព	-11073
ᴂ	-11074
ᴖ	-11075
ᴗ	-11076
ᴝ	-11077
ᴥ	-11078
ᵹ	-11079
ᵻ	-11080
ᵽ	-11081
ᶅ	-11082
ḁ	-11083
ḃ	-11084
ḅ	-11085
ḇ	-11086
ḉ	-11087
ḋ	-11088
ḕ	-11089
ḛ	-11090
ḝ	-11091
ḡ	-11092
ḣ	-11093
ḧ	-11094
ḵ	-11095
ṉ	-11096
ṋ	-11097
ṏ	-11098
ṑ	-11099
ṓ	-11100
ṗ	-11101
ṙ	-11102
ṟ	-11103
ṥ	-11104
ṩ	-11105
ṫ	-11106
ṳ	-11107
ṵ	-11108
ṷ	-11109
ṹ	-11110
ṻ	-11111
ṽ	-11112
ṿ	-11113
ẅ	-11114
ẇ	-11115
ẉ	-11116
ẏ	-11117
ẕ	-11118
ỻ	-11119
ỽ	-11120
ỿ	-11121
⁀	-11122
₹	-11123
⃖	-11124
⃛	-11125
⃜	-11126
⃡	-11127
↺	-11128
↻	-11129
∁	-11130
∄	-11131
∉	-11132
∝	-11133
∡	-11134
∳	-11135
∵	-11136
≁	-11137
≂	-11138
≃	-11139
≇	-11140
≊	-11141
≼	-11142
⊄	-11143
⊇	-11144
⊉	-11145
⊩	-11146
⊪	-11147
⊫	-11148
⊬	-11149
⊭	-11150
⊮	-11151
⊯	-11152
⊻	-11153
⊼	-11154
⋆	-11155
⋍	-11156
⋎	-11157
⋏	-11158
⋒	-11159
⋓	-11160
⌊	-11161
⌐	-11162
╓	-11163
▃	-11164
▆	-11165
◀	-11166
◇	-11167
☒	-11168
☯	-11169
♆	-11170
♇	-11171
♋	-11172
♍	-11173
♑	-11174
♒	-11175
♓	-11176
♡	-11177
♯	-11178
⚔	-11179
⛔	-11180
❎	-11181
❮	-11182
❯	-11183
⠀	-11184
⠱	-11185
⠹	-11186
⠼	-11187
⨏	-11188
⨖	-11189
⫅	-11190
⫆	-11191
⫋	-11192
⫌	-11193
⫝	-11194
ⰰ	-11195
ⰱ	-11196
ⰲ	-11197
ⰳ	-11198
ⰴ	-11199
ⰵ	-11200
ⰶ	-11201
ⰷ	-11202
ⰸ	-11203
ⰹ	-11204
ⰺ	-11205
ⰻ	-11206
ⰼ	-11207
ⰽ	-11208
ⰾ	-11209
ⰿ	-11210
ⱀ	-11211
ⱁ	-11212
ⱂ	-11213
ⱃ	-11214
ⱄ	-11215
ⱅ	-11216
ⱆ	-11217
ⱇ	-11218
ⱈ	-11219
ⱉ	-11220
ⱊ	-11221
ⱋ	-11222
ⱌ	-11223
ⱍ	-11224
ⱎ	-11225
ⱏ	-11226
ⱐ	-11227
ⱑ	-11228
ⱒ	-11229
ⱓ	-11230
ⱔ	-11231
ⱕ	-11232
ⱖ	-11233
ⱗ	-11234
ⱘ	-11235
ⱙ	-11236
ⱚ	-11237
ⱛ	-11238
ⱜ	-11239
ⱝ	-11240
ⱞ	-11241
ⱡ	-11242
ⱥ	-11243
ⱦ	-11244
ⱨ	-11245
ⱪ	-11246
ⱬ	-11247
ⱳ	-11248
ⱶ	-11249
ⲇ	-11250
ⲋ	-11251
ⲝ	-11252
ⲯ	-11253
ⲳ	-11254
ⲵ	-11255
ⲷ	-11256
ⲹ	-11257
ⲻ	-11258
ⲽ	-11259
ⲿ	-11260
ⳁ	-11261
ⳃ	-11262
ⳅ	-11263
ⳇ	-11264
ⳉ	-11265
ⳋ	-11266
ⳍ	-11267
ⳏ	-11268
ⳑ	-11269
ⳓ	-11270
ⳕ	-11271
ⳗ	-11272
ⳙ	-11273
ⳛ	-11274
ⳝ	-11275
ⳟ	-11276
ⳡ	-11277
ⳣ	-11278
ⳬ	-11279
ⳮ	-11280
ⳳ	-11281
ⴧ	-11282
ⴭ	-11283
ⵉ	-11284
ⵖ	-11285
ⵡ	-11286
⿹	-11287
⿺	-11288
々	-11289
〖	-11290
〗	-11291
ぜ	-11292
ゆ	-11293
ヰ	-11294
ヱ	-11295
㒞	-11296
㒹	-11297
㒻	-11298
㓟	-11299
㔕	-11300
㛮	-11301
㞁	-11302
㠯	-11303
㡢	-11304
㡼	-11305
㣇	-11306
㣣	-11307
㤜	-11308
㤺	-11309
㨮	-11310
㩬	-11311
㫤	-11312
㬈	-11313
㬙	-11314
㭉	-11315
㰘	-11316
㱎	-11317
㴳	-11318
㶖	-11319
㺬	-11320
㺸	-11321
㼛	-11322
㿼	-11323
䀈	-11324
䀘	-11325
䁆	-11326
䂖	-11327
䃣	-11328
䄯	-11329
䈂	-11330
䈧	-11331
䊠	-11332
䌁	-11333
䌴	-11334
䍙	-11335
䏕	-11336
䏙	-11337
䐋	-11338
䑫	-11339
䔫	-11340
䕝	-11341
䕡	-11342
䕫	-11343
䗹	-11344
䘵	-11345
䚾	-11346
䛇	-11347
䦕	-11348
䧦	-11349
䩮	-11350
䩶	-11351
䪲	-11352
䬳	-11353
䯎	-11354
䳎	-11355
䳭	-11356
䳸	-11357
䵖	-11358
丙	-11359
丶	-11360
丿	-11361
乁	-11362
仌	-11363
侀	-11364
侻	-11365
俺	-11366
倂	-11367
偺	-11368
傢	-11369
傾	-11370
兀	-11371
兤	-11372
冂	-11373
冕	-11374
冖	-11375
冫	-11376
冶	-11377
凞	-11378
刃	-11379
剆	-11380
創	-11381
剷	-11382
勁	-11383
勃	-11384
勹	-11385
卄	-11386
卉	-11387
卩	-11388
卽	-11389
厶	-11390
叟	-11391
叱	-11392
吆	-11393
吏	-11394
吝	-11395
呗	-11396
咖	-11397
咞	-11398
咢	-11399
哒	-11400
哶	-11401
啕	-11402
啡	-11403
啣	-11404
喇	-11405
喫	-11406
喳	-11407
喷	-11408
嗀	-11409
嗂	-11410
嗢	-11411
噑	-11412
噪	-11413
囹	-11414
圗	-11415
垄	-11416
埴	-11417
堍	-11418
堲	-11419
塀	-11420
塵	-11421
墬	-11422
壓	-11423
壷	-11424
夆	-11425
奄	-11426
奕	-11427
姘	-11428
姿	-11429
娇	-11430
娧	-11431
婢	-11432
媵	-11433
嬨	-11434
嬾	-11435
宀	-11436
宙	-11437
寃	-11438
寘	-11439
寳	-11440
專	-11441
尴	-11442
岍	-11443
峀	-11444
嵃	-11445
嵫	-11446
嵮	-11447
嵼	-11448
嶲	-11449
巛	-11450
巾	-11451
帖	-11452
帨	-11453
幩	-11454
庰	-11455
庳	-11456
庸	-11457
廒	-11458
廙	-11459
廷	-11460
弋	-11461
弗	-11462
弟	-11463
弢	-11464
弯	-11465
彐	-11466
彫	-11467
徚	-11468
徭	-11469
徵	-11470
忹	-11471
怄	-11472
恵	-11473
悁	-11474
惇	-11475
惨	-11476
愤	-11477
慠	-11478
慰	-11479
慶	-11480
慺	-11481
憯	-11482
懈	-11483
懷	-11484
戛	-11485
戮	-11486
扎	-11487
扝	-11488
抵	-11489
拂	-11490
拏	-11491
拘	-11492
拽	-11493
捻	-11494
揄	-11495
揅	-11496
揤	-11497
損	-11498
搢	-11499
搶	-11500
摷	-11501
摾	-11502
擷	-11503
攴	-11504
攻	-11505
旗	-11506
旣	-11507
晕	-11508
晦	-11509
暜	-11510
朡	-11511
杓	-11512
杻	-11513
枅	-11514
枪	-11515
枯	-11516
柠	-11517
柺	-11518
栟	-11519
桒	-11520
梎	-11521
椔	-11522
楂	-11523
榄	-11524
榣	-11525
槪	-11526
橫	-11527
檨	-11528
櫻	-11529
歔	-11530
歩	-11531
殟	-11532
殴	-11533
殼	-11534
毎	-11535
汎	-11536
汧	-11537
泄	-11538
泍	-11539
洖	-11540
洴	-11541
浆	-11542
浴	-11543
淘	-11544
渚	-11545
湮	-11546
溜	-11547
滅	-11548
滇	-11549
滛	-11550
滨	-11551
潭	-11552
澜	-11553
濆	-11554
灊	-11555
灷	-11556
炙	-11557
烙	-11558
煅	-11559
熜	-11560
燃	-11561
燐	-11562
爨	-11563
爪	-11564
爫	-11565
爭	-11566
爷	-11567
爽	-11568
爿	-11569
牐	-11570
牧	-11571
犕	-11572
狐	-11573
獨	-11574
獻	-11575
玥	-11576
珞	-11577
琢	-11578
瑇	-11579
瑶	-11580
璅	-11581
璘	-11582
甆	-11583
甤	-11584
町	-11585
甾	-11586
疋	-11587
疒	-11588
痢	-11589
瘐	-11590
瘝	-11591
瘟	-11592
癥	-11593
癶	-11594
眞	-11595
眠	-11596
眨	-11597
督	-11598
瞄	-11599
瞋	-11600
硎	-11601
硫	-11602
磻	-11603
礎	-11604
祉	-11605
祐	-11606
禸	-11607
禾	-11608
秉	-11609
秊	-11610
秫	-11611
稅	-11612
稜	-11613
穆	-11614
穊	-11615
穏	-11616
穴	-11617
窱	-11618
篆	-11619
糒	-11620
糣	-11621
糨	-11622
糸	-11623
絣	-11624
給	-11625
縂	-11626
縫	-11627
繞	-11628
繪	-11629
纤	-11630
缝	-11631
缠	-11632
缪	-11633
缴	-11634
缶	-11635
缾	-11636
罐	-11637
罹	-11638
罺	-11639
羕	-11640
羚	-11641
翺	-11642
耒	-11643
耕	-11644
聆	-11645
聠	-11646
聲	-11647
聿	-11648
肩	-11649
肭	-11650
胞	-11651
脃	-11652
脈	-11653
腻	-11654
膠	-11655
舄	-11656
舉	-11657
舊	-11658
舘	-11659
艸	-11660
芋	-11661
芑	-11662
芸	-11663
茝	-11664
茣	-11665
荆	-11666
荓	-11667
莉	-11668
莭	-11669
菉	-11670
菧	-11671
菱	-11672
蓱	-11673
蓳	-11674
蓼	-11675
蔖	-11676
蔼	-11677
蕤	-11678
藥	-11679
蘊	-11680
蘒	-11681
虍	-11682
虐	-11683
虞	-11684
虾	-11685
蚈	-11686
蚊	-11687
蚩	-11688
蛢	-11689
蜎	-11690
蜨	-11691
蝫	-11692
螆	-11693
螺	-11694
蟡	-11695
蠁	-11696
蠻	-11697
衠	-11698
裗	-11699
裞	-11700
裺	-11701
褐	-11702
襁	-11703
襾	-11704
証	-11705
評	-11706
譯	-11707
讓	-11708
讴	-11709
讶	-11710
诀	-11711
豁	-11712
豸	-11713
賠	-11714
贗	-11715
贡	-11716
贩	-11717
贼	-11718
赠	-11719
趼	-11720
跰	-11721
踌	-11722
輝	-11723
轰	-11724
農	-11725
辵	-11726
遠	-11727
邔	-11728
郞	-11729
郭	-11730
郱	-11731
鄉	-11732
鄑	-11733
鄙	-11734
鄛	-11735
酉	-11736
酱	-11737
醙	-11738
醬	-11739
醴	-11740
釆	-11741
釋	-11742
鈞	-11743
鉼	-11744
鋗	-11745
鋘	-11746
鐕	-11747
鐘	-11748
铝	-11749
锲	-11750
閃	-11751
閉	-11752
閷	-11753
闷	-11754
闺	-11755
陰	-11756
陼	-11757
隣	-11758
隷	-11759
隹	-11760
雃	-11761
霣	-11762
靑	-11763
韛	-11764
韠	-11765
韭	-11766
頩	-11767
顛	-11768
颇	-11769
餩	-11770
饱	-11771
馧	-11772
駂	-11773
駾	-11774
騰	-11775
驚	-11776
髅	-11777
髟	-11778
鬲	-11779
魄	-11780
鯰	-11781
鱀	-11782
鳽	-11783
鵧	-11784
鹽	-11785
黍	-11786
鼅	-11787
鼏	-11788
鼖	-11789
齃	-11790
ꙁ	-11791
ꙃ	-11792
ꙅ	-11793
ꙇ	-11794
ꙉ	-11795
ꙍ	-11796
ꙏ	-11797
ꙑ	-11798
ꙓ	-11799
ꙕ	-11800
ꙗ	-11801
ꙙ	-11802
ꙛ	-11803
ꙝ	-11804
ꙟ	-11805
ꙡ	-11806
ꙣ	-11807
ꙥ	-11808
ꙧ	-11809
ꙩ	-11810
ꙫ	-11811
ꙭ	-11812
ꚁ	-11813
ꚃ	-11814
ꚅ	-11815
ꚇ	-11816
ꚉ	-11817
ꚋ	-11818
ꚍ	-11819
ꚏ	-11820
ꚑ	-11821
ꚓ	-11822
ꚕ	-11823
ꚗ	-11824
ꜩ	-11825
ꜫ	-11826
ꜭ	-11827
ꜯ	-11828
ꜳ	-11829
ꜵ	-11830
ꜷ	-11831
ꜹ	-11832
ꜻ	-11833
ꜽ	-11834
ꜿ	-11835
ꝁ	-11836
ꝃ	-11837
ꝅ	-11838
ꝇ	-11839
ꝉ	-11840
ꝋ	-11841
ꝍ	-11842
ꝏ	-11843
ꝑ	-11844
ꝓ	-11845
ꝗ	-11846
ꝙ	-11847
ꝛ	-11848
ꝝ	-11849
ꝟ	-11850
ꝡ	-11851
ꝣ	-11852
ꝥ	-11853
ꝧ	-11854
ꝩ	-11855
ꝫ	-11856
ꝭ	-11857
ꝺ	-11858
ꝼ	-11859
ꝿ	-11860
ꞁ	-11861
ꞃ	-11862
ꞅ	-11863
ꞇ	-11864
ꞓ	-11865
ꞡ	-11866
ꞣ	-11867
ꞥ	-11868
ꞧ	-11869
각	-11870
군	-11871
궁	-11872
낸	-11873
냐	-11874
묻	-11875
복	-11876
뻐	-11877
송	-11878
언	-11879
얻	-11880
완	-11881
임	-11882
젝	-11883
죠	-11884
참	-11885
쳐	-11886
최	-11887
치	-11888
큐	-11889
큰	-11890
탄	-11891
택	-11892
패	-11893
필	-11894
확	-11895
𐐨	-11896
𐐩	-11897
𐐪	-11898
𐐫	-11899
𐐬	-11900
𐐭	-11901
𐐮	-11902
𐐯	-11903
𐐰	-11904
𐐱	-11905
𐐲	-11906
𐐳	-11907
𐐴	-11908
𐐵	-11909
𐐶	-11910
𐐷	-11911
𐐸	-11912
𐐹	-11913
𐐺	-11914
𐐻	-11915
𐐼	-11916
𐐽	-11917
𐐾	-11918
𐐿	-11919
𐑀	-11920
𐑁	-11921
𐑂	-11922
𐑃	-11923
𐑄	-11924
𐑅	-11925
𐑆	-11926
𐑇	-11927
𐑈	-11928
𐑉	-11929
𐑊	-11930
𐑋	-11931
𐑌	-11932
𐑍	-11933
𐑎	-11934
𐑏	-11935
𝅗	-11936
𝅰	-11937
𝅱	-11938
🌀	-11939
🌎	-11940
🌑	-11941
🌸	-11942
🎃	-11943
🏎	-11944
🐈	-11945
👴	-11946
👻	-11947
💜	-11948
💣	-11949
💾	-11950
📝	-11951
🔴	-11952
😣	-11953
😪	-11954
😮	-11955
😱	-11956
😳	-11957
🙆	-11958
🙍	-11959
🙎	-11960
🤗	-11961
𠄢	-11962
𠔜	-11963
𠔥	-11964
𠕋	-11965
𠘺	-11966
𠠄	-11967
𠣞	-11968
𠨬	-11969
𠭣	-11970
𡓤	-11971
𡚨	-11972
𡛪	-11973
𡧈	-11974
𡬘	-11975
𡴋	-11976
𡷤	-11977
𡷦	-11978
𢆃	-11979
𢆟	-11980
𢌱	-11981
𢛔	-11982
𢡄	-11983
𢡊	-11984
𢬌	-11985
𢯱	-11986
𣀊	-11987
𣊸	-11988
𣍟	-11989
𣎓	-11990
𣎜	-11991
𣏃	-11992
𣏕	-11993
𣑭	-11994
𣚣	-11995
𣢧	-11996
𣪍	-11997
𣫺	-11998
𣲼	-11999
𣴞	-12000
𣻑	-12001
𣽞	-12002
𣾎	-12003
𤉣	-12004
𤋮	-12005
𤘈	-12006
𤜵	-12007
𤠔	-12008
𤰶	-12009
𤲒	-12010
𤾡	-12011
𤾸	-12012
𥁄	-12013
𥃲	-12014
𥃳	-12015
𥄙	-12016
𥄳	-12017
𥉉	-12018
𥐝	-12019
𥘦	-12020
𥚚	-12021
𥛅	-12022
𥥼	-12023
𥪧	-12024
𥮫	-12025
𥲀	-12026
𥳐	-12027
𥾆	-12028
𦇚	-12029
𦈨	-12030
𦉇	-12031
𦋙	-12032
𦌾	-12033
𦓚	-12034
𦔣	-12035
𦖨	-12036
𦞧	-12037
𦞵	-12038
𦬼	-12039
𦰶	-12040
𦳕	-12041
𦵫	-12042
𦼬	-12043
𦾱	-12044
𧃒	-12045
𧏊	-12046
𧙧	-12047
𧢮	-12048
𧥦	-12049
𧲨	-12050
𧻓	-12051
𧼯	-12052
𨗒	-12053
𨗭	-12054
𨜮	-12055
𨯺	-12056
𨵷	-12057
𩅅	-12058
𩇟	-12059
𩈚	-12060
𩐊	-12061
𩒖	-12062
𩖶	-12063
𩬰	-12064
𪃎	-12065
𪄅	-12066
𪈎	-12067
𪊑	-12068
𪎒	-12069
𪘀	-12070
	-12071
Ū	-12072
Ů	-12073
Ɛ	-12074
Ƶ	-12075
Ȳ	-12076
ɷ	-12077
ɼ	-12078
˦	-12079
̐	-12080
̒	-12081
̛	-12082
̷	-12083
͢	-12084
Ϊ	-12085
Ϋ	-12086
ϳ	-12087
Ћ	-12088
ԩ	-12089
ԫ	-12090
ԭ	-12091
ԯ	-12092
՝	-12093
։	-12094
ऌ	-12095
ऴ	-12096
ॠ	-12097
ॡ	-12098
ॲ	-12099
৭	-12100
৮	-12101
ઃ	-12102
ઍ	-12103
ચ	-12104
ઞ	-12105
ણ	-12106
પ	-12107
સ	-12108
ଓ	-12109
ତ	-12110
ୟ	-12111
ః	-12112
ఐ	-12113
ఓ	-12114
ఞ	-12115
ಃ	-12116
ಏ	-12117
ಐ	-12118
ಒ	-12119
ಓ	-12120
ಞ	-12121
ೃ	-12122
೦	-12123
೩	-12124
೬	-12125
ഃ	-12126
ഇ	-12127
ഓ	-12128
ച	-12129
ഞ	-12130
പ	-12131
റ	-12132
സ	-12133
ഹ	-12134
ൻ	-12135
ඟ	-12136
ථ	-12137
ඹ	-12138
ກ	-12139
ປ	-12140
ང	-12141
མ	-12142
ས	-12143
ེ	-12144
င	-12145
ပ	-12146
အ	-12147
း	-12148
ቋ	-12149
ግ	-12150
Ꭳ	-12151
Ꭷ	-12152
Ꭺ	-12153
Ꭻ	-12154
Ꭼ	-12155
Ꭽ	-12156
Ꭾ	-12157
Ꮀ	-12158
Ꮁ	-12159
Ꮂ	-12160
Ꮄ	-12161
Ꮆ	-12162
Ꮇ	-12163
Ꮊ	-12164
Ꮋ	-12165
Ꮌ	-12166
Ꮍ	-12167
Ꮏ	-12168
Ꮐ	-12169
Ꮑ	-12170
Ꮒ	-12171
Ꮓ	-12172
Ꮔ	-12173
Ꮕ	-12174
Ꮖ	-12175
Ꮗ	-12176
Ꮘ	-12177
Ꮚ	-12178
Ꮛ	-12179
Ꮜ	-12180
Ꮞ	-12181
Ꮠ	-12182
Ꮡ	-12183
Ꮢ	-12184
Ꮥ	-12185
Ꮦ	-12186
Ꮨ	-12187
Ꮩ	-12188
Ꮬ	-12189
Ꮭ	-12190
Ꮮ	-12191
Ꮰ	-12192
Ꮱ	-12193
Ꮲ	-12194
Ꮴ	-12195
Ꮵ	-12196
Ꮶ	-12197
Ꮷ	-12198
Ꮸ	-12199
Ꮹ	-12200
Ꮺ	-12201
Ꮻ	-12202
Ꮼ	-12203
Ꮽ	-12204
Ꮾ	-12205
Ᏹ	-12206
Ᏺ	-12207
Ᏻ	-12208
Ᏼ	-12209
Ᏽ	-12210
ᚨ	-12211
ᚭ	-12212
ᚲ	-12213
ᛄ	-12214
ᛊ	-12215
ᛜ	-12216
ᛡ	-12217
ᛣ	-12218
ᛤ	-12219
ណ	-12220
ុ	-12221
ᴎ	-12222
ᴘ	-12223
Ṣ	-12224
Ṭ	-12225
Ṯ	-12226
Ᾰ	-12227
Ᾱ	-12228
ᾼ	-12229
ῌ	-12230
Ῐ	-12231
Ῑ	-12232
Ῠ	-12233
Ῡ	-12234
ῼ	-12235
※	-12236
⁠	-12237
₤	-12238
₺	-12239
₿	-12240
⃐	-12241
↖	-12242
↩	-12243
⇐	-12244
∌	-12245
∣	-12246
∱	-12247
≄	-12248
≉	-12249
≑	-12250
≧	-12251
⊅	-12252
⊔	-12253
⊥	-12254
⊧	-12255
⊲	-12256
⊵	-12257
⋮	-12258
⋯	-12259
⌋	-12260
⍝	-12261
┨	-12262
╳	-12263
▉	-12264
▷	-12265
▹	-12266
◊	-12267
◑	-12268
◡	-12269
◻	-12270
☂	-12271
☛	-12272
☢	-12273
♜	-12274
♝	-12275
♺	-12276
⚑	-12277
⚓	-12278
⚛	-12279
⚪	-12280
✂	-12281
✋	-12282
✚	-12283
❓	-12284
➿	-12285
⠍	-12286
⠏	-12287
⠓	-12288
⠙	-12289
⠦	-12290
⨎	-12291
⩞	-12292
⩽	-12293
ⵎ	-12294
⸍	-12295
⺼	-12296
⿴	-12297
⿵	-12298
⿶	-12299
⿷	-12300
ぐ	-12301
ぽ	-12302
䦹	-12303
䦺	-12304
乒	-12305
乳	-12306
仑	-12307
仟	-12308
伺	-12309
佰	-12310
侖	-12311
侠	-12312
侵	-12313
偽	-12314
傥	-12315
傻	-12316
僅	-12317
僕	-12318
償	-12319
冯	-12320
凛	-12321
刁	-12322
刊	-12323
剂	-12324
剃	-12325
勧	-12326
匡	-12327
厍	-12328
厭	-12329
吨	-12330
吻	-12331
呃	-12332
呐	-12333
呕	-12334
咏	-12335
咒	-12336
咚	-12337
咱	-12338
哑	-12339
唷	-12340
啤	-12341
啷	-12342
喽	-12343
嗨	-12344
嗳	-12345
嚴	-12346
囚	-12347
圾	-12348
坠	-12349
垃	-12350
垮	-12351
壞	-12352
奉	-12353
妳	-12354
娄	-12355
娅	-12356
娴	-12357
婵	-12358
孟	-12359
孰	-12360
宰	-12361
審	-12362
寺	-12363
將	-12364
尘	-12365
屌	-12366
屎	-12367
屿	-12368
岚	-12369
岩	-12370
崛	-12371
嵌	-12372
広	-12373
庞	-12374
彈	-12375
彰	-12376
徒	-12377
徴	-12378
怅	-12379
怠	-12380
悉	-12381
悚	-12382
悟	-12383
慟	-12384
憂	-12385
懸	-12386
戎	-12387
扁	-12388
扑	-12389
扭	-12390
抖	-12391
抚	-12392
拗	-12393
拢	-12394
捗	-12395
捣	-12396
揽	-12397
撲	-12398
擬	-12399
擺	-12400
擾	-12401
攜	-12402
攝	-12403
敵	-12404
斌	-12405
昼	-12406
晃	-12407
暖	-12408
曉	-12409
札	-12410
枣	-12411
枫	-12412
柴	-12413
栾	-12414
桂	-12415
梢	-12416
棉	-12417
槽	-12418
檬	-12419
欤	-12420
歸	-12421
殖	-12422
殯	-12423
氓	-12424
氯	-12425
汝	-12426
汲	-12427
沃	-12428
沖	-12429
泻	-12430
浑	-12431
涤	-12432
淑	-12433
渎	-12434
渗	-12435
減	-12436
渺	-12437
湘	-12438
溃	-12439
滕	-12440
滢	-12441
漕	-12442
潍	-12443
潰	-12444
濃	-12445
濱	-12446
灌	-12447
灘	-12448
灸	-12449
灼	-12450
炮	-12451
炼	-12452
烁	-12453
烫	-12454
焦	-12455
焱	-12456
燙	-12457
爆	-12458
牆	-12459
牟	-12460
狄	-12461
獃	-12462
獎	-12463
琼	-12464
瑟	-12465
産	-12466
甫	-12467
畿	-12468
瘋	-12469
癌	-12470
癡	-12471
癣	-12472
皓	-12473
皱	-12474
盡	-12475
盯	-12476
眾	-12477
睾	-12478
瞿	-12479
矽	-12480
砰	-12481
硅	-12482
磯	-12483
穫	-12484
窝	-12485
窦	-12486
窩	-12487
競	-12488
竺	-12489
笃	-12490
笨	-12491
笹	-12492
笼	-12493
筒	-12494
箕	-12495
篑	-12496
篮	-12497
篷	-12498
籲	-12499
粘	-12500
粵	-12501
糰	-12502
純	-12503
緩	-12504
緯	-12505
繳	-12506
續	-12507
纍	-12508
纔	-12509
纜	-12510
纨	-12511
纭	-12512
缑	-12513
缧	-12514
羿	-12515
習	-12516
翔	-12517
耶	-12518
聂	-12519
肢	-12520
胀	-12521
脉	-12522
腳	-12523
膜	-12524
膽	-12525
臧	-12526
苍	-12527
苗	-12528
苧	-12529
茗	-12530
莊	-12531
莘	-12532
莺	-12533
菅	-12534
菲	-12535
萝	-12536
萧	-12537
葯	-12538
蒋	-12539
蒐	-12540
蓟	-12541
蔺	-12542
蕭	-12543
蛇	-12544
衊	-12545
衔	-12546
袂	-12547
襯	-12548
觅	-12549
託	-12550
診	-12551
誦	-12552
譬	-12553
護	-12554
讥	-12555
讽	-12556
诲	-12557
诵	-12558
谣	-12559
谭	-12560
谯	-12561
豹	-12562
貼	-12563
賢	-12564
赐	-12565
赢	-12566
赴	-12567
躍	-12568
躯	-12569
躲	-12570
軌	-12571
軍	-12572
輯	-12573
轎	-12574
轟	-12575
轼	-12576
辄	-12577
辕	-12578
辜	-12579
辦	-12580
迦	-12581
逍	-12582
違	-12583
邁	-12584
邊	-12585
邋	-12586
邓	-12587
邬	-12588
郏	-12589
郦	-12590
郧	-12591
酬	-12592
醉	-12593
醞	-12594
釀	-12595
鈣	-12596
鉄	-12597
銅	-12598
銷	-12599
鋼	-12600
錢	-12601
錩	-12602
鎖	-12603
鎮	-12604
鏈	-12605
鏡	-12606
钜	-12607
钞	-12608
钠	-12609
钦	-12610
钭	-12611
铺	-12612
锡	-12613
锺	-12614
閒	-12615
闾	-12616
阂	-12617
阐	-12618
阚	-12619
阪	-12620
隙	-12621
雕	-12622
雙	-12623
霊	-12624
霭	-12625
靜	-12626
鞭	-12627
韬	-12628
韻	-12629
顆	-12630
颛	-12631
飙	-12632
飾	-12633
饲	-12634
馀	-12635
馁	-12636
駿	-12637
驷	-12638
骆	-12639
骚	-12640
髭	-12641
鬓	-12642
鬢	-12643
鬧	-12644
鬱	-12645
鯨	-12646
鲇	-12647
鲍	-12648
鲸	-12649
鳴	-12650
鷗	-12651
鸭	-12652
齢	-12653
龚	-12654
ꔤ	-12655
ꚙ	-12656
ꚛ	-12657
ꞗ	-12658
ꞙ	-12659
ꞛ	-12660
ꞝ	-12661
ꞟ	-12662
ꞵ	-12663
ꞷ	-12664
ꬷ	-12665
ꭒ	-12666
ꭓ	-12667
갑	-12668
걸	-12669
겉	-12670
깐	-12671
깔	-12672
꼴	-12673
눈	-12674
느	-12675
님	-12676
독	-12677
돕	-12678
뒈	-12679
떡	-12680
띠	-12681
랐	-12682
럴	-12683
루	-12684
릴	-12685
맨	-12686
멍	-12687
벌	-12688
볶	-12689
뵈	-12690
붙	-12691
븅	-12692
빌	-12693
빙	-12694
빨	-12695
빱	-12696
뺑	-12697
쁘	-12698
섯	-12699
셀	-12700
솟	-12701
술	-12702
싶	-12703
씻	-12704
암	-12705
앙	-12706
앰	-12707
염	-12708
옘	-12709
옹	-12710
왕	-12711
움	-12712
잘	-12713
절	-12714
째	-12715
찌	-12716
찐	-12717
착	-12718
춘	-12719
친	-12720
툰	-12721
페	-12722
펲	-12723
풀	-12724
픈	-12725
	-12726
	-12727
𐌔	-12728
𐌕	-12729
𐌖	-12730
𐌗	-12731
𐓘	-12732
𐓙	-12733
𐓚	-12734
𐓛	-12735
𐓜	-12736
𐓝	-12737
𐓞	-12738
𐓟	-12739
𐓠	-12740
𐓡	-12741
𐓢	-12742
𐓣	-12743
𐓤	-12744
𐓥	-12745
𐓦	-12746
𐓧	-12747
𐓨	-12748
𐓩	-12749
𐓪	-12750
𐓫	-12751
𐓬	-12752
𐓭	-12753
𐓮	-12754
𐓯	-12755
𐓰	-12756
𐓱	-12757
𐓲	-12758
𐓳	-12759
𐓴	-12760
𐓵	-12761
𐓶	-12762
𐓷	-12763
𐓸	-12764
𐓹	-12765
𐓺	-12766
𐓻	-12767
𐳀	-12768
𐳁	-12769
𐳂	-12770
𐳃	-12771
𐳄	-12772
𐳅	-12773
𐳆	-12774
𐳇	-12775
𐳈	-12776
𐳉	-12777
𐳊	-12778
𐳋	-12779
𐳌	-12780
𐳍	-12781
𐳎	-12782
𐳏	-12783
𐳐	-12784
𐳑	-12785
𐳒	-12786
𐳓	-12787
𐳔	-12788
𐳕	-12789
𐳖	-12790
𐳗	-12791
𐳘	-12792
𐳙	-12793
𐳚	-12794
𐳛	-12795
𐳜	-12796
𐳝	-12797
𐳞	-12798
𐳟	-12799
𐳠	-12800
𐳡	-12801
𐳢	-12802
𐳣	-12803
𐳤	-12804
𐳥	-12805
𐳦	-12806
𐳧	-12807
𐳨	-12808
𐳩	-12809
𐳪	-12810
𐳫	-12811
𐳬	-12812
𐳭	-12813
𐳮	-12814
𐳯	-12815
𐳰	-12816
𐳱	-12817
𐳲	-12818
𑣀	-12819
𑣁	-12820
𑣂	-12821
𑣃	-12822
𑣄	-12823
𑣅	-12824
𑣆	-12825
𑣇	-12826
𑣈	-12827
𑣉	-12828
𑣊	-12829
𑣋	-12830
𑣌	-12831
𑣍	-12832
𑣎	-12833
𑣏	-12834
𑣐	-12835
𑣑	-12836
𑣒	-12837
𑣓	-12838
𑣔	-12839
𑣕	-12840
𑣖	-12841
𑣗	-12842
𑣘	-12843
𑣙	-12844
𑣚	-12845
𑣛	-12846
𑣜	-12847
𑣝	-12848
𑣞	-12849
𑣟	-12850
𞤢	-12851
𞤣	-12852
𞤤	-12853
𞤥	-12854
𞤦	-12855
𞤧	-12856
𞤨	-12857
𞤩	-12858
𞤪	-12859
𞤫	-12860
𞤬	-12861
𞤭	-12862
𞤮	-12863
𞤯	-12864
𞤰	-12865
𞤱	-12866
𞤲	-12867
𞤳	-12868
𞤴	-12869
𞤵	-12870
𞤶	-12871
𞤷	-12872
𞤸	-12873
𞤹	-12874
𞤺	-12875
𞤻	-12876
𞤼	-12877
𞤽	-12878
𞤾	-12879
𞤿	-12880
𞥀	-12881
𞥁	-12882
𞥂	-12883
𞥃	-12884
🇲	-12885
🌍	-12886
🌓	-12887
🌱	-12888
🍉	-12889
🎆	-12890
🐊	-12891
🐣	-12892
🐥	-12893
🐶	-12894
👤	-12895
💓	-12896
💥	-12897
💰	-12898
🔎	-12899
🔔	-12900
🔕	-12901
🔬	-12902
🗿	-12903
😥	-12904
😼	-12905
🙀	-12906
🚫	-12907
🚯	-12908
🚷	-12909
🤐	-12910
	-12911
Ċ	-12912
Ĝ	-12913
Ĵ	-12914
Ŧ	-12915
Ɓ	-12916
Ƒ	-12917
ƪ	-12918
Ǩ	-12919
ȶ	-12920
ɘ	-12921
ɞ	-12922
ɮ	-12923
ʄ	-12924
ʢ	-12925
ʣ	-12926
ʥ	-12927
ˑ	-12928
̉	-12929
Ϻ	-12930
Ќ	-12931
Ѝ	-12932
Գ	-12933
Ն	-12934
ֱ	-12935
ٔ	-12936
٧	-12937
٩	-12938
ٲ	-12939
࡞	-12940
ॢ	-12941
ৄ	-12942
ৢ	-12943
ৣ	-12944
ਏ	-12945
ઇ	-12946
એ	-12947
ખ	-12948
ઘ	-12949
ઙ	-12950
છ	-12951
ઝ	-12952
ઠ	-12953
ડ	-12954
ઢ	-12955
થ	-12956
ધ	-12957
હ	-12958
ૂ	-12959
ો	-12960
ૢ	-12961
ૣ	-12962
૤	-12963
କ	-12964
ଭ	-12965
୧	-12966
ஃ	-12967
ஈ	-12968
ஷ	-12969
ௌ	-12970
ఖ	-12971
ఘ	-12972
ఙ	-12973
ఛ	-12974
ఝ	-12975
ఠ	-12976
ఢ	-12977
ౄ	-12978
ౢ	-12979
ౣ	-12980
ಘ	-12981
ಙ	-12982
ಛ	-12983
ಝ	-12984
ಢ	-12985
ೄ	-12986
ೈ	-12987
ೢ	-12988
ೣ	-12989
ഖ	-12990
ഘ	-12991
ങ	-12992
ഛ	-12993
ഝ	-12994
ഠ	-12995
ഡ	-12996
ഢ	-12997
ണ	-12998
ഥ	-12999
ദ	-13000
ധ	-13001
ഫ	-13002
ബ	-13003
ഭ	-13004
ീ	-13005
ൄ	-13006
ൈ	-13007
ൢ	-13008
ൣ	-13009
උ	-13010
ๅ	-13011
ລ	-13012
ວ	-13013
ອ	-13014
ູ	-13015
່	-13016
ཁ	-13017
ྗ	-13018
ྱ	-13019
တ	-13020
ဗ	-13021
ါ	-13022
ိ	-13023
ု	-13024
့	-13025
ყ	-13026
ძ	-13027
ረ	-13028
ሴ	-13029
ነ	-13030
ን	-13031
አ	-13032
ገ	-13033
ᑲ	-13034
ᒃ	-13035
ᓗ	-13036
ᓱ	-13037
ᓴ	-13038
ជ	-13039
ល	-13040
។	-13041
Ḁ	-13042
Ḃ	-13043
ẗ	-13044
⁕	-13045
₪	-13046
₴	-13047
₽	-13048
⃑	-13049
⃒	-13050
⃧	-13051
⃨	-13052
⃩	-13053
℮	-13054
⅁	-13055
⅄	-13056
↙	-13057
↲	-13058
↷	-13059
↾	-13060
⇁	-13061
⇄	-13062
⇨	-13063
∐	-13064
∷	-13065
≆	-13066
≋	-13067
≌	-13068
≔	-13069
≙	-13070
≢	-13071
≮	-13072
≯	-13073
≰	-13074
≱	-13075
≲	-13076
≳	-13077
⊎	-13078
⊏	-13079
⊐	-13080
⊖	-13081
⊢	-13082
⊣	-13083
⊤	-13084
⊦	-13085
⊰	-13086
⊱	-13087
⊳	-13088
⊴	-13089
⊽	-13090
⋈	-13091
⋡	-13092
⌀	-13093
⌈	-13094
⌛	-13095
⌞	-13096
⌟	-13097
⌢	-13098
⌣	-13099
⌹	-13100
⌿	-13101
⍀	-13102
⍞	-13103
⍟	-13104
┍	-13105
┲	-13106
▋	-13107
▢	-13108
▫	-13109
▴	-13110
▿	-13111
◃	-13112
◆	-13113
◗	-13114
☎	-13115
☤	-13116
☹	-13117
☼	-13118
♅	-13119
♚	-13120
♛	-13121
♨	-13122
⚫	-13123
⛅	-13124
⛿	-13125
✀	-13126
✎	-13127
✕	-13128
✠	-13129
❗	-13130
❦	-13131
➝	-13132
⟀	-13133
⟃	-13134
⟄	-13135
⟅	-13136
⟆	-13137
⟇	-13138
⟑	-13139
⟦	-13140
⟧	-13141
⟫	-13142
⟵	-13143
⟶	-13144
⟸	-13145
⟹	-13146
⠂	-13147
⠋	-13148
⠠	-13149
⠫	-13150
⠴	-13151
⠸	-13152
⣿	-13153
⤶	-13154
⦓	-13155
⦔	-13156
⦕	-13157
⦖	-13158
⦛	-13159
⦞	-13160
⦟	-13161
⦢	-13162
⦣	-13163
⦤	-13164
⦥	-13165
⦦	-13166
⦧	-13167
⦨	-13168
⦩	-13169
⦪	-13170
⦫	-13171
⦬	-13172
⦭	-13173
⦮	-13174
⦯	-13175
⨋	-13176
⨍	-13177
⨐	-13178
⨑	-13179
⨒	-13180
⨓	-13181
⨔	-13182
⨕	-13183
⨗	-13184
⨘	-13185
⨙	-13186
⨚	-13187
⨛	-13188
⨜	-13189
⩆	-13190
⩇	-13191
⩈	-13192
⩉	-13193
⩊	-13194
⩋	-13195
⩑	-13196
⩒	-13197
⩓	-13198
⩔	-13199
⩕	-13200
⩖	-13201
⩗	-13202
⩘	-13203
⩙	-13204
⩚	-13205
⩛	-13206
⩜	-13207
⩝	-13208
⩟	-13209
⩠	-13210
⩢	-13211
⩯	-13212
⩰	-13213
⪽	-13214
⪾	-13215
⪿	-13216
⫀	-13217
⫁	-13218
⫂	-13219
⫃	-13220
⫄	-13221
⫇	-13222
⫈	-13223
⫉	-13224
⫊	-13225
⫏	-13226
⫐	-13227
⫑	-13228
⫒	-13229
⫓	-13230
⫔	-13231
⫕	-13232
⫖	-13233
⫗	-13234
⫘	-13235
⫬	-13236
⫭	-13237
⭐	-13238
Ɽ	-13239
Ȿ	-13240
ⵣ	-13241
⿸	-13242
ぁ	-13243
づ	-13244
ヵ	-13245
ヶ	-13246
丄	-13247
丅	-13248
亩	-13249
亭	-13250
仞	-13251
仰	-13252
伐	-13253
伽	-13254
佴	-13255
価	-13256
侣	-13257
侦	-13258
俠	-13259
倆	-13260
偉	-13261
傑	-13262
催	-13263
傷	-13264
儂	-13265
円	-13266
冊	-13267
凋	-13268
凫	-13269
凱	-13270
剑	-13271
劃	-13272
劑	-13273
勢	-13274
厅	-13275
厕	-13276
叙	-13277
叛	-13278
叢	-13279
呲	-13280
咕	-13281
哇	-13282
哩	-13283
喊	-13284
喔	-13285
喘	-13286
喪	-13287
嗯	-13288
嘗	-13289
嘸	-13290
噜	-13291
嚇	-13292
嚕	-13293
坟	-13294
垦	-13295
増	-13296
墾	-13297
壇	-13298
壢	-13299
壯	-13300
壶	-13301
壺	-13302
壽	-13303
夥	-13304
夺	-13305
奠	-13306
奮	-13307
妆	-13308
妝	-13309
妫	-13310
妮	-13311
姑	-13312
娱	-13313
婆	-13314
婉	-13315
宴	-13316
寓	-13317
尬	-13318
岭	-13319
崗	-13320
巷	-13321
帥	-13322
幂	-13323
庐	-13324
廈	-13325
廖	-13326
廟	-13327
廢	-13328
弔	-13329
彬	-13330
役	-13331
徽	-13332
恍	-13333
悅	-13334
悫	-13335
悯	-13336
悶	-13337
惰	-13338
慣	-13339
憨	-13340
戚	-13341
扇	-13342
扒	-13343
扔	-13344
扯	-13345
挣	-13346
捡	-13347
掷	-13348
揚	-13349
揮	-13350
搖	-13351
搗	-13352
撇	-13353
撈	-13354
撓	-13355
撥	-13356
擋	-13357
擢	-13358
擦	-13359
攏	-13360
敘	-13361
敲	-13362
斂	-13363
斋	-13364
旭	-13365
昏	-13366
晏	-13367
暢	-13368
曝	-13369
曹	-13370
朵	-13371
朽	-13372
枕	-13373
桡	-13374
桨	-13375
桿	-13376
棋	-13377
棟	-13378
椒	-13379
楊	-13380
槍	-13381
槳	-13382
橄	-13383
橙	-13384
橱	-13385
櫥	-13386
欽	-13387
歉	-13388
殃	-13389
殷	-13390
毙	-13391
沄	-13392
沦	-13393
沩	-13394
泼	-13395
洒	-13396
涸	-13397
涼	-13398
淇	-13399
淳	-13400
済	-13401
渋	-13402
渌	-13403
渴	-13404
湊	-13405
溝	-13406
滌	-13407
滩	-13408
漓	-13409
漠	-13410
潛	-13411
澆	-13412
濕	-13413
濤	-13414
濺	-13415
瀋	-13416
瀰	-13417
灶	-13418
灿	-13419
焉	-13420
煌	-13421
燭	-13422
爺	-13423
牽	-13424
狭	-13425
玺	-13426
玻	-13427
琐	-13428
瑤	-13429
璃	-13430
畝	-13431
疊	-13432
痰	-13433
瘘	-13434
皺	-13435
盃	-13436
盜	-13437
盪	-13438
眬	-13439
睏	-13440
睛	-13441
瞒	-13442
瞩	-13443
矓	-13444
矿	-13445
砚	-13446
硯	-13447
礦	-13448
禀	-13449
禿	-13450
秃	-13451
秦	-13452
稟	-13453
稠	-13454
稻	-13455
窒	-13456
窮	-13457
竭	-13458
笋	-13459
筠	-13460
篩	-13461
簧	-13462
簽	-13463
簿	-13464
粱	-13465
粹	-13466
糗	-13467
紆	-13468
紋	-13469
紳	-13470
絨	-13471
絹	-13472
綁	-13473
綰	-13474
縈	-13475
縊	-13476
縴	-13477
繩	-13478
纡	-13479
纶	-13480
纹	-13481
纽	-13482
绒	-13483
绢	-13484
绦	-13485
绱	-13486
绵	-13487
绸	-13488
绾	-13489
缆	-13490
缮	-13491
缰	-13492
罵	-13493
羞	-13494
翁	-13495
翠	-13496
翼	-13497
耘	-13498
職	-13499
肇	-13500
肤	-13501
肮	-13502
胁	-13503
胧	-13504
脆	-13505
腸	-13506
膚	-13507
舱	-13508
艙	-13509
艦	-13510
芭	-13511
芹	-13512
苎	-13513
苛	-13514
茎	-13515
莅	-13516
莖	-13517
莼	-13518
萄	-13519
萦	-13520
葡	-13521
葩	-13522
蔣	-13523
蕎	-13524
薑	-13525
薛	-13526
薯	-13527
藪	-13528
蛛	-13529
蛰	-13530
蜘	-13531
蜜	-13532
蝕	-13533
蟒	-13534
衷	-13535
裕	-13536
襪	-13537
襲	-13538
訣	-13539
訳	-13540
訴	-13541
詩	-13542
誣	-13543
謙	-13544
講	-13545
謠	-13546
譜	-13547
诅	-13548
诌	-13549
诛	-13550
诬	-13551
诰	-13552
谅	-13553
谊	-13554
谫	-13555
谱	-13556
豎	-13557
貴	-13558
賀	-13559
賑	-13560
賞	-13561
賤	-13562
賭	-13563
贏	-13564
贱	-13565
赃	-13566
赈	-13567
赍	-13568
赝	-13569
趕	-13570
趙	-13571
踬	-13572
躇	-13573
躓	-13574
軀	-13575
輛	-13576
轄	-13577
轍	-13578
轧	-13579
辙	-13580
辫	-13581
辮	-13582
辱	-13583
辽	-13584
迄	-13585
迩	-13586
逅	-13587
遅	-13588
邇	-13589
邱	-13590
郊	-13591
鄭	-13592
鄰	-13593
釘	-13594
鈍	-13595
鈺	-13596
鉤	-13597
銘	-13598
鋁	-13599
鋒	-13600
錦	-13601
鍥	-13602
鑰	-13603
鑾	-13604
钝	-13605
钵	-13606
铒	-13607
锑	-13608
锚	-13609
锨	-13610
镌	-13611
镖	-13612
镟	-13613
镢	-13614
閔	-13615
闊	-13616
闌	-13617
闯	-13618
阁	-13619
阑	-13620
阕	-13621
陀	-13622
陝	-13623
隗	-13624
隱	-13625
霍	-13626
靦	-13627
鞠	-13628
鞣	-13629
頃	-13630
頑	-13631
頒	-13632
頗	-13633
頰	-13634
顒	-13635
颂	-13636
颊	-13637
颗	-13638
颦	-13639
颱	-13640
飄	-13641
飩	-13642
飲	-13643
飽	-13644
餃	-13645
餓	-13646
餛	-13647
饉	-13648
饨	-13649
饪	-13650
饺	-13651
馄	-13652
馑	-13653
馳	-13654
駐	-13655
駘	-13656
騎	-13657
騏	-13658
驻	-13659
骀	-13660
骏	-13661
骑	-13662
骜	-13663
骯	-13664
骷	-13665
鮮	-13666
鲞	-13667
鲠	-13668
鲨	-13669
鳄	-13670
鳳	-13671
鴨	-13672
鹚	-13673
鹜	-13674
鹤	-13675
鼕	-13676
齋	-13677
ꕙ	-13678
넘	-13679
넣	-13680
넷	-13681
녀	-13682
뉴	-13683
담	-13684
둘	-13685
듀	-13686
떻	-13687
령	-13688
례	-13689
민	-13690
벤	-13691
변	-13692
빗	-13693
순	-13694
슈	-13695
써	-13696
썸	-13697
엑	-13698
웠	-13699
찰	-13700
컴	-13701
턴	-13702
판	-13703
팔	-13704
평	-13705
퓨	-13706
허	-13707
험	-13708
﷽	-13709
🆒	-13710
🆓	-13711
🆕	-13712
🆖	-13713
🆗	-13714
🆙	-13715
🌊	-13716
🌞	-13717
🌹	-13718
🍺	-13719
🎄	-13720
🎅	-13721
🎮	-13722
🏧	-13723
🏭	-13724
🏳	-13725
🏻	-13726
🐋	-13727
🐏	-13728
🐓	-13729
🐟	-13730
🐤	-13731
🐬	-13732
🐳	-13733
🐵	-13734
👀	-13735
👆	-13736
👋	-13737
👐	-13738
👥	-13739
👷	-13740
💃	-13741
💌	-13742
💕	-13743
💖	-13744
💘	-13745
💙	-13746
💚	-13747
💛	-13748
💝	-13749
💞	-13750
💟	-13751
💤	-13752
💧	-13753
💫	-13754
📷	-13755
🔓	-13756
🔟	-13757
🔪	-13758
🕳	-13759
😈	-13760
😏	-13761
😘	-13762
😟	-13763
😤	-13764
😫	-13765
😭	-13766
😲	-13767
😴	-13768
😺	-13769
🙁	-13770
🙉	-13771
🙊	-13772
🙌	-13773
🚅	-13774
🚗	-13775
🚧	-13776
🚲	-13777
🚽	-13778
🚾	-13779
🛑	-13780
🛺	-13781
🤀	-13782
🤔	-13783
🦎	-13784
🧿	-13785
🩰	-13786
🪕	-13787
	-13788
	-13789
	-13790
	-13791
	-13792
Ĉ	-13793
Ė	-13794
Ħ	-13795
Ĭ	-13796
Ļ	-13797
Ŕ	-13798
Ŷ	-13799
Ə	-13800
Ɣ	-13801
Ɩ	-13802
Ƙ	-13803
Ʋ	-13804
Ƴ	-13805
Ǎ	-13806
Ǚ	-13807
Ǿ	-13808
Ȥ	-13809
ʙ	-13810
ʜ	-13811
ʠ	-13812
ʡ	-13813
ʿ	-13814
˔	-13815
˕	-13816
͆	-13817
͑	-13818
͒	-13819
Ͱ	-13820
Ͳ	-13821
͵	-13822
Ͷ	-13823
Ϸ	-13824
Ѓ	-13825
Џ	-13826
Ѧ	-13827
Ѩ	-13828
Ӕ	-13829
Ԉ	-13830
Լ	-13831
Խ	-13832
Կ	-13833
՜	-13834
ֶ	-13835
״	-13836
؀	-13837
؁	-13838
؂	-13839
؃	-13840
؄	-13841
؅	-13842
؜	-13843
ػ	-13844
٠	-13845
٦	-13846
٨	-13847
٫	-13848
ږ	-13849
ڪ	-13850
۝	-13851
܏	-13852
ܖ	-13853
ܤ	-13854
ࠖ	-13855
ऑ	-13856
ॄ	-13857
ॅ	-13858
ঈ	-13859
ঊ	-13860
ঋ	-13861
ঌ	-13862
ঔ	-13863
ৠ	-13864
ৡ	-13865
১	-13866
৪	-13867
ਁ	-13868
ਃ	-13869
ਞ	-13870
ઁ	-13871
અ	-13872
આ	-13873
ઈ	-13874
ઉ	-13875
ઊ	-13876
ઋ	-13877
ઌ	-13878
ઐ	-13879
ઓ	-13880
ઔ	-13881
દ	-13882
ફ	-13883
બ	-13884
ળ	-13885
શ	-13886
ૃ	-13887
ૄ	-13888
ૈ	-13889
ૌ	-13890
ૐ	-13891
ૠ	-13892
ૡ	-13893
૥	-13894
૦	-13895
૧	-13896
૨	-13897
૩	-13898
૪	-13899
૫	-13900
૬	-13901
૭	-13902
૮	-13903
૯	-13904
ଁ	-13905
ଂ	-13906
ଃ	-13907
ଜ	-13908
ଞ	-13909
ପ	-13910
ମ	-13911
ଵ	-13912
ଷ	-13913
ହ	-13914
ୀ	-13915
ୂ	-13916
ୄ	-13917
େ	-13918
ୈ	-13919
ୋ	-13920
ஂ	-13921
ஔ	-13922
ఈ	-13923
ఊ	-13924
ఋ	-13925
ఌ	-13926
ఔ	-13927
ౌ	-13928
ౠ	-13929
ౡ	-13930
౦	-13931
౧	-13932
౨	-13933
౩	-13934
౫	-13935
౬	-13936
౭	-13937
౮	-13938
౯	-13939
ಊ	-13940
ಋ	-13941
ಌ	-13942
ಔ	-13943
ಫ	-13944
ೌ	-13945
ೠ	-13946
ೡ	-13947
೭	-13948
೮	-13949
೯	-13950
ആ	-13951
ഈ	-13952
ഉ	-13953
ഊ	-13954
ഋ	-13955
ഌ	-13956
ഏ	-13957
ഐ	-13958
ഔ	-13959
ശ	-13960
ൃ	-13961
െ	-13962
ോ	-13963
ൌ	-13964
ൠ	-13965
ൡ	-13966
൦	-13967
൧	-13968
൨	-13969
൩	-13970
൪	-13971
൫	-13972
൬	-13973
൭	-13974
൮	-13975
൯	-13976
ඇ	-13977
ඒ	-13978
ඛ	-13979
ඩ	-13980
ෑ	-13981
෴	-13982
๏	-13983
ຂ	-13984
ັ	-13985
།	-13986
འ	-13987
ལ	-13988
စ	-13989
ည	-13990
။	-13991
კ	-13992
ᇰ	-13993
ሃ	-13994
ላ	-13995
ሌ	-13996
ማ	-13997
ሥ	-13998
ተ	-13999
ኃ	-14000
ኣ	-14001
ዘ	-14002
ደ	-14003
።	-14004
ᐊ	-14005
ᑎ	-14006
ᑐ	-14007
ᒡ	-14008
ᓄ	-14009
ᓐ	-14010
ᖅ	-14011
ᚡ	-14012
ᚸ	-14013
ᚼ	-14014
ᚽ	-14015
ᚿ	-14016
ᛌ	-14017
ᛐ	-14018
ᛓ	-14019
ᛙ	-14020
ᛧ	-14021
ឃ	-14022
ញ	-14023
ឋ	-14024
ទ	-14025
យ	-14026
ូ	-14027
ួ	-14028
ោ	-14029
ះ	-14030
់	-14031
᠎	-14032
᭄	-14033
Ḏ	-14034
Ḟ	-14035
Ḥ	-14036
Ḫ	-14037
Ḳ	-14038
Ḷ	-14039
Ẑ	-14040
Ὰ	-14041
Ὲ	-14042
Ὴ	-14043
ῒ	-14044
ῗ	-14045
Ὶ	-14046
ῢ	-14047
ῧ	-14048
Ὺ	-14049
Ὸ	-14050
Ὼ	-14051
‣	-14052
‫	-14053
⁊	-14054
⁦	-14055
⁧	-14056
₡	-14057
₫	-14058
℧	-14059
⅋	-14060
↚	-14061
↛	-14062
↞	-14063
↠	-14064
↢	-14065
↣	-14066
↤	-14067
↧	-14068
↫	-14069
↬	-14070
↭	-14071
↮	-14072
↯	-14073
↰	-14074
↱	-14075
↶	-14076
↼	-14077
↿	-14078
⇂	-14079
⇃	-14080
⇅	-14081
⇆	-14082
⇇	-14083
⇈	-14084
⇉	-14085
⇊	-14086
⇋	-14087
⇌	-14088
⇍	-14089
⇎	-14090
⇏	-14091
⇑	-14092
⇓	-14093
⇔	-14094
⇕	-14095
⇚	-14096
⇛	-14097
⇜	-14098
⇠	-14099
⇤	-14100
⇥	-14101
⇦	-14102
⇩	-14103
⇵	-14104
⇽	-14105
⇾	-14106
⇿	-14107
∓	-14108
∔	-14109
∛	-14110
∜	-14111
∟	-14112
∢	-14113
∤	-14114
∦	-14115
∽	-14116
∿	-14117
≀	-14118
≍	-14119
≎	-14120
≏	-14121
≐	-14122
≒	-14123
≓	-14124
≕	-14125
≖	-14126
≗	-14127
≜	-14128
≦	-14129
≨	-14130
≩	-14131
≪	-14132
≫	-14133
≬	-14134
≭	-14135
≶	-14136
≷	-14137
≹	-14138
≺	-14139
≻	-14140
≾	-14141
≿	-14142
⊀	-14143
⊁	-14144
⊑	-14145
⊒	-14146
⊓	-14147
⊘	-14148
⊚	-14149
⊛	-14150
⊝	-14151
⊞	-14152
⊟	-14153
⊠	-14154
⊡	-14155
⊸	-14156
⊺	-14157
⋄	-14158
⋇	-14159
⋉	-14160
⋊	-14161
⋋	-14162
⋌	-14163
⋐	-14164
⋑	-14165
⋔	-14166
⋕	-14167
⋖	-14168
⋗	-14169
⋘	-14170
⋙	-14171
⋚	-14172
⋛	-14173
⋞	-14174
⋟	-14175
⋠	-14176
⋦	-14177
⋧	-14178
⋨	-14179
⋩	-14180
⋪	-14181
⋫	-14182
⋬	-14183
⋭	-14184
⋰	-14185
⋱	-14186
⋶	-14187
⌉	-14188
⌑	-14189
⌜	-14190
⌝	-14191
⌠	-14192
⌡	-14193
⍇	-14194
⍈	-14195
⍐	-14196
⍗	-14197
⎈	-14198
⎕	-14199
⎪	-14200
⏩	-14201
⏲	-14202
⏳	-14203
␍	-14204
┡	-14205
┩	-14206
╇	-14207
╋	-14208
▣	-14209
▤	-14210
▪	-14211
▵	-14212
▾	-14213
◂	-14214
◍	-14215
◒	-14216
◓	-14217
◖	-14218
◧	-14219
◫	-14220
◭	-14221
◯	-14222
☄	-14223
☈	-14224
☘	-14225
☚	-14226
☞	-14227
☥	-14228
☸	-14229
☽	-14230
♟	-14231
♮	-14232
⚕	-14233
⚗	-14234
⚘	-14235
⚚	-14236
⚜	-14237
⚵	-14238
⚿	-14239
⛄	-14240
⛇	-14241
⛈	-14242
⛢	-14243
⛨	-14244
⛰	-14245
⛴	-14246
⛵	-14247
⛸	-14248
✉	-14249
✒	-14250
✤	-14251
✩	-14252
✭	-14253
✳	-14254
✴	-14255
✷	-14256
✽	-14257
✾	-14258
❇	-14259
❐	-14260
❰	-14261
➖	-14262
➘	-14263
➚	-14264
➪	-14265
⟪	-14266
⟮	-14267
⟯	-14268
⟷	-14269
⟺	-14270
⟻	-14271
⟼	-14272
⟽	-14273
⟾	-14274
⠃	-14275
⠎	-14276
⠑	-14277
⠒	-14278
⠕	-14279
⠖	-14280
⠗	-14281
⥊	-14282
⥋	-14283
⥢	-14284
⥣	-14285
⥤	-14286
⥥	-14287
⥪	-14288
⥫	-14289
⥬	-14290
⥭	-14291
⥮	-14292
⥯	-14293
⦇	-14294
⦈	-14295
⧄	-14296
⧅	-14297
⧆	-14298
⧇	-14299
⧈	-14300
⧝	-14301
⧫	-14302
⨝	-14303
⨟	-14304
⪅	-14305
⪆	-14306
⪇	-14307
⪈	-14308
⪉	-14309
⪊	-14310
⪋	-14311
⪌	-14312
⪕	-14313
⪖	-14314
⪦	-14315
⪧	-14316
⪷	-14317
⪸	-14318
⪹	-14319
⪺	-14320
⪻	-14321
⪼	-14322
⫴	-14323
⫼	-14324
⫽	-14325
⫾	-14326
⬆	-14327
⬇	-14328
⬝	-14329
⭕	-14330
ⱱ	-14331
ⴱ	-14332
ⵍ	-14333
ⵔ	-14334
⹂	-14335
⺀	-14336
⻔	-14337
〓	-14338
〚	-14339
ヾ	-14340
㑩	-14341
㓥	-14342
㔉	-14343
㖊	-14344
㖞	-14345
㛟	-14346
㟆	-14347
㠏	-14348
㧑	-14349
㧟	-14350
㱩	-14351
㱮	-14352
㲿	-14353
㶉	-14354
㶶	-14355
㶽	-14356
㺍	-14357
䁖	-14358
䅉	-14359
䇲	-14360
䌷	-14361
䌸	-14362
䌹	-14363
䌼	-14364
䌽	-14365
䍀	-14366
䍁	-14367
䓕	-14368
䗖	-14369
䙓	-14370
䜣	-14371
䜧	-14372
䝙	-14373
䞐	-14374
䯄	-14375
䰾	-14376
䲁	-14377
䴓	-14378
䴔	-14379
䴕	-14380
䴖	-14381
䴗	-14382
䴘	-14383
䴙	-14384
両	-14385
乓	-14386
乜	-14387
亓	-14388
亘	-14389
亢	-14390
亥	-14391
亵	-14392
亸	-14393
仉	-14394
仗	-14395
伕	-14396
伛	-14397
伞	-14398
伣	-14399
伥	-14400
伧	-14401
伫	-14402
佇	-14403
佘	-14404
佟	-14405
佥	-14406
侨	-14407
侩	-14408
侪	-14409
侬	-14410
侶	-14411
俁	-14412
俔	-14413
俞	-14414
俟	-14415
俣	-14416
俦	-14417
俨	-14418
俩	-14419
俪	-14420
俫	-14421
俯	-14422
倀	-14423
倈	-14424
們	-14425
倚	-14426
倩	-14427
倪	-14428
偬	-14429
偻	-14430
偾	-14431
傖	-14432
傘	-14433
傧	-14434
傩	-14435
傭	-14436
傯	-14437
傴	-14438
僂	-14439
僉	-14440
僑	-14441
僥	-14442
僨	-14443
僱	-14444
僵	-14445
儈	-14446
儉	-14447
儐	-14448
儔	-14449
儕	-14450
儷	-14451
儸	-14452
儺	-14453
儻	-14454
儼	-14455
兌	-14456
兖	-14457
兗	-14458
冁	-14459
冉	-14460
冥	-14461
冪	-14462
凈	-14463
凍	-14464
凯	-14465
凹	-14466
凿	-14467
刍	-14468
刬	-14469
刭	-14470
刹	-14471
刽	-14472
刿	-14473
剀	-14474
剄	-14475
剎	-14476
剐	-14477
剗	-14478
剝	-14479
剮	-14480
剴	-14481
劊	-14482
劌	-14483
劍	-14484
劏	-14485
劚	-14486
劢	-14487
劫	-14488
勋	-14489
勚	-14490
勛	-14491
勩	-14492
勱	-14493
勸	-14494
勻	-14495
匦	-14496
匭	-14497
匮	-14498
匱	-14499
卌	-14500
卍	-14501
卞	-14502
卻	-14503
厐	-14504
厙	-14505
厣	-14506
厩	-14507
厮	-14508
厲	-14509
厴	-14510
叄	-14511
叽	-14512
吒	-14513
吣	-14514
吱	-14515
吶	-14516
呒	-14517
呓	-14518
呖	-14519
呙	-14520
呛	-14521
呸	-14522
咋	-14523
咙	-14524
咛	-14525
咝	-14526
咤	-14527
咥	-14528
咦	-14529
咧	-14530
咳	-14531
咼	-14532
哓	-14533
哔	-14534
哕	-14535
哙	-14536
哜	-14537
哝	-14538
哧	-14539
哨	-14540
哺	-14541
唄	-14542
唉	-14543
唚	-14544
唛	-14545
唝	-14546
唠	-14547
唡	-14548
唢	-14549
啐	-14550
啞	-14551
啢	-14552
啧	-14553
啪	-14554
啬	-14555
啭	-14556
啮	-14557
啴	-14558
啸	-14559
喀	-14560
喎	-14561
喏	-14562
喚	-14563
喲	-14564
喾	-14565
嗆	-14566
嗇	-14567
嗊	-14568
嗓	-14569
嗚	-14570
嗩	-14571
嗫	-14572
嗬	-14573
嗶	-14574
嘊	-14575
嘍	-14576
嘔	-14577
嘖	-14578
嘜	-14579
嘤	-14580
嘩	-14581
嘮	-14582
嘯	-14583
嘰	-14584
嘱	-14585
嘵	-14586
嘻	-14587
嘽	-14588
噁	-14589
噓	-14590
噚	-14591
噝	-14592
噠	-14593
噥	-14594
噦	-14595
噯	-14596
噲	-14597
噸	-14598
嚀	-14599
嚌	-14600
嚙	-14601
嚣	-14602
嚦	-14603
嚨	-14604
嚲	-14605
嚳	-14606
嚶	-14607
囀	-14608
囁	-14609
囂	-14610
囅	-14611
囈	-14612
囉	-14613
囌	-14614
囑	-14615
囪	-14616
囱	-14617
図	-14618
囵	-14619
圇	-14620
圓	-14621
圹	-14622
坂	-14623
坍	-14624
坜	-14625
坝	-14626
坞	-14627
垅	-14628
垆	-14629
垒	-14630
垢	-14631
垣	-14632
垩	-14633
垭	-14634
垱	-14635
垲	-14636
垴	-14637
垵	-14638
埘	-14639
埙	-14640
埚	-14641
埡	-14642
埯	-14643
堅	-14644
堊	-14645
堑	-14646
堕	-14647
堖	-14648
堝	-14649
堡	-14650
堯	-14651
塊	-14652
塋	-14653
塏	-14654
塑	-14655
塒	-14656
塢	-14657
塤	-14658
塹	-14659
墓	-14660
墮	-14661
壈	-14662
壋	-14663
壙	-14664
壚	-14665
壠	-14666
壤	-14667
壩	-14668
壸	-14669
壼	-14670
夔	-14671
夙	-14672
夠	-14673
奁	-14674
奂	-14675
奐	-14676
奚	-14677
奩	-14678
奪	-14679
奼	-14680
妃	-14681
妍	-14682
妙	-14683
妩	-14684
妪	-14685
姉	-14686
姍	-14687
姗	-14688
姚	-14689
姣	-14690
姦	-14691
姹	-14692
娆	-14693
娈	-14694
娟	-14695
娣	-14696
娥	-14697
娲	-14698
婁	-14699
婕	-14700
婪	-14701
婭	-14702
婳	-14703
婶	-14704
婷	-14705
媚	-14706
媛	-14707
媧	-14708
媪	-14709
媯	-14710
媳	-14711
媼	-14712
嫒	-14713
嫔	-14714
嫗	-14715
嫱	-14716
嫵	-14717
嫻	-14718
嫿	-14719
嬋	-14720
嬌	-14721
嬙	-14722
嬡	-14723
嬤	-14724
嬪	-14725
嬰	-14726
嬷	-14727
嬸	-14728
孌	-14729
孜	-14730
孪	-14731
孫	-14732
孵	-14733
孿	-14734
宓	-14735
宕	-14736
宥	-14737
宦	-14738
宪	-14739
寂	-14740
寅	-14741
寢	-14742
寵	-14743
尉	-14744
尷	-14745
尹	-14746
屃	-14747
屆	-14748
屉	-14749
屍	-14750
屓	-14751
屜	-14752
屦	-14753
屨	-14754
岑	-14755
岖	-14756
岘	-14757
岙	-14758
岽	-14759
岿	-14760
峄	-14761
峣	-14762
峤	-14763
峥	-14764
峦	-14765
峪	-14766
峴	-14767
峽	-14768
崂	-14769
崃	-14770
崄	-14771
崍	-14772
崎	-14773
崔	-14774
崢	-14775
崬	-14776
崭	-14777
嵇	-14778
嵘	-14779
嵚	-14780
嵝	-14781
嶁	-14782
嶄	-14783
嶇	-14784
嶔	-14785
嶗	-14786
嶠	-14787
嶢	-14788
嶧	-14789
嶮	-14790
嶴	-14791
嶸	-14792
嶼	-14793
巅	-14794
巋	-14795
巒	-14796
巔	-14797
巯	-14798
巰	-14799
巻	-14800
帏	-14801
帙	-14802
帛	-14803
帜	-14804
帱	-14805
帻	-14806
帼	-14807
幀	-14808
幃	-14809
幗	-14810
幘	-14811
幟	-14812
幫	-14813
幬	-14814
庑	-14815
庚	-14816
庵	-14817
廁	-14818
廂	-14819
廃	-14820
廄	-14821
廚	-14822
廝	-14823
廡	-14824
廩	-14825
廪	-14826
廿	-14827
弈	-14828
弑	-14829
弒	-14830
弛	-14831
弪	-14832
弳	-14833
彌	-14834
彎	-14835
彝	-14836
彞	-14837
彥	-14838
彦	-14839
彪	-14840
徕	-14841
徠	-14842
徹	-14843
忏	-14844
忾	-14845
忿	-14846
怂	-14847
怃	-14848
怆	-14849
怼	-14850
怿	-14851
恃	-14852
恆	-14853
恤	-14854
恥	-14855
恨	-14856
恸	-14857
恹	-14858
恺	-14859
恻	-14860
恽	-14861
悞	-14862
悭	-14863
悮	-14864
悵	-14865
惆	-14866
惫	-14867
惬	-14868
惭	-14869
惮	-14870
惱	-14871
惲	-14872
惻	-14873
愉	-14874
愜	-14875
愠	-14876
愦	-14877
愨	-14878
愴	-14879
愷	-14880
愾	-14881
慍	-14882
慑	-14883
慘	-14884
慚	-14885
慪	-14886
慫	-14887
慮	-14888
慳	-14889
憊	-14890
憒	-14891
憚	-14892
憫	-14893
憮	-14894
懇	-14895
懌	-14896
懍	-14897
懑	-14898
懔	-14899
懟	-14900
懣	-14901
懨	-14902
懺	-14903
懼	-14904
懾	-14905
戆	-14906
戇	-14907
戋	-14908
戌	-14909
戔	-14910
戗	-14911
戧	-14912
戩	-14913
戬	-14914
戯	-14915
戱	-14916
戽	-14917
扈	-14918
扉	-14919
扞	-14920
扪	-14921
抜	-14922
抟	-14923
抡	-14924
抹	-14925
拈	-14926
拋	-14927
拣	-14928
拧	-14929
拮	-14930
挚	-14931
挛	-14932
挜	-14933
挞	-14934
挟	-14935
挢	-14936
挦	-14937
挩	-14938
挺	-14939
挾	-14940
捍	-14941
捏	-14942
捝	-14943
捞	-14944
捫	-14945
捵	-14946
掄	-14947
掖	-14948
掗	-14949
掘	-14950
掙	-14951
掳	-14952
掴	-14953
掸	-14954
掺	-14955
掼	-14956
揀	-14957
揣	-14958
揾	-14959
揿	-14960
搀	-14961
搁	-14962
搂	-14963
搅	-14964
搵	-14965
摅	-14966
摈	-14967
摑	-14968
摜	-14969
摟	-14970
摧	-14971
摯	-14972
摳	-14973
摶	-14974
摻	-14975
撄	-14976
撏	-14977
撐	-14978
撒	-14979
撟	-14980
撣	-14981
撫	-14982
撰	-14983
撳	-14984
撵	-14985
撷	-14986
撸	-14987
撺	-14988
撻	-14989
撿	-14990
擁	-14991
擂	-14992
擓	-14993
擘	-14994
擞	-14995
擠	-14996
擯	-14997
擰	-14998
擱	-14999
擲	-15000
擴	-15001
擻	-15002
擼	-15003
攀	-15004
攄	-15005
攆	-15006
攒	-15007
攔	-15008
攖	-15009
攙	-15010
攛	-15011
攢	-15012
攣	-15013
攤	-15014
攪	-15015
攬	-15016
攵	-15017
敞	-15018
斃	-15019
斓	-15020
斕	-15021
斩	-15022
斬	-15023
旷	-15024
旸	-15025
昉	-15026
昙	-15027
昽	-15028
晁	-15029
晔	-15030
晖	-15031
晝	-15032
暉	-15033
暘	-15034
暧	-15035
暨	-15036
曄	-15037
曖	-15038
曙	-15039
曜	-15040
曠	-15041
曨	-15042
曬	-15043
朔	-15044
朧	-15045
杉	-15046
杠	-15047
杩	-15048
杴	-15049
枞	-15050
枥	-15051
枧	-15052
枨	-15053
枭	-15054
柵	-15055
柽	-15056
栀	-15057
栅	-15058
栉	-15059
栊	-15060
栌	-15061
栎	-15062
栖	-15063
栱	-15064
桓	-15065
桜	-15066
桠	-15067
桢	-15068
桤	-15069
桦	-15070
桧	-15071
梆	-15072
梔	-15073
梘	-15074
梟	-15075
梲	-15076
梼	-15077
梾	-15078
梿	-15079
棁	-15080
棂	-15081
棖	-15082
棗	-15083
棧	-15084
棲	-15085
棶	-15086
椁	-15087
椅	-15088
椏	-15089
椟	-15090
椠	-15091
椤	-15092
楓	-15093
楠	-15094
楨	-15095
楽	-15096
榅	-15097
榇	-15098
榈	-15099
榉	-15100
榕	-15101
榪	-15102
榭	-15103
榮	-15104
榲	-15105
榿	-15106
槌	-15107
槚	-15108
槛	-15109
槟	-15110
槠	-15111
槧	-15112
槨	-15113
樁	-15114
樅	-15115
樊	-15116
樞	-15117
樯	-15118
樱	-15119
樸	-15120
樺	-15121
橈	-15122
橢	-15123
橥	-15124
橹	-15125
橼	-15126
檁	-15127
檉	-15128
檜	-15129
檟	-15130
檣	-15131
檩	-15132
檮	-15133
檳	-15134
檸	-15135
檻	-15136
櫚	-15137
櫝	-15138
櫞	-15139
櫟	-15140
櫧	-15141
櫨	-15142
櫪	-15143
櫫	-15144
櫬	-15145
櫱	-15146
櫳	-15147
櫸	-15148
欏	-15149
欒	-15150
欖	-15151
欞	-15152
歟	-15153
歧	-15154
歼	-15155
歿	-15156
殁	-15157
殆	-15158
殇	-15159
殒	-15160
殓	-15161
殚	-15162
殞	-15163
殡	-15164
殤	-15165
殨	-15166
殫	-15167
殰	-15168
殲	-15169
毀	-15170
毂	-15171
毆	-15172
毓	-15173
毡	-15174
毵	-15175
毿	-15176
氂	-15177
氇	-15178
氈	-15179
氌	-15180
氢	-15181
氩	-15182
氫	-15183
氬	-15184
氲	-15185
氳	-15186
氷	-15187
汔	-15188
汙	-15189
汹	-15190
沂	-15191
沌	-15192
沛	-15193
沣	-15194
沤	-15195
沥	-15196
泊	-15197
泗	-15198
泞	-15199
泶	-15200
泷	-15201
泸	-15202
泺	-15203
泾	-15204
洊	-15205
洶	-15206
洼	-15207
浃	-15208
浈	-15209
浊	-15210
浍	-15211
浐	-15212
浒	-15213
浔	-15214
浣	-15215
浹	-15216
涇	-15217
涌	-15218
涝	-15219
涞	-15220
涟	-15221
涠	-15222
涡	-15223
涧	-15224
涩	-15225
涯	-15226
淥	-15227
淵	-15228
淶	-15229
淺	-15230
渍	-15231
渑	-15232
渙	-15233
渦	-15234
湞	-15235
溅	-15236
溆	-15237
溈	-15238
溪	-15239
滄	-15240
滎	-15241
滗	-15242
滟	-15243
滠	-15244
滦	-15245
滪	-15246
滬	-15247
滯	-15248
滲	-15249
滸	-15250
滻	-15251
滾	-15252
漁	-15253
漆	-15254
漚	-15255
漤	-15256
漬	-15257
漲	-15258
漵	-15259
漸	-15260
漾	-15261
漿	-15262
潁	-15263
潆	-15264
潇	-15265
潋	-15266
潑	-15267
潔	-15268
潘	-15269
潤	-15270
潯	-15271
潴	-15272
潷	-15273
潿	-15274
澀	-15275
澇	-15276
澗	-15277
澠	-15278
澤	-15279
澦	-15280
澩	-15281
澮	-15282
澱	-15283
澹	-15284
濁	-15285
濑	-15286
濒	-15287
濘	-15288
濰	-15289
濼	-15290
瀅	-15291
瀆	-15292
瀇	-15293
瀉	-15294
瀏	-15295
瀕	-15296
瀘	-15297
瀝	-15298
瀟	-15299
瀠	-15300
瀦	-15301
瀧	-15302
瀨	-15303
瀲	-15304
瀾	-15305
灃	-15306
灄	-15307
灏	-15308
灑	-15309
灝	-15310
灠	-15311
灤	-15312
灧	-15313
炀	-15314
炒	-15315
炖	-15316
炜	-15317
炝	-15318
炽	-15319
烃	-15320
烘	-15321
烨	-15322
烩	-15323
烬	-15324
烴	-15325
烹	-15326
烽	-15327
焕	-15328
焖	-15329
焘	-15330
煒	-15331
煢	-15332
煥	-15333
煩	-15334
煬	-15335
煱	-15336
煴	-15337
熄	-15338
熅	-15339
熒	-15340
熔	-15341
熗	-15342
熨	-15343
熲	-15344
熵	-15345
熾	-15346
燁	-15347
燉	-15348
燒	-15349
燜	-15350
燥	-15351
燦	-15352
燴	-15353
燶	-15354
燼	-15355
燾	-15356
爍	-15357
爸	-15358
牍	-15359
牘	-15360
牝	-15361
牦	-15362
犊	-15363
犖	-15364
犢	-15365
犧	-15366
犷	-15367
犸	-15368
狈	-15369
狝	-15370
狞	-15371
狯	-15372
狰	-15373
狲	-15374
狹	-15375
狽	-15376
猃	-15377
猎	-15378
猕	-15379
猙	-15380
猡	-15381
猬	-15382
猶	-15383
猻	-15384
獁	-15385
獄	-15386
獪	-15387
獫	-15388
獭	-15389
獮	-15390
獰	-15391
獱	-15392
獷	-15393
獸	-15394
獼	-15395
玀	-15396
玑	-15397
玚	-15398
玮	-15399
玱	-15400
珐	-15401
珑	-15402
珰	-15403
珲	-15404
琏	-15405
琛	-15406
琦	-15407
琬	-15408
琰	-15409
琳	-15410
琺	-15411
琿	-15412
瑋	-15413
瑒	-15414
瑗	-15415
瑣	-15416
瑪	-15417
瑲	-15418
瑷	-15419
瑾	-15420
璎	-15421
璐	-15422
璣	-15423
璦	-15424
璧	-15425
璩	-15426
璫	-15427
璽	-15428
瓏	-15429
瓒	-15430
瓔	-15431
瓚	-15432
瓢	-15433
瓯	-15434
瓶	-15435
瓷	-15436
甄	-15437
甌	-15438
甭	-15439
畚	-15440
畢	-15441
畴	-15442
疇	-15443
疖	-15444
疟	-15445
疠	-15446
疡	-15447
疬	-15448
疭	-15449
疯	-15450
疱	-15451
疲	-15452
疴	-15453
痈	-15454
痉	-15455
痒	-15456
痕	-15457
痖	-15458
痙	-15459
痨	-15460
痪	-15461
痫	-15462
痾	-15463
瘂	-15464
瘅	-15465
瘆	-15466
瘍	-15467
瘓	-15468
瘗	-15469
瘞	-15470
瘡	-15471
瘧	-15472
瘪	-15473
瘫	-15474
瘮	-15475
瘲	-15476
瘺	-15477
瘾	-15478
瘿	-15479
癆	-15480
癇	-15481
癉	-15482
癘	-15483
癞	-15484
癟	-15485
癢	-15486
癤	-15487
癧	-15488
癫	-15489
癬	-15490
癭	-15491
癮	-15492
癰	-15493
癱	-15494
癲	-15495
皂	-15496
皑	-15497
皕	-15498
皚	-15499
皰	-15500
皲	-15501
皸	-15502
盏	-15503
盞	-15504
盼	-15505
眍	-15506
眥	-15507
眦	-15508
眶	-15509
睁	-15510
睐	-15511
睑	-15512
睜	-15513
睞	-15514
睿	-15515
瞆	-15516
瞘	-15517
瞜	-15518
瞞	-15519
瞶	-15520
瞻	-15521
瞼	-15522
矚	-15523
矫	-15524
矯	-15525
矶	-15526
矾	-15527
砀	-15528
砖	-15529
砗	-15530
砜	-15531
砲	-15532
砺	-15533
砻	-15534
砾	-15535
硁	-15536
硖	-15537
硗	-15538
硙	-15539
硜	-15540
硝	-15541
硤	-15542
硨	-15543
硷	-15544
碛	-15545
碜	-15546
碩	-15547
碭	-15548
碳	-15549
碸	-15550
磑	-15551
磕	-15552
磚	-15553
磣	-15554
磧	-15555
磽	-15556
礙	-15557
礫	-15558
礬	-15559
礱	-15560
祁	-15561
祃	-15562
祎	-15563
祚	-15564
祢	-15565
祯	-15566
禅	-15567
禕	-15568
禡	-15569
禰	-15570
禱	-15571
禹	-15572
秆	-15573
秈	-15574
秽	-15575
秾	-15576
稆	-15577
稈	-15578
稏	-15579
稔	-15580
稚	-15581
稣	-15582
稷	-15583
稽	-15584
穌	-15585
穎	-15586
穑	-15587
穗	-15588
穠	-15589
穡	-15590
穢	-15591
穭	-15592
窍	-15593
窎	-15594
窑	-15595
窜	-15596
窥	-15597
窪	-15598
窭	-15599
窯	-15600
窵	-15601
窶	-15602
窺	-15603
竄	-15604
竅	-15605
竇	-15606
竈	-15607
竊	-15608
竜	-15609
笆	-15610
笏	-15611
笕	-15612
笪	-15613
笾	-15614
筍	-15615
筚	-15616
筜	-15617
筝	-15618
筧	-15619
筴	-15620
筵	-15621
筼	-15622
箋	-15623
箓	-15624
箦	-15625
箧	-15626
箨	-15627
箩	-15628
箪	-15629
箫	-15630
篋	-15631
篓	-15632
篔	-15633
篤	-15634
篱	-15635
篳	-15636
簀	-15637
簍	-15638
簖	-15639
簞	-15640
簣	-15641
簫	-15642
簹	-15643
籁	-15644
籃	-15645
籙	-15646
籜	-15647
籟	-15648
籩	-15649
籪	-15650
籬	-15651
籮	-15652
籴	-15653
籼	-15654
粜	-15655
粝	-15656
粟	-15657
粤	-15658
粥	-15659
粪	-15660
粮	-15661
糁	-15662
糇	-15663
糜	-15664
糝	-15665
糞	-15666
糲	-15667
糴	-15668
糶	-15669
糹	-15670
糾	-15671
紂	-15672
紇	-15673
紈	-15674
紉	-15675
紓	-15676
紕	-15677
紖	-15678
紘	-15679
紛	-15680
紜	-15681
紝	-15682
紡	-15683
紬	-15684
紱	-15685
紲	-15686
紵	-15687
紺	-15688
紼	-15689
紿	-15690
絀	-15691
絅	-15692
絆	-15693
絎	-15694
絝	-15695
絢	-15696
絰	-15697
絳	-15698
絷	-15699
綃	-15700
綆	-15701
綈	-15702
綌	-15703
綏	-15704
綐	-15705
綑	-15706
継	-15707
綞	-15708
綢	-15709
綣	-15710
綬	-15711
綯	-15712
綳	-15713
綴	-15714
綵	-15715
綸	-15716
綹	-15717
綺	-15718
綻	-15719
綽	-15720
綿	-15721
緄	-15722
緋	-15723
緒	-15724
緓	-15725
緔	-15726
緗	-15727
緘	-15728
緙	-15729
緝	-15730
緞	-15731
締	-15732
緡	-15733
緣	-15734
緦	-15735
緬	-15736
緱	-15737
緲	-15738
緶	-15739
緹	-15740
縋	-15741
縐	-15742
縑	-15743
縕	-15744
縗	-15745
縛	-15746
縝	-15747
縞	-15748
縟	-15749
縭	-15750
縱	-15751
縲	-15752
縳	-15753
縵	-15754
縶	-15755
縹	-15756
繆	-15757
繒	-15758
繕	-15759
繚	-15760
繡	-15761
繢	-15762
繭	-15763
繯	-15764
繰	-15765
繸	-15766
繹	-15767
繽	-15768
繾	-15769
繿	-15770
纂	-15771
纈	-15772
纊	-15773
纏	-15774
纓	-15775
纖	-15776
纘	-15777
纟	-15778
纣	-15779
纥	-15780
纩	-15781
纫	-15782
纮	-15783
纰	-15784
纱	-15785
纴	-15786
纺	-15787
纻	-15788
纼	-15789
纾	-15790
绀	-15791
绁	-15792
绂	-15793
绅	-15794
绉	-15795
绊	-15796
绋	-15797
绌	-15798
绎	-15799
绐	-15800
绔	-15801
绖	-15802
绗	-15803
绚	-15804
绛	-15805
绞	-15806
绠	-15807
绡	-15808
绤	-15809
绥	-15810
绨	-15811
绫	-15812
绬	-15813
绮	-15814
绯	-15815
绰	-15816
绲	-15817
绶	-15818
绹	-15819
绺	-15820
绻	-15821
绽	-15822
缁	-15823
缂	-15824
缃	-15825
缄	-15826
缅	-15827
缇	-15828
缈	-15829
缉	-15830
缊	-15831
缋	-15832
缌	-15833
缍	-15834
缎	-15835
缏	-15836
缒	-15837
缔	-15838
缗	-15839
缙	-15840
缚	-15841
缛	-15842
缜	-15843
缞	-15844
缟	-15845
缡	-15846
缢	-15847
缣	-15848
缤	-15849
缥	-15850
缦	-15851
缨	-15852
缫	-15853
缬	-15854
缭	-15855
缯	-15856
缱	-15857
缲	-15858
缳	-15859
缵	-15860
缽	-15861
罂	-15862
罌	-15863
罘	-15864
罰	-15865
罴	-15866
罷	-15867
羁	-15868
羆	-15869
羈	-15870
羋	-15871
羟	-15872
羥	-15873
羹	-15874
翘	-15875
翟	-15876
翰	-15877
翹	-15878
耢	-15879
耧	-15880
耬	-15881
耮	-15882
耸	-15883
耻	-15884
耿	-15885
聋	-15886
聍	-15887
聩	-15888
聳	-15889
聵	-15890
聶	-15891
聹	-15892
聽	-15893
肅	-15894
肴	-15895
胖	-15896
胤	-15897
胥	-15898
胨	-15899
胪	-15900
胫	-15901
脅	-15902
脊	-15903
脍	-15904
脐	-15905
脓	-15906
脔	-15907
脛	-15908
脶	-15909
脹	-15910
腎	-15911
腖	-15912
腡	-15913
腫	-15914
腭	-15915
腮	-15916
腼	-15917
腽	-15918
膃	-15919
膑	-15920
膩	-15921
膾	-15922
膿	-15923
臍	-15924
臏	-15925
臚	-15926
臜	-15927
臟	-15928
臠	-15929
臢	-15930
臻	-15931
舂	-15932
舆	-15933
舔	-15934
舣	-15935
舫	-15936
舻	-15937
艤	-15938
艫	-15939
艱	-15940
艷	-15941
芈	-15942
芗	-15943
芦	-15944
芮	-15945
芻	-15946
苁	-15947
苇	-15948
苈	-15949
苋	-15950
苌	-15951
茄	-15952
茏	-15953
茑	-15954
茔	-15955
茕	-15956
茜	-15957
茧	-15958
荀	-15959
荊	-15960
荔	-15961
荙	-15962
荚	-15963
荛	-15964
荜	-15965
荞	-15966
荟	-15967
荠	-15968
荤	-15969
荥	-15970
荦	-15971
荧	-15972
荨	-15973
荩	-15974
荪	-15975
荫	-15976
荬	-15977
荭	-15978
荮	-15979
莎	-15980
莒	-15981
莢	-15982
莧	-15983
莳	-15984
莴	-15985
莶	-15986
莸	-15987
莹	-15988
菁	-15989
菠	-15990
萇	-15991
萍	-15992
萤	-15993
萵	-15994
葒	-15995
董	-15996
葤	-15997
葦	-15998
葫	-15999
葱	-16000
葷	-16001
蒇	-16002
蒉	-16003
蒌	-16004
蒓	-16005
蒔	-16006
蒞	-16007
蒯	-16008
蒼	-16009
蓀	-16010
蓉	-16011
蓓	-16012
蓠	-16013
蓣	-16014
蓥	-16015
蓦	-16016
蓯	-16017
蓽	-16018
蔂	-16019
蔔	-16020
蔚	-16021
蔞	-16022
蔥	-16023
蔦	-16024
蔭	-16025
蔷	-16026
蔹	-16027
蕁	-16028
蕆	-16029
蕉	-16030
蕊	-16031
蕒	-16032
蕕	-16033
蕘	-16034
蕢	-16035
蕪	-16036
蕰	-16037
蕲	-16038
蕷	-16039
薀	-16040
薇	-16041
薈	-16042
薊	-16043
薌	-16044
薔	-16045
薘	-16046
薙	-16047
薟	-16048
薦	-16049
薮	-16050
薳	-16051
薺	-16052
藎	-16053
藓	-16054
藝	-16055
藶	-16056
藹	-16057
蘄	-16058
蘖	-16059
蘚	-16060
蘞	-16061
蘢	-16062
蘺	-16063
虆	-16064
虛	-16065
虬	-16066
虮	-16067
虯	-16068
虿	-16069
蚁	-16070
蚂	-16071
蚕	-16072
蚬	-16073
蛎	-16074
蛏	-16075
蛱	-16076
蛲	-16077
蛳	-16078
蛴	-16079
蛺	-16080
蛻	-16081
蜂	-16082
蜆	-16083
蜕	-16084
蜗	-16085
蝇	-16086
蝈	-16087
蝉	-16088
蝟	-16089
蝦	-16090
蝸	-16091
蝼	-16092
蝾	-16093
螀	-16094
螄	-16095
螞	-16096
螢	-16097
螨	-16098
螮	-16099
螻	-16100
螿	-16101
蟄	-16102
蟈	-16103
蟎	-16104
蟏	-16105
蟣	-16106
蟬	-16107
蟯	-16108
蟶	-16109
蟹	-16110
蟻	-16111
蠅	-16112
蠆	-16113
蠐	-16114
蠑	-16115
蠡	-16116
蠣	-16117
蠨	-16118
蠱	-16119
蠶	-16120
衅	-16121
衕	-16122
衚	-16123
衞	-16124
衮	-16125
袁	-16126
袄	-16127
袅	-16128
袆	-16129
袞	-16130
袯	-16131
裆	-16132
裈	-16133
裊	-16134
裒	-16135
裙	-16136
裢	-16137
裣	-16138
裥	-16139
裴	-16140
褌	-16141
褘	-16142
褚	-16143
褛	-16144
褳	-16145
褴	-16146
褸	-16147
褻	-16148
襇	-16149
襏	-16150
襖	-16151
襝	-16152
襠	-16153
襬	-16154
覎	-16155
覓	-16156
覘	-16157
覡	-16158
覥	-16159
覦	-16160
覬	-16161
覯	-16162
覲	-16163
覷	-16164
覽	-16165
覿	-16166
觃	-16167
觇	-16168
觊	-16169
觋	-16170
觌	-16171
觍	-16172
觎	-16173
觏	-16174
觐	-16175
觑	-16176
觔	-16177
觞	-16178
觯	-16179
觴	-16180
觶	-16181
訃	-16182
訌	-16183
訐	-16184
訒	-16185
訓	-16186
訕	-16187
訖	-16188
訚	-16189
訛	-16190
訝	-16191
訟	-16192
訢	-16193
訥	-16194
訩	-16195
訶	-16196
訾	-16197
詁	-16198
詆	-16199
詎	-16200
詐	-16201
詒	-16202
詔	-16203
詖	-16204
詗	-16205
詘	-16206
詛	-16207
詠	-16208
詡	-16209
詣	-16210
詫	-16211
詬	-16212
詭	-16213
詮	-16214
詰	-16215
詵	-16216
詹	-16217
詼	-16218
詿	-16219
誄	-16220
誅	-16221
誆	-16222
誇	-16223
誊	-16224
誑	-16225
誒	-16226
誕	-16227
誘	-16228
誚	-16229
誡	-16230
誥	-16231
誨	-16232
誶	-16233
誹	-16234
誼	-16235
誾	-16236
諂	-16237
諄	-16238
談	-16239
諉	-16240
諍	-16241
諏	-16242
諑	-16243
諗	-16244
諛	-16245
諜	-16246
諝	-16247
諞	-16248
諢	-16249
諤	-16250
諦	-16251
諧	-16252
諫	-16253
諮	-16254
諱	-16255
諳	-16256
諶	-16257
諷	-16258
諺	-16259
諼	-16260
謀	-16261
謂	-16262
謄	-16263
謅	-16264
謊	-16265
謎	-16266
謐	-16267
謔	-16268
謖	-16269
謗	-16270
謚	-16271
謨	-16272
謫	-16273
謬	-16274
謳	-16275
謾	-16276
譅	-16277
譎	-16278
譏	-16279
譖	-16280
譙	-16281
譚	-16282
譫	-16283
譴	-16284
譸	-16285
譽	-16286
譾	-16287
讒	-16288
讕	-16289
讖	-16290
讜	-16291
讞	-16292
讣	-16293
讦	-16294
讧	-16295
讪	-16296
讫	-16297
讬	-16298
讱	-16299
讳	-16300
讵	-16301
讷	-16302
讹	-16303
讻	-16304
诂	-16305
诃	-16306
诇	-16307
诋	-16308
诎	-16309
诏	-16310
诐	-16311
诒	-16312
诓	-16313
诔	-16314
诖	-16315
诘	-16316
诙	-16317
诜	-16318
诟	-16319
诠	-16320
诡	-16321
诣	-16322
诤	-16323
诧	-16324
诨	-16325
诩	-16326
诪	-16327
诫	-16328
诮	-16329
诳	-16330
诶	-16331
诹	-16332
诼	-16333
诽	-16334
诿	-16335
谀	-16336
谂	-16337
谄	-16338
谆	-16339
谇	-16340
谌	-16341
谍	-16342
谎	-16343
谏	-16344
谑	-16345
谒	-16346
谔	-16347
谕	-16348
谖	-16349
谗	-16350
谘	-16351
谙	-16352
谚	-16353
谛	-16354
谜	-16355
谝	-16356
谞	-16357
谟	-16358
谠	-16359
谡	-16360
谤	-16361
谥	-16362
谧	-16363
谩	-16364
谪	-16365
谬	-16366
谮	-16367
谰	-16368
谲	-16369
谳	-16370
谴	-16371
谵	-16372
谶	-16373
豚	-16374
豮	-16375
豶	-16376
貙	-16377
貞	-16378
貟	-16379
貢	-16380
貧	-16381
貨	-16382
貪	-16383
貯	-16384
貰	-16385
貲	-16386
貳	-16387
貶	-16388
貸	-16389
貺	-16390
貽	-16391
貿	-16392
賃	-16393
賄	-16394
賅	-16395
賊	-16396
賒	-16397
賕	-16398
賙	-16399
賚	-16400
賜	-16401
賡	-16402
賦	-16403
賧	-16404
賬	-16405
賰	-16406
賵	-16407
賺	-16408
賻	-16409
賾	-16410
贄	-16411
贅	-16412
贇	-16413
贍	-16414
贐	-16415
贓	-16416
贔	-16417
贖	-16418
贠	-16419
贬	-16420
贮	-16421
贳	-16422
贶	-16423
贻	-16424
贽	-16425
贿	-16426
赀	-16427
赁	-16428
赂	-16429
赅	-16430
赆	-16431
赇	-16432
赉	-16433
赊	-16434
赎	-16435
赑	-16436
赒	-16437
赓	-16438
赕	-16439
赗	-16440
赘	-16441
赙	-16442
赜	-16443
赟	-16444
赡	-16445
赣	-16446
赦	-16447
赪	-16448
赬	-16449
趨	-16450
趱	-16451
趲	-16452
趸	-16453
跄	-16454
跛	-16455
跞	-16456
跡	-16457
跪	-16458
跶	-16459
跷	-16460
跸	-16461
跹	-16462
跻	-16463
跼	-16464
踊	-16465
踐	-16466
踩	-16467
踯	-16468
踴	-16469
蹈	-16470
蹌	-16471
蹑	-16472
蹒	-16473
蹕	-16474
蹣	-16475
蹤	-16476
蹰	-16477
蹺	-16478
蹿	-16479
躂	-16480
躉	-16481
躊	-16482
躋	-16483
躏	-16484
躑	-16485
躒	-16486
躕	-16487
躚	-16488
躜	-16489
躡	-16490
躥	-16491
躦	-16492
躪	-16493
軋	-16494
軑	-16495
軒	-16496
軛	-16497
軤	-16498
軫	-16499
軲	-16500
軹	-16501
軺	-16502
軻	-16503
軼	-16504
軾	-16505
輅	-16506
輇	-16507
輈	-16508
輊	-16509
輒	-16510
輓	-16511
輔	-16512
輜	-16513
輞	-16514
輟	-16515
輥	-16516
輬	-16517
輳	-16518
輾	-16519
輿	-16520
轀	-16521
轂	-16522
轅	-16523
轆	-16524
轔	-16525
轡	-16526
轤	-16527
轪	-16528
轫	-16529
轭	-16530
轱	-16531
轲	-16532
轳	-16533
轵	-16534
轶	-16535
轷	-16536
轸	-16537
轹	-16538
轺	-16539
轾	-16540
轿	-16541
辀	-16542
辁	-16543
辂	-16544
辆	-16545
辇	-16546
辊	-16547
辋	-16548
辌	-16549
辍	-16550
辎	-16551
辏	-16552
辐	-16553
辒	-16554
辔	-16555
辗	-16556
辘	-16557
辚	-16558
辯	-16559
迂	-16560
迥	-16561
迳	-16562
逄	-16563
逕	-16564
逦	-16565
逯	-16566
遙	-16567
遜	-16568
遢	-16569
遷	-16570
邂	-16571
邐	-16572
邝	-16573
邢	-16574
邴	-16575
邺	-16576
郐	-16577
郗	-16578
郜	-16579
郝	-16580
郟	-16581
郯	-16582
郸	-16583
鄂	-16584
鄆	-16585
鄒	-16586
鄔	-16587
鄖	-16588
鄢	-16589
鄧	-16590
鄱	-16591
鄲	-16592
鄴	-16593
鄶	-16594
鄺	-16595
酂	-16596
酆	-16597
酇	-16598
酈	-16599
酥	-16600
酦	-16601
酽	-16602
酾	-16603
醋	-16604
醜	-16605
醱	-16606
醲	-16607
釁	-16608
釃	-16609
釅	-16610
釐	-16611
釒	-16612
釓	-16613
釔	-16614
釕	-16615
釗	-16616
釙	-16617
釜	-16618
釣	-16619
釤	-16620
釧	-16621
釩	-16622
釵	-16623
釷	-16624
釹	-16625
釺	-16626
鈀	-16627
鈁	-16628
鈃	-16629
鈄	-16630
鈈	-16631
鈉	-16632
鈐	-16633
鈑	-16634
鈒	-16635
鈔	-16636
鈕	-16637
鈥	-16638
鈦	-16639
鈧	-16640
鈮	-16641
鈰	-16642
鈳	-16643
鈷	-16644
鈹	-16645
鈽	-16646
鈾	-16647
鈿	-16648
鉀	-16649
鉈	-16650
鉉	-16651
鉋	-16652
鉍	-16653
鉑	-16654
鉕	-16655
鉗	-16656
鉚	-16657
鉛	-16658
鉞	-16659
鉦	-16660
鉬	-16661
鉭	-16662
鉸	-16663
鉺	-16664
鉻	-16665
鉿	-16666
銃	-16667
銍	-16668
銑	-16669
銓	-16670
銖	-16671
銚	-16672
銛	-16673
銜	-16674
銠	-16675
銣	-16676
銥	-16677
銦	-16678
銨	-16679
銩	-16680
銪	-16681
銫	-16682
銬	-16683
銮	-16684
銱	-16685
銳	-16686
銹	-16687
銻	-16688
銼	-16689
鋃	-16690
鋅	-16691
鋇	-16692
鋌	-16693
鋏	-16694
鋙	-16695
鋝	-16696
鋟	-16697
鋣	-16698
鋤	-16699
鋥	-16700
鋦	-16701
鋨	-16702
鋩	-16703
鋪	-16704
鋮	-16705
鋯	-16706
鋰	-16707
鋱	-16708
鋶	-16709
鋸	-16710
錁	-16711
錆	-16712
錇	-16713
錈	-16714
錏	-16715
錐	-16716
錒	-16717
錕	-16718
錘	-16719
錙	-16720
錚	-16721
錛	-16722
錟	-16723
錠	-16724
錡	-16725
錨	-16726
錫	-16727
錮	-16728
錳	-16729
錸	-16730
錾	-16731
鍀	-16732
鍃	-16733
鍆	-16734
鍇	-16735
鍈	-16736
鍍	-16737
鍔	-16738
鍘	-16739
鍚	-16740
鍠	-16741
鍤	-16742
鍩	-16743
鍬	-16744
鍰	-16745
鍶	-16746
鍺	-16747
鎂	-16748
鎄	-16749
鎇	-16750
鎊	-16751
鎔	-16752
鎘	-16753
鎛	-16754
鎝	-16755
鎡	-16756
鎢	-16757
鎣	-16758
鎦	-16759
鎧	-16760
鎩	-16761
鎪	-16762
鎬	-16763
鎰	-16764
鎲	-16765
鎳	-16766
鎵	-16767
鎿	-16768
鏃	-16769
鏇	-16770
鏌	-16771
鏍	-16772
鏐	-16773
鏑	-16774
鏗	-16775
鏘	-16776
鏜	-16777
鏝	-16778
鏞	-16779
鏟	-16780
鏢	-16781
鏤	-16782
鏨	-16783
鏰	-16784
鏵	-16785
鏷	-16786
鐃	-16787
鐋	-16788
鐐	-16789
鐒	-16790
鐓	-16791
鐔	-16792
鐙	-16793
鐠	-16794
鐦	-16795
鐧	-16796
鐨	-16797
鐫	-16798
鐮	-16799
鐲	-16800
鐳	-16801
鐶	-16802
鐸	-16803
鐺	-16804
鐿	-16805
鑄	-16806
鑊	-16807
鑌	-16808
鑒	-16809
鑔	-16810
鑕	-16811
鑞	-16812
鑠	-16813
鑣	-16814
鑥	-16815
鑭	-16816
鑱	-16817
鑲	-16818
鑷	-16819
鑹	-16820
鑼	-16821
鑽	-16822
鑿	-16823
钁	-16824
钅	-16825
钆	-16826
钇	-16827
钊	-16828
钋	-16829
钌	-16830
钍	-16831
钎	-16832
钏	-16833
钐	-16834
钑	-16835
钒	-16836
钓	-16837
钔	-16838
钕	-16839
钖	-16840
钗	-16841
钘	-16842
钙	-16843
钚	-16844
钛	-16845
钡	-16846
钣	-16847
钤	-16848
钨	-16849
钪	-16850
钫	-16851
钬	-16852
钯	-16853
钰	-16854
钲	-16855
钳	-16856
钴	-16857
钶	-16858
钷	-16859
钸	-16860
钹	-16861
钺	-16862
钼	-16863
钽	-16864
钾	-16865
钿	-16866
铀	-16867
铂	-16868
铃	-16869
铄	-16870
铅	-16871
铆	-16872
铇	-16873
铈	-16874
铉	-16875
铊	-16876
铋	-16877
铌	-16878
铍	-16879
铎	-16880
铏	-16881
铐	-16882
铑	-16883
铓	-16884
铔	-16885
铕	-16886
铖	-16887
铗	-16888
铘	-16889
铙	-16890
铚	-16891
铛	-16892
铞	-16893
铟	-16894
铠	-16895
铡	-16896
铢	-16897
铣	-16898
铤	-16899
铥	-16900
铦	-16901
铧	-16902
铨	-16903
铩	-16904
铪	-16905
铫	-16906
铬	-16907
铮	-16908
铯	-16909
铰	-16910
铱	-16911
铲	-16912
铳	-16913
铴	-16914
铵	-16915
铷	-16916
铸	-16917
铹	-16918
铻	-16919
铼	-16920
铽	-16921
铿	-16922
锂	-16923
锃	-16924
锄	-16925
锆	-16926
锇	-16927
锉	-16928
锊	-16929
锌	-16930
锍	-16931
锎	-16932
锏	-16933
锒	-16934
锓	-16935
锔	-16936
锕	-16937
锖	-16938
锗	-16939
锘	-16940
锛	-16941
锜	-16942
锝	-16943
锞	-16944
锟	-16945
锠	-16946
锢	-16947
锣	-16948
锥	-16949
锧	-16950
锩	-16951
锪	-16952
锫	-16953
锬	-16954
锭	-16955
锯	-16956
锰	-16957
锱	-16958
锳	-16959
锴	-16960
锵	-16961
锶	-16962
锷	-16963
锸	-16964
锹	-16965
锼	-16966
锽	-16967
锾	-16968
锿	-16969
镀	-16970
镁	-16971
镂	-16972
镃	-16973
镄	-16974
镅	-16975
镆	-16976
镈	-16977
镉	-16978
镊	-16979
镋	-16980
镍	-16981
镎	-16982
镏	-16983
镐	-16984
镑	-16985
镒	-16986
镓	-16987
镔	-16988
镕	-16989
镗	-16990
镘	-16991
镙	-16992
镚	-16993
镛	-16994
镝	-16995
镞	-16996
镠	-16997
镡	-16998
镣	-16999
镤	-17000
镥	-17001
镦	-17002
镧	-17003
镨	-17004
镩	-17005
镪	-17006
镫	-17007
镬	-17008
镭	-17009
镮	-17010
镯	-17011
镰	-17012
镱	-17013
镲	-17014
镳	-17015
镴	-17016
镵	-17017
镶	-17018
閂	-17019
閆	-17020
閈	-17021
閌	-17022
閎	-17023
閏	-17024
閑	-17025
閘	-17026
閡	-17027
閣	-17028
閥	-17029
閨	-17030
閩	-17031
閫	-17032
閬	-17033
閶	-17034
閹	-17035
閻	-17036
閼	-17037
閽	-17038
閾	-17039
閿	-17040
闃	-17041
闆	-17042
闇	-17043
闈	-17044
闋	-17045
闍	-17046
闐	-17047
闒	-17048
闓	-17049
闔	-17050
闕	-17051
闖	-17052
闘	-17053
闞	-17054
闠	-17055
闡	-17056
闤	-17057
闥	-17058
闩	-17059
闫	-17060
闬	-17061
闰	-17062
闱	-17063
闳	-17064
闶	-17065
闼	-17066
闿	-17067
阀	-17068
阃	-17069
阄	-17070
阆	-17071
阇	-17072
阉	-17073
阊	-17074
阋	-17075
阌	-17076
阍	-17077
阏	-17078
阒	-17079
阓	-17080
阖	-17081
阗	-17082
阘	-17083
阛	-17084
阱	-17085
陇	-17086
陉	-17087
陌	-17088
陘	-17089
陡	-17090
陧	-17091
陨	-17092
陪	-17093
険	-17094
隉	-17095
隕	-17096
隨	-17097
隴	-17098
隽	-17099
雇	-17100
雋	-17101
雌	-17102
雏	-17103
雖	-17104
雛	-17105
雳	-17106
霁	-17107
霄	-17108
霜	-17109
霞	-17110
霡	-17111
霢	-17112
霽	-17113
靂	-17114
靄	-17115
靓	-17116
靚	-17117
靥	-17118
靨	-17119
靳	-17120
鞀	-17121
鞏	-17122
鞑	-17123
鞒	-17124
鞦	-17125
鞯	-17126
鞽	-17127
韁	-17128
韃	-17129
韆	-17130
韉	-17131
韌	-17132
韍	-17133
韙	-17134
韜	-17135
韞	-17136
韧	-17137
韨	-17138
韪	-17139
韫	-17140
韶	-17141
頇	-17142
頊	-17143
頌	-17144
頎	-17145
頏	-17146
頜	-17147
頡	-17148
頤	-17149
頦	-17150
頮	-17151
頲	-17152
頴	-17153
頷	-17154
頸	-17155
頹	-17156
顎	-17157
顏	-17158
顓	-17159
顙	-17160
顢	-17161
顥	-17162
顧	-17163
顫	-17164
顬	-17165
顰	-17166
顱	-17167
顳	-17168
顴	-17169
顸	-17170
顼	-17171
颀	-17172
颃	-17173
颅	-17174
颈	-17175
颉	-17176
颋	-17177
颌	-17178
颍	-17179
颎	-17180
颏	-17181
颒	-17182
颔	-17183
颕	-17184
颙	-17185
颞	-17186
颟	-17187
颡	-17188
颢	-17189
颤	-17190
颥	-17191
颧	-17192
颭	-17193
颮	-17194
颯	-17195
颸	-17196
颺	-17197
颻	-17198
颼	-17199
飀	-17200
飆	-17201
飈	-17202
飏	-17203
飐	-17204
飑	-17205
飒	-17206
飔	-17207
飕	-17208
飖	-17209
飗	-17210
飚	-17211
飠	-17212
飣	-17213
飥	-17214
飨	-17215
飪	-17216
飫	-17217
飭	-17218
飴	-17219
飿	-17220
餄	-17221
餉	-17222
養	-17223
餌	-17224
餍	-17225
餎	-17226
餏	-17227
餑	-17228
餒	-17229
餕	-17230
餖	-17231
餚	-17232
餜	-17233
餞	-17234
餱	-17235
餳	-17236
餶	-17237
餷	-17238
餺	-17239
餼	-17240
餾	-17241
餿	-17242
饁	-17243
饃	-17244
饅	-17245
饈	-17246
饊	-17247
饋	-17248
饌	-17249
饒	-17250
饗	-17251
饜	-17252
饞	-17253
饢	-17254
饣	-17255
饤	-17256
饦	-17257
饧	-17258
饩	-17259
饫	-17260
饬	-17261
饯	-17262
饳	-17263
饴	-17264
饵	-17265
饷	-17266
饸	-17267
饹	-17268
饻	-17269
饽	-17270
饾	-17271
馂	-17272
馃	-17273
馅	-17274
馇	-17275
馉	-17276
馊	-17277
馋	-17278
馌	-17279
馍	-17280
馎	-17281
馏	-17282
馐	-17283
馒	-17284
馓	-17285
馔	-17286
馕	-17287
馨	-17288
馭	-17289
馮	-17290
馱	-17291
馴	-17292
馹	-17293
駁	-17294
駑	-17295
駒	-17296
駔	-17297
駙	-17298
駛	-17299
駝	-17300
駟	-17301
駢	-17302
駭	-17303
駰	-17304
駸	-17305
騁	-17306
騂	-17307
騅	-17308
騌	-17309
騍	-17310
騖	-17311
騤	-17312
騧	-17313
騫	-17314
騭	-17315
騮	-17316
騶	-17317
騷	-17318
騸	-17319
騾	-17320
驀	-17321
驁	-17322
驂	-17323
驃	-17324
驄	-17325
驅	-17326
驊	-17327
驌	-17328
驍	-17329
驏	-17330
驕	-17331
驛	-17332
驟	-17333
驢	-17334
驤	-17335
驥	-17336
驫	-17337
驭	-17338
驮	-17339
驯	-17340
驲	-17341
驳	-17342
驴	-17343
驵	-17344
驸	-17345
驹	-17346
驺	-17347
驽	-17348
驿	-17349
骁	-17350
骃	-17351
骅	-17352
骇	-17353
骈	-17354
骉	-17355
骊	-17356
骋	-17357
骍	-17358
骎	-17359
骐	-17360
骒	-17361
骓	-17362
骔	-17363
骕	-17364
骖	-17365
骘	-17366
骙	-17367
骝	-17368
骞	-17369
骟	-17370
骠	-17371
骡	-17372
骢	-17373
骣	-17374
骥	-17375
骦	-17376
骧	-17377
髋	-17378
髌	-17379
髏	-17380
髕	-17381
髖	-17382
髫	-17383
髻	-17384
鬅	-17385
鬈	-17386
鬩	-17387
鬮	-17388
魇	-17389
魉	-17390
魎	-17391
魘	-17392
魛	-17393
魢	-17394
魨	-17395
魴	-17396
魷	-17397
魺	-17398
鮁	-17399
鮃	-17400
鮊	-17401
鮋	-17402
鮍	-17403
鮐	-17404
鮒	-17405
鮓	-17406
鮚	-17407
鮜	-17408
鮞	-17409
鮦	-17410
鮪	-17411
鮫	-17412
鮭	-17413
鮳	-17414
鮶	-17415
鮺	-17416
鯀	-17417
鯁	-17418
鯇	-17419
鯉	-17420
鯊	-17421
鯒	-17422
鯔	-17423
鯕	-17424
鯖	-17425
鯗	-17426
鯛	-17427
鯝	-17428
鯡	-17429
鯢	-17430
鯤	-17431
鯧	-17432
鯪	-17433
鯫	-17434
鯴	-17435
鯷	-17436
鯽	-17437
鯿	-17438
鰁	-17439
鰂	-17440
鰃	-17441
鰈	-17442
鰉	-17443
鰍	-17444
鰏	-17445
鰒	-17446
鰓	-17447
鰜	-17448
鰟	-17449
鰠	-17450
鰣	-17451
鰥	-17452
鰨	-17453
鰩	-17454
鰭	-17455
鰮	-17456
鰱	-17457
鰲	-17458
鰳	-17459
鰵	-17460
鰷	-17461
鰹	-17462
鰺	-17463
鰻	-17464
鰼	-17465
鰾	-17466
鱂	-17467
鱅	-17468
鱈	-17469
鱉	-17470
鱒	-17471
鱖	-17472
鱘	-17473
鱝	-17474
鱟	-17475
鱠	-17476
鱣	-17477
鱤	-17478
鱧	-17479
鱨	-17480
鱭	-17481
鱯	-17482
鱷	-17483
鱸	-17484
鱺	-17485
鱽	-17486
鱾	-17487
鱿	-17488
鲀	-17489
鲂	-17490
鲃	-17491
鲄	-17492
鲅	-17493
鲆	-17494
鲈	-17495
鲉	-17496
鲊	-17497
鲋	-17498
鲌	-17499
鲎	-17500
鲏	-17501
鲐	-17502
鲑	-17503
鲒	-17504
鲓	-17505
鲔	-17506
鲕	-17507
鲖	-17508
鲗	-17509
鲘	-17510
鲙	-17511
鲚	-17512
鲛	-17513
鲝	-17514
鲟	-17515
鲡	-17516
鲢	-17517
鲣	-17518
鲤	-17519
鲥	-17520
鲦	-17521
鲧	-17522
鲩	-17523
鲪	-17524
鲫	-17525
鲬	-17526
鲭	-17527
鲮	-17528
鲯	-17529
鲰	-17530
鲱	-17531
鲲	-17532
鲳	-17533
鲴	-17534
鲵	-17535
鲶	-17536
鲷	-17537
鲹	-17538
鲺	-17539
鲻	-17540
鲼	-17541
鲽	-17542
鲾	-17543
鲿	-17544
鳀	-17545
鳁	-17546
鳂	-17547
鳃	-17548
鳅	-17549
鳆	-17550
鳇	-17551
鳈	-17552
鳉	-17553
鳊	-17554
鳋	-17555
鳌	-17556
鳍	-17557
鳎	-17558
鳏	-17559
鳐	-17560
鳑	-17561
鳒	-17562
鳓	-17563
鳔	-17564
鳕	-17565
鳖	-17566
鳗	-17567
鳘	-17568
鳙	-17569
鳚	-17570
鳛	-17571
鳜	-17572
鳝	-17573
鳞	-17574
鳟	-17575
鳠	-17576
鳡	-17577
鳢	-17578
鳣	-17579
鳧	-17580
鳩	-17581
鳲	-17582
鳶	-17583
鳾	-17584
鴆	-17585
鴇	-17586
鴉	-17587
鴒	-17588
鴕	-17589
鴛	-17590
鴝	-17591
鴞	-17592
鴟	-17593
鴣	-17594
鴦	-17595
鴯	-17596
鴰	-17597
鴴	-17598
鴷	-17599
鴻	-17600
鴿	-17601
鵁	-17602
鵂	-17603
鵃	-17604
鵐	-17605
鵑	-17606
鵒	-17607
鵓	-17608
鵜	-17609
鵝	-17610
鵠	-17611
鵡	-17612
鵪	-17613
鵬	-17614
鵮	-17615
鵯	-17616
鵲	-17617
鵷	-17618
鵾	-17619
鶄	-17620
鶇	-17621
鶉	-17622
鶊	-17623
鶓	-17624
鶖	-17625
鶘	-17626
鶚	-17627
鶡	-17628
鶥	-17629
鶩	-17630
鶪	-17631
鶬	-17632
鶯	-17633
鶲	-17634
鶹	-17635
鶺	-17636
鶻	-17637
鶼	-17638
鶿	-17639
鷁	-17640
鷂	-17641
鷈	-17642
鷊	-17643
鷓	-17644
鷖	-17645
鷙	-17646
鷚	-17647
鷥	-17648
鷦	-17649
鷫	-17650
鷯	-17651
鷲	-17652
鷳	-17653
鷸	-17654
鷽	-17655
鷿	-17656
鸂	-17657
鸇	-17658
鸌	-17659
鸏	-17660
鸕	-17661
鸘	-17662
鸚	-17663
鸛	-17664
鸝	-17665
鸠	-17666
鸢	-17667
鸤	-17668
鸥	-17669
鸦	-17670
鸧	-17671
鸨	-17672
鸩	-17673
鸪	-17674
鸫	-17675
鸬	-17676
鸮	-17677
鸯	-17678
鸰	-17679
鸱	-17680
鸲	-17681
鸳	-17682
鸴	-17683
鸵	-17684
鸶	-17685
鸷	-17686
鸸	-17687
鸹	-17688
鸻	-17689
鸼	-17690
鸽	-17691
鸾	-17692
鹀	-17693
鹁	-17694
鹂	-17695
鹃	-17696
鹄	-17697
鹅	-17698
鹆	-17699
鹇	-17700
鹈	-17701
鹉	-17702
鹊	-17703
鹋	-17704
鹌	-17705
鹍	-17706
鹎	-17707
鹐	-17708
鹑	-17709
鹒	-17710
鹓	-17711
鹔	-17712
鹕	-17713
鹖	-17714
鹗	-17715
鹘	-17716
鹙	-17717
鹛	-17718
鹝	-17719
鹞	-17720
鹟	-17721
鹠	-17722
鹡	-17723
鹢	-17724
鹣	-17725
鹥	-17726
鹦	-17727
鹧	-17728
鹨	-17729
鹩	-17730
鹪	-17731
鹫	-17732
鹬	-17733
鹭	-17734
鹯	-17735
鹰	-17736
鹱	-17737
鹲	-17738
鹳	-17739
鹴	-17740
鹺	-17741
鹾	-17742
麩	-17743
麯	-17744
麸	-17745
黉	-17746
黌	-17747
黡	-17748
黩	-17749
黪	-17750
黲	-17751
黶	-17752
黷	-17753
黿	-17754
鼉	-17755
鼋	-17756
鼍	-17757
鼗	-17758
鼴	-17759
鼹	-17760
齎	-17761
齏	-17762
齑	-17763
齔	-17764
齕	-17765
齗	-17766
齙	-17767
齜	-17768
齟	-17769
齠	-17770
齡	-17771
齦	-17772
齪	-17773
齬	-17774
齲	-17775
齶	-17776
齷	-17777
龀	-17778
龁	-17779
龂	-17780
龃	-17781
龅	-17782
龆	-17783
龇	-17784
龈	-17785
龉	-17786
龊	-17787
龋	-17788
龌	-17789
龐	-17790
龔	-17791
龕	-17792
龛	-17793
ꆈ	-17794
ꉙ	-17795
ꌠ	-17796
꜉	-17797
꜊	-17798
꜋	-17799
꜌	-17800
갖	-17801
갯	-17802
견	-17803
겯	-17804
골	-17805
광	-17806
긍	-17807
길	-17808
꼬	-17809
꿔	-17810
끈	-17811
끌	-17812
끕	-17813
끘	-17814
난	-17815
놀	-17816
눋	-17817
닌	-17818
닏	-17819
닙	-17820
닛	-17821
닝	-17822
닠	-17823
닢	-17824
닣	-17825
닦	-17826
닷	-17827
덕	-17828
덟	-17829
돎	-17830
떤	-17831
똠	-17832
뜯	-17833
띄	-17834
람	-17835
랟	-17836
랩	-17837
랫	-17838
랭	-17839
랰	-17840
랳	-17841
뤄	-17842
림	-17843
립	-17844
많	-17845
멘	-17846
뭇	-17847
믿	-17848
밸	-17849
볼	-17850
봄	-17851
봇	-17852
붇	-17853
빈	-17854
뺏	-17855
뻔	-17856
뻤	-17857
뽑	-17858
쁜	-17859
샌	-17860
샘	-17861
샤	-17862
섬	-17863
셋	-17864
셔	-17865
솅	-17866
쉰	-17867
슨	-17868
쐈	-17869
쑛	-17870
앜	-17871
앞	-17872
얼	-17873
엇	-17874
웨	-17875
웹	-17876
윈	-17877
육	-17878
응	-17879
읽	-17880
젓	-17881
젔	-17882
졋	-17883
좌	-17884
죄	-17885
줄	-17886
줌	-17887
줐	-17888
쭉	-17889
찦	-17890
책	-17891
춤	-17892
칠	-17893
켰	-17894
콘	-17895
킴	-17896
탐	-17897
탕	-17898
텀	-17899
텍	-17900
투	-17901
튀	-17902
튼	-17903
틀	-17904
틉	-17905
틌	-17906
푼	-17907
풉	-17908
풌	-17909
풍	-17910
픽	-17911
핑	-17912
향	-17913
헌	-17914
헤	-17915
혁	-17916
혹	-17917
홉	-17918
희	-17919
	-17920
￾	-17921
𐀠	-17922
𐌰	-17923
𐌱	-17924
𐌲	-17925
𐌳	-17926
𐌴	-17927
𐌵	-17928
𐌶	-17929
𐌷	-17930
𐌸	-17931
𐌹	-17932
𐌺	-17933
𐌻	-17934
𐌼	-17935
𐌽	-17936
𐌾	-17937
𐌿	-17938
𐍀	-17939
𐍁	-17940
𐍂	-17941
𐍃	-17942
𐍄	-17943
𐍅	-17944
𐍆	-17945
𐍇	-17946
𐍈	-17947
𐍉	-17948
𐍊	-17949
🆔	-17950
🇪	-17951
🌃	-17952
🌄	-17953
🌳	-17954
🌼	-17955
🍈	-17956
🍋	-17957
🍌	-17958
🍍	-17959
🏃	-17960
🏗	-17961
🏠	-17962
🐜	-17963
🐪	-17964
🐻	-17965
🐿	-17966
👁	-17967
👌	-17968
👕	-17969
👹	-17970
💗	-17971
💬	-17972
📅	-17973
📊	-17974
📎	-17975
📢	-17976
📧	-17977
🔄	-17978
🔇	-17979
🔈	-17980
🔐	-17981
🔙	-17982
🔫	-17983
🕒	-17984
🕛	-17985
🕯	-17986
🕵	-17987
🕺	-17988
🖼	-17989
😉	-17990
😐	-17991
😧	-17992
😨	-17993
😰	-17994
😶	-17995
😹	-17996
😽	-17997
🙄	-17998
🚃	-17999
🚚	-18000
🚴	-18001
🛴	-18002
🛹	-18003
🟒	-18004
🤝	-18005
🤢	-18006
🤦	-18007
🥀	-18008
🥞	-18009
🦄	-18010
🦋	-18011
🦍	-18012
🦝	-18013
🧜	-18014
𠜎	-18015
𠜱	-18016
𠝹	-18017
𠱓	-18018
𠱸	-18019
𠲖	-18020
𠳏	-18021
𡒄	-18022
𡞵	-18023
𨱏	-18024
	-18025
Ă	-18026
Ď	-18027
Ĺ	-18028
Ľ	-18029
Ŗ	-18030
Ţ	-18031
Ŵ	-18032
Ƃ	-18033
Ɔ	-18034
Ƈ	-18035
Ɗ	-18036
Ƌ	-18037
Ǝ	-18038
Ɠ	-18039
Ɨ	-18040
ƛ	-18041
Ɲ	-18042
Ɵ	-18043
Ƭ	-18044
Ʈ	-18045
Ǐ	-18046
Ǒ	-18047
Ǣ	-18048
Ǥ	-18049
Ǵ	-18050
Ǽ	-18051
Ț	-18052
Ƞ	-18053
ȡ	-18054
Ȫ	-18055
ȴ	-18056
ȵ	-18057
Ʌ	-18058
Ɍ	-18059
ɧ	-18060
ɶ	-18061
ʚ	-18062
ʛ	-18063
ʮ	-18064
ʯ	-18065
ˁ	-18066
ˋ	-18067
˭	-18068
̍	-18069
̽	-18070
͊	-18071
ͯ	-18072
϶	-18073
Ͻ	-18074
Ѡ	-18075
҃	-18076
҇	-18077
҈	-18078
Ӑ	-18079
Ӓ	-18080
Ӣ	-18081
Ӥ	-18082
Ӧ	-18083
Ӯ	-18084
Ӱ	-18085
Ӳ	-18086
Ԁ	-18087
Ԇ	-18088
Ԥ	-18089
Դ	-18090
Ը	-18091
Հ	-18092
Ո	-18093
֑	-18094
֭	-18095
ֽ	-18096
ׄ	-18097
ׅ	-18098
ׇ	-18099
װ	-18100
؋	-18101
ؐ	-18102
ؚ	-18103
ٛ	-18104
ٟ	-18105
٭	-18106
ۖ	-18107
ۜ	-18108
۟	-18109
ۤ	-18110
ۧ	-18111
ۨ	-18112
۪	-18113
ۭ	-18114
܀	-18115
܅	-18116
ܑ	-18117
ܔ	-18118
ܜ	-18119
ܧ	-18120
ܰ	-18121
݊	-18122
ހ	-18123
ނ	-18124
ރ	-18125
ބ	-18126
ކ	-18127
ވ	-18128
ފ	-18129
ދ	-18130
ތ	-18131
ލ	-18132
ގ	-18133
ޑ	-18134
ޖ	-18135
ޗ	-18136
ަ	-18137
ި	-18138
ު	-18139
ެ	-18140
ް	-18141
ޱ	-18142
ߌ	-18143
ߍ	-18144
ߎ	-18145
ߓ	-18146
ߕ	-18147
ߖ	-18148
ߗ	-18149
ߘ	-18150
ߙ	-18151
ߜ	-18152
ߝ	-18153
ߞ	-18154
ߟ	-18155
ߢ	-18156
ߣ	-18157
ߤ	-18158
߫	-18159
߳	-18160
߹	-18161
࠙	-18162
ࠚ	-18163
ࠛ	-18164
ࠣ	-18165
ࠥ	-18166
ࠧ	-18167
ࠩ	-18168
࠭	-18169
࡙	-18170
࡛	-18171
ࢭ	-18172
ࣔ	-18173
࣡	-18174
ࣣ	-18175
ऺ	-18176
ॏ	-18177
॑	-18178
ॗ	-18179
ঽ	-18180
ৗ	-18181
ਊ	-18182
ਐ	-18183
ਓ	-18184
ਔ	-18185
ਘ	-18186
ਙ	-18187
ਛ	-18188
ਠ	-18189
ਡ	-18190
ਢ	-18191
ਧ	-18192
ਯ	-18193
ੌ	-18194
ੑ	-18195
ੵ	-18196
઼	-18197
ઽ	-18198
ૅ	-18199
ૉ	-18200
ଅ	-18201
ଇ	-18202
ଈ	-18203
ଉ	-18204
ଊ	-18205
ଋ	-18206
ଌ	-18207
ଏ	-18208
ଐ	-18209
ଔ	-18210
ଖ	-18211
ଘ	-18212
ଚ	-18213
ଛ	-18214
ଝ	-18215
ଠ	-18216
ଣ	-18217
ଥ	-18218
ଦ	-18219
ଧ	-18220
ଫ	-18221
ବ	-18222
ଯ	-18223
ଳ	-18224
ଶ	-18225
ସ	-18226
ଽ	-18227
ୃ	-18228
ୌ	-18229
ୖ	-18230
ୗ	-18231
ୠ	-18232
ୡ	-18233
ୢ	-18234
ୣ	-18235
୦	-18236
୨	-18237
୩	-18238
୪	-18239
୫	-18240
୬	-18241
୭	-18242
୮	-18243
୯	-18244
ஶ	-18245
ௐ	-18246
ௗ	-18247
௦	-18248
௧	-18249
௨	-18250
௩	-18251
௪	-18252
௫	-18253
௬	-18254
௭	-18255
௮	-18256
௯	-18257
௴	-18258
ఀ	-18259
ఁ	-18260
ఽ	-18261
ౕ	-18262
ౖ	-18263
ಁ	-18264
಼	-18265
ೕ	-18266
ೖ	-18267
ഁ	-18268
ഽ	-18269
ൊ	-18270
ൗ	-18271
ඃ	-18272
ෆ	-18273
ෘ	-18274
ෟ	-18275
ෲ	-18276
ෳ	-18277
๎	-18278
ຄ	-18279
ງ	-18280
ດ	-18281
ຕ	-18282
ຣ	-18283
ະ	-18284
ິ	-18285
ີ	-18286
ຶ	-18287
ື	-18288
ົ	-18289
ຼ	-18290
ເ	-18291
ແ	-18292
໒	-18293
༘	-18294
༙	-18295
༵	-18296
༷	-18297
༹	-18298
༾	-18299
༿	-18300
ཏ	-18301
ཕ	-18302
ཙ	-18303
ཟ	-18304
ཡ	-18305
྄	-18306
྆	-18307
྇	-18308
ྍ	-18309
ྙ	-18310
ྤ	-18311
ྼ	-18312
࿆	-18313
ဂ	-18314
ထ	-18315
ဖ	-18316
ရ	-18317
လ	-18318
ဝ	-18319
ဟ	-18320
ဤ	-18321
ီ	-18322
ူ	-18323
ေ	-18324
ဳ	-18325
ံ	-18326
ှ	-18327
၄	-18328
ၖ	-18329
ၙ	-18330
ၞ	-18331
ၠ	-18332
ၢ	-18333
ၤ	-18334
ၧ	-18335
ၭ	-18336
ၱ	-18337
ၴ	-18338
ၾ	-18339
ႂ	-18340
ႍ	-18341
ႏ	-18342
ႚ	-18343
ႝ	-18344
႟	-18345
Ⴙ	-18346
ზ	-18347
ჟ	-18348
ფ	-18349
ღ	-18350
ჭ	-18351
ხ	-18352
ჯ	-18353
ჰ	-18354
ሀ	-18355
ለ	-18356
ም	-18357
ሮ	-18358
ሸ	-18359
ቅ	-18360
በ	-18361
ቤ	-18362
ቸ	-18363
ች	-18364
ና	-18365
ኢ	-18366
እ	-18367
ከ	-18368
ያ	-18369
ዮ	-18370
ዳ	-18371
ጀ	-18372
ጵ	-18373
ፈ	-18374
፝	-18375
፟	-18376
፧	-18377
ᐃ	-18378
ᑕ	-18379
ᑦ	-18380
ᑭ	-18381
ᑯ	-18382
ᒋ	-18383
ᒥ	-18384
ᒧ	-18385
ᓂ	-18386
ᕤ	-18387
ᕦ	-18388
ᕿ	-18389
ᖁ	-18390
ᖃ	-18391
ᖯ	-18392
ᖵ	-18393
ᗡ	-18394
᙮	-18395
ᚁ	-18396
ᚂ	-18397
ᚃ	-18398
ᚅ	-18399
ᚆ	-18400
ᚇ	-18401
ᚈ	-18402
ᚉ	-18403
ᚌ	-18404
ᚍ	-18405
ᚏ	-18406
ᚒ	-18407
ᚓ	-18408
ᚔ	-18409
ᚖ	-18410
ᚗ	-18411
ᜒ	-18412
᜔	-18413
ᜲ	-18414
᜴	-18415
ᝒ	-18416
ᝓ	-18417
ᝲ	-18418
ᝳ	-18419
ង	-18420
ដ	-18421
ថ	-18422
វ	-18423
ហ	-18424
឴	-18425
ិ	-18426
េ	-18427
៓	-18428
៕	-18429
៖	-18430
៛	-18431
៝	-18432
᠋	-18433
᠍	-18434
ᢅ	-18435
ᢆ	-18436
ᢩ	-18437
ᤠ	-18438
ᤫ	-18439
ᤰ	-18440
᤻	-18441
᥄	-18442
ᨗ	-18443
ᨛ	-18444
ᩕ	-18445
ᩞ	-18446
᩠	-18447
᩼	-18448
᩿	-18449
᪰	-18450
᪽	-18451
ᬀ	-18452
ᬄ	-18453
ᬓ	-18454
ᬨ	-18455
ᬮ	-18456
᬴	-18457
᭫	-18458
᭳	-18459
ᮀ	-18460
ᮂ	-18461
ᮡ	-18462
ᮭ	-18463
᯦	-18464
᯳	-18465
ᰤ	-18466
᰷	-18467
᳐	-18468
᳒	-18469
᳔	-18470
᳨	-18471
᳭	-18472
ᳲ	-18473
᳴	-18474
᳸	-18475
᳹	-18476
ᴙ	-18477
ᵮ	-18478
ᵲ	-18479
ᵺ	-18480
ᶑ	-18481
᷀	-18482
᷵	-18483
᷻	-18484
᷿	-18485
Ḇ	-18486
Ḉ	-18487
Ṿ	-18488
ẘ	-18489
ẙ	-18490
Ỳ	-18491
‱	-18492
⁂	-18493
⁅	-18494
⁆	-18495
⁑	-18496
⁓	-18497
⁔	-18498
₦	-18499
₧	-18500
₭	-18501
₮	-18502
₱	-18503
₲	-18504
₵	-18505
⃝	-18506
⃥	-18507
⃮	-18508
⃯	-18509
⃰	-18510
↥	-18511
↨	-18512
↵	-18513
↹	-18514
⇖	-18515
⇗	-18516
⇘	-18517
⇙	-18518
⇧	-18519
⇸	-18520
⇻	-18521
∊	-18522
∍	-18523
∸	-18524
≴	-18525
≵	-18526
≸	-18527
⊍	-18528
⊶	-18529
⊷	-18530
⋀	-18531
⋁	-18532
⋂	-18533
⋃	-18534
⋢	-18535
⋣	-18536
⌂	-18537
⌆	-18538
⌷	-18539
⌸	-18540
⌽	-18541
⍁	-18542
⍂	-18543
⍉	-18544
⍋	-18545
⍎	-18546
⍒	-18547
⍕	-18548
⍠	-18549
⍣	-18550
⍤	-18551
⍨	-18552
⍪	-18553
⍬	-18554
⍯	-18555
⍱	-18556
⍲	-18557
⍳	-18558
⍴	-18559
⍵	-18560
⍶	-18561
⍷	-18562
⍹	-18563
⍺	-18564
⎛	-18565
⎜	-18566
⎝	-18567
⎞	-18568
⎟	-18569
⎠	-18570
⎡	-18571
⎢	-18572
⎣	-18573
⎤	-18574
⎥	-18575
⎦	-18576
⎧	-18577
⎩	-18578
⎫	-18579
⎭	-18580
⎲	-18581
⎳	-18582
⎽	-18583
⏜	-18584
⏞	-18585
⏟	-18586
⏪	-18587
⏫	-18588
⏬	-18589
⏰	-18590
┈	-18591
┊	-18592
╖	-18593
╜	-18594
╟	-18595
╢	-18596
╥	-18597
╨	-18598
╫	-18599
▏	-18600
▕	-18601
▖	-18602
▗	-18603
▘	-18604
▙	-18605
▚	-18606
▛	-18607
▜	-18608
▝	-18609
▞	-18610
▟	-18611
▬	-18612
▻	-18613
◁	-18614
◅	-18615
◘	-18616
◙	-18617
◢	-18618
◣	-18619
◤	-18620
◥	-18621
◽	-18622
◾	-18623
☁	-18624
☊	-18625
☝	-18626
♢	-18627
♤	-18628
♧	-18629
♿	-18630
⚇	-18631
⚉	-18632
⚹	-18633
⚽	-18634
⚾	-18635
⛎	-18636
⛏	-18637
⛪	-18638
⛲	-18639
⛳	-18640
⛷	-18641
⛺	-18642
⛽	-18643
✃	-18644
✄	-18645
✆	-18646
✇	-18647
✊	-18648
✍	-18649
✐	-18650
✑	-18651
✙	-18652
✛	-18653
✜	-18654
✝	-18655
✞	-18656
✟	-18657
✡	-18658
✢	-18659
✣	-18660
✥	-18661
✦	-18662
✧	-18663
✫	-18664
✬	-18665
✮	-18666
✱	-18667
✲	-18668
✵	-18669
✸	-18670
✹	-18671
✺	-18672
✻	-18673
✼	-18674
❀	-18675
❁	-18676
❂	-18677
❃	-18678
❅	-18679
❆	-18680
❈	-18681
❉	-18682
❊	-18683
❋	-18684
❍	-18685
❏	-18686
❑	-18687
❒	-18688
❔	-18689
❕	-18690
❖	-18691
❘	-18692
❙	-18693
❛	-18694
❜	-18695
❝	-18696
❞	-18697
❡	-18698
❢	-18699
❣	-18700
❥	-18701
❧	-18702
❨	-18703
❩	-18704
❪	-18705
❫	-18706
❬	-18707
❭	-18708
❱	-18709
❲	-18710
❳	-18711
❴	-18712
❵	-18713
❶	-18714
❷	-18715
❸	-18716
❹	-18717
❺	-18718
❻	-18719
❼	-18720
❽	-18721
❾	-18722
❿	-18723
➀	-18724
➁	-18725
➂	-18726
➃	-18727
➄	-18728
➅	-18729
➆	-18730
➇	-18731
➈	-18732
➉	-18733
➊	-18734
➋	-18735
➌	-18736
➍	-18737
➎	-18738
➏	-18739
➐	-18740
➑	-18741
➒	-18742
➓	-18743
➔	-18744
➕	-18745
➗	-18746
➙	-18747
➛	-18748
➞	-18749
➟	-18750
➠	-18751
➣	-18752
➥	-18753
➦	-18754
➧	-18755
➨	-18756
➩	-18757
➫	-18758
➬	-18759
➭	-18760
➮	-18761
➯	-18762
➰	-18763
➱	-18764
➲	-18765
➳	-18766
➴	-18767
➵	-18768
➶	-18769
➷	-18770
➸	-18771
➹	-18772
➺	-18773
➻	-18774
➼	-18775
➽	-18776
➾	-18777
⟂	-18778
⟐	-18779
⟒	-18780
⟘	-18781
⟙	-18782
⟜	-18783
⠅	-18784
⠝	-18785
⠞	-18786
⠡	-18787
⠤	-18788
⠬	-18789
⠶	-18790
⤀	-18791
⤆	-18792
⤇	-18793
⤒	-18794
⤓	-18795
⤔	-18796
⤕	-18797
⤖	-18798
⤴	-18799
⤵	-18800
⥎	-18801
⥏	-18802
⥐	-18803
⥑	-18804
⥒	-18805
⥓	-18806
⥔	-18807
⥕	-18808
⥖	-18809
⥗	-18810
⥘	-18811
⥙	-18812
⥚	-18813
⥛	-18814
⥜	-18815
⥝	-18816
⥞	-18817
⥟	-18818
⥠	-18819
⥡	-18820
⥼	-18821
⥽	-18822
⦁	-18823
⦃	-18824
⦄	-18825
⦉	-18826
⦊	-18827
⦸	-18828
⧀	-18829
⧁	-18830
⧏	-18831
⧐	-18832
⧓	-18833
⧟	-18834
⧵	-18835
⧹	-18836
⨀	-18837
⨁	-18838
⨂	-18839
⨄	-18840
⨅	-18841
⨆	-18842
⨉	-18843
⨠	-18844
⨡	-18845
⨯	-18846
⨾	-18847
⨿	-18848
⩤	-18849
⩥	-18850
⩾	-18851
⪡	-18852
⪢	-18853
⪯	-18854
⪰	-18855
⪳	-18856
⪴	-18857
⫪	-18858
⫫	-18859
⬅	-18860
⬛	-18861
⬜	-18862
⬧	-18863
⮈	-18864
⮊	-18865
Ⲙ	-18866
⳯	-18867
⳱	-18868
⳺	-18869
ⴳ	-18870
ⴷ	-18871
ⴻ	-18872
ⴼ	-18873
ⴽ	-18874
ⵀ	-18875
ⵊ	-18876
ⵏ	-18877
ⵓ	-18878
ⵛ	-18879
⵿	-18880
ⷠ	-18881
ⷿ	-18882
⸘	-18883
⸮	-18884
⺄	-18885
⺆	-18886
⺇	-18887
⺈	-18888
⺊	-18889
⺌	-18890
⺍	-18891
⺎	-18892
⺐	-18893
⺑	-18894
⺗	-18895
⺜	-18896
⺥	-18897
⺧	-18898
⺪	-18899
⺫	-18900
⺮	-18901
⺳	-18902
⺴	-18903
⺶	-18904
⺷	-18905
⺻	-18906
⻆	-18907
⻈	-18908
⻏	-18909
⻕	-18910
⻝	-18911
〆	-18912
〝	-18913
〞	-18914
〪	-18915
〯	-18916
〰	-18917
〽	-18918
ぴ	-18919
ぺ	-18920
゠	-18921
ヮ	-18922
ヴ	-18923
ㄝ	-18924
ㄢ	-18925
ㄧ	-18926
㇀	-18927
㇆	-18928
㇐	-18929
㇑	-18930
㇕	-18931
㐀	-18932
㐯	-18933
㹴	-18934
䩄	-18935
丈	-18936
乗	-18937
乿	-18938
亄	-18939
亙	-18940
仜	-18941
仳	-18942
伎	-18943
伳	-18944
伶	-18945
佬	-18946
侍	-18947
俐	-18948
倔	-18949
僞	-18950
僻	-18951
兇	-18952
兜	-18953
冢	-18954
凄	-18955
匊	-18956
卯	-18957
厠	-18958
吟	-18959
咀	-18960
咆	-18961
咭	-18962
哮	-18963
唁	-18964
唔	-18965
啼	-18966
嘞	-18967
嘲	-18968
嚥	-18969
嚼	-18970
囤	-18971
囧	-18972
坫	-18973
坵	-18974
坷	-18975
埠	-18976
埰	-18977
塁	-18978
墻	-18979
夭	-18980
奬	-18981
奴	-18982
妾	-18983
姊	-18984
娘	-18985
娸	-18986
媾	-18987
嫉	-18988
嫡	-18989
嬀	-18990
孳	-18991
寥	-18992
尓	-18993
尛	-18994
屑	-18995
峋	-18996
峙	-18997
嵬	-18998
巣	-18999
庁	-19000
徇	-19001
徊	-19002
従	-19003
徘	-19004
忱	-19005
悄	-19006
悠	-19007
惚	-19008
惶	-19009
愎	-19010
愧	-19011
慤	-19012
慷	-19013
憩	-19014
懦	-19015
懿	-19016
戦	-19017
戸	-19018
扮	-19019
拙	-19020
挖	-19021
挙	-19022
捂	-19023
捆	-19024
掐	-19025
掬	-19026
掰	-19027
揹	-19028
揺	-19029
搏	-19030
摸	-19031
擅	-19032
攘	-19033
敕	-19034
敝	-19035
敷	-19036
旰	-19037
旱	-19038
昀	-19039
昊	-19040
晩	-19041
晰	-19042
暇	-19043
暮	-19044
曏	-19045
曷	-19046
朮	-19047
枉	-19048
柑	-19049
柚	-19050
栽	-19051
桀	-19052
棠	-19053
榆	-19054
榷	-19055
橘	-19056
歇	-19057
歳	-19058
氛	-19059
氵	-19060
汰	-19061
沐	-19062
沮	-19063
沼	-19064
浜	-19065
淒	-19066
淤	-19067
淩	-19068
渖	-19069
溉	-19070
溶	-19071
滔	-19072
滴	-19073
潙	-19074
澐	-19075
濡	-19076
灕	-19077
灬	-19078
炊	-19079
炳	-19080
焚	-19081
煏	-19082
煜	-19083
煽	-19084
熬	-19085
燮	-19086
爲	-19087
犾	-19088
狸	-19089
猝	-19090
玷	-19091
珏	-19092
琪	-19093
璇	-19094
瓣	-19095
甯	-19096
畔	-19097
畦	-19098
畵	-19099
疼	-19100
痹	-19101
瘻	-19102
盟	-19103
盥	-19104
眈	-19105
眚	-19106
眭	-19107
眷	-19108
睨	-19109
睹	-19110
瞌	-19111
瞬	-19112
砍	-19113
磷	-19114
礆	-19115
祟	-19116
禳	-19117
秩	-19118
稹	-19119
窟	-19120
竪	-19121
笛	-19122
箸	-19123
篡	-19124
簋	-19125
籖	-19126
粽	-19127
糯	-19128
経	-19129
絮	-19130
絶	-19131
綉	-19132
綫	-19133
緑	-19134
縧	-19135
繘	-19136
繮	-19137
缸	-19138
罟	-19139
罡	-19140
罩	-19141
羸	-19142
耍	-19143
耦	-19144
耽	-19145
聒	-19146
聘	-19147
肌	-19148
胱	-19149
腺	-19150
膀	-19151
臥	-19152
莞	-19153
菇	-19154
葵	-19155
蓴	-19156
蔓	-19157
蕃	-19158
蕈	-19159
蕓	-19160
薴	-19161
藴	-19162
虔	-19163
蝙	-19164
蝠	-19165
蝶	-19166
蠢	-19167
衆	-19168
衹	-19169
袋	-19170
褪	-19171
覃	-19172
観	-19173
誓	-19174
謡	-19175
謭	-19176
譲	-19177
賫	-19178
贋	-19179
贜	-19180
趴	-19181
踰	-19182
逇	-19183
逛	-19184
逝	-19185
逾	-19186
遏	-19187
遣	-19188
邃	-19189
郡	-19190
醖	-19191
鈎	-19192
鉢	-19193
鋈	-19194
鋭	-19195
鍁	-19196
鎸	-19197
鐝	-19198
鑫	-19199
閤	-19200
閲	-19201
闢	-19202
陥	-19203
隘	-19204
雑	-19205
霖	-19206
靼	-19207
鞘	-19208
鞝	-19209
鞫	-19210
頽	-19211
駅	-19212
駆	-19213
駡	-19214
驩	-19215
髓	-19216
魁	-19217
鮎	-19218
鮝	-19219
鰐	-19220
鳬	-19221
鷀	-19222
鷄	-19223
麒	-19224
麴	-19225
ꇩ	-19226
ꍏ	-19227
ꓕ	-19228
ꓘ	-19229
ꓤ	-19230
ꓭ	-19231
ꔫ	-19232
ꕞ	-19233
ꕩ	-19234
꘏	-19235
꙯	-19236
ꙴ	-19237
꙽	-19238
ꚞ	-19239
ꚟ	-19240
꛰	-19241
꛱	-19242
꜈	-19243
ꜱ	-19244
Ꝺ	-19245
ꞎ	-19246
ꟽ	-19247
ꠂ	-19248
꠆	-19249
ꠋ	-19250
ꠣ	-19251
ꠧ	-19252
ꢀ	-19253
ꢁ	-19254
ꢴ	-19255
ꣅ	-19256
꣠	-19257
꣱	-19258
ꤦ	-19259
꤭	-19260
ꥇ	-19261
꥓	-19262
ꦀ	-19263
ꦃ	-19264
꦳	-19265
꧀	-19266
ꧥ	-19267
ꨩ	-19268
ꨶ	-19269
ꩃ	-19270
ꩌ	-19271
ꩍ	-19272
ꩻ	-19273
ꩽ	-19274
ꪰ	-19275
ꪲ	-19276
ꪴ	-19277
ꪷ	-19278
ꪸ	-19279
ꪾ	-19280
꪿	-19281
꫁	-19282
ꫫ	-19283
ꫯ	-19284
ꫵ	-19285
꫶	-19286
ꯣ	-19287
ꯪ	-19288
꯬	-19289
꯭	-19290
객	-19291
균	-19292
납	-19293
낳	-19294
냫	-19295
녁	-19296
녛	-19297
뇨	-19298
눟	-19299
닇	-19300
닿	-19301
댜	-19302
댷	-19303
덯	-19304
뎌	-19305
뎧	-19306
돈	-19307
돟	-19308
됴	-19309
둫	-19310
딓	-19311
딕	-19312
땋	-19313
땨	-19314
떃	-19315
떠	-19316
뗘	-19317
뗳	-19318
똫	-19319
뚀	-19320
뚷	-19321
뜌	-19322
띟	-19323
랴	-19324
럏	-19325
렿	-19326
롯	-19327
롷	-19328
뤃	-19329
릫	-19330
맣	-19331
먀	-19332
먛	-19333
머	-19334
멓	-19335
몋	-19336
뫃	-19337
묘	-19338
뭏	-19339
뮤	-19340
믷	-19341
밀	-19342
및	-19343
밯	-19344
뱌	-19345
뱧	-19346
벟	-19347
벼	-19348
볗	-19349
봏	-19350
뵤	-19351
붛	-19352
뷰	-19353
빃	-19354
빔	-19355
빻	-19356
뺘	-19357
뺳	-19358
뻫	-19359
뼈	-19360
뼣	-19361
뽀	-19362
뽛	-19363
뾰	-19364
뿌	-19365
뿧	-19366
쀼	-19367
삏	-19368
샇	-19369
샿	-19370
섷	-19371
션	-19372
셯	-19373
솧	-19374
쇼	-19375
숙	-19376
숳	-19377
싛	-19378
싸	-19379
쌓	-19380
쌰	-19381
썋	-19382
쎃	-19383
쎠	-19384
쎻	-19385
쏘	-19386
쏳	-19387
쑈	-19388
쑿	-19389
쓔	-19390
씀	-19391
씧	-19392
엔	-19393
웃	-19394
잫	-19395
쟈	-19396
쟣	-19397
젛	-19398
졓	-19399
줗	-19400
쥬	-19401
즈	-19402
즿	-19403
쪽	-19404
챃	-19405
챠	-19406
챻	-19407
첳	-19408
쳫	-19409
촣	-19410
쵸	-19411
춯	-19412
췌	-19413
츄	-19414
칗	-19415
침	-19416
캏	-19417
캬	-19418
컇	-19419
컿	-19420
켜	-19421
켷	-19422
콜	-19423
콯	-19424
쿄	-19425
쿻	-19426
큼	-19427
킣	-19428
탁	-19429
탛	-19430
탸	-19431
턓	-19432
텋	-19433
텨	-19434
톃	-19435
톻	-19436
툐	-19437
퉇	-19438
틯	-19439
팧	-19440
퍄	-19441
퍟	-19442
펗	-19443
펴	-19444
폏	-19445
폴	-19446
퐇	-19447
풓	-19448
픻	-19449
함	-19450
핳	-19451
핵	-19452
햄	-19453
햐	-19454
햫	-19455
헣	-19456
혀	-19457
혛	-19458
홓	-19459
효	-19460
훟	-19461
휴	-19462
힇	-19463
	-19464
ﬞ	-19465
︀	-19466
︠	-19467
︯	-19468
𐇽	-19469
𐋠	-19470
𐌌	-19471
𐍶	-19472
𐍺	-19473
𐨁	-19474
𐨃	-19475
𐨅	-19476
𐨆	-19477
𐨌	-19478
𐨏	-19479
𐨸	-19480
𐨺	-19481
𐨿	-19482
𐫥	-19483
𐫦	-19484
𑀀	-19485
𑀂	-19486
𑀸	-19487
𑁆	-19488
𑁿	-19489
𑂂	-19490
𑂰	-19491
𑂺	-19492
𑄀	-19493
𑄂	-19494
𑄧	-19495
𑄴	-19496
𑅳	-19497
𑆀	-19498
𑆂	-19499
𑆳	-19500
𑇀	-19501
𑇊	-19502
𑇌	-19503
𑈬	-19504
𑈷	-19505
𑈾	-19506
𑋟	-19507
𑋪	-19508
𑌀	-19509
𑌃	-19510
𑌼	-19511
𑌾	-19512
𑍄	-19513
𑍇	-19514
𑍈	-19515
𑍋	-19516
𑍍	-19517
𑍗	-19518
𑍢	-19519
𑍣	-19520
𑍦	-19521
𑍬	-19522
𑍰	-19523
𑍴	-19524
𑐵	-19525
𑑆	-19526
𑒰	-19527
𑓃	-19528
𑖯	-19529
𑖵	-19530
𑖸	-19531
𑗀	-19532
𑗜	-19533
𑗝	-19534
𑘰	-19535
𑙀	-19536
𑚫	-19537
𑚷	-19538
𑜝	-19539
𑜫	-19540
𑰯	-19541
𑰶	-19542
𑰸	-19543
𑰿	-19544
𑲒	-19545
𑲧	-19546
𑲩	-19547
𑲶	-19548
𖫰	-19549
𖫴	-19550
𖬰	-19551
𖬶	-19552
𖽑	-19553
𖽾	-19554
𖾏	-19555
𖾒	-19556
𛲝	-19557
𛲞	-19558
𝅩	-19559
𝅭	-19560
𝅻	-19561
𝆂	-19562
𝆅	-19563
𝆋	-19564
𝆪	-19565
𝆭	-19566
𝉂	-19567
𝉄	-19568
𝨀	-19569
𝨶	-19570
𝨻	-19571
𝩬	-19572
𝩵	-19573
𝪄	-19574
𝪛	-19575
𝪟	-19576
𝪡	-19577
𝪯	-19578
𞀀	-19579
𞀆	-19580
𞀈	-19581
𞀘	-19582
𞀛	-19583
𞀡	-19584
𞀣	-19585
𞀤	-19586
𞀦	-19587
𞀪	-19588
𞣐	-19589
𞣖	-19590
𞥄	-19591
𞥊	-19592
🀄	-19593
🀅	-19594
🃏	-19595
🅰	-19596
🅱	-19597
🅾	-19598
🅿	-19599
🆎	-19600
🆑	-19601
🆘	-19602
🆚	-19603
🌂	-19604
🌉	-19605
🌋	-19606
🌌	-19607
🌏	-19608
🌐	-19609
🌒	-19610
🌔	-19611
🌖	-19612
🌗	-19613
🌘	-19614
🌙	-19615
🌚	-19616
🌛	-19617
🌜	-19618
🌝	-19619
🌟	-19620
🌫	-19621
🌰	-19622
🌲	-19623
🌵	-19624
🌷	-19625
🌺	-19626
🌻	-19627
🌽	-19628
🌾	-19629
🌿	-19630
🍀	-19631
🍁	-19632
🍂	-19633
🍃	-19634
🍄	-19635
🍅	-19636
🍇	-19637
🍊	-19638
🍎	-19639
🍏	-19640
🍐	-19641
🍑	-19642
🍒	-19643
🍓	-19644
🍖	-19645
🍗	-19646
🍘	-19647
🍙	-19648
🍚	-19649
🍛	-19650
🍜	-19651
🍝	-19652
🍟	-19653
🍠	-19654
🍡	-19655
🍢	-19656
🍤	-19657
🍥	-19658
🍦	-19659
🍧	-19660
🍨	-19661
🍩	-19662
🍬	-19663
🍭	-19664
🍮	-19665
🍯	-19666
🍱	-19667
🍲	-19668
🍳	-19669
🍴	-19670
🍵	-19671
🍶	-19672
🍷	-19673
🍸	-19674
🍼	-19675
🍿	-19676
🎀	-19677
🎇	-19678
🎈	-19679
🎊	-19680
🎋	-19681
🎌	-19682
🎍	-19683
🎎	-19684
🎏	-19685
🎐	-19686
🎒	-19687
🎓	-19688
🎠	-19689
🎡	-19690
🎢	-19691
🎣	-19692
🎤	-19693
🎥	-19694
🎦	-19695
🎧	-19696
🎨	-19697
🎩	-19698
🎪	-19699
🎫	-19700
🎬	-19701
🎭	-19702
🎯	-19703
🎰	-19704
🎱	-19705
🎲	-19706
🎳	-19707
🎴	-19708
🎵	-19709
🎶	-19710
🎷	-19711
🎹	-19712
🎺	-19713
🎻	-19714
🎼	-19715
🎽	-19716
🎾	-19717
🏀	-19718
🏁	-19719
🏂	-19720
🏄	-19721
🏆	-19722
🏇	-19723
🏈	-19724
🏉	-19725
🏊	-19726
🏡	-19727
🏢	-19728
🏣	-19729
🏤	-19730
🏥	-19731
🏦	-19732
🏨	-19733
🏩	-19734
🏪	-19735
🏫	-19736
🏬	-19737
🏮	-19738
🏯	-19739
🏰	-19740
🐀	-19741
🐁	-19742
🐂	-19743
🐃	-19744
🐄	-19745
🐅	-19746
🐆	-19747
🐇	-19748
🐉	-19749
🐌	-19750
🐎	-19751
🐐	-19752
🐑	-19753
🐒	-19754
🐕	-19755
🐖	-19756
🐗	-19757
🐘	-19758
🐙	-19759
🐚	-19760
🐛	-19761
🐝	-19762
🐞	-19763
🐠	-19764
🐡	-19765
🐦	-19766
🐧	-19767
🐨	-19768
🐩	-19769
🐭	-19770
🐮	-19771
🐯	-19772
🐰	-19773
🐱	-19774
🐲	-19775
🐴	-19776
🐸	-19777
🐹	-19778
🐼	-19779
🐽	-19780
🐾	-19781
👂	-19782
👃	-19783
👄	-19784
👅	-19785
👈	-19786
👉	-19787
👑	-19788
👒	-19789
👓	-19790
👔	-19791
👖	-19792
👗	-19793
👘	-19794
👙	-19795
👚	-19796
👛	-19797
👜	-19798
👝	-19799
👞	-19800
👟	-19801
👠	-19802
👡	-19803
👢	-19804
👣	-19805
👦	-19806
👧	-19807
👪	-19808
👫	-19809
👬	-19810
👭	-19811
👮	-19812
👯	-19813
👰	-19814
👱	-19815
👲	-19816
👳	-19817
👵	-19818
👶	-19819
👸	-19820
👺	-19821
👼	-19822
👿	-19823
💂	-19824
💄	-19825
💅	-19826
💆	-19827
💇	-19828
💈	-19829
💉	-19830
💊	-19831
💍	-19832
💎	-19833
💏	-19834
💐	-19835
💑	-19836
💒	-19837
💠	-19838
💡	-19839
💢	-19840
💦	-19841
💨	-19842
💭	-19843
💮	-19844
💱	-19845
💲	-19846
💳	-19847
💴	-19848
💵	-19849
💶	-19850
💷	-19851
💺	-19852
💼	-19853
💽	-19854
💿	-19855
📀	-19856
📁	-19857
📃	-19858
📈	-19859
📉	-19860
📋	-19861
📌	-19862
📍	-19863
📏	-19864
📐	-19865
📑	-19866
📒	-19867
📓	-19868
📔	-19869
📕	-19870
📖	-19871
📗	-19872
📘	-19873
📙	-19874
📚	-19875
📛	-19876
📜	-19877
📞	-19878
📟	-19879
📠	-19880
📡	-19881
📣	-19882
📤	-19883
📥	-19884
📦	-19885
📨	-19886
📪	-19887
📫	-19888
📬	-19889
📭	-19890
📮	-19891
📯	-19892
📰	-19893
📱	-19894
📲	-19895
📳	-19896
📴	-19897
📵	-19898
📶	-19899
📹	-19900
📺	-19901
📻	-19902
📼	-19903
🔀	-19904
🔁	-19905
🔂	-19906
🔃	-19907
🔅	-19908
🔆	-19909
🔋	-19910
🔌	-19911
🔏	-19912
🔑	-19913
🔒	-19914
🔖	-19915
🔘	-19916
🔚	-19917
🔛	-19918
🔜	-19919
🔝	-19920
🔞	-19921
🔠	-19922
🔡	-19923
🔢	-19924
🔣	-19925
🔤	-19926
🔦	-19927
🔧	-19928
🔨	-19929
🔩	-19930
🔭	-19931
🔮	-19932
🔯	-19933
🔰	-19934
🔱	-19935
🔲	-19936
🔳	-19937
🔵	-19938
🔶	-19939
🔷	-19940
🔸	-19941
🔹	-19942
🔺	-19943
🔻	-19944
🔼	-19945
🔽	-19946
🕐	-19947
🕑	-19948
🕓	-19949
🕔	-19950
🕕	-19951
🕖	-19952
🕗	-19953
🕘	-19954
🕙	-19955
🕚	-19956
🕜	-19957
🕝	-19958
🕞	-19959
🕟	-19960
🕠	-19961
🕡	-19962
🕢	-19963
🕣	-19964
🕤	-19965
🕥	-19966
🕦	-19967
🕧	-19968
🕮	-19969
🖇	-19970
🖕	-19971
🗂	-19972
🗻	-19973
🗼	-19974
🗽	-19975
🗾	-19976
😇	-19977
😌	-19978
😑	-19979
😗	-19980
😙	-19981
😚	-19982
😛	-19983
😝	-19984
😦	-19985
😩	-19986
😬	-19987
😯	-19988
😵	-19989
😷	-19990
😸	-19991
🙃	-19992
🚁	-19993
🚂	-19994
🚆	-19995
