<pad>	0
<unk>	0
<s>	0
</s>	0
at	-0
re	-1
on	-2
er	-3
me	-4
▁p	-5
ar	-6
▁s	-7
▁c	-8
in	-9
al	-10
ion	-11
nt	-12
▁re	-13
▁v	-14
▁d	-15
st	-16
ame	-17
or	-18
te	-19
le	-20
name	-21
arg	-22
▁k	-23
fi	-24
ct	-25
args	-26
▁t	-27
▁l	-28
id	-29
▁e	-30
se	-31
ce	-32
▁m	-33
▁a	-34
ou	-35
od	-36
▁val	-37
ue	-38
ate	-39
ey	-40
ss	-41
▁r	-42
oc	-43
ag	-44
pe	-45
▁res	-46
▁kw	-47
▁f	-48
▁u	-49
▁kwargs	-50
di	-51
▁i	-52
ata	-53
an	-54
ro	-55
ation	-56
ol	-57
▁pa	-58
it	-59
el	-60
▁n	-61
age	-62
▁b	-63
▁name	-64
▁st	-65
▁h	-66
▁o	-67
ath	-68
ul	-69
ad	-70
key	-71
▁con	-72
ers	-73
file	-74
th	-75
ri	-76
li	-77
▁me	-78
rent	-79
ch	-80
▁value	-81
ent	-82
▁data	-83
rl	-84
xt	-85
ing	-86
▁de	-87
▁in	-88
dict	-89
am	-90
▁loc	-91
ype	-92
▁parent	-93
ult	-94
pt	-95
▁args	-96
ode	-97
en	-98
▁ex	-99
▁location	-100
keys	-101
▁par	-102
▁rate	-103
▁_	-104
▁key	-105
▁te	-106
ser	-107
et	-108
▁resp	-109
om	-110
▁pro	-111
de	-112
type	-113
bj	-114
onse	-115
▁url	-116
out	-117
ect	-118
lo	-119
ed	-120
path	-121
ut	-122
▁fi	-123
es	-124
att	-125
ime	-126
our	-127
um	-128
▁response	-129
▁path	-130
que	-131
as	-132
ab	-133
ssage	-134
▁se	-135
▁ap	-136
qu	-137
▁w	-138
ams	-139
ource	-140
▁en	-141
ap	-142
ck	-143
il	-144
▁file	-145
ord	-146
un	-147
con	-148
set	-149
▁g	-150
ment	-151
ok	-152
fa	-153
ption	-154
atu	-155
▁message	-156
fig	-157
quest	-158
sg	-159
ersion	-160
str	-161
tem	-162
▁x	-163
err	-164
ter	-165
▁result	-166
eld	-167
▁ch	-168
vi	-169
ot	-170
ort	-171
ig	-172
lient	-173
val	-174
ction	-175
pec	-176
par	-177
mp	-178
res	-179
ted	-180
ead	-181
▁user	-182
▁conte	-183
atus	-184
ock	-185
ver	-186
▁ne	-187
po	-188
▁request	-189
ount	-190
▁msg	-191
ra	-192
▁su	-193
la	-194
ur	-195
▁col	-196
▁lo	-197
▁obj	-198
▁text	-199
per	-200
put	-201
▁qu	-202
and	-203
▁pre	-204
ase	-205
orm	-206
▁di	-207
thod	-208
em	-209
▁id	-210
iz	-211
▁j	-212
data	-213
▁ser	-214
sc	-215
pa	-216
int	-217
url	-218
fault	-219
▁head	-220
ic	-221
able	-222
▁client	-223
▁version	-224
ost	-225
ine	-226
art	-227
date	-228
▁params	-229
pro	-230
▁al	-231
▁status	-232
list	-233
▁time	-234
▁config	-235
lu	-236
oken	-237
▁item	-238
ve	-239
▁ma	-240
▁att	-241
▁default	-242
rou	-243
▁field	-244
▁new	-245
▁resource	-246
▁app	-247
▁com	-248
code	-249
ance	-250
ry	-251
atch	-252
▁method	-253
ery	-254
▁err	-255
ity	-256
▁mod	-257
ssion	-258
roup	-259
ow	-260
fo	-261
uth	-262
value	-263
▁out	-264
fix	-265
ist	-266
pected	-267
red	-268
bu	-269
ta	-270
▁log	-271
▁expected	-272
dir	-273
ns	-274
ize	-275
tes	-276
vice	-277
▁ad	-278
obj	-279
dex	-280
▁query	-281
ies	-282
nd	-283
ex	-284
▁ret	-285
▁le	-286
ject	-287
ip	-288
▁headers	-289
stance	-290
ule	-291
▁sub	-292
is	-293
point	-294
all	-295
▁api	-296
▁max	-297
im	-298
ody	-299
ptions	-300
▁end	-301
params	-302
▁node	-303
▁filename	-304
▁content	-305
old	-306
ang	-307
load	-308
md	-309
to	-310
ff	-311
▁fil	-312
▁context	-313
▁as	-314
▁error	-315
vent	-316
scri	-317
cess	-318
low	-319
▁mock	-320
late	-321
▁la	-322
count	-323
lass	-324
word	-325
pace	-326
op	-327
▁is	-328
ore	-329
▁base	-330
pre	-331
ial	-332
▁auth	-333
time	-334
▁type	-335
arget	-336
vel	-337
son	-338
ack	-339
▁project	-340
▁host	-341
▁ac	-342
▁color	-343
▁po	-344
ull	-345
▁body	-346
config	-347
ber	-348
▁str	-349
▁num	-350
▁start	-351
▁token	-352
▁or	-353
▁model	-354
▁port	-355
ive	-356
mod	-357
▁cmd	-358
ifi	-359
▁ent	-360
form	-361
che	-362
ml	-363
orage	-364
▁timeout	-365
up	-366
sed	-367
map	-368
▁attr	-369
▁session	-370
▁line	-371
ory	-372
▁test	-373
▁service	-374
▁ro	-375
▁temp	-376
▁reg	-377
space	-378
ssword	-379
string	-380
ht	-381
ild	-382
ng	-383
▁source	-384
▁storage	-385
▁prefix	-386
▁cur	-387
ain	-388
clu	-389
ask	-390
▁doc	-391
▁form	-392
end	-393
size	-394
▁ca	-395
▁target	-396
port	-397
info	-398
version	-399
▁tag	-400
▁index	-401
ign	-402
mand	-403
ork	-404
ema	-405
▁sc	-406
ST	-407
▁rec	-408
ink	-409
ub	-410
ress	-411
▁ste	-412
ther	-413
group	-414
▁ext	-415
▁output	-416
▁__	-417
ret	-418
▁arg	-419
amp	-420
tent	-421
▁full	-422
▁sh	-423
▁asset	-424
text	-425
clude	-426
ters	-427
ribu	-428
▁match	-429
ER	-430
ments	-431
field	-432
▁count	-433
▁password	-434
sh	-435
ces	-436
ert	-437
ran	-438
▁met	-439
chema	-440
▁other	-441
scription	-442
ator	-443
instance	-444
▁ht	-445
abel	-446
▁add	-447
atter	-448
▁input	-449
Name	-450
▁options	-451
ail	-452
▁endpoint	-453
ger	-454
ions	-455
ls	-456
ant	-457
pert	-458
if	-459
▁ra	-460
ON	-461
token	-462
AT	-463
▁y	-464
▁action	-465
▁code	-466
ure	-467
▁un	-468
▁im	-469
num	-470
object	-471
pr	-472
▁group	-473
ings	-474
adata	-475
com	-476
▁event	-477
RE	-478
▁bu	-479
▁fun	-480
▁command	-481
▁to	-482
ly	-483
yload	-484
__	-485
ref	-486
ound	-487
▁co	-488
▁ver	-489
ps	-490
qui	-491
ngth	-492
line	-493
▁page	-494
one	-495
ob	-496
▁filter	-497
▁template	-498
resp	-499
▁json	-500
vid	-501
sp	-502
itle	-503
▁allow	-504
▁local	-505
ite	-506
▁act	-507
▁payload	-508
▁up	-509
▁namespace	-510
client	-511
ated	-512
▁valid	-513
omain	-514
▁row	-515
rect	-516
▁el	-517
▁sy	-518
▁tmp	-519
▁ele	-520
class	-521
▁spec	-522
▁steem	-523
▁db	-524
▁conn	-525
ffset	-526
tp	-527
▁level	-528
ection	-529
arch	-530
ords	-531
rans	-532
kw	-533
bo	-534
▁read	-535
response	-536
▁task	-537
olic	-538
▁root	-539
▁inter	-540
ight	-541
lock	-542
▁server	-543
dit	-544
ash	-545
▁description	-546
▁ref	-547
mo	-548
▁th	-549
▁image	-550
ind	-551
zy	-552
ope	-553
ew	-554
rom	-555
▁attribu	-556
status	-557
▁ip	-558
▁T	-559
ler	-560
back	-561
▁sp	-562
IN	-563
ust	-564
▁schema	-565
ay	-566
ile	-567
▁parsed	-568
▁old	-569
format	-570
▁logger	-571
▁child	-572
ition	-573
erm	-574
var	-575
▁lazy	-576
▁username	-577
index	-578
▁raw	-579
▁z	-580
ep	-581
ts	-582
▁param	-583
mb	-584
uri	-585
▁pri	-586
by	-587
▁min	-588
▁label	-589
ctor	-590
▁patter	-591
olicy	-592
▁extra	-593
result	-594
▁env	-595
▁info	-596
DE	-597
▁no	-598
ument	-599
▁on	-600
mit	-601
▁header	-602
▁exp	-603
cret	-604
attr	-605
uct	-606
item	-607
lic	-608
ren	-609
▁enc	-610
rap	-611
▁entry	-612
net	-613
▁requi	-614
stamp	-615
▁offset	-616
ac	-617
▁string	-618
ds	-619
tens	-620
error	-621
app	-622
eck	-623
▁current	-624
▁instance	-625
ries	-626
met	-627
urn	-628
▁cli	-629
▁post	-630
ual	-631
gin	-632
tain	-633
▁uri	-634
▁record	-635
▁dest	-636
bug	-637
content	-638
rc	-639
auth	-640
▁parame	-641
read	-642
▁orig	-643
▁title	-644
OR	-645
ags	-646
▁link	-647
work	-648
▁check	-649
ids	-650
▁access	-651
imit	-652
▁pool	-653
▁run	-654
▁include	-655
▁address	-656
▁var	-657
head	-658
▁metadata	-659
lName	-660
▁fields	-661
ener	-662
▁all	-663
▁rel	-664
tings	-665
▁for	-666
▁propert	-667
▁list	-668
ange	-669
vider	-670
▁q	-671
ME	-672
▁update	-673
▁state	-674
ith	-675
▁use	-676
▁comp	-677
▁debug	-678
▁last	-679
▁set	-680
unk	-681
add	-682
eight	-683
ec	-684
mt	-685
ble	-686
▁dt	-687
ide	-688
▁values	-689
▁fl	-690
▁job	-691
co	-692
base	-693
▁tra	-694
▁colum	-695
ations	-696
ster	-697
▁load	-698
col	-699
lection	-700
▁domain	-701
ify	-702
▁parser	-703
ron	-704
msg	-705
lan	-706
▁ident	-707
names	-708
pts	-709
▁fa	-710
older	-711
est	-712
▁ct	-713
order	-714
tra	-715
ary	-716
▁module	-717
▁region	-718
inal	-719
message	-720
▁man	-721
ustom	-722
ric	-723
ca	-724
node	-725
ma	-726
files	-727
tainer	-728
▁oper	-729
user	-730
root	-731
▁limit	-732
▁pattern	-733
▁table	-734
ifier	-735
ckage	-736
▁date	-737
▁C	-738
▁extens	-739
▁sk	-740
▁work	-741
▁func	-742
ir	-743
oi	-744
▁cre	-745
LE	-746
SE	-747
▁lang	-748
mock	-749
log	-750
own	-751
▁timestamp	-752
ms	-753
ateg	-754
prefix	-755
▁hh	-756
▁html	-757
event	-758
start	-759
▁size	-760
fields	-761
▁net	-762
▁option	-763
request	-764
ele	-765
▁call	-766
▁object	-767
andler	-768
▁length	-769
▁sele	-770
▁mode	-771
json	-772
ager	-773
options	-774
gn	-775
▁found	-776
ific	-777
▁rule	-778
values	-779
method	-780
▁site	-781
▁dir	-782
▁trans	-783
▁document	-784
ses	-785
▁block	-786
▁element	-787
bject	-788
number	-789
▁account	-790
▁return	-791
▁cls	-792
▁provider	-793
direct	-794
lugin	-795
▁entity	-796
ream	-797
▁src	-798
rok	-799
▁tags	-800
▁force	-801
▁req	-802
ner	-803
▁actual	-804
▁tx	-805
▁has	-806
▁encod	-807
▁fe	-808
▁errors	-809
ume	-810
▁results	-811
pos	-812
elp	-813
otal	-814
ark	-815
min	-816
fil	-817
▁part	-818
kwargs	-819
ID	-820
▁class	-821
▁from	-822
▁ign	-823
action	-824
arn	-825
▁chunk	-826
ature	-827
level	-828
ines	-829
face	-830
▁ass	-831
ION	-832
▁remo	-833
▁collection	-834
uid	-835
Id	-836
▁pub	-837
▁cache	-838
fun	-839
▁attributes	-840
▁files	-841
ception	-842
ard	-843
▁exc	-844
▁em	-845
_2	-846
nant	-847
verr	-848
its	-849
▁container	-850
spec	-851
get	-852
▁sign	-853
LO	-854
mbol	-855
▁custom	-856
▁extension	-857
▁pos	-858
▁required	-859
act	-860
use	-861
▁art	-862
state	-863
▁imp	-864
▁hist	-865
▁http	-866
▁attrs	-867
▁std	-868
match	-869
tr	-870
▁skip	-871
nel	-872
▁pr	-873
EN	-874
cket	-875
▁back	-876
HO	-877
def	-878
▁total	-879
▁format	-880
ree	-881
▁resol	-882
▁ignore	-883
▁py	-884
sd	-885
ge	-886
▁scope	-887
▁metric	-888
▁items	-889
▁ctx	-890
▁rep	-891
▁package	-892
▁cert	-893
output	-894
ait	-895
ish	-896
lay	-897
sy	-898
▁dis	-899
▁parameters	-900
for	-901
▁dec	-902
uration	-903
loc	-904
iv	-905
host	-906
mber	-907
ke	-908
sid	-909
only	-910
ason	-911
▁deta	-912
eren	-913
▁xml	-914
inish	-915
rule	-916
les	-917
rst	-918
▁at	-919
olume	-920
▁mon	-921
propert	-922
row	-923
settings	-924
cur	-925
us	-926
▁allowed	-927
man	-928
▁verbo	-929
▁serial	-930
▁ep	-931
▁search	-932
▁sess	-933
model	-934
uage	-935
lete	-936
raph	-937
▁sort	-938
▁top	-939
reg	-940
▁exclude	-941
ched	-942
ook	-943
▁filters	-944
length	-945
▁subject	-946
headers	-947
run	-948
are	-949
nc	-950
resh	-951
context	-952
▁per	-953
ination	-954
mon	-955
project	-956
▁order	-957
▁retry	-958
doc	-959
▁cred	-960
ell	-961
session	-962
▁author	-963
annel	-964
▁cl	-965
FI	-966
▁plugin	-967
▁pi	-968
iable	-969
▁methods	-970
cert	-971
hash	-972
toc	-973
ities	-974
viron	-975
▁categ	-976
river	-977
ded	-978
▁P	-979
▁connection	-980
og	-981
▁by	-982
resource	-983
▁fra	-984
ute	-985
▁encoding	-986
address	-987
UR	-988
ient	-989
▁aut	-990
▁A	-991
dition	-992
▁detail	-993
▁fail	-994
fact	-995
ll	-996
tocol	-997
▁S	-998
▁function	-999
link	-1000
tract	-1001
cent	-1002
tention	-1003
ence	-1004
▁prop	-1005
types	-1006
sub	-1007
▁policy	-1008
temp	-1009
TE	-1010
▁interface	-1011
▁first	-1012
▁device	-1013
bs	-1014
▁an	-1015
▁operation	-1016
▁idx	-1017
▁retention	-1018
attribu	-1019
▁section	-1020
▁del	-1021
▁number	-1022
MA	-1023
▁verbose	-1024
iod	-1025
▁tpr	-1026
▁selector	-1027
su	-1028
▁stream	-1029
abled	-1030
▁struct	-1031
call	-1032
▁role	-1033
iter	-1034
idth	-1035
check	-1036
▁op	-1037
▁column	-1038
HOST	-1039
exp	-1040
del	-1041
api	-1042
▁tok	-1043
secret	-1044
▁term	-1045
pect	-1046
inter	-1047
▁DE	-1048
▁real	-1049
▁wh	-1050
ential	-1051
▁environ	-1052
▁secret	-1053
metadata	-1054
body	-1055
▁org	-1056
▁sa	-1057
▁proble	-1058
DC	-1059
part	-1060
pend	-1061
RO	-1062
▁sn	-1063
pty	-1064
▁lb	-1065
▁tenant	-1066
os	-1067
filter	-1068
▁property	-1069
▁clu	-1070
▁elmap	-1071
▁outfile	-1072
FT	-1073
mount	-1074
▁profile	-1075
▁show	-1076
▁language	-1077
sum	-1078
ph	-1079
vis	-1080
LT	-1081
▁exec	-1082
▁wsd	-1083
▁vi	-1084
▁init	-1085
▁we	-1086
▁conf	-1087
label	-1088
▁verify	-1089
▁mark	-1090
sv	-1091
▁next	-1092
verride	-1093
▁problem	-1094
FA	-1095
page	-1096
▁protocol	-1097
cid	-1098
ctx	-1099
ous	-1100
imp	-1101
▁rever	-1102
▁finish	-1103
script	-1104
ution	-1105
▁cluster	-1106
valid	-1107
▁email	-1108
▁prox	-1109
policy	-1110
sl	-1111
cache	-1112
▁vmod	-1113
lace	-1114
▁choi	-1115
▁vmodlName	-1116
update	-1117
▁wsdlName	-1118
▁category	-1119
▁network	-1120
▁exception	-1121
bal	-1122
▁keys	-1123
erence	-1124
queue	-1125
ne	-1126
FTDC	-1127
▁THOST	-1128
▁rv	-1129
endpoint	-1130
timeout	-1131
func	-1132
▁pk	-1133
_1	-1134
lit	-1135
▁stri	-1136
▁channel	-1137
LI	-1138
▁amount	-1139
▁direct	-1140
len	-1141
mode	-1142
ped	-1143
rec	-1144
▁symbol	-1145
▁stat	-1146
ATE	-1147
gr	-1148
▁try	-1149
GE	-1150
tag	-1151
▁send	-1152
▁attribute	-1153
ie	-1154
▁regex	-1155
▁get	-1156
ample	-1157
ission	-1158
▁credential	-1159
▁def	-1160
author	-1161
▁perm	-1162
▁disp	-1163
ach	-1164
enc	-1165
filename	-1166
▁reverse	-1167
mag	-1168
ffix	-1169
▁properties	-1170
ized	-1171
▁step	-1172
▁zone	-1173
▁handler	-1174
▁fn	-1175
attributes	-1176
of	-1177
▁sid	-1178
▁previ	-1179
▁member	-1180
▁original	-1181
istr	-1182
ULT	-1183
▁resolver	-1184
trans	-1185
lated	-1186
Re	-1187
▁cap	-1188
▁expect	-1189
▁dataset	-1190
ors	-1191
▁tz	-1192
▁coords	-1193
nal	-1194
▁dep	-1195
▁sha	-1196
parser	-1197
▁view	-1198
▁identifier	-1199
ql	-1200
opy	-1201
ping	-1202
schema	-1203
results	-1204
rame	-1205
wd	-1206
▁driver	-1207
▁ind	-1208
▁trytes	-1209
▁exist	-1210
▁my	-1211
ear	-1212
coords	-1213
▁bucket	-1214
sor	-1215
▁meta	-1216
rig	-1217
ative	-1218
NA	-1219
AR	-1220
not	-1221
server	-1222
▁not	-1223
▁redirect	-1224
folder	-1225
rel	-1226
▁dist	-1227
cer	-1228
atum	-1229
ript	-1230
▁cont	-1231
template	-1232
yle	-1233
CT	-1234
▁iss	-1235
print	-1236
▁sup	-1237
test	-1238
▁prev	-1239
▁brok	-1240
▁volume	-1241
aged	-1242
▁mo	-1243
cept	-1244
source	-1245
process	-1246
input	-1247
limit	-1248
▁sol	-1249
▁contract	-1250
▁mer	-1251
▁remote	-1252
rite	-1253
domain	-1254
▁credentials	-1255
▁hash	-1256
ias	-1257
errors	-1258
AL	-1259
Str	-1260
▁vm	-1261
cre	-1262
3_	-1263
▁filepath	-1264
fl	-1265
▁trace	-1266
meta	-1267
properties	-1268
her	-1269
▁flags	-1270
pool	-1271
FAULT	-1272
CE	-1273
ccess	-1274
conds	-1275
parame	-1276
items	-1277
▁hostname	-1278
▁variable	-1279
patter	-1280
ique	-1281
image	-1282
▁arglist	-1283
query	-1284
active	-1285
comp	-1286
sent	-1287
shot	-1288
onent	-1289
▁help	-1290
▁stage	-1291
ified	-1292
istry	-1293
▁arch	-1294
▁ar	-1295
ved	-1296
▁sel	-1297
▁columns	-1298
oud	-1299
arge	-1300
AN	-1301
cen	-1302
IT	-1303
▁lines	-1304
case	-1305
▁orcid	-1306
▁destination	-1307
ifact	-1308
▁script	-1309
std	-1310
▁structure	-1311
▁subnet	-1312
▁pers	-1313
iss	-1314
▁pod	-1315
▁dict	-1316
▁graph	-1317
db	-1318
abil	-1319
▁process	-1320
tol	-1321
▁char	-1322
▁self	-1323
apt	-1324
dia	-1325
File	-1326
▁split	-1327
▁listener	-1328
empty	-1329
▁callback	-1330
default	-1331
▁create	-1332
ssl	-1333
▁cle	-1334
▁previous	-1335
pc	-1336
cl	-1337
req	-1338
▁manager	-1339
kwh	-1340
▁opt	-1341
▁txt	-1342
no	-1343
▁parameter	-1344
SS	-1345
▁created	-1346
range	-1347
▁backend	-1348
Type	-1349
▁ag	-1350
be	-1351
▁assign	-1352
projection	-1353
▁details	-1354
help	-1355
apshot	-1356
flow	-1357
itions	-1358
▁folder	-1359
▁ns	-1360
NAME	-1361
view	-1362
dered	-1363
imal	-1364
elements	-1365
▁pid	-1366
sing	-1367
title	-1368
▁mult	-1369
conn	-1370
ches	-1371
EST	-1372
ft	-1373
▁identity	-1374
formats	-1375
fe	-1376
unit	-1377
entry	-1378
ollow	-1379
▁batch	-1380
gmt	-1381
cell	-1382
lease	-1383
mapping	-1384
hex	-1385
▁reason	-1386
▁D	-1387
▁ssl	-1388
▁sprojection	-1389
apter	-1390
varh	-1391
bytes	-1392
io	-1393
LOG	-1394
kvarh	-1395
eep	-1396
CH	-1397
▁updated	-1398
ula	-1399
▁B	-1400
target	-1401
▁cloud	-1402
▁rai	-1403
rol	-1404
▁vlan	-1405
URL	-1406
rep	-1407
▁settings	-1408
MP	-1409
lot	-1410
ext	-1411
▁parts	-1412
ib	-1413
▁pipe	-1414
from	-1415
cls	-1416
▁build	-1417
ority	-1418
▁contents	-1419
umm	-1420
ty	-1421
▁topic	-1422
▁mgmt	-1423
▁DEFAULT	-1424
vers	-1425
▁unique	-1426
▁existing	-1427
alle	-1428
▁queue	-1429
▁realm	-1430
▁fmt	-1431
header	-1432
▁active	-1433
vision	-1434
tags	-1435
ification	-1436
▁year	-1437
NT	-1438
▁repo	-1439
RI	-1440
service	-1441
▁environment	-1442
▁expi	-1443
▁login	-1444
iment	-1445
handler	-1446
▁names	-1447
curity	-1448
ere	-1449
colum	-1450
QU	-1451
▁artifact	-1452
VER	-1453
iled	-1454
UT	-1455
▁props	-1456
▁priv	-1457
ong	-1458
uments	-1459
▁word	-1460
▁period	-1461
▁parse	-1462
periment	-1463
▁web	-1464
▁cell	-1465
▁wait	-1466
cheme	-1467
▁fname	-1468
max	-1469
▁rou	-1470
▁rest	-1471
▁pol	-1472
▁late	-1473
▁cook	-1474
paths	-1475
2_	-1476
▁ty	-1477
asses	-1478
rate	-1479
ging	-1480
▁be	-1481
▁mac	-1482
AD	-1483
okup	-1484
▁elem	-1485
with	-1486
sec	-1487
▁media	-1488
▁prog	-1489
ins	-1490
▁opts	-1491
▁directory	-1492
▁require	-1493
▁resources	-1494
cted	-1495
fail	-1496
dc	-1497
icle	-1498
command	-1499
▁sql	-1500
oduct	-1501
▁relation	-1502
block	-1503
▁keep	-1504
cessed	-1505
▁registry	-1506
▁fake	-1507
▁override	-1508
module	-1509
lication	-1510
ints	-1511
▁feature	-1512
none	-1513
account	-1514
▁frac	-1515
ownload	-1516
▁inst	-1517
▁with	-1518
▁decimal	-1519
go	-1520
env	-1521
▁ge	-1522
PE	-1523
▁nb	-1524
▁tree	-1525
▁thread	-1526
cond	-1527
requi	-1528
scriptor	-1529
▁auto	-1530
▁optional	-1531
xed	-1532
pression	-1533
▁cf	-1534
▁pl	-1535
▁experiment	-1536
orted	-1537
ass	-1538
▁inputs	-1539
▁matches	-1540
rest	-1541
uuid	-1542
ill	-1543
▁position	-1544
▁admin	-1545
▁aw	-1546
▁tr	-1547
CO	-1548
py	-1549
lav	-1550
nsions	-1551
ome	-1552
▁if	-1553
KE	-1554
manager	-1555
▁qui	-1556
▁reference	-1557
In	-1558
▁buf	-1559
weight	-1560
ites	-1561
RES	-1562
▁hand	-1563
password	-1564
abilities	-1565
pi	-1566
leep	-1567
▁av	-1568
▁display	-1569
▁typ	-1570
▁put	-1571
▁requests	-1572
lines	-1573
coded	-1574
ificate	-1575
▁success	-1576
▁bind	-1577
▁ren	-1578
etch	-1579
inate	-1580
▁validate	-1581
▁js	-1582
fore	-1583
▁species	-1584
prox	-1585
▁cursor	-1586
▁import	-1587
raw	-1588
▁dig	-1589
▁proxy	-1590
riter	-1591
Val	-1592
▁stack	-1593
izer	-1594
ale	-1595
▁clean	-1596
right	-1597
▁comment	-1598
▁attach	-1599
retries	-1600
▁delete	-1601
idx	-1602
ancer	-1603
ization	-1604
▁origin	-1605
parameters	-1606
af	-1607
profile	-1608
Set	-1609
▁iter	-1610
ING	-1611
xml	-1612
vance	-1613
▁raise	-1614
▁weight	-1615
aml	-1616
posit	-1617
▁mapp	-1618
▁tmpdir	-1619
ision	-1620
▁bo	-1621
▁retries	-1622
xis	-1623
Con	-1624
eme	-1625
▁disk	-1626
gine	-1627
ible	-1628
▁desc	-1629
itor	-1630
▁track	-1631
▁ph	-1632
table	-1633
imetype	-1634
igh	-1635
lob	-1636
bit	-1637
▁initial	-1638
▁dele	-1639
▁fraction	-1640
objects	-1641
▁change	-1642
rib	-1643
rection	-1644
month	-1645
copy	-1646
hook	-1647
▁flav	-1648
formation	-1649
▁amp	-1650
balancer	-1651
▁sender	-1652
▁signature	-1653
reshold	-1654
▁article	-1655
▁E	-1656
dist	-1657
▁addition	-1658
perm	-1659
▁pipeline	-1660
▁dst	-1661
▁priority	-1662
lish	-1663
ole	-1664
▁release	-1665
▁suffix	-1666
▁toklist	-1667
▁width	-1668
task	-1669
▁ed	-1670
▁partition	-1671
▁csv	-1672
▁formula	-1673
cense	-1674
▁des	-1675
av	-1676
width	-1677
▁sw	-1678
▁store	-1679
ures	-1680
interval	-1681
off	-1682
car	-1683
hour	-1684
enabled	-1685
ports	-1686
repo	-1687
▁sample	-1688
thon	-1689
▁choices	-1690
▁strict	-1691
brok	-1692
▁M	-1693
▁sl	-1694
▁final	-1695
▁nl	-1696
▁links	-1697
▁advance	-1698
▁U	-1699
send	-1700
way	-1701
▁ow	-1702
▁issue	-1703
▁L	-1704
cision	-1705
▁ci	-1706
▁private	-1707
rs	-1708
element	-1709
▁oid	-1710
▁indent	-1711
▁sched	-1712
pair	-1713
▁security	-1714
▁gener	-1715
ernal	-1716
amt	-1717
▁hhd	-1718
▁capabilities	-1719
▁concept	-1720
issing	-1721
▁snapshot	-1722
CON	-1723
patch	-1724
▁fixed	-1725
▁fractional	-1726
▁G	-1727
ray	-1728
▁special	-1729
▁report	-1730
ENT	-1731
▁mag	-1732
store	-1733
▁elamt	-1734
▁href	-1735
▁scheme	-1736
▁sock	-1737
char	-1738
▁remove	-1739
▁lock	-1740
callback	-1741
cend	-1742
ditions	-1743
pri	-1744
▁quiet	-1745
1_	-1746
▁warn	-1747
sers	-1748
und	-1749
ocab	-1750
stem	-1751
▁quo	-1752
ATION	-1753
▁patterns	-1754
▁localId	-1755
▁stderr	-1756
▁wrap	-1757
▁relative	-1758
▁au	-1759
access	-1760
▁stdout	-1761
ormal	-1762
ical	-1763
▁dime	-1764
▁component	-1765
wer	-1766
datum	-1767
▁additional	-1768
era	-1769
▁hook	-1770
ctions	-1771
▁ang	-1772
▁archive	-1773
lots	-1774
▁shape	-1775
center	-1776
idate	-1777
new	-1778
PI	-1779
serial	-1780
▁do	-1781
andidate	-1782
▁descriptor	-1783
cmd	-1784
PT	-1785
dices	-1786
▁application	-1787
▁dat	-1788
▁cm	-1789
write	-1790
unt	-1791
▁counter	-1792
▁interval	-1793
▁fore	-1794
▁labels	-1795
▁matched	-1796
frame	-1797
style	-1798
scope	-1799
groups	-1800
▁adapter	-1801
http	-1802
▁only	-1803
rp	-1804
▁permission	-1805
pository	-1806
▁subscription	-1807
dis	-1808
anges	-1809
network	-1810
▁validator	-1811
▁workspace	-1812
ld	-1813
param	-1814
▁cookie	-1815
hs	-1816
▁dimensions	-1817
property	-1818
lug	-1819
▁alias	-1820
CK	-1821
ync	-1822
anged	-1823
▁plan	-1824
location	-1825
▁product	-1826
DI	-1827
▁height	-1828
OT	-1829
▁latest	-1830
▁loaded	-1831
let	-1832
▁ti	-1833
▁kwh	-1834
▁vs	-1835
▁expr	-1836
▁df	-1837
seconds	-1838
▁children	-1839
▁len	-1840
▁depend	-1841
▁variables	-1842
EL	-1843
▁rand	-1844
▁paths	-1845
rag	-1846
▁angle	-1847
ship	-1848
we	-1849
▁conver	-1850
▁case	-1851
vms	-1852
isode	-1853
▁vocab	-1854
oms	-1855
▁duration	-1856
rowser	-1857
▁choice	-1858
defin	-1859
▁reset	-1860
▁python	-1861
▁stop	-1862
pen	-1863
offset	-1864
▁pad	-1865
▁download	-1866
▁instr	-1867
▁route	-1868
▁commit	-1869
SER	-1870
related	-1871
paration	-1872
▁disable	-1873
atures	-1874
factor	-1875
tree	-1876
ready	-1877
▁configuration	-1878
prov	-1879
Value	-1880
period	-1881
▁loop	-1882
▁urls	-1883
AB	-1884
sets	-1885
nce	-1886
ora	-1887
▁qubit	-1888
▁addr	-1889
symbol	-1890
▁long	-1891
nder	-1892
▁over	-1893
▁qual	-1894
▁cause	-1895
▁charge	-1896
pub	-1897
▁parsing	-1898
▁LOG	-1899
▁uid	-1900
▁F	-1901
cp	-1902
▁unit	-1903
Res	-1904
rypt	-1905
ix	-1906
▁mapping	-1907
▁mount	-1908
▁lookup	-1909
follow	-1910
▁aws	-1911
ud	-1912
tty	-1913
attrs	-1914
exception	-1915
▁transaction	-1916
▁connect	-1917
REQU	-1918
▁gate	-1919
▁events	-1920
hora	-1921
box	-1922
▁cwd	-1923
volume	-1924
▁refresh	-1925
▁ans	-1926
▁exit	-1927
▁rules	-1928
eal	-1929
conf	-1930
▁public	-1931
main	-1932
▁browser	-1933
▁nest	-1934
atform	-1935
▁filtervms	-1936
▁filteruser	-1937
▁assignment	-1938
ak	-1939
pattern	-1940
ice	-1941
herit	-1942
▁kind	-1943
mark	-1944
return	-1945
loy	-1946
tact	-1947
UP	-1948
stat	-1949
▁patch	-1950
change	-1951
idd	-1952
ating	-1953
fn	-1954
cast	-1955
▁owner	-1956
▁season	-1957
▁rece	-1958
▁fill	-1959
▁pubkey	-1960
FILE	-1961
inen	-1962
▁bin	-1963
ffi	-1964
exist	-1965
press	-1966
▁defin	-1967
▁span	-1968
desc	-1969
▁failed	-1970
▁nodes	-1971
▁managed	-1972
ffer	-1973
▁defaults	-1974
▁flag	-1975
ged	-1976
agent	-1977
record	-1978
▁database	-1979
▁sent	-1980
▁N	-1981
▁external	-1982
rop	-1983
sele	-1984
ealth	-1985
cs	-1986
▁vr	-1987
▁control	-1988
▁ab	-1989
▁slot	-1990
▁uuid	-1991
_2_	-1992
mbers	-1993
▁img	-1994
▁tri	-1995
KEY	-1996
rules	-1997
email	-1998
sign	-1999
▁map	-2000
▁certificate	-2001
▁where	-2002
ident	-2003
▁save	-2004
stream	-2005
entic	-2006
▁person	-2007
▁ts	-2008
▁configfile	-2009
▁pkg	-2010
▁engine	-2011
init	-2012
▁compute	-2013
df	-2014
▁pass	-2015
▁bad	-2016
site	-2017
▁seg	-2018
struct	-2019
package	-2020
▁vis	-2021
filepath	-2022
▁cd	-2023
relation	-2024
ogy	-2025
▁bot	-2026
▁mask	-2027
▁rendered	-2028
▁master	-2029
directory	-2030
sert	-2031
indow	-2032
▁eve	-2033
SC	-2034
To	-2035
▁stats	-2036
description	-2037
csv	-2038
▁precision	-2039
TY	-2040
SION	-2041
▁proxies	-2042
▁sing	-2043
found	-2044
▁cor	-2045
det	-2046
ants	-2047
card	-2048
▁day	-2049
▁random	-2050
sn	-2051
variable	-2052
required	-2053
▁confi	-2054
▁inner	-2055
▁space	-2056
▁recip	-2057
delete	-2058
▁pretty	-2059
▁non	-2060
resol	-2061
▁cp	-2062
ware	-2063
▁coord	-2064
slots	-2065
orb	-2066
▁tokens	-2067
▁present	-2068
classes	-2069
tx	-2070
job	-2071
chain	-2072
member	-2073
rd	-2074
transformation	-2075
oration	-2076
▁bran	-2077
▁related	-2078
▁async	-2079
▁records	-2080
▁dock	-2081
tenant	-2082
columns	-2083
fer	-2084
ides	-2085
▁sym	-2086
▁replace	-2087
List	-2088
allback	-2089
MS	-2090
timestamp	-2091
▁frame	-2092
▁right	-2093
▁rev	-2094
flags	-2095
▁rout	-2096
▁I	-2097
▁cfg	-2098
tered	-2099
▁second	-2100
mpt	-2101
verrides	-2102
▁sec	-2103
▁agent	-2104
▁sg	-2105
▁handle	-2106
▁select	-2107
▁candidate	-2108
FOR	-2109
suffix	-2110
entries	-2111
secure	-2112
▁month	-2113
▁caches	-2114
▁targets	-2115
ting	-2116
AS	-2117
▁sleep	-2118
▁now	-2119
▁direction	-2120
▁coe	-2121
▁tol	-2122
managed	-2123
comma	-2124
imum	-2125
▁esc	-2126
ten	-2127
wait	-2128
▁geo	-2129
roles	-2130
▁annot	-2131
vars	-2132
▁cour	-2133
factory	-2134
▁abs	-2135
nodes	-2136
stdout	-2137
ived	-2138
luid	-2139
AGE	-2140
▁publish	-2141
cont	-2142
function	-2143
▁platform	-2144
cate	-2145
ade	-2146
patterns	-2147
ump	-2148
untime	-2149
▁argv	-2150
▁alert	-2151
▁contact	-2152
plan	-2153
▁ids	-2154
▁activ	-2155
provider	-2156
▁supp	-2157
erance	-2158
Request	-2159
▁postprocess	-2160
▁fetch	-2161
▁sig	-2162
▁missing	-2163
▁best	-2164
inherit	-2165
▁seed	-2166
detail	-2167
ineno	-2168
▁summ	-2169
▁enabled	-2170
Path	-2171
▁red	-2172
▁cons	-2173
▁prim	-2174
▁morb	-2175
opts	-2176
▁bul	-2177
▁datum	-2178
au	-2179
ys	-2180
▁execut	-2181
▁unmanaged	-2182
▁merging	-2183
gated	-2184
over	-2185
warn	-2186
▁pag	-2187
preparation	-2188
restoration	-2189
ont	-2190
lobal	-2191
▁normal	-2192
ited	-2193
reactive	-2194
▁monkey	-2195
▁monkeypatch	-2196
ED	-2197
option	-2198
▁li	-2199
▁encoded	-2200
▁gr	-2201
words	-2202
delta	-2203
▁mem	-2204
override	-2205
▁checksum	-2206
cy	-2207
▁arguments	-2208
wh	-2209
ifest	-2210
▁episode	-2211
▁persist	-2212
day	-2213
section	-2214
ian	-2215
dep	-2216
quence	-2217
▁style	-2218
▁dim	-2219
▁enable	-2220
Data	-2221
▁diff	-2222
▁curr	-2223
ffic	-2224
atri	-2225
delay	-2226
▁series	-2227
remo	-2228
custom	-2229
St	-2230
REQUEST	-2231
▁H	-2232
ators	-2233
theme	-2234
▁indexer	-2235
▁cla	-2236
antity	-2237
VERSION	-2238
▁fu	-2239
▁requirements	-2240
▁sep	-2241
▁groups	-2242
▁invalid	-2243
lack	-2244
▁append	-2245
ailable	-2246
ond	-2247
▁O	-2248
▁encoder	-2249
IME	-2250
▁attem	-2251
position	-2252
qual	-2253
ories	-2254
pol	-2255
▁condition	-2256
▁lay	-2257
▁fw	-2258
metry	-2259
▁lat	-2260
after	-2261
▁entries	-2262
▁responses	-2263
▁bg	-2264
▁fixt	-2265
▁already	-2266
ored	-2267
▁otp	-2268
▁left	-2269
▁bound	-2270
utions	-2271
▁dependenc	-2272
▁flavor	-2273
real	-2274
▁upload	-2275
plugin	-2276
PON	-2277
ops	-2278
eras	-2279
atrix	-2280
▁marker	-2281
▁fp	-2282
▁expression	-2283
da	-2284
▁stdin	-2285
▁terminate	-2286
yn	-2287
sa	-2288
stderr	-2289
tesian	-2290
▁moment	-2291
▁single	-2292
copyright	-2293
ildcard	-2294
▁alt	-2295
▁tt	-2296
retry	-2297
▁main	-2298
▁reply	-2299
▁copy	-2300
▁extensions	-2301
undle	-2302
PONSE	-2303
role	-2304
▁filtered	-2305
UN	-2306
▁edge	-2307
▁rows	-2308
▁points	-2309
ORT	-2310
▁era	-2311
cf	-2312
▁seconds	-2313
▁shell	-2314
▁md	-2315
Ch	-2316
nown	-2317
▁write	-2318
ceptions	-2319
▁sv	-2320
▁hm	-2321
▁yaml	-2322
dirs	-2323
anded	-2324
▁matching	-2325
zz	-2326
core	-2327
down	-2328
▁sum	-2329
parts	-2330
alias	-2331
String	-2332
any	-2333
build	-2334
▁dn	-2335
threshold	-2336
book	-2337
▁outputs	-2338
hand	-2339
processed	-2340
▁RE	-2341
TYPE	-2342
stra	-2343
▁secrets	-2344
▁authentic	-2345
fs	-2346
color	-2347
▁monitor	-2348
Port	-2349
▁short	-2350
▁runtime	-2351
RESPONSE	-2352
▁gen	-2353
▁prompt	-2354
mocker	-2355
post	-2356
SI	-2357
html	-2358
MAT	-2359
▁broker	-2360
cartesian	-2361
▁cs	-2362
sive	-2363
idget	-2364
▁lenient	-2365
▁messages	-2366
byte	-2367
▁cid	-2368
ast	-2369
▁slug	-2370
▁delta	-2371
▁amphora	-2372
▁under	-2373
vs	-2374
▁conditions	-2375
▁export	-2376
_4	-2377
erences	-2378
RA	-2379
oci	-2380
moms	-2381
license	-2382
▁elements	-2383
▁fh	-2384
faces	-2385
▁os	-2386
contents	-2387
lose	-2388
asure	-2389
variables	-2390
score	-2391
uler	-2392
▁processed	-2393
▁datacenter	-2394
zone	-2395
▁digits	-2396
▁regist	-2397
▁features	-2398
▁branch	-2399
▁poll	-2400
pted	-2401
▁services	-2402
PAT	-2403
ummy	-2404
VI	-2405
bin	-2406
Ft	-2407
Ftdc	-2408
Thost	-2409
ThostFtdc	-2410
pass	-2411
▁commands	-2412
ired	-2413
wt	-2414
ASE	-2415
▁zip	-2416
driver	-2417
cle	-2418
▁epg	-2419
▁country	-2420
▁atom	-2421
▁mocked	-2422
▁this	-2423
▁klass	-2424
ctionary	-2425
▁blob	-2426
▁static	-2427
selector	-2428
PO	-2429
▁score	-2430
uer	-2431
▁the	-2432
lue	-2433
parator	-2434
▁course	-2435
▁workflow	-2436
seq	-2437
open	-2438
▁recur	-2439
charge	-2440
cending	-2441
▁recipient	-2442
contract	-2443
rows	-2444
alleng	-2445
▁dictionary	-2446
percent	-2447
▁nested	-2448
▁images	-2449
▁comments	-2450
▁deploy	-2451
▁mp	-2452
▁delay	-2453
ould	-2454
▁bytes	-2455
▁loader	-2456
attice	-2457
PA	-2458
▁mimetype	-2459
▁cn	-2460
ilent	-2461
▁repository	-2462
LATE	-2463
maining	-2464
gor	-2465
ular	-2466
leted	-2467
▁dummy	-2468
gy	-2469
choi	-2470
uplic	-2471
▁actions	-2472
search	-2473
▁lineno	-2474
nts	-2475
modified	-2476
▁controller	-2477
▁avi	-2478
▁progress	-2479
▁si	-2480
graph	-2481
LA	-2482
▁fallback	-2483
proj	-2484
ax	-2485
▁hide	-2486
▁rc	-2487
just	-2488
Reg	-2489
▁home	-2490
actions	-2491
identifier	-2492
▁empty	-2493
▁should	-2494
▁filtertag	-2495
▁scheduler	-2496
Key	-2497
Class	-2498
ategy	-2499
▁fut	-2500
lang	-2501
ility	-2502
▁dev	-2503
▁history	-2504
▁feed	-2505
pet	-2506
▁quantity	-2507
▁ok	-2508
▁merge	-2509
▁health	-2510
▁inte	-2511
PRO	-2512
connect	-2513
SCRI	-2514
allenge	-2515
▁expire	-2516
idspace	-2517
preload	-2518
sup	-2519
tps	-2520
▁sd	-2521
ning	-2522
props	-2523
rigger	-2524
wri	-2525
▁anum	-2526
vidence	-2527
▁assert	-2528
versions	-2529
container	-2530
create	-2531
column	-2532
scale	-2533
height	-2534
rm	-2535
parent	-2536
▁vrrp	-2537
▁ds	-2538
report	-2539
01	-2540
▁runner	-2541
▁socket	-2542
IL	-2543
ncy	-2544
▁gateway	-2545
▁solution	-2546
codes	-2547
▁dirname	-2548
itch	-2549
imple	-2550
MPLATE	-2551
listener	-2552
▁manifest	-2553
last	-2554
▁revision	-2555
rt	-2556
cepts	-2557
regex	-2558
bp	-2559
▁find	-2560
▁ut	-2561
proxy	-2562
▁dx	-2563
import	-2564
indices	-2565
▁cat	-2566
fficient	-2567
used	-2568
▁TEST	-2569
commit	-2570
verify	-2571
▁members	-2572
▁sequence	-2573
mult	-2574
▁validation	-2575
prec	-2576
▁depth	-2577
▁skipped	-2578
rase	-2579
▁oauth	-2580
wrap	-2581
finish	-2582
▁go	-2583
VAL	-2584
ges	-2585
▁hosts	-2586
▁overrides	-2587
▁bundle	-2588
▁window	-2589
▁marking	-2590
ards	-2591
▁bold	-2592
▁multi	-2593
▁delegated	-2594
hh	-2595
parse	-2596
▁jo	-2597
TO	-2598
▁encry	-2599
labels	-2600
going	-2601
changed	-2602
FORMAT	-2603
collection	-2604
▁emb	-2605
logger	-2606
metric	-2607
points	-2608
xb	-2609
▁tp	-2610
nu	-2611
pb	-2612
▁CON	-2613
▁macro	-2614
tolerance	-2615
ced	-2616
▁sys	-2617
▁price	-2618
▁units	-2619
▁suppress	-2620
ci	-2621
ank	-2622
▁ob	-2623
▁docker	-2624
▁locale	-2625
MSG	-2626
ics	-2627
iant	-2628
▁proj	-2629
details	-2630
ips	-2631
▁rtype	-2632
amil	-2633
▁ins	-2634
dr	-2635
mimetype	-2636
▁metrics	-2637
refs	-2638
▁quest	-2639
▁follow	-2640
▁widget	-2641
▁execute	-2642
gorith	-2643
▁qs	-2644
▁flow	-2645
▁transform	-2646
▁pair	-2647
proxim	-2648
sha	-2649
▁overwrite	-2650
▁before	-2651
▁R	-2652
▁print	-2653
UB	-2654
pk	-2655
▁activity	-2656
▁sources	-2657
addr	-2658
▁ssh	-2659
step	-2660
trace	-2661
▁global	-2662
ans	-2663
led	-2664
▁oc	-2665
connection	-2666
▁proto	-2667
▁insecure	-2668
local	-2669
▁note	-2670
▁argument	-2671
ars	-2672
▁sou	-2673
▁vol	-2674
namespace	-2675
nb	-2676
ECT	-2677
ampa	-2678
proximity	-2679
64	-2680
gram	-2681
▁instru	-2682
cor	-2683
epg	-2684
▁alph	-2685
▁point	-2686
▁fg	-2687
diff	-2688
▁place	-2689
▁W	-2690
▁tls	-2691
5_	-2692
▁pin	-2693
control	-2694
inst	-2695
▁bug	-2696
array	-2697
▁operator	-2698
fc	-2699
child	-2700
▁primary	-2701
▁int	-2702
temany	-2703
▁quotes	-2704
FIG	-2705
▁const	-2706
▁worker	-2707
sk	-2708
SCRIPT	-2709
parsers	-2710
▁seq	-2711
▁IN	-2712
▁docs	-2713
▁memory	-2714
▁verb	-2715
▁relationship	-2716
▁autoc	-2717
▁example	-2718
olicies	-2719
▁readwri	-2720
▁exchange	-2721
▁readwritemany	-2722
▁types	-2723
ected	-2724
PP	-2725
MET	-2726
▁ll	-2727
▁crypt	-2728
▁cb	-2729
relations	-2730
ibility	-2731
▁objects	-2732
▁align	-2733
_3	-2734
▁replic	-2735
▁annotation	-2736
IP	-2737
bot	-2738
▁MA	-2739
flag	-2740
Log	-2741
alog	-2742
bits	-2743
▁af	-2744
next	-2745
▁git	-2746
oper	-2747
▁lun	-2748
▁trim	-2749
ick	-2750
▁css	-2751
entype	-2752
▁binary	-2753
gest	-2754
datetime	-2755
metic	-2756
▁subscri	-2757
amily	-2758
TH	-2759
TT	-2760
phrase	-2761
prot	-2762
strings	-2763
▁executor	-2764
▁sm	-2765
▁spin	-2766
thread	-2767
▁interfaces	-2768
Com	-2769
▁byte	-2770
▁magmoms	-2771
definition	-2772
▁tokentype	-2773
arith	-2774
▁pe	-2775
pyxb	-2776
▁spe	-2777
▁rpc	-2778
arithmetic	-2779
exceptions	-2780
XT	-2781
ATA	-2782
▁lst	-2783
resses	-2784
lueprint	-2785
▁solutions	-2786
appbase	-2787
PATH	-2788
axis	-2789
▁instructions	-2790
▁us	-2791
▁mut	-2792
MO	-2793
username	-2794
wo	-2795
▁setting	-2796
oo	-2797
UTH	-2798
▁jwt	-2799
extens	-2800
links	-2801
▁play	-2802
▁cdx	-2803
tup	-2804
vm	-2805
Sto	-2806
encod	-2807
▁decor	-2808
ton	-2809
▁modules	-2810
BU	-2811
▁bill	-2812
▁need	-2813
device	-2814
ally	-2815
gorithm	-2816
payload	-2817
▁simple	-2818
▁cidr	-2819
include	-2820
ush	-2821
▁cent	-2822
▁cc	-2823
verage	-2824
ampaign	-2825
warnings	-2826
Region	-2827
▁ongoing	-2828
▁templates	-2829
▁rs	-2830
gener	-2831
▁ST	-2832
_2_1	-2833
▁msp	-2834
entity	-2835
▁boot	-2836
▁inStr	-2837
▁forecast	-2838
00	-2839
_2_0	-2840
cla	-2841
▁proc	-2842
Resp	-2843
▁vals	-2844
component	-2845
▁summary	-2846
▁identityfile	-2847
▁SE	-2848
▁fuzz	-2849
checks	-2850
tected	-2851
updated	-2852
▁failure	-2853
spe	-2854
▁queryset	-2855
▁attachment	-2856
▁notification	-2857
Pro	-2858
css	-2859
ates	-2860
▁black	-2861
ES	-2862
Response	-2863
▁requested	-2864
mission	-2865
▁fs	-2866
ward	-2867
exists	-2868
ict	-2869
▁underline	-2870
iver	-2871
▁blink	-2872
storage	-2873
ake	-2874
ness	-2875
▁embed	-2876
parameter	-2877
DS	-2878
ield	-2879
channel	-2880
▁desired	-2881
UM	-2882
velope	-2883
▁datetime	-2884
bound	-2885
ilt	-2886
▁agg	-2887
▁question	-2888
▁open	-2889
filters	-2890
▁nd	-2891
dius	-2892
▁future	-2893
▁issuer	-2894
sumer	-2895
adjust	-2896
ste	-2897
LIST	-2898
choices	-2899
▁ant	-2900
▁setter	-2901
▁optionals	-2902
cap	-2903
ota	-2904
▁dd	-2905
▁users	-2906
remove	-2907
zip	-2908
Time	-2909
dence	-2910
percentage	-2911
exec	-2912
▁can	-2913
admin	-2914
▁core	-2915
▁ports	-2916
▁coefficient	-2917
pod	-2918
replace	-2919
▁clause	-2920
▁ordered	-2921
▁loadbalancer	-2922
abs	-2923
gen	-2924
▁install	-2925
structure	-2926
▁iri	-2927
▁ttl	-2928
ulation	-2929
▁backup	-2930
▁organ	-2931
cred	-2932
▁rsp	-2933
current	-2934
▁https	-2935
rg	-2936
▁lhs	-2937
TEMPLATE	-2938
rit	-2939
▁stripe	-2940
events	-2941
▁flask	-2942
MENT	-2943
▁threshold	-2944
lib	-2945
idden	-2946
WOR	-2947
certs	-2948
▁pres	-2949
fmt	-2950
ift	-2951
▁tool	-2952
▁selectors	-2953
prop	-2954
precated	-2955
resources	-2956
▁serve	-2957
▁multip	-2958
▁license	-2959
asic	-2960
▁etag	-2961
▁console	-2962
GET	-2963
▁cdi	-2964
species	-2965
attribute	-2966
▁updates	-2967
ERR	-2968
ote	-2969
sity	-2970
▁ipv	-2971
▁binding	-2972
▁digest	-2973
sleep	-2974
▁delimit	-2975
▁unic	-2976
dest	-2977
Store	-2978
lowed	-2979
utton	-2980
▁working	-2981
strap	-2982
▁audi	-2983
term	-2984
▁band	-2985
▁words	-2986
▁ax	-2987
▁frag	-2988
▁crypto	-2989
hel	-2990
▁wk	-2991
▁system	-2992
emon	-2993
ince	-2994
▁cached	-2995
▁expires	-2996
top	-2997
lers	-2998
▁dyn	-2999
▁iterable	-3000
INT	-3001
▁ii	-3002
▁inp	-3003
▁tofile	-3004
mask	-3005
▁API	-3006
▁laun	-3007
Se	-3008
document	-3009
▁da	-3010
sym	-3011
▁pow	-3012
subnet	-3013
supp	-3014
orter	-3015
atio	-3016
▁tier	-3017
itespace	-3018
▁segment	-3019
images	-3020
▁indices	-3021
▁persistence	-3022
▁deps	-3023
▁routing	-3024
▁serializer	-3025
▁nlri	-3026
counter	-3027
▁vars	-3028
US	-3029
proto	-3030
▁eager	-3031
▁filenames	-3032
▁inv	-3033
amples	-3034
▁insert	-3035
duration	-3036
▁flavors	-3037
▁fuzzable	-3038
▁TThostFtdc	-3039
pack	-3040
▁disc	-3041
▁distance	-3042
▁edit	-3043
▁null	-3044
Ex	-3045
OL	-3046
JECT	-3047
▁dct	-3048
track	-3049
cnt	-3050
medi	-3051
ending	-3052
▁array	-3053
▁versions	-3054
dicate	-3055
gments	-3056
▁plugins	-3057
▁vpc	-3058
DIR	-3059
▁hex	-3060
redirect	-3061
▁wrapped	-3062
dn	-3063
CHE	-3064
▁strip	-3065
reference	-3066
DO	-3067
prog	-3068
icles	-3069
▁formatter	-3070
TIME	-3071
gate	-3072
lookup	-3073
▁chain	-3074
▁attrib	-3075
▁confidence	-3076
relationship	-3077
ones	-3078
▁svc	-3079
▁kwds	-3080
▁es	-3081
chem	-3082
▁shared	-3083
▁userid	-3084
als	-3085
system	-3086
▁escal	-3087
eta	-3088
ABLE	-3089
ences	-3090
▁classes	-3091
▁more	-3092
▁common	-3093
region	-3094
▁resolved	-3095
Job	-3096
▁cut	-3097
▁theme	-3098
▁switch	-3099
▁authenticator	-3100
▁schedule	-3101
lig	-3102
▁dicom	-3103
▁menu	-3104
▁pie	-3105
▁drop	-3106
▁ener	-3107
▁provid	-3108
ases	-3109
bers	-3110
chunk	-3111
▁begin	-3112
▁tracker	-3113
▁campaign	-3114
▁instances	-3115
cut	-3116
lli	-3117
▁autocom	-3118
fra	-3119
subject	-3120
evidence	-3121
▁deserial	-3122
▁available	-3123
▁ha	-3124
cenar	-3125
▁attempt	-3126
cook	-3127
▁buffer	-3128
cli	-3129
▁tar	-3130
▁sun	-3131
steps	-3132
deleted	-3133
▁lattice	-3134
▁xpath	-3135
▁delimiter	-3136
▁formatted	-3137
tt	-3138
inu	-3139
adapter	-3140
volumes	-3141
▁permissions	-3142
▁az	-3143
▁resstr	-3144
▁nodeName	-3145
▁changed	-3146
ered	-3147
▁rhs	-3148
▁silent	-3149
▁answer	-3150
▁program	-3151
▁usage	-3152
▁quality	-3153
matrix	-3154
▁quote	-3155
snapshot	-3156
▁remaining	-3157
ZE	-3158
ERS	-3159
▁pp	-3160
▁solid	-3161
mer	-3162
▁ev	-3163
▁bounds	-3164
login	-3165
language	-3166
▁contexts	-3167
olute	-3168
realm	-3169
basename	-3170
▁bond	-3171
▁power	-3172
▁enfor	-3173
▁keypair	-3174
▁lib	-3175
▁autocommit	-3176
▁definition	-3177
Group	-3178
▁expanded	-3179
ek	-3180
▁compa	-3181
▁stand	-3182
PORT	-3183
initial	-3184
▁internal	-3185
emp	-3186
▁instring	-3187
validation	-3188
▁swag	-3189
▁sync	-3190
wildcard	-3191
▁changes	-3192
▁tab	-3193
▁ic	-3194
reen	-3195
▁register	-3196
▁V	-3197
▁fd	-3198
▁soup	-3199
▁bulk	-3200
atelli	-3201
vation	-3202
▁white	-3203
umb	-3204
categ	-3205
▁objs	-3206
▁deleted	-3207
ermi	-3208
LIENT	-3209
ras	-3210
▁excinfo	-3211
▁serialized	-3212
▁trigger	-3213
▁ptr	-3214
cfg	-3215
mlink	-3216
▁alpha	-3217
▁errorLog	-3218
▁builder	-3219
▁dependencies	-3220
▁high	-3221
▁packages	-3222
▁jar	-3223
▁trun	-3224
▁topol	-3225
▁sse	-3226
ia	-3227
iases	-3228
▁neigh	-3229
▁super	-3230
fet	-3231
serve	-3232
▁organization	-3233
ippet	-3234
▁face	-3235
cenario	-3236
idspaces	-3237
mi	-3238
CONFIG	-3239
▁escalate	-3240
CRE	-3241
alled	-3242
▁steps	-3243
▁filterable	-3244
weet	-3245
stack	-3246
▁vapp	-3247
coord	-3248
▁poly	-3249
▁after	-3250
▁pwd	-3251
▁pants	-3252
▁tasks	-3253
▁signed	-3254
responses	-3255
slot	-3256
▁sdk	-3257
▁push	-3258
▁symp	-3259
▁dl	-3260
From	-3261
pages	-3262
mitive	-3263
▁sorted	-3264
frag	-3265
▁sbp	-3266
weights	-3267
igen	-3268
herited	-3269
▁fq	-3270
▁flt	-3271
permission	-3272
repository	-3273
tend	-3274
▁vdc	-3275
▁measure	-3276
▁envelope	-3277
PER	-3278
targets	-3279
▁variant	-3280
amb	-3281
▁dump	-3282
▁center	-3283
stats	-3284
▁accept	-3285
▁scoped	-3286
▁descend	-3287
▁provision	-3288
mun	-3289
ding	-3290
▁dirs	-3291
▁maxsize	-3292
▁autom	-3293
▁bit	-3294
▁mime	-3295
straint	-3296
▁associ	-3297
▁deprecated	-3298
NO	-3299
Var	-3300
▁cond	-3301
▁stix	-3302
▁pools	-3303
▁scopes	-3304
▁testcase	-3305
▁profilefile	-3306
▁rg	-3307
▁scal	-3308
itation	-3309
monitor	-3310
extension	-3311
▁transport	-3312
reque	-3313
▁enum	-3314
▁wksp	-3315
success	-3316
IC	-3317
Obj	-3318
▁consumer	-3319
alt	-3320
msp	-3321
▁flavorsfile	-3322
▁tf	-3323
▁city	-3324
▁partial	-3325
Par	-3326
▁creds	-3327
▁symbols	-3328
▁gra	-3329
attem	-3330
split	-3331
▁hour	-3332
subclass	-3333
sys	-3334
zer	-3335
tokens	-3336
▁dtype	-3337
▁dry	-3338
▁room	-3339
utations	-3340
▁confirm	-3341
cu	-3342
ror	-3343
Field	-3344
iler	-3345
▁pla	-3346
coming	-3347
states	-3348
▁customer	-3349
END	-3350
▁basename	-3351
▁blacklist	-3352
objs	-3353
▁lon	-3354
PAR	-3355
interface	-3356
batch	-3357
▁submission	-3358
ocket	-3359
▁anti	-3360
▁dirpath	-3361
riend	-3362
▁capt	-3363
handle	-3364
▁tracking	-3365
OB	-3366
ault	-3367
vert	-3368
▁recursive	-3369
lier	-3370
ocation	-3371
AG	-3372
▁reser	-3373
▁tests	-3374
▁train	-3375
requests	-3376
non	-3377
pid	-3378
sig	-3379
▁foreign	-3380
▁relpath	-3381
▁cpu	-3382
▁layer	-3383
rie	-3384
Info	-3385
crement	-3386
▁rescode	-3387
URI	-3388
hist	-3389
▁anal	-3390
▁pages	-3391
revision	-3392
▁cookies	-3393
▁warning	-3394
▁topology	-3395
ire	-3396
▁satelli	-3397
▁sim	-3398
lect	-3399
CTION	-3400
lement	-3401
▁cg	-3402
disk	-3403
urls	-3404
▁restag	-3405
▁fixtures	-3406
▁attachments	-3407
▁done	-3408
loader	-3409
▁intent	-3410
▁bullet	-3411
pathname	-3412
▁generator	-3413
full	-3414
▁suds	-3415
RY	-3416
▁scan	-3417
▁seen	-3418
bucket	-3419
inputs	-3420
▁predicate	-3421
▁X	-3422
ffect	-3423
▁safe	-3424
defaults	-3425
els	-3426
▁built	-3427
▁roles	-3428
progress	-3429
▁copyright	-3430
elem	-3431
ERROR	-3432
▁mocker	-3433
▁fixture	-3434
condition	-3435
▁connector	-3436
▁encrypted	-3437
AM	-3438
▁llfc	-3439
before	-3440
▁clear	-3441
▁assets	-3442
▁categories	-3443
ui	-3444
irt	-3445
▁pieces	-3446
defs	-3447
▁symprec	-3448
▁fullname	-3449
cols	-3450
route	-3451
▁font	-3452
▁scenario	-3453
depth	-3454
allowed	-3455
▁taskid	-3456
certificate	-3457
▁contextname	-3458
▁nt	-3459
▁fee	-3460
▁ips	-3461
▁vip	-3462
▁bbox	-3463
▁assigned	-3464
OM	-3465
▁book	-3466
Le	-3467
▁blueprint	-3468
▁bal	-3469
chars	-3470
scopes	-3471
▁are	-3472
▁visibility	-3473
▁hy	-3474
tern	-3475
insert	-3476
▁terms	-3477
▁subscriber	-3478
verification	-3479
▁ef	-3480
argin	-3481
expected	-3482
▁whitespace	-3483
▁pix	-3484
▁utc	-3485
static	-3486
▁converter	-3487
JS	-3488
▁range	-3489
▁scale	-3490
▁inherited	-3491
HE	-3492
src	-3493
▁thing	-3494
▁button	-3495
▁snippet	-3496
UNT	-3497
▁one	-3498
▁uns	-3499
assign	-3500
▁preview	-3501
▁directive	-3502
cesses	-3503
▁exists	-3504
▁iterator	-3505
▁challenge	-3506
ration	-3507
▁setup	-3508
riterion	-3509
ressed	-3510
▁keyst	-3511
iration	-3512
▁incoming	-3513
▁resolvername	-3514
▁tb	-3515
▁wif	-3516
fetched	-3517
▁contain	-3518
▁statement	-3519
GER	-3520
LIC	-3521
▁axis	-3522
▁bootstrap	-3523
owner	-3524
ToPort	-3525
regexp	-3526
▁sentence	-3527
▁td	-3528
href	-3529
refresh	-3530
▁servers	-3531
▁absolute	-3532
▁lower	-3533
mpan	-3534
▁days	-3535
▁hard	-3536
▁minimum	-3537
▁padding	-3538
▁operating	-3539
▁abi	-3540
vals	-3541
▁strategy	-3542
ssible	-3543
gt	-3544
ater	-3545
atype	-3546
rency	-3547
irtual	-3548
▁sites	-3549
created	-3550
▁san	-3551
failure	-3552
jar	-3553
odu	-3554
▁off	-3555
eries	-3556
▁iprot	-3557
▁duplic	-3558
ET	-3559
cm	-3560
sm	-3561
▁datasource	-3562
Context	-3563
▁catalog	-3564
util	-3565
▁dynam	-3566
OUT	-3567
board	-3568
▁ontol	-3569
configuration	-3570
road	-3571
side	-3572
▁aggreg	-3573
▁router	-3574
▁parents	-3575
▁channels	-3576
tom	-3577
▁indi	-3578
▁added	-3579
▁bindings	-3580
▁profiles	-3581
▁execution	-3582
▁leg	-3583
▁neut	-3584
vec	-3585
tuple	-3586
▁want	-3587
ability	-3588
logging	-3589
ene	-3590
scribe	-3591
requency	-3592
▁accepts	-3593
▁ox	-3594
▁nonce	-3595
▁apikey	-3596
▁reader	-3597
distance	-3598
▁subparsers	-3599
▁separator	-3600
AC	-3601
disp	-3602
pers	-3603
cookie	-3604
▁numer	-3605
VE	-3606
lb	-3607
ouble	-3608
▁helpstr	-3609
▁assertion	-3610
▁satellite	-3611
▁pas	-3612
▁join	-3613
second	-3614
transaction	-3615
wrapper	-3616
signature	-3617
▁pygments	-3618
Me	-3619
▁preset	-3620
▁iv	-3621
▁rank	-3622
▁reddit	-3623
category	-3624
▁descendants	-3625
fill	-3626
multip	-3627
messages	-3628
jo	-3629
SIZE	-3630
extra	-3631
chemas	-3632
▁primitive	-3633
▁authorization	-3634
icon	-3635
poll	-3636
▁pat	-3637
sites	-3638
▁saxis	-3639
▁datastore	-3640
DATE	-3641
▁memo	-3642
▁sink	-3643
▁fpath	-3644
exclude	-3645
org	-3646
activ	-3647
▁down	-3648
▁daemon	-3649
▁topics	-3650
download	-3651
och	-3652
CLIENT	-3653
attach	-3654
ker	-3655
empt	-3656
ribution	-3657
▁pause	-3658
▁modal	-3659
▁neighb	-3660
▁transl	-3661
NOT	-3662
year	-3663
round	-3664
▁preserve	-3665
▁subframe	-3666
PRE	-3667
▁sr	-3668
Wait	-3669
▁dependency	-3670
yaml	-3671
▁PRO	-3672
protocol	-3673
▁htmlhelp	-3674
LOW	-3675
engine	-3676
▁sanit	-3677
history	-3678
▁routes	-3679
opt	-3680
ural	-3681
▁arr	-3682
▁optschema	-3683
TED	-3684
this	-3685
▁myid	-3686
▁close	-3687
missing	-3688
▁cutoff	-3689
▁geometry	-3690
ude	-3691
null	-3692
▁asList	-3693
▁writer	-3694
IO	-3695
hcp	-3696
▁est	-3697
Token	-3698
orrent	-3699
acy	-3700
backend	-3701
bind	-3702
pods	-3703
verity	-3704
▁crd	-3705
▁mil	-3706
▁dispatch	-3707
Node	-3708
▁crop	-3709
▁foo	-3710
Index	-3711
▁specs	-3712
▁ord	-3713
▁make	-3714
De	-3715
▁coll	-3716
▁await	-3717
entities	-3718
▁charset	-3719
mem	-3720
USER	-3721
phys	-3722
▁cfn	-3723
▁supported	-3724
▁whitelist	-3725
dime	-3726
lank	-3727
▁keyword	-3728
cc	-3729
▁flo	-3730
eigen	-3731
▁locked	-3732
DU	-3733
ims	-3734
▁latex	-3735
▁regexp	-3736
Msg	-3737
now	-3738
▁cal	-3739
▁pref	-3740
scheme	-3741
▁friend	-3742
med	-3743
rary	-3744
iddle	-3745
inger	-3746
▁inputtemplate	-3747
▁basic	-3748
ifications	-3749
▁rt	-3750
▁sen	-3751
▁wit	-3752
metrics	-3753
arr	-3754
cons	-3755
Result	-3756
▁launch	-3757
JSON	-3758
▁acc	-3759
▁ftp	-3760
known	-3761
ratio	-3762
▁vide	-3763
▁efermi	-3764
▁datavolumes	-3765
FO	-3766
rack	-3767
ifiers	-3768
▁multus	-3769
security	-3770
ascending	-3771
▁imagerepository	-3772
▁cast	-3773
▁dash	-3774
redirects	-3775
traceback	-3776
▁deployment	-3777
▁tax	-3778
▁vec	-3779
qubits	-3780
▁subdir	-3781
▁wildcard	-3782
▁qualifier	-3783
ipt	-3784
amma	-3785
▁tup	-3786
▁conda	-3787
▁slab	-3788
▁spar	-3789
▁idp	-3790
▁provisioning	-3791
seud	-3792
▁virtual	-3793
▁elt	-3794
▁tod	-3795
olders	-3796
▁upper	-3797
members	-3798
available	-3799
▁ontology	-3800
▁ga	-3801
▁coin	-3802
▁chars	-3803
servers	-3804
▁constraint	-3805
▁matrix	-3806
▁returned	-3807
OUR	-3808
oll	-3809
acity	-3810
▁candidates	-3811
▁pagination	-3812
utes	-3813
▁arn	-3814
▁let	-3815
odel	-3816
▁der	-3817
rokes	-3818
▁restri	-3819
▁balance	-3820
API	-3821
_3_	-3822
▁ec	-3823
▁ini	-3824
priority	-3825
registry	-3826
▁maximum	-3827
▁tempdir	-3828
▁pythonify	-3829
AST	-3830
GRO	-3831
eet	-3832
pac	-3833
apsed	-3834
assis	-3835
▁lead	-3836
partition	-3837
definitions	-3838
jor	-3839
delt	-3840
▁eval	-3841
depend	-3842
complete	-3843
▁resolution	-3844
ector	-3845
records	-3846
▁jobs	-3847
periods	-3848
▁swagger	-3849
EX	-3850
total	-3851
users	-3852
release	-3853
▁extract	-3854
▁integer	-3855
▁attempts	-3856
▁modified	-3857
ITY	-3858
sched	-3859
▁pseud	-3860
▁useWait	-3861
SET	-3862
bar	-3863
bed	-3864
dump	-3865
▁icmp	-3866
▁stmt	-3867
buffer	-3868
▁secure	-3869
▁expiration	-3870
kind	-3871
itive	-3872
▁algo	-3873
▁subparser	-3874
▁preprocess	-3875
▁mig	-3876
ggest	-3877
▁decoded	-3878
▁keywords	-3879
▁nn	-3880
VALID	-3881
asset	-3882
▁energy	-3883
▁supply	-3884
▁unicast	-3885
▁ascending	-3886
FIX	-3887
▁he	-3888
▁MAX	-3889
IG	-3890
▁vif	-3891
munity	-3892
methods	-3893
ranular	-3894
▁passphrase	-3895
QL	-3896
js	-3897
▁sf	-3898
rece	-3899
energy	-3900
▁neutron	-3901
ingerprint	-3902
▁endpoints	-3903
▁cnt	-3904
▁hidden	-3905
rout	-3906
▁ast	-3907
abware	-3908
▁logical	-3909
▁verbosity	-3910
▁io	-3911
first	-3912
archive	-3913
▁pyfile	-3914
▁jobStore	-3915
▁receiver	-3916
▁decorators	-3917
ATUS	-3918
Config	-3919
straints	-3920
▁backoff	-3921
LU	-3922
NS	-3923
▁hit	-3924
▁oas	-3925
usage	-3926
▁subjects	-3927
orig	-3928
roll	-3929
▁cip	-3930
ferred	-3931
descriptor	-3932
▁baseurl	-3933
▁pop	-3934
Command	-3935
▁adminrealm	-3936
▁partitions	-3937
▁catch	-3938
dd	-3939
nr	-3940
ech	-3941
▁tip	-3942
▁torrent	-3943
dimensions	-3944
tax	-3945
logs	-3946
▁txn	-3947
itude	-3948
▁truncate	-3949
ACK	-3950
aut	-3951
▁voi	-3952
▁click	-3953
▁factor	-3954
ells	-3955
eners	-3956
obile	-3957
▁sq	-3958
eded	-3959
prev	-3960
articles	-3961
▁ignored	-3962
▁dic	-3963
matches	-3964
▁sketch	-3965
▁compiler	-3966
▁terminal	-3967
dt	-3968
clean	-3969
licit	-3970
LOAD	-3971
specs	-3972
product	-3973
▁requester	-3974
▁dns	-3975
▁eol	-3976
aries	-3977
▁geom	-3978
assert	-3979
▁edges	-3980
▁contrib	-3981
▁keystrokes	-3982
ured	-3983
locally	-3984
▁running	-3985
lus	-3986
tmp	-3987
laun	-3988
▁scr	-3989
▁roll	-3990
▁basedir	-3991
▁mi	-3992
▁kargs	-3993
ral	-3994
GROUP	-3995
▁ticket	-3996
prefixes	-3997
▁longname	-3998
▁selected	-3999
▁ss	-4000
VICE	-4001
span	-4002
▁possible	-4003
tz	-4004
STR	-4005
▁tile	-4006
public	-4007
▁policies	-4008
▁rm	-4009
exit	-4010
home	-4011
▁bra	-4012
▁states	-4013
0_	-4014
arm	-4015
▁fac	-4016
attempts	-4017
SH	-4018
▁ase	-4019
align	-4020
▁multiple	-4021
▁subschema	-4022
▁convert	-4023
WORD	-4024
left	-4025
helper	-4026
reader	-4027
require	-4028
▁serialize	-4029
▁authorized	-4030
▁contenttype	-4031
▁crs	-4032
gment	-4033
FromPort	-4034
▁positions	-4035
▁published	-4036
sync	-4037
▁thumb	-4038
profiles	-4039
pl	-4040
▁it	-4041
▁spa	-4042
health	-4043
▁player	-4044
▁percent	-4045
mac	-4046
▁retcode	-4047
▁namespaces	-4048
rf	-4049
endpoints	-4050
KEN	-4051
other	-4052
▁vault	-4053
▁notebook	-4054
perms	-4055
▁esca	-4056
▁webhook	-4057
04	-4058
bran	-4059
▁byt	-4060
▁bool	-4061
ournal	-4062
▁notify	-4063
▁workdir	-4064
▁bvs	-4065
inator	-4066
writer	-4067
▁subnets	-4068
▁family	-4069
▁area	-4070
▁tail	-4071
strategy	-4072
TTP	-4073
fee	-4074
tended	-4075
plugins	-4076
expanded	-4077
▁DESCRIPT	-4078
gon	-4079
▁pack	-4080
loading	-4081
DER	-4082
dev	-4083
inf	-4084
▁zs	-4085
OURCE	-4086
close	-4087
udent	-4088
▁radius	-4089
ava	-4090
sion	-4091
▁dhcp	-4092
coverage	-4093
den	-4094
_201	-4095
▁redis	-4096
▁severity	-4097
crl	-4098
▁true	-4099
parsed	-4100
▁times	-4101
▁market	-4102
▁algorithm	-4103
DA	-4104
ats	-4105
▁kws	-4106
setting	-4107
▁keyname	-4108
▁fromsubclass	-4109
cursor	-4110
▁exact	-4111
▁since	-4112
clusive	-4113
▁normalized	-4114
ym	-4115
ier	-4116
FIEL	-4117
deps	-4118
edit	-4119
▁ops	-4120
▁ether	-4121
▁shift	-4122
services	-4123
inc	-4124
▁prob	-4125
riteria	-4126
ha	-4127
dec	-4128
▁handlers	-4129
atic	-4130
▁fakei	-4131
▁builtin	-4132
▁compare	-4133
▁timezone	-4134
sql	-4135
ency	-4136
reqs	-4137
Client	-4138
controlsession	-4139
TER	-4140
▁hw	-4141
normal	-4142
provid	-4143
▁video	-4144
Loc	-4145
bill	-4146
▁bare	-4147
cident	-4148
▁cipher	-4149
encoding	-4150
▁customers	-4151
ixin	-4152
priv	-4153
stage	-4154
▁runs	-4155
▁stak	-4156
▁known	-4157
▁tweet	-4158
▁signal	-4159
▁mol	-4160
▁flat	-4161
▁dirty	-4162
▁pf	-4163
writ	-4164
▁mobile	-4165
▁instant	-4166
▁typename	-4167
▁classpath	-4168
web	-4169
cene	-4170
▁occu	-4171
tential	-4172
arguments	-4173
▁experiments	-4174
roots	-4175
amphora	-4176
roadcast	-4177
▁cleaned	-4178
▁derived	-4179
LL	-4180
va	-4181
▁inc	-4182
▁logs	-4183
duplic	-4184
routes	-4185
▁bases	-4186
▁prices	-4187
policies	-4188
▁elapsed	-4189
ML	-4190
APP	-4191
▁cols	-4192
▁polygon	-4193
UE	-4194
▁vt	-4195
stru	-4196
shape	-4197
area	-4198
▁sat	-4199
▁repair	-4200
git	-4201
band	-4202
▁ion	-4203
▁used	-4204
▁authn	-4205
▁operations	-4206
mom	-4207
▁px	-4208
▁gamma	-4209
environ	-4210
▁student	-4211
▁responseClass	-4212
▁prot	-4213
▁salt	-4214
▁actor	-4215
▁functions	-4216
Up	-4217
dl	-4218
MAP	-4219
AUTH	-4220
_2_8	-4221
_3_3	-4222
slug	-4223
ysis	-4224
zones	-4225
▁inifile	-4226
Found	-4227
▁warnings	-4228
ROOT	-4229
▁den	-4230
serted	-4231
▁replica	-4232
challenge	-4233
▁bp	-4234
▁pt	-4235
show	-4236
▁fact	-4237
▁toks	-4238
▁coeff	-4239
▁projects	-4240
ze	-4241
loop	-4242
iation	-4243
▁grade	-4244
▁failures	-4245
quis	-4246
Object	-4247
Options	-4248
▁defined	-4249
Dir	-4250
oom	-4251
Item	-4252
ignore	-4253
▁speed	-4254
▁ud	-4255
speed	-4256
▁alts	-4257
▁game	-4258
▁pull	-4259
encoder	-4260
12	-4261
Arg	-4262
amount	-4263
ground	-4264
▁suite	-4265
tls	-4266
Date	-4267
▁cos	-4268
▁tim	-4269
DEFAULT	-4270
measure	-4271
▁merged	-4272
▁review	-4273
▁enforce	-4274
▁got	-4275
▁glob	-4276
SSWORD	-4277
ranges	-4278
unc	-4279
▁vrf	-4280
▁USER	-4281
▁quota	-4282
▁execstr	-4283
▁strings	-4284
▁converted	-4285
▁authorperm	-4286
gh	-4287
pus	-4288
_401	-4289
▁rot	-4290
pings	-4291
▁synt	-4292
▁expand	-4293
▁deserialized	-4294
az	-4295
▁EX	-4296
Dict	-4297
▁any	-4298
reset	-4299
uation	-4300
▁ttype	-4301
children	-4302
▁recipients	-4303
repr	-4304
▁big	-4305
▁fid	-4306
ambda	-4307
▁peer	-4308
▁MO	-4309
atom	-4310
fect	-4311
▁buff	-4312
cluster	-4313
▁dbfile	-4314
TR	-4315
vl	-4316
AND	-4317
lik	-4318
pkg	-4319
▁wf	-4320
▁ctxt	-4321
mappings	-4322
▁volumes	-4323
▁extended	-4324
exc	-4325
▁fire	-4326
▁spaces	-4327
▁disabled	-4328
▁dataframe	-4329
▁registered	-4330
kb	-4331
AMP	-4332
rer	-4333
▁nic	-4334
▁yml	-4335
outputs	-4336
MB	-4337
CMSG	-4338
▁may	-4339
▁AUTH	-4340
▁apid	-4341
▁subj	-4342
▁txid	-4343
bool	-4344
ptype	-4345
loaded	-4346
▁encrypt	-4347
frequency	-4348
▁entities	-4349
YS	-4350
Col	-4351
oto	-4352
reads	-4353
▁guid	-4354
▁isol	-4355
▁well	-4356
comments	-4357
▁continu	-4358
▁locator	-4359
▁cy	-4360
TEST	-4361
reak	-4362
▁pot	-4363
▁subpath	-4364
▁rp	-4365
CONT	-4366
skip	-4367
calls	-4368
▁same	-4369
family	-4370
▁integr	-4371
LIN	-4372
quota	-4373
▁prepa	-4374
▁loading	-4375
▁validators	-4376
obs	-4377
▁hub	-4378
magmom	-4379
▁VERSION	-4380
▁tableau	-4381
addresses	-4382
▁replicas	-4383
▁definitions	-4384
inv	-4385
▁gcode	-4386
▁journal	-4387
▁threads	-4388
▁excluded	-4389
LOC	-4390
PUT	-4391
▁wb	-4392
summ	-4393
▁sci	-4394
▁icon	-4395
▁effect	-4396
▁miller	-4397
▁prefixes	-4398
oriz	-4399
▁spl	-4400
pubkey	-4401
▁minor	-4402
comment	-4403
▁sysmeta	-4404
▁requires	-4405
credential	-4406
▁rr	-4407
▁mid	-4408
changes	-4409
▁currency	-4410
CI	-4411
vie	-4412
MESS	-4413
margin	-4414
▁major	-4415
▁share	-4416
Qu	-4417
ITH	-4418
arc	-4419
▁np	-4420
algorithm	-4421
CS	-4422
▁low	-4423
media	-4424
▁oxid	-4425
double	-4426
modules	-4427
present	-4428
▁signing	-4429
▁witness	-4430
▁detected	-4431
▁namespacedef	-4432
oth	-4433
▁ms	-4434
eder	-4435
mage	-4436
when	-4437
▁Fake	-4438
transl	-4439
▁exprs	-4440
▁saved	-4441
▁constants	-4442
▁subs	-4443
master	-4444
▁chunks	-4445
sw	-4446
MESSAGE	-4447
numbers	-4448
workspace	-4449
▁fragment	-4450
▁isolated	-4451
▁automatic	-4452
▁components	-4453
permutations	-4454
BO	-4455
cat	-4456
sol	-4457
vdc	-4458
spin	-4459
▁arp	-4460
Pre	-4461
ful	-4462
CODE	-4463
POINT	-4464
▁trunk	-4465
▁audience	-4466
▁rval	-4467
▁isite	-4468
▁letter	-4469
▁executable	-4470
oref	-4471
ways	-4472
▁limits	-4473
ik	-4474
▁mail	-4475
▁todo	-4476
window	-4477
▁maybe	-4478
overrides	-4479
BUG	-4480
▁azure	-4481
agement	-4482
tection	-4483
▁archived	-4484
▁rid	-4485
power	-4486
▁move	-4487
▁estim	-4488
▁round	-4489
▁minute	-4490
istration	-4491
▁traceback	-4492
aas	-4493
docs	-4494
itter	-4495
licity	-4496
replic	-4497
accounts	-4498
hp	-4499
rive	-4500
▁layers	-4501
▁listed	-4502
▁mutable	-4503
safe	-4504
▁vid	-4505
▁redu	-4506
▁decla	-4507
▁vector	-4508
ached	-4509
▁assoc	-4510
existing	-4511
dos	-4512
txt	-4513
▁bits	-4514
blocks	-4515
▁expiry	-4516
▁readme	-4517
▁contribut	-4518
ks	-4519
▁altern	-4520
candidate	-4521
na	-4522
lex	-4523
onds	-4524
patt	-4525
▁lng	-4526
▁NAME	-4527
▁clients	-4528
attachments	-4529
ka	-4530
pose	-4531
mitter	-4532
resolution	-4533
▁K	-4534
▁ws	-4535
▁wv	-4536
lict	-4537
▁fig	-4538
▁vim	-4539
▁models	-4540
▁raises	-4541
▁friendly	-4542
DATA	-4543
▁age	-4544
▁dot	-4545
▁lig	-4546
claims	-4547
▁aliases	-4548
scan	-4549
▁pairs	-4550
instances	-4551
▁describe	-4552
days	-4553
ribs	-4554
▁mach	-4555
artifact	-4556
serializer	-4557
BP	-4558
IST	-4559
▁sni	-4560
pairs	-4561
holder	-4562
reason	-4563
izations	-4564
▁ansible	-4565
authority	-4566
▁declared	-4567
ee	-4568
▁gt	-4569
until	-4570
▁have	-4571
▁plane	-4572
▁quick	-4573
formatt	-4574
abi	-4575
ise	-4576
oked	-4577
rapy	-4578
▁unt	-4579
permissions	-4580
▁fingerprint	-4581
Er	-4582
ned	-4583
▁mu	-4584
▁stre	-4585
operation	-4586
▁sortable	-4587
▁connections	-4588
URE	-4589
ATOR	-4590
asis	-4591
Level	-4592
amble	-4593
▁cart	-4594
atuses	-4595
▁bands	-4596
▁caller	-4597
resolver	-4598
▁defaultValue	-4599
▁neg	-4600
mooth	-4601
overy	-4602
generator	-4603
mat	-4604
▁card	-4605
getter	-4606
radius	-4607
▁produ	-4608
_0	-4609
Size	-4610
_404	-4611
slab	-4612
▁bar	-4613
COUNT	-4614
▁fron	-4615
realms	-4616
▁kwarg	-4617
ERY	-4618
vol	-4619
▁hi	-4620
iven	-4621
▁dead	-4622
▁symm	-4623
diction	-4624
▁TE	-4625
▁denom	-4626
▁joins	-4627
builder	-4628
▁render	-4629
▁resume	-4630
▁potential	-4631
▁downloaded	-4632
At	-4633
buf	-4634
kws	-4635
▁dc	-4636
▁paint	-4637
▁synth	-4638
configs	-4639
▁suggest	-4640
resolvers	-4641
IS	-4642
party	-4643
units	-4644
▁conv	-4645
digest	-4646
oletes	-4647
▁facet	-4648
OF	-4649
▁gpi	-4650
▁delt	-4651
▁goref	-4652
iterator	-4653
▁encryption	-4654
asc	-4655
▁BASE	-4656
▁queries	-4657
▁restriction	-4658
der	-4659
orient	-4660
▁nelect	-4661
remaining	-4662
LED	-4663
INFO	-4664
ores	-4665
▁ipa	-4666
▁ker	-4667
Files	-4668
blank	-4669
xrefs	-4670
▁extras	-4671
▁retrie	-4672
▁tolerance	-4673
constraints	-4674
ipe	-4675
▁kv	-4676
price	-4677
▁ipar	-4678
scrapy	-4679
silent	-4680
episode	-4681
segment	-4682
▁apidict	-4683
▁homedir	-4684
▁offsets	-4685
▁prepared	-4686
On	-4687
ADD	-4688
▁apps	-4689
▁issues	-4690
▁products	-4691
▁compressed	-4692
vered	-4693
▁ftype	-4694
criterion	-4695
sel	-4696
LETE	-4697
▁dom	-4698
▁nos	-4699
▁qos	-4700
mol	-4701
▁CO	-4702
global	-4703
requires	-4704
▁finished	-4705
▁permlink	-4706
tc	-4707
mgr	-4708
▁plural	-4709
▁weights	-4710
reporting	-4711
▁distribution	-4712
▁specification	-4713
afka	-4714
hosts	-4715
minus	-4716
single	-4717
▁epoch	-4718
▁horiz	-4719
▁spark	-4720
lattice	-4721
▁assist	-4722
▁audit	-4723
▁hyper	-4724
schedule	-4725
▁schemas	-4726
DEX	-4727
▁PY	-4728
CESS	-4729
Seed	-4730
plus	-4731
▁SBP	-4732
▁beta	-4733
letion	-4734
workflow	-4735
▁so	-4736
nded	-4737
▁bil	-4738
ather	-4739
contain	-4740
gateway	-4741
precision	-4742
▁baseline	-4743
inferences	-4744
IONS	-4745
stit	-4746
▁tgt	-4747
unique	-4748
▁fetcher	-4749
▁unknown	-4750
▁neighbors	-4751
▁background	-4752
ND	-4753
▁ld	-4754
▁ub	-4755
▁robot	-4756
elevation	-4757
▁CThostFtdc	-4758
▁gue	-4759
ithub	-4760
Policy	-4761
▁removed	-4762
▁readonly	-4763
▁translation	-4764
COM	-4765
Ref	-4766
▁pw	-4767
▁vc	-4768
Page	-4769
feed	-4770
lobs	-4771
maps	-4772
rough	-4773
▁latt	-4774
▁plain	-4775
▁dbxrefs	-4776
▁nullable	-4777
duplicates	-4778
tool	-4779
wday	-4780
Values	-4781
▁scene	-4782
obsoletes	-4783
EW	-4784
Text	-4785
ross	-4786
incip	-4787
▁pred	-4788
arning	-4789
associ	-4790
compat	-4791
shards	-4792
Actions	-4793
▁standard	-4794
▁listeners	-4795
▁oxidation	-4796
GS	-4797
ple	-4798
▁pb	-4799
▁hint	-4800
Folder	-4801
conver	-4802
indent	-4803
▁middle	-4804
▁ordinal	-4805
following	-4806
LEN	-4807
esc	-4808
taxa	-4809
arted	-4810
▁boto	-4811
MIN	-4812
ONE	-4813
oot	-4814
MAGE	-4815
rank	-4816
seed	-4817
▁good	-4818
▁cells	-4819
▁travers	-4820
▁criteria	-4821
▁workunit	-4822
Get	-4823
lim	-4824
▁elm	-4825
▁lex	-4826
pools	-4827
▁week	-4828
intain	-4829
series	-4830
perfect	-4831
▁LOGGER	-4832
▁dropdown	-4833
CMSGCLIENT	-4834
ORY	-4835
▁dsp	-4836
▁kcl	-4837
ronic	-4838
▁freq	-4839
failed	-4840
▁given	-4841
▁inject	-4842
▁received	-4843
▁traverser	-4844
connections	-4845
Url	-4846
▁iso	-4847
likes	-4848
▁refs	-4849
compute	-4850
▁argstr	-4851
▁sanitize	-4852
UC	-4853
do	-4854
▁pip	-4855
▁song	-4856
▁tick	-4857
ederated	-4858
▁detailed	-4859
Ser	-4860
▁pan	-4861
▁norm	-4862
▁posts	-4863
install	-4864
▁hashed	-4865
▁coordination	-4866
like	-4867
pipe	-4868
State	-4869
sample	-4870
▁watch	-4871
▁retval	-4872
▁currentplan	-4873
BE	-4874
pn	-4875
COL	-4876
▁cdp	-4877
external	-4878
▁cleanup	-4879
▁processes	-4880
▁DO	-4881
icro	-4882
vest	-4883
Count	-4884
super	-4885
▁intr	-4886
▁checks	-4887
commands	-4888
▁interpre	-4889
fu	-4890
wn	-4891
ERT	-4892
INGS	-4893
PREFIX	-4894
▁kafka	-4895
workers	-4896
▁individ	-4897
▁verifylist	-4898
scal	-4899
unic	-4900
▁clis	-4901
▁DEBUG	-4902
▁tester	-4903
▁complete	-4904
lies	-4905
ring	-4906
supply	-4907
scrapyd	-4908
▁always	-4909
▁netloc	-4910
silently	-4911
▁revoked	-4912
passphrase	-4913
▁urlpatterns	-4914
▁bd	-4915
erer	-4916
idir	-4917
virt	-4918
plane	-4919
▁cmdir	-4920
▁kclidir	-4921
▁secretsfile	-4922
▁defaultclient	-4923
▁containerclient	-4924
▁currentplanfile	-4925
ws	-4926
ITE	-4927
▁CMsg	-4928
▁fast	-4929
▁colno	-4930
▁rollout	-4931
▁callable	-4932
▁exporter	-4933
▁publisher	-4934
▁timeformat	-4935
confi	-4936
reply	-4937
▁lbaas	-4938
▁jskeys	-4939
lvl	-4940
thing	-4941
white	-4942
clause	-4943
checker	-4944
PASSWORD	-4945
▁references	-4946
PY	-4947
reate	-4948
▁syll	-4949
titles	-4950
▁horizon	-4951
▁included	-4952
▁assistant	-4953
▁exprsFound	-4954
Code	-4955
edge	-4956
join	-4957
▁amt	-4958
▁fix	-4959
▁nap	-4960
▁ttF	-4961
ricted	-4962
▁jskws	-4963
▁analysis	-4964
controller	-4965
▁DESCRIPTOR	-4966
TRI	-4967
onoi	-4968
oleon	-4969
▁java	-4970
▁repe	-4971
memory	-4972
oronoi	-4973
upload	-4974
private	-4975
sources	-4976
▁granular	-4977
▁mobileui	-4978
▁napoleon	-4979
▁classname	-4980
▁br	-4981
SERVER	-4982
▁mixed	-4983
handlers	-4984
▁measurement	-4985
▁vo	-4986
boot	-4987
nail	-4988
▁mis	-4989
creds	-4990
umber	-4991
wards	-4992
▁trust	-4993
isation	-4994
threads	-4995
▁dynamic	-4996
▁logging	-4997
credentials	-4998
▁coordinate	-4999
▁fc	-5000
▁saml	-5001
incipal	-5002
▁otpkey	-5003
packages	-5004
▁capacity	-5005
▁citation	-5006
Ret	-5007
Mode	-5008
▁phi	-5009
▁sku	-5010
added	-5011
imuth	-5012
▁pods	-5013
▁emitter	-5014
▁transfer	-5015
enk	-5016
ider	-5017
less	-5018
TOKEN	-5019
enkins	-5020
tensor	-5021
▁lambda	-5022
DESCRIPT	-5023
fallback	-5024
LY	-5025
inx	-5026
neg	-5027
gies	-5028
▁syn	-5029
▁two	-5030
issue	-5031
bottom	-5032
▁subdomain	-5033
▁tokeninfo	-5034
GEX	-5035
tok	-5036
HEAD	-5037
▁repl	-5038
▁depends	-5039
▁generate	-5040
lst	-5041
▁mep	-5042
▁ndp	-5043
enefi	-5044
visit	-5045
▁sect	-5046
▁sciobj	-5047
▁correct	-5048
▁randomSeed	-5049
▁annotations	-5050
WN	-5051
ART	-5052
offsets	-5053
▁corpus	-5054
pollution	-5055
▁rawlines	-5056
AIL	-5057
MIT	-5058
mil	-5059
mixin	-5060
▁pick	-5061
▁snap	-5062
▁movie	-5063
▁taxon	-5064
creator	-5065
restore	-5066
▁configs	-5067
mediatype	-5068
▁compress	-5069
▁doActions	-5070
dot	-5071
ich	-5072
proc	-5073
sort	-5074
irror	-5075
tries	-5076
▁fqdn	-5077
CA	-5078
flo	-5079
▁FA	-5080
▁OP	-5081
▁dj	-5082
▁tid	-5083
▁expt	-5084
Method	-5085
summary	-5086
▁wrapper	-5087
▁classical	-5088
cv	-5089
ASH	-5090
Out	-5091
pred	-5092
▁urs	-5093
allet	-5094
hints	-5095
utils	-5096
▁mean	-5097
models	-5098
▁passw	-5099
▁phase	-5100
▁blockchain	-5101
Ar	-5102
INS	-5103
since	-5104
stored	-5105
▁analy	-5106
▁fault	-5107
▁kernel	-5108
▁specie	-5109
▁domains	-5110
▁weather	-5111
references	-5112
▁timer	-5113
▁hardware	-5114
ja	-5115
MAX	-5116
▁vn	-5117
icks	-5118
▁gem	-5119
▁float	-5120
foreign	-5121
▁ttFont	-5122
▁embedded	-5123
▁incident	-5124
▁exceptions	-5125
▁parenttype	-5126
LES	-5127
▁AD	-5128
▁rd	-5129
endor	-5130
▁recurse	-5131
authentic	-5132
components	-5133
OPT	-5134
ives	-5135
▁orb	-5136
▁mover	-5137
aliases	-5138
▁forward	-5139
▁general	-5140
expression	-5141
dst	-5142
izes	-5143
▁inds	-5144
▁luid	-5145
▁what	-5146
▁caption	-5147
▁jenkins	-5148
sgi	-5149
▁dg	-5150
▁fiat	-5151
STATUS	-5152
▁excmd	-5153
▁baseuri	-5154
▁fileobj	-5155
▁fullpath	-5156
▁migration	-5157
tod	-5158
relay	-5159
▁delim	-5160
▁tries	-5161
intainer	-5162
▁macromod	-5163
▁pg	-5164
Spec	-5165
▁ava	-5166
▁desk	-5167
deploy	-5168
▁slots	-5169
display	-5170
▁pseudo	-5171
▁geminate	-5172
▁verified	-5173
▁completed	-5174
▁compression	-5175
VENT	-5176
circ	-5177
STATE	-5178
TYPES	-5179
tests	-5180
verbo	-5181
▁live	-5182
▁warc	-5183
▁apply	-5184
▁modname	-5185
▁subtype	-5186
▁testing	-5187
appversions	-5188
▁resourcename	-5189
IFI	-5190
come	-5191
▁udp	-5192
ntype	-5193
▁some	-5194
▁curve	-5195
▁using	-5196
TIMEOUT	-5197
▁voiced	-5198
hostname	-5199
▁pending	-5200
quisition	-5201
Pos	-5202
ANCE	-5203
TEXT	-5204
▁DATE	-5205
termin	-5206
▁needs	-5207
▁dToPort	-5208
▁sToPort	-5209
▁acquisition	-5210
▁referenceSet	-5211
CU	-5212
Event	-5213
▁splits	-5214
▁branches	-5215
maintainer	-5216
▁addresses	-5217
Al	-5218
pp	-5219
ONG	-5220
ssh	-5221
atile	-5222
share	-5223
▁pipet	-5224
▁years	-5225
▁manner	-5226
▁volatile	-5227
▁alignment	-5228
lap	-5229
▁pdf	-5230
▁rdf	-5231
▁phone	-5232
▁scrub	-5233
▁trits	-5234
▁temper	-5235
inserted	-5236
▁individual	-5237
▁shard	-5238
▁comparator	-5239
Rec	-5240
STE	-5241
wall	-5242
Error	-5243
validator	-5244
▁proptype	-5245
▁conversion	-5246
▁replacement	-5247
KET	-5248
has	-5249
▁lc	-5250
more	-5251
rink	-5252
REQUI	-5253
derer	-5254
oping	-5255
topol	-5256
inated	-5257
▁evidence	-5258
▁tw	-5259
Chat	-5260
gers	-5261
move	-5262
ulas	-5263
QUERY	-5264
slash	-5265
publish	-5266
▁minutes	-5267
WE	-5268
expr	-5269
some	-5270
stop	-5271
▁nio	-5272
▁sur	-5273
azimuth	-5274
▁subcode	-5275
alph	-5276
▁hel	-5277
ADATA	-5278
debug	-5279
▁tele	-5280
broker	-5281
▁envVar	-5282
▁pipette	-5283
cn	-5284
mn	-5285
JOB	-5286
ied	-5287
sth	-5288
▁hc	-5289
▁zk	-5290
CRET	-5291
uris	-5292
▁jet	-5293
▁free	-5294
Status	-5295
▁oprot	-5296
▁cosine	-5297
▁ursula	-5298
METADATA	-5299
followers	-5300
the	-5301
▁bs	-5302
▁mf	-5303
▁ui	-5304
Read	-5305
draw	-5306
▁spider	-5307
fragment	-5308
selected	-5309
▁maxfail	-5310
▁receive	-5311
▁sublist	-5312
▁tenants	-5313
▁vimtype	-5314
embed	-5315
▁dial	-5316
intent	-5317
trigger	-5318
▁editor	-5319
▁library	-5320
▁locations	-5321
▁correction	-5322
▁envVarName	-5323
4_	-5324
geo	-5325
▁fal	-5326
▁pur	-5327
▁epub	-5328
▁webs	-5329
utation	-5330
▁distro	-5331
▁vendor	-5332
replaced	-5333
conditions	-5334
Local	-5335
REGEX	-5336
todos	-5337
▁coeffs	-5338
▁recent	-5339
RESOURCE	-5340
▁summation	-5341
EXT	-5342
ables	-5343
esize	-5344
▁stem	-5345
encies	-5346
▁unused	-5347
▁federated	-5348
▁authorizations	-5349
PS	-5350
wa	-5351
Def	-5352
lun	-5353
rev	-5354
▁must	-5355
▁callSet	-5356
▁referer	-5357
▁includes	-5358
By	-5359
YPE	-5360
sens	-5361
grade	-5362
▁deep	-5363
▁grid	-5364
visible	-5365
▁qubits	-5366
▁docstring	-5367
dependencies	-5368
▁association	-5369
HT	-5370
qs	-5371
▁aa	-5372
▁avg	-5373
▁HTTP	-5374
branch	-5375
ussion	-5376
▁intro	-5377
▁smooth	-5378
▁tokenrealms	-5379
cal	-5380
pas	-5381
▁ce	-5382
ABEL	-5383
RESS	-5384
grid	-5385
▁pdb	-5386
socket	-5387
▁sorts	-5388
▁github	-5389
▁screen	-5390
manifest	-5391
increment	-5392
▁temperature	-5393
Th	-5394
jobs	-5395
Graph	-5396
binary	-5397
matched	-5398
▁deltas	-5399
▁passed	-5400
▁machine	-5401
YSQL	-5402
blob	-5403
secs	-5404
▁dag	-5405
Chars	-5406
METHO	-5407
▁JSON	-5408
▁synthesize	-5409
hm	-5410
ople	-5411
▁clo	-5412
▁ntp	-5413
insic	-5414
unicode	-5415
virtual	-5416
disabled	-5417
provided	-5418
▁accounts	-5419
2_0	-5420
umed	-5421
▁car	-5422
▁tot	-5423
place	-5424
▁leader	-5425
▁rpcuser	-5426
▁attached	-5427
▁stripped	-5428
formatting	-5429
partitions	-5430
▁rpcpassword	-5431
FC	-5432
▁cr	-5433
▁ix	-5434
ARCH	-5435
▁nat	-5436
▁tun	-5437
▁quot	-5438
ventory	-5439
▁markets	-5440
blueprint	-5441
▁containers	-5442
fd	-5443
▁gb	-5444
ANEL	-5445
esca	-5446
long	-5447
▁gap	-5448
▁tpl	-5449
▁mpan	-5450
person	-5451
defined	-5452
▁capture	-5453
▁readGroup	-5454
ALL	-5455
ATAB	-5456
▁aff	-5457
▁lif	-5458
▁pks	-5459
▁ampli	-5460
▁reuse	-5461
tracking	-5462
▁frontend	-5463
6_	-5464
ANG	-5465
LOB	-5466
gra	-5467
inp	-5468
Func	-5469
▁aio	-5470
▁tran	-5471
forward	-5472
labware	-5473
routing	-5474
▁testapp	-5475
▁intrinsic	-5476
ttl	-5477
atar	-5478
hint	-5479
▁smtp	-5480
▁calls	-5481
topology	-5482
▁chassis	-5483
▁datasets	-5484
▁sentences	-5485
OK	-5486
lat	-5487
orth	-5488
save	-5489
sure	-5490
alert	-5491
▁resc	-5492
marker	-5493
quality	-5494
▁unpack	-5495
ENDPOINT	-5496
▁dialect	-5497
▁without	-5498
▁dispatcher	-5499
ram	-5500
▁vin	-5501
mapper	-5502
▁photo	-5503
voronoi	-5504
▁blocks	-5505
▁errmsg	-5506
▁statsd	-5507
▁convers	-5508
qualifier	-5509
▁CMsgClient	-5510
hull	-5511
▁sli	-5512
terms	-5513
▁articles	-5514
▁training	-5515
dm	-5516
ISS	-5517
Ids	-5518
▁AL	-5519
▁gc	-5520
uses	-5521
angle	-5522
audit	-5523
metri	-5524
▁rhel	-5525
▁alice	-5526
▁receipt	-5527
ose	-5528
▁srv	-5529
generate	-5530
▁tiprack	-5531
▁unicode	-5532
▁ordering	-5533
▁provided	-5534
▁projectpath	-5535
▁namespaceprefix	-5536
LAY	-5537
flg	-5538
odb	-5539
pix	-5540
▁eth	-5541
CHEMA	-5542
drive	-5543
edges	-5544
setup	-5545
▁csrf	-5546
▁named	-5547
▁integration	-5548
▁registration	-5549
NET	-5550
dom	-5551
▁tc	-5552
pent	-5553
ATABASE	-5554
encoded	-5555
▁cdipods	-5556
▁socketf	-5557
▁conntype	-5558
▁randomize	-5559
▁rhelimages	-5560
▁timeobject	-5561
▁extraclient	-5562
▁loadmetadata	-5563
so	-5564
tb	-5565
PEC	-5566
CHAT	-5567
LOCK	-5568
fond	-5569
guid	-5570
▁ban	-5571
▁ing	-5572
ulate	-5573
ceptor	-5574
▁codes	-5575
▁creation	-5576
▁thumbnail	-5577
▁allocation	-5578
CP	-5579
pg	-5580
cce	-5581
try	-5582
▁dm	-5583
basic	-5584
merge	-5585
▁medi	-5586
▁msgs	-5587
rected	-5588
launches	-5589
▁aiohttp	-5590
▁expired	-5591
▁reserved	-5592
▁starting	-5593
▁tokenkind	-5594
mdb	-5595
▁cv	-5596
vlan	-5597
▁List	-5598
▁TIME	-5599
▁apic	-5600
▁story	-5601
symbols	-5602
▁factory	-5603
projected	-5604
candidates	-5605
▁community	-5606
▁secondary	-5607
img	-5608
pla	-5609
abet	-5610
visor	-5611
rypted	-5612
▁canon	-5613
without	-5614
▁inferred	-5615
DENT	-5616
atal	-5617
▁SER	-5618
lineno	-5619
utable	-5620
running	-5621
▁people	-5622
sequence	-5623
▁negated	-5624
supercell	-5625
▁interpreter	-5626
11	-5627
FN	-5628
TES	-5629
MODE	-5630
auto	-5631
norm	-5632
light	-5633
▁chat	-5634
▁dmap	-5635
UPDATE	-5636
reddit	-5637
▁tuple	-5638
▁native	-5639
▁pytest	-5640
▁amplicon	-5641
▁matchString	-5642
▁conversation	-5643
▁authentication	-5644
bum	-5645
utc	-5646
▁tens	-5647
▁perms	-5648
▁devices	-5649
stitutions	-5650
▁aggregate	-5651
Sc	-5652
Not	-5653
pag	-5654
FIELD	-5655
chron	-5656
▁nick	-5657
runner	-5658
▁popen	-5659
▁which	-5660
▁coordinates	-5661
TRA	-5662
pat	-5663
leet	-5664
redu	-5665
▁nid	-5666
▁plt	-5667
warning	-5668
features	-5669
▁segments	-5670
▁processor	-5671
▁discussion	-5672
▁instrument	-5673
▁management	-5674
FER	-5675
dns	-5676
comb	-5677
ling	-5678
▁xom	-5679
▁ionic	-5680
▁compat	-5681
25	-5682
cha	-5683
BASE	-5684
▁cmds	-5685
▁vnet	-5686
editor	-5687
▁encap	-5688
▁idStr	-5689
▁remain	-5690
examples	-5691
▁realmname	-5692
50	-5693
isy	-5694
▁lw	-5695
▁ps	-5696
fixt	-5697
lush	-5698
prob	-5699
xtwo	-5700
▁doi	-5701
▁obs	-5702
▁writ	-5703
spection	-5704
▁resolve	-5705
▁effective	-5706
▁paginated	-5707
agg	-5708
lip	-5709
sal	-5710
ups	-5711
wit	-5712
▁chk	-5713
▁ndx	-5714
▁tmpl	-5715
▁subid	-5716
devices	-5717
verbose	-5718
▁intermedi	-5719
▁SH	-5720
Form	-5721
MAIL	-5722
freq	-5723
▁cop	-5724
▁scri	-5725
andbox	-5726
▁audio	-5727
▁sheet	-5728
keywords	-5729
▁gradebook	-5730
▁introspection	-5731
WA	-5732
eb	-5733
▁tl	-5734
▁APP	-5735
pause	-5736
▁ctype	-5737
▁decod	-5738
▁noisy	-5739
ocities	-5740
▁escape	-5741
▁ligand	-5742
▁speech	-5743
▁keyring	-5744
▁increment	-5745
8_	-5746
coe	-5747
pin	-5748
▁dp	-5749
▁nv	-5750
▁arc	-5751
issuer	-5752
Version	-5753
metrize	-5754
▁CONFIG	-5755
▁inline	-5756
▁mirror	-5757
geometry	-5758
▁PROJECT	-5759
▁restart	-5760
▁protected	-5761
▁Y	-5762
ERE	-5763
VEL	-5764
▁vv	-5765
train	-5766
▁User	-5767
▁setu	-5768
counts	-5769
worker	-5770
▁combin	-5771
▁packet	-5772
▁blocked	-5773
▁preprocessor	-5774
BY	-5775
▁xy	-5776
many	-5777
▁asn	-5778
fname	-5779
▁ldap	-5780
▁varp	-5781
served	-5782
terator	-5783
▁buttons	-5784
▁preempt	-5785
▁reduced	-5786
▁conflict	-5787
▁duplicated	-5788
▁testerchain	-5789
cb	-5790
CLU	-5791
kit	-5792
layer	-5793
▁tables	-5794
DESCRIPTION	-5795
environment	-5796
▁projection	-5797
▁documentation	-5798
bd	-5799
SUB	-5800
zzy	-5801
▁uv	-5802
WORK	-5803
MYSQL	-5804
choice	-5805
▁break	-5806
folders	-5807
assignment	-5808
▁connected	-5809
▁objectify	-5810
DB	-5811
▁CH	-5812
▁nm	-5813
Sets	-5814
▁acl	-5815
cloud	-5816
▁here	-5817
▁alarm	-5818
▁fuzzy	-5819
▁otplen	-5820
▁tensor	-5821
▁authors	-5822
▁charact	-5823
▁jetpack	-5824
templates	-5825
▁fileName	-5826
▁installed	-5827
▁subreddit	-5828
multiplicity	-5829
▁deserializer	-5830
pem	-5831
self	-5832
cards	-5833
vious	-5834
chassis	-5835
receipt	-5836
checksum	-5837
▁cdxformat	-5838
▁classifier	-5839
▁separation	-5840
du	-5841
ANS	-5842
_1_	-5843
ipa	-5844
ANGE	-5845
posed	-5846
▁east	-5847
▁bills	-5848
▁still	-5849
emitter	-5850
▁inherit	-5851
▁generated	-5852
▁timeinterval	-5853
br	-5854
inux	-5855
lied	-5856
▁CONF	-5857
locked	-5858
▁mtime	-5859
▁invert	-5860
notation	-5861
▁boundary	-5862
▁determin	-5863
mm	-5864
iff	-5865
▁ID	-5866
▁URI	-5867
verse	-5868
▁opttype	-5869
forwarding	-5870
▁validated	-5871
▁completion	-5872
lif	-5873
tcp	-5874
impl	-5875
▁bid	-5876
▁wat	-5877
kwarg	-5878
▁mpls	-5879
▁recon	-5880
magmoms	-5881
▁flatten	-5882
▁indexerID	-5883
BER	-5884
REG	-5885
alg	-5886
pir	-5887
▁NO	-5888
done	-5889
▁hum	-5890
INDEX	-5891
lists	-5892
▁reqs	-5893
origin	-5894
▁north	-5895
▁subset	-5896
classpath	-5897
▁launches	-5898
▁providing	-5899
▁interactive	-5900
enum	-5901
▁did	-5902
▁mgr	-5903
iness	-5904
CREATE	-5905
escape	-5906
review	-5907
▁counts	-5908
▁patient	-5909
▁scaling	-5910
▁sections	-5911
scriptions	-5912
▁preemptable	-5913
▁macromodulation	-5914
dyn	-5915
tex	-5916
Output	-5917
▁exempt	-5918
ildcards	-5919
previous	-5920
▁blocksize	-5921
▁compacted	-5922
▁dFromPort	-5923
▁fieldname	-5924
▁sFromPort	-5925
gg	-5926
ru	-5927
TAG	-5928
acl	-5929
rpf	-5930
▁pc	-5931
INST	-5932
LINE	-5933
User	-5934
▁pem	-5935
async	-5936
dicts	-5937
sheet	-5938
▁atol	-5939
python	-5940
▁avatar	-5941
▁decode	-5942
▁mapper	-5943
Iterator	-5944
▁outside	-5945
▁predict	-5946
▁energies	-5947
▁postdata	-5948
▁verifier	-5949
▁decorator	-5950
OP	-5951
Tr	-5952
Ali	-5953
emu	-5954
sep	-5955
▁nex	-5956
▁logo	-5957
locale	-5958
regist	-5959
replicas	-5960
transform	-5961
▁preamble	-5962
▁rotation	-5963
IVE	-5964
RED	-5965
sim	-5966
anal	-5967
▁tom	-5968
▁pstr	-5969
▁inside	-5970
▁loglevel	-5971
Pri	-5972
pan	-5973
▁EN	-5974
onym	-5975
▁dos	-5976
▁goal	-5977
▁appro	-5978
▁layout	-5979
chronous	-5980
quantity	-5981
▁chunksize	-5982
otp	-5983
▁ln	-5984
▁ls	-5985
_200	-5986
ison	-5987
LEVEL	-5988
ading	-5989
▁side	-5990
▁zoom	-5991
▁dbname	-5992
▁formatt	-5993
▁paginate	-5994
▁apiresource	-5995
ili	-5996
Rule	-5997
pped	-5998
▁INST	-5999
▁draw	-6000
▁avail	-6001
▁markup	-6002
failcount	-6003
containers	-6004
▁dashboard	-6005
▁loadingOptions	-6006
kl	-6007
ox	-6008
FIN	-6009
▁gp	-6010
ancel	-6011
notes	-6012
cepted	-6013
▁logic	-6014
clusion	-6015
fixture	-6016
▁primer	-6017
pipeline	-6018
▁scripts	-6019
▁criterion	-6020
▁preprocessors	-6021
▁requiremetadata	-6022
ios	-6023
▁box	-6024
▁crl	-6025
VALUE	-6026
phinx	-6027
remote	-6028
aterial	-6029
▁colour	-6030
▁inters	-6031
▁keyfile	-6032
▁renderer	-6033
▁acceptable	-6034
▁transformation	-6035
Of	-6036
dock	-6037
frac	-6038
yles	-6039
eting	-6040
ocial	-6041
jimage	-6042
unused	-6043
▁txobj	-6044
unknown	-6045
▁submit	-6046
database	-6047
▁intersphinx	-6048
CUR	-6049
IAL	-6050
cest	-6051
actor	-6052
lower	-6053
▁cron	-6054
Return	-6055
bundle	-6056
limits	-6057
▁panel	-6058
▁ancest	-6059
▁bottom	-6060
▁passwd	-6061
▁tunnel	-6062
▁formats	-6063
▁outcome	-6064
direction	-6065
RU	-6066
sdk	-6067
▁od	-6068
note	-6069
osen	-6070
sect	-6071
▁svg	-6072
▁zen	-6073
maker	-6074
ticks	-6075
▁brain	-6076
written	-6077
▁bareme	-6078
▁repeat	-6079
▁handled	-6080
▁visited	-6081
statement	-6082
notification	-6083
grp	-6084
tile	-6085
▁eid	-6086
▁hdl	-6087
IMAGE	-6088
artbe	-6089
▁affi	-6090
▁vote	-6091
circle	-6092
scoped	-6093
▁album	-6094
▁doseq	-6095
▁qhull	-6096
invalid	-6097
▁netmask	-6098
▁firewall	-6099
▁imported	-6100
pagination	-6101
▁determined	-6102
toks	-6103
▁aux	-6104
▁gin	-6105
▁FILE	-6106
▁each	-6107
▁gzip	-6108
pubkeys	-6109
▁ironic	-6110
▁substr	-6111
▁cmdline	-6112
▁upstream	-6113
▁firestore	-6114
orientation	-6115
▁returncode	-6116
▁associations	-6117
cpu	-6118
zen	-6119
aves	-6120
▁and	-6121
▁pay	-6122
times	-6123
topic	-6124
▁boost	-6125
Variant	-6126
▁generic	-6127
IF	-6128
ASK	-6129
fusc	-6130
vile	-6131
LOGIN	-6132
Model	-6133
spans	-6134
▁west	-6135
▁clone	-6136
fuscated	-6137
▁brokers	-6138
▁labware	-6139
▁specific	-6140
▁websocket	-6141
▁reservation	-6142
iki	-6143
IFIC	-6144
LENG	-6145
Part	-6146
▁iam	-6147
cator	-6148
ensor	-6149
fetch	-6150
▁fmod	-6151
Update	-6152
▁grant	-6153
parison	-6154
▁signer	-6155
▁stepnum	-6156
▁widgets	-6157
callbacks	-6158
▁combined	-6159
extensions	-6160
▁dispatching	-6161
Pr	-6162
dim	-6163
▁cot	-6164
▁eng	-6165
LENGTH	-6166
retrie	-6167
▁alloc	-6168
▁icmpv	-6169
▁theta	-6170
Element	-6171
decimal	-6172
forever	-6173
persist	-6174
▁affili	-6175
▁artist	-6176
▁tagged	-6177
Container	-6178
Len	-6179
▁vel	-6180
ambig	-6181
infos	-6182
agraph	-6183
▁aspir	-6184
▁false	-6185
▁featu	-6186
▁chosen	-6187
▁logged	-6188
▁sensor	-6189
learning	-6190
▁relogin	-6191
▁testnet	-6192
▁workers	-6193
wildcards	-6194
▁feedback	-6195
▁appcenter	-6196
▁languages	-6197
▁simulation	-6198
IES	-6199
eel	-6200
two	-6201
udp	-6202
▁mt	-6203
cohp	-6204
▁COM	-6205
cases	-6206
xpath	-6207
▁stub	-6208
TTINGS	-6209
▁defect	-6210
▁captcha	-6211
▁modifier	-6212
▁threaded	-6213
vo	-6214
64_	-6215
ACT	-6216
lec	-6217
READ	-6218
izard	-6219
uture	-6220
iteral	-6221
▁segwit	-6222
identity	-6223
▁escaped	-6224
▁highest	-6225
▁ethertype	-6226
kt	-6227
All	-6228
UND	-6229
team	-6230
▁xpi	-6231
icipa	-6232
igned	-6233
▁kill	-6234
▁many	-6235
Record	-6236
ordered	-6237
▁censor	-6238
▁linked	-6239
▁realms	-6240
▁findnew	-6241
▁latitude	-6242
▁signatures	-6243
▁sizePolicy	-6244
▁findnewcircle	-6245
PACE	-6246
▁CRE	-6247
▁imdb	-6248
Handler	-6249
▁schemes	-6250
▁streams	-6251
activated	-6252
raft	-6253
etype	-6254
▁hdlr	-6255
RESULT	-6256
empote	-6257
▁zenpy	-6258
balance	-6259
binding	-6260
library	-6261
minutes	-6262
partment	-6263
empotency	-6264
measurement	-6265
▁obfuscated	-6266
▁websession	-6267
▁idempotency	-6268
tab	-6269
RENT	-6270
isig	-6271
week	-6272
Price	-6273
rozen	-6274
▁prov	-6275
nation	-6276
▁fresh	-6277
▁hints	-6278
▁lexer	-6279
▁trash	-6280
▁dirnames	-6281
▁alternate	-6282
pot	-6283
pull	-6284
rott	-6285
▁tcp	-6286
arity	-6287
atoms	-6288
iants	-6289
opened	-6290
▁PANEL	-6291
▁relay	-6292
ADDRESS	-6293
▁numerator	-6294
loadbalancer	-6295
▁submissions	-6296
AV	-6297
BACK	-6298
CERT	-6299
find	-6300
▁cors	-6301
▁rels	-6302
loaders	-6303
▁colors	-6304
Arguments	-6305
▁requestor	-6306
nn	-6307
BRO	-6308
▁FI	-6309
▁ml	-6310
curr	-6311
mean	-6312
Align	-6313
Start	-6314
shift	-6315
▁misp	-6316
▁serv	-6317
▁south	-6318
sections	-6319
▁compile	-6320
▁entrypoint	-6321
EC	-6322
No	-6323
UI	-6324
fr	-6325
509	-6326
lin	-6327
▁ba	-6328
corr	-6329
▁els	-6330
▁was	-6331
▁zer	-6332
▁equal	-6333
▁flush	-6334
CONTENT	-6335
▁adjust	-6336
▁sandbox	-6337
▁enforcer	-6338
▁preferred	-6339
En	-6340
PUB	-6341
dct	-6342
nds	-6343
▁zf	-6344
gacy	-6345
rain	-6346
same	-6347
LOWED	-6348
SPACE	-6349
oname	-6350
▁iops	-6351
oundId	-6352
wallet	-6353
▁micro	-6354
▁extend	-6355
▁permit	-6356
verifier	-6357
▁started	-6358
community	-6359
▁concepts	-6360
▁disambig	-6361
▁pushable	-6362
translator	-6363
10	-6364
▁Se	-6365
▁du	-6366
ette	-6367
▁aug	-6368
season	-6369
velist	-6370
▁basis	-6371
▁disks	-6372
▁hours	-6373
▁offer	-6374
Service	-6375
▁hasher	-6376
▁commits	-6377
▁heading	-6378
▁savelist	-6379
▁formatters	-6380
olid	-6381
multi	-6382
▁nova	-6383
daemon	-6384
▁colle	-6385
samples	-6386
▁capsys	-6387
followed	-6388
▁mystyle	-6389
▁startup	-6390
▁traffic	-6391
▁recordset	-6392
▁requirement	-6393
MAR	-6394
ilo	-6395
rpc	-6396
▁kp	-6397
TERN	-6398
uids	-6399
▁ack	-6400
▁crc	-6401
▁ROOT	-6402
extras	-6403
▁calib	-6404
▁devel	-6405
▁ratio	-6406
▁ready	-6407
ightings	-6408
▁multipart	-6409
▁transactions	-6410
ARD	-6411
▁lf	-6412
eway	-6413
inue	-6414
ANNOT	-6415
ilter	-6416
lying	-6417
screen	-6418
▁clazz	-6419
ordering	-6420
readonly	-6421
releases	-6422
▁errcode	-6423
processor	-6424
▁rw	-6425
WITH	-6426
ouch	-6427
tier	-6428
Match	-6429
ivers	-6430
SCHEMA	-6431
assets	-6432
Content	-6433
PROJECT	-6434
artbeat	-6435
▁leeway	-6436
▁stored	-6437
concepts	-6438
failures	-6439
▁patched	-6440
▁datatype	-6441
structures	-6442
▁extracted	-6443
ARY	-6444
csm	-6445
▁mv	-6446
FileID	-6447
effect	-6448
ulated	-6449
▁tlist	-6450
contact	-6451
▁manual	-6452
▁needle	-6453
forwards	-6454
resolved	-6455
▁tn	-6456
MAIN	-6457
live	-6458
rand	-6459
▁dow	-6460
▁rsa	-6461
▁DATA	-6462
▁recv	-6463
▁codec	-6464
schemas	-6465
scripts	-6466
▁checker	-6467
formatter	-6468
▁statuses	-6469
▁relations	-6470
compression	-6471
nulls	-6472
▁meth	-6473
prompt	-6474
▁linen	-6475
dataset	-6476
queries	-6477
▁docket	-6478
▁recipe	-6479
supplier	-6480
▁pseudos	-6481
▁samples	-6482
▁remainder	-6483
▁composition	-6484
sur	-6485
▁PO	-6486
STER	-6487
andb	-6488
ystem	-6489
▁axes	-6490
▁ERROR	-6491
▁trunc	-6492
FilePath	-6493
fraction	-6494
▁listing	-6495
▁reporter	-6496
▁regexMode	-6497
▁rendition	-6498
▁telemetry	-6499
▁contributing	-6500
authentication	-6501
FOL	-6502
Link	-6503
hits	-6504
INPUT	-6505
INTER	-6506
▁vest	-6507
instant	-6508
capacity	-6509
▁fcoords	-6510
installed	-6511
▁stateful	-6512
▁validmeta	-6513
▁expectation	-6514
kv	-6515
End	-6516
ILI	-6517
▁pv	-6518
bars	-6519
chor	-6520
▁rsc	-6521
alpha	-6522
globs	-6523
▁blue	-6524
▁that	-6525
Filter	-6526
▁roots	-6527
FileName	-6528
▁inputfile	-6529
▁inventory	-6530
▁denominator	-6531
ave	-6532
rot	-6533
game	-6534
roid	-6535
sters	-6536
▁optim	-6537
▁pixel	-6538
▁sweep	-6539
cceeded	-6540
follows	-6541
▁scroll	-6542
Position	-6543
markings	-6544
platform	-6545
sensitive	-6546
▁character	-6547
▁expressions	-6548
UNK	-6549
▁Ex	-6550
COMP	-6551
inja	-6552
uted	-6553
▁xsd	-6554
float	-6555
▁filt	-6556
▁phys	-6557
▁sens	-6558
DELETE	-6559
ablish	-6560
▁anime	-6561
execute	-6562
▁mapped	-6563
▁chunked	-6564
▁grouping	-6565
▁tablefmt	-6566
For	-6567
bid	-6568
fto	-6569
isk	-6570
▁UN	-6571
ceed	-6572
▁bcc	-6573
▁csm	-6574
▁uvw	-6575
▁equi	-6576
▁leaf	-6577
hashes	-6578
lecule	-6579
correct	-6580
updates	-6581
▁staking	-6582
▁participa	-6583
SO	-6584
xy	-6585
NUM	-6586
lis	-6587
ROLE	-6588
uber	-6589
▁jvm	-6590
infor	-6591
▁atoms	-6592
▁hasht	-6593
▁mtype	-6594
▁prime	-6595
ryption	-6596
▁frozen	-6597
▁triple	-6598
implicit	-6599
liseconds	-6600
▁TEMPLATE	-6601
▁excludes	-6602
▁floatfmt	-6603
▁documents	-6604
▁missingval	-6605
▁parentContainer	-6606
Ac	-6607
MON	-6608
▁kk	-6609
▁ol	-6610
DULE	-6611
argv	-6612
flav	-6613
ital	-6614
nest	-6615
rmed	-6616
▁GIT	-6617
▁deg	-6618
▁sms	-6619
▁vms	-6620
Items	-6621
LIMIT	-6622
anent	-6623
erent	-6624
▁defn	-6625
FIELDS	-6626
ilover	-6627
stable	-6628
tables	-6629
▁notes	-6630
▁reest	-6631
▁archiv	-6632
▁offline	-6633
▁plafond	-6634
▁timeline	-6635
▁permanent	-6636
▁cliCommand	-6637
▁placeholder	-6638
▁reestablish	-6639
▁cliArguments	-6640
▁clientIterator	-6641
IM	-6642
ai	-6643
tf	-6644
uli	-6645
▁tv	-6646
ATCH	-6647
PAGE	-6648
aire	-6649
▁asm	-6650
▁det	-6651
alone	-6652
aming	-6653
neigh	-6654
▁areq	-6655
▁ctrl	-6656
Number	-6657
▁qname	-6658
expired	-6659
▁dagster	-6660
▁station	-6661
▁constant	-6662
▁highlight	-6663
▁principal	-6664
▁scrubFunc	-6665
▁cotisation	-6666
bad	-6667
▁xs	-6668
oise	-6669
orpc	-6670
vite	-6671
zero	-6672
▁gmn	-6673
ChatR	-6674
attery	-6675
▁lpath	-6676
▁qcode	-6677
odelist	-6678
xtwoaxis	-6679
▁reversed	-6680
▁duplicate	-6681
▁snapshots	-6682
SY	-6683
▁TO	-6684
Root	-6685
ours	-6686
▁URL	-6687
▁arm	-6688
▁hou	-6689
▁shak	-6690
ATIONS	-6691
ampler	-6692
ansion	-6693
density	-6694
▁getter	-6695
▁quoted	-6696
▁rename	-6697
Specific	-6698
withdraw	-6699
▁filetype	-6700
▁mappings	-6701
requirements	-6702
PH	-6703
Int	-6704
jwt	-6705
▁tm	-6706
VIEW	-6707
dian	-6708
misc	-6709
ogle	-6710
▁win	-6711
angel	-6712
▁plow	-6713
▁quad	-6714
HEADER	-6715
launch	-6716
▁phigh	-6717
attribs	-6718
▁postal	-6719
products	-6720
▁estimate	-6721
▁neighbor	-6722
▁protorpc	-6723
▁different	-6724
▁supercell	-6725
▁department	-6726
▁prereleases	-6727
RC	-6728
rv	-6729
ird	-6730
oke	-6731
ros	-6732
ube	-6733
▁mn	-6734
▁ve	-6735
ancy	-6736
play	-6737
▁evt	-6738
TRIBU	-6739
izers	-6740
metal	-6741
netes	-6742
▁mapt	-6743
▁staker	-6744
argument	-6745
▁regions	-6746
something	-6747
ubernetes	-6748
▁bigchain	-6749
▁floating	-6750
▁notifications	-6751
▁vendorSpecific	-6752
ba	-6753
hd	-6754
hw	-6755
Ent	-6756
▁PA	-6757
ANGU	-6758
Head	-6759
▁bfs	-6760
▁strm	-6761
middle	-6762
subset	-6763
▁atype	-6764
▁outer	-6765
▁wandb	-6766
▁STATUS	-6767
channels	-6768
▁loadkeys	-6769
▁canonical	-6770
▁includeEvent	-6771
RT	-6772
bn	-6773
hem	-6774
▁wd	-6775
cles	-6776
tage	-6777
▁hay	-6778
▁guest	-6779
▁plate	-6780
▁expose	-6781
▁footer	-6782
relative	-6783
▁consist	-6784
▁quoting	-6785
▁longitude	-6786
▁searchable	-6787
UD	-6788
aux	-6789
crs	-6790
▁vb	-6791
push	-6792
rder	-6793
wers	-6794
▁Con	-6795
pipet	-6796
▁TYPE	-6797
▁baud	-6798
button	-6799
cutoff	-6800
ostart	-6801
▁nexth	-6802
▁spacy	-6803
▁voice	-6804
ATTRIBU	-6805
tracker	-6806
branches	-6807
structor	-6808
converter	-6809
▁advanced	-6810
▁alphabet	-6811
operations	-6812
▁artifacts	-6813
▁underlying	-6814
▁instruments	-6815
▁queryparams	-6816
▁individualId	-6817
An	-6818
Pa	-6819
ADC	-6820
ipv	-6821
tri	-6822
vip	-6823
▁ul	-6824
hooks	-6825
pacity	-6826
▁datal	-6827
▁genre	-6828
▁mongo	-6829
brokers	-6830
▁marked	-6831
▁wanted	-6832
▁haystack	-6833
▁negative	-6834
validators	-6835
▁heartbeat	-6836
replacement	-6837
▁transitions	-6838
ldz	-6839
▁ME	-6840
MAND	-6841
pick	-6842
ycle	-6843
Check	-6844
datas	-6845
elete	-6846
posal	-6847
utdown	-6848
▁infra	-6849
onymous	-6850
▁banner	-6851
ChatRoom	-6852
▁privile	-6853
▁subtree	-6854
▁weekday	-6855
sentences	-6856
▁deadline	-6857
▁numalign	-6858
▁singular	-6859
▁stralign	-6860
▁callbacks	-6861
TS	-6862
Row	-6863
cho	-6864
oid	-6865
sou	-6866
▁bl	-6867
▁ib	-6868
seen	-6869
short	-6870
switch	-6871
▁keyed	-6872
LocalId	-6873
▁ending	-6874
granular	-6875
ulations	-6876
▁checked	-6877
distribution	-6878
▁querystring	-6879
▁permutations	-6880
▁NT	-6881
▁na	-6882
erge	-6883
redo	-6884
▁nlu	-6885
Order	-6886
tasks	-6887
▁green	-6888
attempt	-6889
limiter	-6890
▁ingest	-6891
▁joined	-6892
▁nexthop	-6893
dictionary	-6894
▁returning	-6895
▁selection	-6896
▁iswithdraw	-6897
▁J	-6898
ATH	-6899
Ass	-6900
hide	-6901
orld	-6902
rong	-6903
▁pyv	-6904
conda	-6905
estim	-6906
numer	-6907
OBJECT	-6908
flavor	-6909
indexes	-6910
internal	-6911
operator	-6912
permlink	-6913
▁numeric	-6914
▁surface	-6915
▁explicit	-6916
▁retrieve	-6917
granularity	-6918
▁identified	-6919
MT	-6920
gue	-6921
vac	-6922
▁UP	-6923
Attr	-6924
Call	-6925
mday	-6926
▁Key	-6927
▁USE	-6928
▁mes	-6929
ality	-6930
fleet	-6931
stake	-6932
random	-6933
ulator	-6934
▁ewday	-6935
▁facets	-6936
▁prefer	-6937
SETTINGS	-6938
otiation	-6939
▁accepted	-6940
▁coverage	-6941
▁continuation	-6942
▁runtimeContext	-6943
fp	-6944
ENCE	-6945
HTTP	-6946
LICY	-6947
This	-6948
ined	-6949
▁KEY	-6950
▁upd	-6951
QUEST	-6952
bounds	-6953
PARATOR	-6954
formula	-6955
▁SECRET	-6956
positive	-6957
▁discovery	-6958
▁subcommand	-6959
▁tracestate	-6960
▁handlerdata	-6961
32	-6962
WAR	-6963
cwd	-6964
▁sb	-6965
emap	-6966
grpc	-6967
verb	-6968
atory	-6969
equal	-6970
▁bonds	-6971
Allowed	-6972
angelog	-6973
writers	-6974
▁endian	-6975
▁netman	-6976
snapshots	-6977
▁formData	-6978
▁networks	-6979
▁unsigned	-6980
▁classnames	-6981
ALI	-6982
▁jt	-6983
▁lt	-6984
▁rq	-6985
sess	-6986
▁gdf	-6987
joins	-6988
▁topo	-6989
▁trail	-6990
▁legacy	-6991
broadcast	-6992
▁nodelist	-6993
▁additions	-6994
▁translate	-6995
POR	-6996
cel	-6997
dur	-6998
ool	-6999
▁lp	-7000
sizes	-7001
uated	-7002
▁PORT	-7003
▁gram	-7004
PATTERN	-7005
readout	-7006
▁caplog	-7007
▁modify	-7008
▁backends	-7009
▁userinfo	-7010
allocation	-7011
▁pytestmark	-7012
▁commandline	-7013
▁participant	-7014
DIS	-7015
LER	-7016
CKET	-7017
SENT	-7018
oice	-7019
runs	-7020
▁rps	-7021
biter	-7022
▁mand	-7023
▁soap	-7024
ACTION	-7025
ADCAST	-7026
bidden	-7027
▁sigma	-7028
excluded	-7029
itations	-7030
rinkwrap	-7031
verified	-7032
▁consent	-7033
separator	-7034
▁preference	-7035
sci	-7036
uum	-7037
tect	-7038
▁dft	-7039
vised	-7040
▁asgi	-7041
▁sparql	-7042
▁complex	-7043
▁newline	-7044
▁persons	-7045
▁visible	-7046
▁filePath	-7047
▁graphene	-7048
▁tokenizer	-7049
▁confirmations	-7050
EP	-7051
LD	-7052
ader	-7053
disc	-7054
unct	-7055
ivity	-7056
pense	-7057
▁asyn	-7058
FOLDER	-7059
▁SHORT	-7060
▁blank	-7061
▁iface	-7062
▁pyvcf	-7063
Project	-7064
overlap	-7065
▁raster	-7066
▁txhash	-7067
optional	-7068
trackers	-7069
▁bundled	-7070
▁covered	-7071
▁analyzer	-7072
middleware	-7073
▁sanitized	-7074
▁translated	-7075
▁jobStoreFileID	-7076
_5	-7077
KER	-7078
lax	-7079
▁AC	-7080
▁er	-7081
▁dxapp	-7082
Propert	-7083
▁webapp	-7084
▁kubernetes	-7085
▁collections	-7086
alf	-7087
avg	-7088
▁lm	-7089
apps	-7090
ners	-7091
▁lll	-7092
ormsg	-7093
▁qemu	-7094
▁team	-7095
▁thet	-7096
▁vdom	-7097
▁netns	-7098
ReadGroup	-7099
▁errormsg	-7100
▁nullValue	-7101
ho	-7102
ons	-7103
▁eq	-7104
STOM	-7105
▁eta	-7106
▁sas	-7107
epoch	-7108
▁impl	-7109
▁swday	-7110
inspect	-7111
runtime	-7112
working	-7113
▁pclose	-7114
statuses	-7115
▁folders	-7116
selectors	-7117
supported	-7118
▁subtitle	-7119
▁checkpoint	-7120
▁restricted	-7121
▁structures	-7122
cup	-7123
mig	-7124
▁rx	-7125
FORM	-7126
calc	-7127
vide	-7128
FILES	-7129
Image	-7130
iator	-7131
owels	-7132
▁evts	-7133
scroll	-7134
▁cname	-7135
ANGUAGE	-7136
restart	-7137
▁consum	-7138
▁rating	-7139
projects	-7140
▁ALLOWED	-7141
▁arbiter	-7142
▁datadir	-7143
▁validity	-7144
▁retrieved	-7145
association	-7146
Ns	-7147
lc	-7148
oft	-7149
ots	-7150
png	-7151
▁HE	-7152
Auth	-7153
ROOM	-7154
lazy	-7155
seng	-7156
▁equ	-7157
▁gas	-7158
▁LIST	-7159
▁hits	-7160
▁devid	-7161
workdir	-7162
▁atomic	-7163
envelope	-7164
▁unspent	-7165
▁molecule	-7166
protection	-7167
Met	-7168
rly	-7169
▁dy	-7170
▁pm	-7171
bond	-7172
menu	-7173
tail	-7174
▁alg	-7175
▁sip	-7176
▁tin	-7177
Query	-7178
cture	-7179
▁errs	-7180
ecycle	-7181
kpoint	-7182
pixels	-7183
▁dates	-7184
▁fatal	-7185
Account	-7186
FORMATS	-7187
sidebars	-7188
distorted	-7189
▁filesize	-7190
▁decrypted	-7191
▁frequency	-7192
With	-7193
glob	-7194
▁ctr	-7195
▁eln	-7196
▁uni	-7197
TRANS	-7198
▁MOCK	-7199
▁STAT	-7200
plural	-7201
shared	-7202
signing	-7203
support	-7204
▁anchor	-7205
▁waiter	-7206
ThisFile	-7207
national	-7208
▁cssutils	-7209
▁episodes	-7210
▁accessible	-7211
▁intermediates	-7212
BFC	-7213
GIN	-7214
Tag	-7215
clo	-7216
gap	-7217
ands	-7218
▁eps	-7219
escri	-7220
ually	-7221
▁dgst	-7222
▁plot	-7223
▁tour	-7224
colors	-7225
issues	-7226
▁until	-7227
batches	-7228
scaling	-7229
▁paging	-7230
▁DATABASE	-7231
▁symmetrize	-7232
compatibility	-7233
gw	-7234
pv	-7235
▁Z	-7236
MAL	-7237
aff	-7238
ifs	-7239
mor	-7240
teq	-7241
txn	-7242
▁CS	-7243
STEM	-7244
stri	-7245
▁pet	-7246
▁rna	-7247
▁acct	-7248
▁ddoc	-7249
▁imag	-7250
▁spot	-7251
▁when	-7252
METHOD	-7253
aggreg	-7254
ligand	-7255
▁seteq	-7256
▁queued	-7257
testcase	-7258
▁cdxline	-7259
BROADCAST	-7260
SEPARATOR	-7261
propnames	-7262
▁creating	-7263
escription	-7264
▁exclusive	-7265
destination	-7266
▁activities	-7267
DEP	-7268
▁SY	-7269
FLOW	-7270
RECT	-7271
ango	-7272
decl	-7273
▁NUM	-7274
▁ann	-7275
▁clz	-7276
▁vul	-7277
allow	-7278
under	-7279
SERVICE	-7280
▁forget	-7281
multiple	-7282
Broadcast	-7283
providers	-7284
requested	-7285
▁mutation	-7286
presentation	-7287
dig	-7288
eno	-7289
hub	-7290
▁ot	-7291
Bank	-7292
▁veh	-7293
shots	-7294
▁chem	-7295
▁util	-7296
PECTED	-7297
backup	-7298
jected	-7299
macros	-7300
posite	-7301
▁cycle	-7302
▁dicts	-7303
article	-7304
enefici	-7305
specific	-7306
▁vehicle	-7307
▁smoothie	-7308
serialized	-7309
▁forbidden	-7310
▁production	-7311
▁international	-7312
AML	-7313
COR	-7314
ENV	-7315
Map	-7316
▁xx	-7317
Comp	-7318
▁PRE	-7319
▁inb	-7320
▁vsc	-7321
linic	-7322
▁READ	-7323
▁bidd	-7324
▁ovdc	-7325
encode	-7326
ermark	-7327
▁netid	-7328
▁called	-7329
▁filled	-7330
currency	-7331
▁posting	-7332
whitespace	-7333
▁fileStore	-7334
Su	-7335
nbs	-7336
▁fb	-7337
▁jw	-7338
LISH	-7339
inte	-7340
loss	-7341
soup	-7342
Quant	-7343
shell	-7344
sthru	-7345
▁elig	-7346
senger	-7347
▁sound	-7348
oclinic	-7349
tenance	-7350
▁emails	-7351
▁paused	-7352
Projects	-7353
▁hashtag	-7354
▁logfile	-7355
▁txindex	-7356
▁contains	-7357
▁processing	-7358
FS	-7359
WS	-7360
Add	-7361
QUE	-7362
cmm	-7363
gth	-7364
hdr	-7365
oco	-7366
▁BG	-7367
expi	-7368
star	-7369
▁exe	-7370
MENTS	-7371
▁sqrt	-7372
Parser	-7373
Message	-7374
▁packed	-7375
consumed	-7376
▁matcher	-7377
▁proceed	-7378
▁creative	-7379
monoclinic	-7380
▁estimated	-7381
negotiation	-7382
▁automation	-7383
▁cookiefile	-7384
IR	-7385
div	-7386
Base	-7387
cidr	-7388
etag	-7389
icip	-7390
mium	-7391
▁rem	-7392
Names	-7393
Parse	-7394
black	-7395
denom	-7396
mento	-7397
solid	-7398
▁prec	-7399
▁vnic	-7400
▁zero	-7401
Script	-7402
▁small	-7403
▁atomno	-7404
▁hourly	-7405
▁obatom	-7406
CHATROOM	-7407
▁creator	-7408
▁equation	-7409
▁observed	-7410
▁problems	-7411
restricted	-7412
▁fieldnames	-7413
▁standalone	-7414
CLO	-7415
bus	-7416
▁bb	-7417
high	-7418
oder	-7419
▁SUB	-7420
▁pth	-7421
quote	-7422
▁calc	-7423
▁hmac	-7424
vacuum	-7425
▁abort	-7426
▁chart	-7427
consumer	-7428
▁average	-7429
▁kpoints	-7430
▁opacity	-7431
▁benefici	-7432
▁variation	-7433
▁jobStoreID	-7434
▁multiplier	-7435
▁percentage	-7436
deserializer	-7437
Bu	-7438
IZ	-7439
wl	-7440
dio	-7441
exe	-7442
▁CA	-7443
PARA	-7444
Temp	-7445
ache	-7446
inds	-7447
urns	-7448
▁bag	-7449
▁had	-7450
▁lem	-7451
▁qid	-7452
AMPLE	-7453
LABEL	-7454
const	-7455
suite	-7456
▁HOST	-7457
▁Text	-7458
▁dont	-7459
▁grou	-7460
Length	-7461
ftover	-7462
notify	-7463
▁infos	-7464
▁recom	-7465
▁broken	-7466
▁follows	-7467
progressbar	-7468
fq	-7469
crd	-7470
LASS	-7471
fied	-7472
▁srs	-7473
ALLED	-7474
ITION	-7475
built	-7476
dynam	-7477
stdin	-7478
wares	-7479
▁dens	-7480
▁tiny	-7481
SEARCH	-7482
STRING	-7483
▁draft	-7484
lements	-7485
marking	-7486
▁reward	-7487
▁jobGraph	-7488
classified	-7489
▁datamodel	-7490
▁presorted	-7491
App	-7492
bra	-7493
bonds	-7494
▁Base	-7495
altern	-7496
benefi	-7497
forces	-7498
▁accum	-7499
▁cores	-7500
▁vlans	-7501
▁CREATE	-7502
▁hashes	-7503
datasets	-7504
▁openapi	-7505
▁rounded	-7506
exclusive	-7507
▁producer	-7508
▁proposal	-7509
dependency	-7510
▁messenger	-7511
subscription	-7512
18	-7513
si	-7514
DIA	-7515
▁AN	-7516
▁OR	-7517
chat	-7518
cmds	-7519
pare	-7520
▁ADD	-7521
▁EXT	-7522
▁chg	-7523
▁nmr	-7524
rottle	-7525
router	-7526
topics	-7527
valent	-7528
▁VALID	-7529
regions	-7530
positions	-7531
▁nestdirs	-7532
▁shakemap	-7533
▁symmetry	-7534
▁permitted	-7535
▁substring	-7536
▁middlewares	-7537
▁replication	-7538
he	-7539
pw	-7540
DAY	-7541
MAN	-7542
UTE	-7543
pdb	-7544
▁mb	-7545
NODE	-7546
▁nth	-7547
occur	-7548
▁elts	-7549
▁ping	-7550
UPLOAD	-7551
ascade	-7552
formed	-7553
feature	-7554
pipette	-7555
▁orient	-7556
citation	-7557
▁upgrade	-7558
▁aspirate	-7559
▁failover	-7560
▁webhooks	-7561
▁tokenfile	-7562
▁duplicates	-7563
▁serialization	-7564
▁substitutions	-7565
IV	-7566
can	-7567
chan	-7568
ilon	-7569
▁grp	-7570
▁ivy	-7571
recur	-7572
▁chro	-7573
▁extr	-7574
▁fqfn	-7575
oliday	-7576
▁double	-7577
limiting	-7578
particip	-7579
▁bytestr	-7580
▁isError	-7581
IFICATION	-7582
▁datafile	-7583
▁polarity	-7584
processors	-7585
▁authority	-7586
▁lifecycle	-7587
▁timeframe	-7588
▁jsonString	-7589
▁contributor	-7590
Un	-7591
mu	-7592
IND	-7593
urs	-7594
tant	-7595
▁bob	-7596
▁kms	-7597
▁pul	-7598
abels	-7599
final	-7600
▁delu	-7601
▁quil	-7602
▁tidx	-7603
specie	-7604
styles	-7605
▁votes	-7606
▁zones	-7607
dirpath	-7608
polling	-7609
▁django	-7610
▁finder	-7611
▁macros	-7612
▁ranges	-7613
PreParse	-7614
confirmed	-7615
connector	-7616
▁biddable	-7617
▁followed	-7618
▁iteration	-7619
▁paginator	-7620
▁folderType	-7621
▁callPreParse	-7622
MY	-7623
fst	-7624
▁ys	-7625
Args	-7626
▁air	-7627
▁anc	-7628
▁pex	-7629
cores	-7630
https	-7631
tweet	-7632
expire	-7633
planes	-7634
▁icohp	-7635
▁wheel	-7636
▁retain	-7637
▁spacer	-7638
bindings	-7639
▁answers	-7640
▁friends	-7641
▁grammer	-7642
▁attrName	-7643
Alignments	-7644
▁configpaths	-7645
ji	-7646
SUP	-7647
dic	-7648
snd	-7649
ves	-7650
▁kb	-7651
CONN	-7652
havi	-7653
idge	-7654
racy	-7655
▁bet	-7656
▁egg	-7657
▁gid	-7658
▁pci	-7659
CHECK	-7660
▁caps	-7661
▁defs	-7662
System	-7663
▁inFile	-7664
▁kpoint	-7665
▁indexes	-7666
▁printer	-7667
▁privkey	-7668
▁EXPECTED	-7669
▁election	-7670
▁kwreader	-7671
▁subfield	-7672
experiment	-7673
▁indicator	-7674
▁plaintext	-7675
▁comparison	-7676
▁destFolder	-7677
▁timeperiod	-7678
▁translations	-7679
WEB	-7680
dat	-7681
hip	-7682
DUCT	-7683
lyph	-7684
msgs	-7685
▁Get	-7686
▁hkl	-7687
PORTED	-7688
tester	-7689
console	-7690
cupancy	-7691
▁forced	-7692
▁infile	-7693
▁appname	-7694
▁arcname	-7695
▁buckets	-7696
▁paralle	-7697
▁urljoin	-7698
▁tilesize	-7699
▁baremetal	-7700
▁mandatory	-7701
▁watermark	-7702
▁affiliation	-7703
▁loadingContext	-7704
VO	-7705
SIG	-7706
▁hs	-7707
▁ww	-7708
ITEM	-7709
EVENT	-7710
MODEL	-7711
▁LONG	-7712
▁pose	-7713
▁msgid	-7714
INVALID	-7715
▁dialog	-7716
▁margin	-7717
▁passes	-7718
▁varname	-7719
▁blocking	-7720
▁standards	-7721
permutation	-7722
▁multiplicity	-7723
Fn	-7724
ToF	-7725
chg	-7726
uff	-7727
▁ff	-7728
arie	-7729
▁FOR	-7730
▁inf	-7731
▁uin	-7732
▁comb	-7733
▁heat	-7734
▁sell	-7735
curacy	-7736
lasses	-7737
▁noise	-7738
matching	-7739
processes	-7740
▁inputdata	-7741
▁loadtoken	-7742
▁reffields	-7743
▁urlfields	-7744
▁maintenance	-7745
Dn	-7746
256	-7747
ATTR	-7748
LTER	-7749
enus	-7750
font	-7751
ices	-7752
▁RET	-7753
▁like	-7754
needed	-7755
pointer	-7756
suggest	-7757
▁doping	-7758
▁preloc	-7759
▁cascade	-7760
▁subfile	-7761
listeners	-7762
▁unpacked	-7763
constraint	-7764
▁containerId	-7765
▁includeThisFile	-7766
prim	-7767
true	-7768
▁cam	-7769
▁rng	-7770
▁sgr	-7771
analy	-7772
saved	-7773
▁craw	-7774
▁fldr	-7775
Format	-7776
append	-7777
▁Image	-7778
▁socks	-7779
▁touch	-7780
▁world	-7781
patches	-7782
▁linter	-7783
describe	-7784
▁idString	-7785
▁configure	-7786
▁generation	-7787
▁identities	-7788
Man	-7789
Otp	-7790
PRI	-7791
▁CP	-7792
CEPT	-7793
epgs	-7794
▁bib	-7795
▁rsv	-7796
ABLED	-7797
START	-7798
chemy	-7799
▁flip	-7800
▁ment	-7801
POLICY	-7802
chanis	-7803
liance	-7804
reduce	-7805
select	-7806
▁court	-7807
▁dists	-7808
▁vesta	-7809
▁vport	-7810
catalog	-7811
▁dispval	-7812
▁globals	-7813
▁tarinfo	-7814
▁debugger	-7815
converters	-7816
shrinkwrap	-7817
▁versionId	-7818
SU	-7819
VAR	-7820
dup	-7821
lag	-7822
lev	-7823
ris	-7824
▁bz	-7825
Line	-7826
▁TAG	-7827
▁vcs	-7828
▁wal	-7829
Trans	-7830
alloc	-7831
▁CONT	-7832
▁prep	-7833
▁rcpt	-7834
chunks	-7835
doping	-7836
▁edict	-7837
▁humid	-7838
▁quant	-7839
AILABLE	-7840
alchemy	-7841
▁tested	-7842
networks	-7843
▁overlay	-7844
▁premium	-7845
▁injector	-7846
deployment	-7847
deprecated	-7848
encryption	-7849
▁authenticated	-7850
Ad	-7851
sat	-7852
▁Un	-7853
aker	-7854
diel	-7855
neut	-7856
ouds	-7857
▁nom	-7858
▁pfw	-7859
▁sem	-7860
▁sts	-7861
avail	-7862
produ	-7863
voter	-7864
▁Test	-7865
▁emon	-7866
▁nics	-7867
▁smon	-7868
potcar	-7869
▁light	-7870
▁loops	-7871
cookies	-7872
▁defuse	-7873
▁scores	-7874
SREQUEST	-7875
filtered	-7876
▁privacy	-7877
▁revisit	-7878
▁support	-7879
▁ancestor	-7880
▁assignee	-7881
▁material	-7882
▁prefixed	-7883
compatible	-7884
▁exclusion	-7885
▁compoundId	-7886
▁archivetype	-7887
▁subdocument	-7888
58_	-7889
▁et	-7890
APPS	-7891
here	-7892
▁yes	-7893
ENTRY	-7894
LOCAL	-7895
linux	-7896
▁sage	-7897
▁throw	-7898
preamble	-7899
▁operand	-7900
functions	-7901
succeeded	-7902
▁accessId	-7903
▁nodeType	-7904
▁pythonic	-7905
▁accessKey	-7906
▁changelog	-7907
▁intersect	-7908
▁paragraph	-7909
▁recording	-7910
▁sensitive	-7911
▁tokenized	-7912
▁qualifiers	-7913
▁constraints	-7914
hn	-7915
CIT	-7916
ORS	-7917
pex	-7918
ague	-7919
meth	-7920
▁COL	-7921
▁cel	-7922
Lines	-7923
clone	-7924
nsion	-7925
orary	-7926
trunc	-7927
digits	-7928
▁hooks	-7929
▁subkey	-7930
lanation	-7931
blacklist	-7932
▁backness	-7933
▁populate	-7934
Properties	-7935
▁collector	-7936
▁localized	-7937
▁capability	-7938
▁ciphertext	-7939
▁renditions	-7940
▁authorpermvoter	-7941
fx	-7942
Cor	-7943
SPE	-7944
fla	-7945
tgt	-7946
hape	-7947
rift	-7948
tein	-7949
basis	-7950
click	-7951
forms	-7952
pauth	-7953
▁echo	-7954
CHANGE	-7955
Legacy	-7956
native	-7957
▁descr	-7958
unction	-7959
▁filler	-7960
▁codeuri	-7961
▁collect	-7962
▁mutually	-7963
▁audiences	-7964
▁syllables	-7965
disposition	-7966
▁continuous	-7967
▁supervised	-7968
▁DESCRIPTION	-7969
▁explanation	-7970
FE	-7971
SA	-7972
hy	-7973
▁gh	-7974
▁nz	-7975
Work	-7976
▁mot	-7977
SSION	-7978
▁Gdot	-7979
▁incr	-7980
▁mong	-7981
▁news	-7982
▁pvdc	-7983
▁hello	-7984
▁jinja	-7985
▁union	-7986
imports	-7987
▁levels	-7988
▁otpval	-7989
LOCATION	-7990
Resource	-7991
proppath	-7992
▁closest	-7993
▁summand	-7994
▁Gdotdiel	-7995
▁dispense	-7996
▁pathname	-7997
▁supplier	-7998
assertions	-7999
▁resolvers	-8000
▁startDate	-8001
▁checklinks	-8002
▁subpackage	-8003
▁alternative	-8004
▁arrproppath	-8005
▁customization	-8006
▁encodedLocalId	-8007
mas	-8008
▁qi	-8009
CONF	-8010
stal	-8011
uite	-8012
▁mar	-8013
taboo	-8014
▁FAKE	-8015
▁apis	-8016
▁fobj	-8017
▁none	-8018
▁simp	-8019
▁party	-8020
▁texts	-8021
▁STATIC	-8022
▁destdir	-8023
▁folderId	-8024
▁scansion	-8025
Expression	-8026
multiplier	-8027
application	-8028
▁unfollowed	-8029
transactions	-8030
▁assignments	-8031
BR	-8032
gb	-8033
STO	-8034
far	-8035
fcs	-8036
tip	-8037
▁ov	-8038
HASH	-8039
drop	-8040
jars	-8041
▁fip	-8042
▁ram	-8043
▁xyz	-8044
appro	-8045
aring	-8046
noise	-8047
▁shep	-8048
▁wsdl	-8049
decode	-8050
levels	-8051
▁leech	-8052
▁modes	-8053
example	-8054
signers	-8055
▁manage	-8056
campaign	-8057
▁company	-8058
▁decoders	-8059
▁multisig	-8060
▁reorient	-8061
▁implement	-8062
▁statuscode	-8063
▁consistency	-8064
▁timeperiods	-8065
▁asynchronous	-8066
bl	-8067
mf	-8068
STAT	-8069
Uuid	-8070
cers	-8071
▁buy	-8072
▁nme	-8073
agree	-8074
avasc	-8075
break	-8076
crete	-8077
▁taux	-8078
▁wiki	-8079
OtpVal	-8080
▁sizes	-8081
▁spell	-8082
▁vargs	-8083
country	-8084
▁cacert	-8085
▁tracer	-8086
continue	-8087
▁futures	-8088
▁scatter	-8089
avascript	-8090
movements	-8091
▁anOtpVal	-8092
▁supports	-8093
▁questions	-8094
▁serviceNs	-8095
▁aggregation	-8096
▁redistribution	-8097
CL	-8098
MD	-8099
ULL	-8100
USE	-8101
ATEG	-8102
stmt	-8103
▁MIN	-8104
Types	-8105
▁rosy	-8106
DIRECT	-8107
cached	-8108
ceiver	-8109
within	-8110
▁alist	-8111
▁autod	-8112
▁ender	-8113
▁gapic	-8114
▁third	-8115
basedir	-8116
benefit	-8117
▁copied	-8118
▁issued	-8119
▁maxlen	-8120
▁steemd	-8121
assigned	-8122
▁backing	-8123
▁colname	-8124
▁reading	-8125
interfaces	-8126
▁associated	-8127
▁velocities	-8128
▁permutation	-8129
tracebackhide	-8130
▁postprocessors	-8131
OO	-8132
OFF	-8133
Tags	-8134
etic	-8135
ouse	-8136
▁neb	-8137
▁rpm	-8138
delim	-8139
illed	-8140
pread	-8141
rizer	-8142
stone	-8143
allest	-8144
anding	-8145
▁purge	-8146
▁rdict	-8147
▁spans	-8148
▁utils	-8149
patient	-8150
▁latency	-8151
principal	-8152
▁clusters	-8153
cr	-8154
fds	-8155
mis	-8156
▁fr	-8157
▁pd	-8158
LACK	-8159
TAIL	-8160
▁ads	-8161
▁cms	-8162
▁ope	-8163
Rules	-8164
dates	-8165
▁jwks	-8166
Fields	-8167
Levels	-8168
common	-8169
packet	-8170
tuples	-8171
▁REQUI	-8172
▁cross	-8173
▁defer	-8174
▁lemma	-8175
▁prior	-8176
▁rerun	-8177
ACCOUNT	-8178
Enabled	-8179
partial	-8180
slashes	-8181
▁SYSTEM	-8182
conflict	-8183
sthrough	-8184
▁categor	-8185
▁montant	-8186
▁patches	-8187
Reference	-8188
assertion	-8189
▁isLegacy	-8190
▁anonymous	-8191
▁operators	-8192
▁qualified	-8193
fingerprint	-8194
▁suggestion	-8195
UL	-8196
IMP	-8197
▁OB	-8198
▁hg	-8199
tabs	-8200
▁atr	-8201
▁mms	-8202
▁rst	-8203
espan	-8204
instr	-8205
preds	-8206
upper	-8207
▁PATH	-8208
▁film	-8209
▁idle	-8210
▁wall	-8211
CUMENT	-8212
ancell	-8213
▁waves	-8214
▁avalue	-8215
▁cancel	-8216
▁celery	-8217
▁pushed	-8218
▁scales	-8219
▁sortby	-8220
▁titles	-8221
FILENAME	-8222
▁stories	-8223
PageToken	-8224
▁headline	-8225
▁playbook	-8226
▁serialno	-8227
compressed	-8228
deactivated	-8229
▁containing	-8230
▁originator	-8231
▁requestStr	-8232
TV	-8233
acc	-8234
pbs	-8235
▁jd	-8236
herd	-8237
semb	-8238
▁SQL	-8239
▁aci	-8240
▁adj	-8241
acher	-8242
oauth	-8243
▁GITS	-8244
▁bank	-8245
▁dims	-8246
atives	-8247
▁verbs	-8248
aration	-8249
meeting	-8250
sysmeta	-8251
activity	-8252
register	-8253
▁eventid	-8254
▁longest	-8255
▁lookups	-8256
▁portstr	-8257
serialize	-8258
▁restrict	-8259
▁shepherd	-8260
▁truncated	-8261
▁subelement	-8262
▁invalidation	-8263
mq	-8264
rw	-8265
GRA	-8266
NAL	-8267
ght	-8268
nat	-8269
ngr	-8270
▁nw	-8271
▁xt	-8272
make	-8273
rees	-8274
▁dsn	-8275
▁lab	-8276
▁sqs	-8277
▁vac	-8278
agged	-8279
ounce	-8280
▁epgs	-8281
sender	-8282
strain	-8283
▁ocras	-8284
▁oport	-8285
eration	-8286
ignored	-8287
rations	-8288
salarie	-8289
segments	-8290
▁literal	-8291
▁followers	-8292
▁maxReturn	-8293
▁ocrasuite	-8294
▁reconnect	-8295
▁availability	-8296
FB	-8297
IGN	-8298
Mem	-8299
UTO	-8300
gas	-8301
hit	-8302
▁DB	-8303
▁xm	-8304
STRU	-8305
quot	-8306
micro	-8307
raper	-8308
ulary	-8309
▁blow	-8310
▁diag	-8311
▁geth	-8312
docker	-8313
miller	-8314
ttribu	-8315
▁dname	-8316
▁jobID	-8317
OPTIONS	-8318
voltage	-8319
▁naming	-8320
▁requis	-8321
CITATION	-8322
feedback	-8323
▁detours	-8324
▁payment	-8325
▁polling	-8326
▁attrname	-8327
▁numFiles	-8328
▁corrected	-8329
▁divisible	-8330
▁extractor	-8331
▁protocols	-8332
▁compoundIdStr	-8333
▁pluginmanager	-8334
_6	-8335
200	-8336
duo	-8337
fit	-8338
upy	-8339
▁eh	-8340
CTOR	-8341
MISS	-8342
defn	-8343
sock	-8344
thin	-8345
▁bus	-8346
addrs	-8347
clear	-8348
conse	-8349
flare	-8350
▁COMP	-8351
UNTIME	-8352
export	-8353
sorted	-8354
spaces	-8355
upyter	-8356
▁jdata	-8357
Attribu	-8358
▁escrow	-8359
▁potcar	-8360
PERATION	-8361
▁docRoot	-8362
▁recomme	-8363
▁subclass	-8364
unctuation	-8365
▁indexname	-8366
▁cloudflare	-8367
▁responseData	-8368
▁subscriptions	-8369
ij	-8370
ANT	-8371
Mod	-8372
PID	-8373
bre	-8374
rai	-8375
vif	-8376
Mock	-8377
bors	-8378
▁ear	-8379
▁inx	-8380
▁pen	-8381
Range	-8382
frags	-8383
marks	-8384
orded	-8385
▁coef	-8386
▁cohp	-8387
▁jars	-8388
▁reth	-8389
▁wind	-8390
Domain	-8391
broken	-8392
isfied	-8393
social	-8394
▁clock	-8395
▁infer	-8396
keyword	-8397
parents	-8398
relpath	-8399
replies	-8400
tlement	-8401
viation	-8402
▁dotted	-8403
▁indict	-8404
EREQUEST	-8405
▁letters	-8406
▁contacts	-8407
▁cropping	-8408
ANNOTATION	-8409
annotation	-8410
▁invalidate	-8411
ratelimiting	-8412
NC	-8413
fw	-8414
ga	-8415
Num	-8416
Qry	-8417
tim	-8418
war	-8419
▁IS	-8420
Jobs	-8421
THON	-8422
▁cov	-8423
▁mat	-8424
TABLE	-8425
cross	-8426
▁OPEN	-8427
▁nets	-8428
▁pxhd	-8429
DEVICE	-8430
ENSION	-8431
alerts	-8432
lastic	-8433
▁badge	-8434
▁eigen	-8435
▁orbit	-8436
▁piece	-8437
▁synon	-8438
▁wrong	-8439
chanism	-8440
▁CLIENT	-8441
▁league	-8442
▁pyfunc	-8443
▁mongodb	-8444
▁mystring	-8445
▁smallest	-8446
▁startpos	-8447
▁decorated	-8448
▁resampler	-8449
▁evaluation	-8450
▁correlation	-8451
▁numAlignments	-8452
▁Q	-8453
ICE	-8454
Sub	-8455
cry	-8456
ove	-8457
wwn	-8458
lave	-8459
▁fin	-8460
▁mal	-8461
bases	-8462
hemer	-8463
learn	-8464
▁vert	-8465
SENTRY	-8466
itable	-8467
ources	-8468
passed	-8469
▁avoid	-8470
▁repla	-8471
domains	-8472
holiday	-8473
keyname	-8474
logfile	-8475
▁agents	-8476
▁clouds	-8477
▁opener	-8478
callable	-8479
sessions	-8480
▁toolkit	-8481
detection	-8482
▁counters	-8483
▁primtype	-8484
▁flattened	-8485
▁dockerfile	-8486
probabilities	-8487
▁transcription	-8488
ux	-8489
AME	-8490
DED	-8491
NEL	-8492
▁bf	-8493
▁lv	-8494
▁qr	-8495
eval	-8496
oose	-8497
▁BGP	-8498
▁msn	-8499
METRI	-8500
cells	-8501
ntime	-8502
thumb	-8503
▁BLOB	-8504
▁snag	-8505
▁swap	-8506
angles	-8507
vector	-8508
▁TOKEN	-8509
▁board	-8510
▁mixin	-8511
▁react	-8512
offline	-8513
▁chrome	-8514
▁forest	-8515
▁shrink	-8516
contexts	-8517
finished	-8518
▁argspec	-8519
▁buffers	-8520
multipath	-8521
▁DATETIME	-8522
▁syllable	-8523
velocities	-8524
coefficient	-8525
▁activation	-8526
▁linenumber	-8527
▁indentation	-8528
REF	-8529
pay	-8530
▁TH	-8531
Expr	-8532
Last	-8533
adow	-8534
hard	-8535
rise	-8536
▁ami	-8537
▁iat	-8538
▁irp	-8539
▁ont	-8540
alive	-8541
cidrs	-8542
coeff	-8543
small	-8544
▁surt	-8545
modify	-8546
▁rpath	-8547
central	-8548
convert	-8549
TypeType	-8550
negative	-8551
▁numbers	-8552
▁scraper	-8553
▁inserted	-8554
▁unmatched	-8555
associations	-8556
▁directories	-8557
sq	-8558
eph	-8559
CHED	-8560
ents	-8561
half	-8562
repl	-8563
separ	-8564
video	-8565
▁issu	-8566
Invest	-8567
Parame	-8568
overed	-8569
resolve	-8570
▁SERVER	-8571
▁border	-8572
▁optname	-8573
▁subdirs	-8574
satisfied	-8575
▁amphorae	-8576
▁dynamips	-8577
▁homepage	-8578
▁releases	-8579
▁untagged	-8580
▁tokenobject	-8581
representation	-8582
Lo	-8583
OS	-8584
BLE	-8585
▁ta	-8586
CHAR	-8587
Hash	-8588
ades	-8589
cpus	-8590
NAMES	-8591
Width	-8592
force	-8593
▁irpp	-8594
▁slic	-8595
letter	-8596
scores	-8597
▁fixup	-8598
▁scala	-8599
METHODS	-8600
Results	-8601
sclient	-8602
▁claims	-8603
▁interr	-8604
▁padded	-8605
Instance	-8606
shutdown	-8607
▁distgit	-8608
▁nextseq	-8609
▁rethink	-8610
▁iterargs	-8611
▁nthreads	-8612
▁sourcefile	-8613
▁spacerItem	-8614
▁extrafields	-8615
IE	-8616
AIN	-8617
VID	-8618
▁WS	-8619
DICT	-8620
subj	-8621
▁DIS	-8622
▁div	-8623
▁ful	-8624
▁gpu	-8625
▁htt	-8626
Child	-8627
EMAIL	-8628
Ident	-8629
oring	-8630
vault	-8631
▁issn	-8632
▁omit	-8633
▁perf	-8634
LEMENT	-8635
Params	-8636
ToFrag	-8637
layers	-8638
quired	-8639
wizard	-8640
▁digit	-8641
▁hexed	-8642
▁lease	-8643
▁meter	-8644
▁detect	-8645
▁helper	-8646
▁rights	-8647
▁stopOn	-8648
Filename	-8649
Metadata	-8650
▁symlink	-8651
▁teacher	-8652
▁vcenter	-8653
struction	-8654
▁exported	-8655
attachment	-8656
categories	-8657
initializer	-8658
interceptor	-8659
▁equivalent	-8660
▁httpserver	-8661
▁applyToFrag	-8662
▁parameterSet	-8663
PC	-8664
leg	-8665
mes	-8666
▁ey	-8667
conc	-8668
desk	-8669
ples	-8670
very	-8671
▁cas	-8672
▁mtu	-8673
assoc	-8674
▁bins	-8675
▁ceph	-8676
▁hold	-8677
IDType	-8678
PROPER	-8679
Search	-8680
keyfile	-8681
webhook	-8682
▁dltile	-8683
▁vowels	-8684
LICATION	-8685
addition	-8686
petition	-8687
▁recover	-8688
formatted	-8689
locations	-8690
▁captured	-8691
▁injection	-8692
Description	-8693
▁configured	-8694
▁subproject	-8695
qn	-8696
▁hp	-8697
▁mr	-8698
ASSE	-8699
NOWN	-8700
odir	-8701
rons	-8702
▁wwn	-8703
BLOCK	-8704
ITHUB	-8705
descr	-8706
llfcs	-8707
Associ	-8708
MODULE	-8709
▁bigip	-8710
▁marks	-8711
▁seeds	-8712
CLUSTER	-8713
pauthor	-8714
▁bugids	-8715
▁docked	-8716
▁negate	-8717
INTERVAL	-8718
Investor	-8719
incident	-8720
sentence	-8721
▁prepend	-8722
▁tmpfile	-8723
protocols	-8724
▁compiled	-8725
▁tcpRules	-8726
▁appauthor	-8727
▁beginning	-8728
▁hostgroup	-8729
Sh	-8730
ami	-8731
uil	-8732
▁nc	-8733
Only	-8734
plot	-8735
ssml	-8736
umes	-8737
▁LIN	-8738
▁ben	-8739
▁hba	-8740
▁how	-8741
Input	-8742
ching	-8743
inted	-8744
odies	-8745
▁chan	-8746
▁igor	-8747
▁memb	-8748
▁solr	-8749
▁symb	-8750
▁toil	-8751
SECRET	-8752
apters	-8753
ironic	-8754
latest	-8755
▁comma	-8756
▁drive	-8757
Product	-8758
▁DELETE	-8759
excludes	-8760
icRegion	-8761
▁calling	-8762
▁central	-8763
▁periods	-8764
▁returns	-8765
▁scanner	-8766
▁codename	-8767
▁formdata	-8768
constructor	-8769
▁referenced	-8770
registration	-8771
▁inputsource	-8772
▁subscribers	-8773
▁confirmation	-8774
deg	-8775
RITE	-8776
radi	-8777
undo	-8778
▁Com	-8779
▁sal	-8780
CURITY	-8781
Widget	-8782
ilence	-8783
writes	-8784
▁EVENT	-8785
▁defNS	-8786
▁magic	-8787
▁wells	-8788
ENABLED	-8789
another	-8790
battery	-8791
ierarch	-8792
started	-8793
▁applet	-8794
▁etherT	-8795
▁medias	-8796
▁signum	-8797
Override	-8798
▁dataUrl	-8799
▁located	-8800
▁subitem	-8801
execution	-8802
▁RESOURCE	-8803
▁keystone	-8804
▁datalines	-8805
▁concurrent	-8806
▁datestring	-8807
▁numExpression	-8808
Cont	-8809
ilio	-8810
▁dfs	-8811
▁lcm	-8812
▁mop	-8813
▁mun	-8814
▁oob	-8815
▁tet	-8816
Inter	-8817
Trade	-8818
codec	-8819
erson	-8820
major	-8821
sions	-8822
vocab	-8823
▁PAGE	-8824
▁ltol	-8825
UCCESS	-8826
▁faces	-8827
PRODUCT	-8828
RUNTIME	-8829
globals	-8830
hemeral	-8831
predict	-8832
stories	-8833
▁Labels	-8834
▁cafile	-8835
▁locals	-8836
▁online	-8837
▁queues	-8838
decision	-8839
possible	-8840
▁autodoc	-8841
▁dispcmd	-8842
▁stemmer	-8843
important	-8844
▁LANGUAGE	-8845
downloaded	-8846
statements	-8847
▁subsection	-8848
▁orientation	-8849
▁metadataerror	-8850
wb	-8851
FRI	-8852
Opc	-8853
pwd	-8854
▁Up	-8855
▁mm	-8856
Hand	-8857
MULT	-8858
POST	-8859
lify	-8860
lips	-8861
prof	-8862
▁aud	-8863
▁cwl	-8864
▁vbm	-8865
guess	-8866
olete	-8867
otiff	-8868
while	-8869
▁tech	-8870
▁venv	-8871
Source	-8872
▁repos	-8873
▁slice	-8874
reviews	-8875
▁ACTION	-8876
▁arpOpc	-8877
▁camera	-8878
▁dryrun	-8879
▁google	-8880
▁twilio	-8881
ierarchy	-8882
lifespan	-8883
▁drawing	-8884
▁jupyter	-8885
▁seeders	-8886
▁sklearn	-8887
▁written	-8888
primitive	-8889
▁decision	-8890
▁featured	-8891
▁userdata	-8892
PageWidget	-8893
▁hsproject	-8894
▁scheduled	-8895
▁variantSet	-8896
denomination	-8897
▁denomination	-8898
▁messageOverride	-8899
SK	-8900
LUG	-8901
POS	-8902
mts	-8903
orn	-8904
MAPP	-8905
TASK	-8906
stub	-8907
ARGET	-8908
ORAGE	-8909
grant	-8910
▁math	-8911
Create	-8912
cwrite	-8913
future	-8914
subdir	-8915
▁songs	-8916
decoder	-8917
▁mlflow	-8918
rotation	-8919
visitors	-8920
▁elastic	-8921
▁errread	-8922
▁geojson	-8923
▁inputid	-8924
▁invoice	-8925
▁reqbody	-8926
contracts	-8927
dataframe	-8928
▁replaced	-8929
▁providers	-8930
▁redirects	-8931
▁validuntil	-8932
▁healthcheck	-8933
▁disambiguation	-8934
Be	-8935
SEC	-8936
UID	-8937
fac	-8938
jpg	-8939
▁dv	-8940
▁ir	-8941
▁ng	-8942
igns	-8943
onts	-8944
owel	-8945
rols	-8946
utom	-8947
▁EIO	-8948
▁NOT	-8949
▁eye	-8950
▁utf	-8951
▁utx	-8952
CACHE	-8953
Nodes	-8954
Shape	-8955
ckets	-8956
nable	-8957
▁mkey	-8958
▁repr	-8959
ectors	-8960
havior	-8961
▁IMAGE	-8962
▁appid	-8963
▁etree	-8964
▁keras	-8965
healthy	-8966
▁poller	-8967
INSTANCE	-8968
▁inspect	-8969
▁linkids	-8970
▁removal	-8971
▁signals	-8972
▁tomerge	-8973
▁blackout	-8974
▁disksize	-8975
▁leechers	-8976
▁unscoped	-8977
▁suggested	-8978
▁pluginname	-8979
substitutions	-8980
Ep	-8981
XML	-8982
gbp	-8983
▁qq	-8984
▁tg	-8985
ILED	-8986
ORIZ	-8987
PACK	-8988
▁eig	-8989
▁nou	-8990
▁osm	-8991
▁sib	-8992
photo	-8993
relax	-8994
▁PACK	-8995
▁fout	-8996
▁topn	-8997
inline	-8998
▁INDEX	-8999
▁grain	-9000
▁iband	-9001
▁leave	-9002
confirm	-9003
removed	-9004
▁cycles	-9005
▁orders	-9006
▁preced	-9007
▁stable	-9008
criteria	-9009
ilestone	-9010
▁SERVICE	-9011
▁attname	-9012
▁deactiv	-9013
decrement	-9014
estimator	-9015
Identifier	-9016
▁consuming	-9017
▁featurizer	-9018
▁numeration	-9019
▁nextPageToken	-9020
XY	-9021
bg	-9022
DOS	-9023
des	-9024
igt	-9025
pop	-9026
TEMP	-9027
ocus	-9028
ueue	-9029
▁XML	-9030
▁mor	-9031
▁nas	-9032
MAINS	-9033
chant	-9034
etime	-9035
fixed	-9036
morbs	-9037
▁targ	-9038
LISHED	-9039
credit	-9040
istics	-9041
stract	-9042
▁ptask	-9043
▁reads	-9044
CONNECT	-9045
clients	-9046
vations	-9047
▁chroot	-9048
▁retail	-9049
Elements	-9050
▁abspath	-9051
CCHATROOM	-9052
SRESPONSE	-9053
sightings	-9054
▁affected	-9055
▁facility	-9056
▁formulas	-9057
▁playlist	-9058
▁recorded	-9059
▁trailing	-9060
invitations	-9061
▁hypervisor	-9062
▁actualValue	-9063
Arr	-9064
elo	-9065
rms	-9066
vdm	-9067
▁fk	-9068
509_	-9069
arns	-9070
esis	-9071
arges	-9072
organ	-9073
plain	-9074
▁Type	-9075
▁blog	-9076
▁feat	-9077
▁sets	-9078
moment	-9079
▁cover	-9080
▁elems	-9081
chments	-9082
▁ifname	-9083
▁slicer	-9084
backends	-9085
floating	-9086
urations	-9087
▁rewrite	-9088
ATTRIBUTE	-9089
▁filespec	-9090
▁overview	-9091
▁proposed	-9092
configured	-9093
normalized	-9094
▁automator	-9095
▁inclusive	-9096
▁placeable	-9097
▁rethinker	-9098
▁converters	-9099
▁cloudformation	-9100
maj	-9101
stu	-9102
▁hl	-9103
poly	-9104
▁btc	-9105
▁csr	-9106
▁prs	-9107
▁tsr	-9108
CHEMY	-9109
errit	-9110
hours	-9111
iline	-9112
raise	-9113
▁bear	-9114
▁comm	-9115
▁kube	-9116
▁rsvp	-9117
Header	-9118
dicted	-9119
quotas	-9120
▁confs	-9121
▁crash	-9122
FERENCE	-9123
removal	-9124
▁dbData	-9125
▁encode	-9126
▁fcoord	-9127
▁PACKAGE	-9128
▁REQUEST	-9129
corrected	-9130
filenames	-9131
neighbors	-9132
▁editable	-9133
▁postmark	-9134
▁reviewer	-9135
▁predictor	-9136
▁receivers	-9137
▁referenceName	-9138
▁implementation	-9139
KS	-9140
MG	-9141
Or	-9142
uc	-9143
aug	-9144
Atta	-9145
ENER	-9146
IGHT	-9147
logo	-9148
mach	-9149
mmas	-9150
pres	-9151
▁gcs	-9152
▁kpt	-9153
▁mix	-9154
▁pac	-9155
▁prod	-9156
shares	-9157
▁langs	-9158
▁views	-9159
DENTIAL	-9160
prepped	-9161
subpath	-9162
▁strain	-9163
hardware	-9164
terminal	-9165
AVAILABLE	-9166
▁deepcopy	-9167
▁printing	-9168
conversion	-9169
namespaces	-9170
▁apisecret	-9171
▁submodule	-9172
Di	-9173
LAT	-9174
RUN	-9175
TEM	-9176
was	-9177
▁Ch	-9178
▁gl	-9179
▁pn	-9180
Test	-9181
dget	-9182
▁ALL	-9183
▁GET	-9184
▁jan	-9185
ISTER	-9186
authn	-9187
dable	-9188
goals	-9189
phone	-9190
▁Exit	-9191
▁mbed	-9192
▁vcap	-9193
NUMBER	-9194
SCRIBE	-9195
etwork	-9196
levant	-9197
linked	-9198
outdir	-9199
▁filtr	-9200
▁httpd	-9201
▁pulse	-9202
ALCHEMY	-9203
collect	-9204
▁ipaddr	-9205
DATABASE	-9206
question	-9207
▁optdict	-9208
▁reasons	-9209
predicate	-9210
▁abnormal	-9211
▁merchant	-9212
▁obsolete	-9213
▁remember	-9214
▁autoclass	-9215
declaration	-9216
▁beneficiary	-9217
IFY	-9218
dfs	-9219
eur	-9220
oro	-9221
sis	-9222
ury	-9223
▁ea	-9224
▁qa	-9225
ASIC	-9226
GING	-9227
bbox	-9228
isbn	-9229
txid	-9230
▁dpi	-9231
▁imf	-9232
▁oct	-9233
▁tld	-9234
PROTO	-9235
_2019	-9236
aging	-9237
conom	-9238
cycle	-9239
elect	-9240
games	-9241
racks	-9242
skill	-9243
▁PDOS	-9244
▁hydr	-9245
▁ramp	-9246
DETAIL	-9247
ardown	-9248
ighted	-9249
▁pacer	-9250
▁seque	-9251
▁slave	-9252
already	-9253
browser	-9254
▁GITHUB	-9255
▁ensure	-9256
▁hosted	-9257
insecure	-9258
▁groupid	-9259
▁logname	-9260
▁metafile	-9261
Annotation	-9262
conference	-9263
▁broadcast	-9264
▁developer	-9265
▁ephemeral	-9266
▁submitted	-9267
▁embeddable	-9268
▁requestClass	-9269
▁scriptpubkey	-9270
19	-9271
IZE	-9272
RON	-9273
RST	-9274
UET	-9275
▁HT	-9276
▁va	-9277
Flag	-9278
VIDE	-9279
WARE	-9280
empl	-9281
iker	-9282
than	-9283
▁GUI	-9284
▁cis	-9285
▁rgb	-9286
charm	-9287
colon	-9288
▁incl	-9289
▁misc	-9290
LOGGER	-9291
PUBLIC	-9292
absent	-9293
expand	-9294
markup	-9295
vidend	-9296
▁EMAIL	-9297
advance	-9298
letions	-9299
▁Create	-9300
▁Delete	-9301
▁README	-9302
▁exempl	-9303
▁frames	-9304
▁mockfn	-9305
▁outdir	-9306
▁propag	-9307
▁sidelo	-9308
detected	-9309
▁appbase	-9310
▁argname	-9311
▁mission	-9312
migration	-9313
▁accessor	-9314
Parameters	-9315
executable	-9316
▁CChatRoom	-9317
translation	-9318
▁SQLALCHEMY	-9319
▁vocabulary	-9320
milliseconds	-9321
▁configdrive	-9322
▁sideloading	-9323
▁transceiver	-9324
▁transformed	-9325
subscriptions	-9326
▁CThostFtdcQry	-9327
LB	-9328
SP	-9329
iso	-9330
une	-9331
NING	-9332
mail	-9333
reco	-9334
stre	-9335
▁acr	-9336
▁lin	-9337
BATCH	-9338
CHEDU	-9339
explo	-9340
inder	-9341
▁deid	-9342
▁pkey	-9343
▁unix	-9344
lipsis	-9345
▁emday	-9346
▁rrset	-9347
▁sense	-9348
▁trakt	-9349
Warning	-9350
charact	-9351
pycharm	-9352
special	-9353
▁listen	-9354
▁reload	-9355
MESSAGES	-9356
▁combine	-9357
▁geoname	-9358
▁markers	-9359
▁moniker	-9360
▁orderId	-9361
▁testdir	-9362
bootstrap	-9363
corrector	-9364
datastore	-9365
▁accuracy	-9366
▁controls	-9367
▁followup	-9368
▁physical	-9369
▁workbook	-9370
▁sagemaker	-9371
▁substrate	-9372
▁retCommand	-9373
capabilities	-9374
▁resourcetype	-9375
▁disambiguated	-9376
ALE	-9377
EAR	-9378
big	-9379
cov	-9380
hum	-9381
▁ks	-9382
Brok	-9383
Qual	-9384
cing	-9385
hood	-9386
quiv	-9387
swag	-9388
symm	-9389
▁emo	-9390
▁frg	-9391
▁oxi	-9392
CLASS	-9393
Close	-9394
PARAM	-9395
dater	-9396
ement	-9397
oking	-9398
▁HTML	-9399
▁cdxj	-9400
▁dupe	-9401
▁plug	-9402
Action	-9403
Option	-9404
warded	-9405
▁champ	-9406
▁cinfo	-9407
▁fermi	-9408
▁nsmap	-9409
enotype	-9410
▁nameid	-9411
▁phrase	-9412
▁poster	-9413
▁tzinfo	-9414
conomics	-9415
symmetry	-9416
▁certfile	-9417
▁reaction	-9418
▁recovery	-9419
adjustment	-9420
formatters	-9421
▁batchSize	-9422
▁featureSet	-9423
NOTIFICATION	-9424
▁flaskRequest	-9425
DY	-9426
Cur	-9427
IDs	-9428
UES	-9429
eer	-9430
sku	-9431
▁fx	-9432
ZONE	-9433
apid	-9434
audi	-9435
pref	-9436
snap	-9437
▁SUP	-9438
▁dno	-9439
▁gsp	-9440
▁jog	-9441
▁wvx	-9442
▁wvy	-9443
Color	-9444
where	-9445
yield	-9446
▁MODE	-9447
▁cand	-9448
▁coer	-9449
▁cost	-9450
▁samp	-9451
▁snak	-9452
▁soft	-9453
Broker	-9454
execut	-9455
pretty	-9456
sheets	-9457
trying	-9458
▁grand	-9459
▁stick	-9460
▁xaxis	-9461
HEADERS	-9462
fcoords	-9463
loggers	-9464
silence	-9465
subtype	-9466
▁lvalue	-9467
▁tweets	-9468
customer	-9469
▁datefmt	-9470
▁fileuri	-9471
▁stopper	-9472
artifacts	-9473
lications	-9474
▁builtins	-9475
▁rnaQuant	-9476
▁subtitles	-9477
▁fatalerror	-9478
▁autoscaling	-9479
16	-9480
Vis	-9481
ban	-9482
bet	-9483
▁WE	-9484
▁jj	-9485
▁oh	-9486
▁vg	-9487
RACT	-9488
Role	-9489
fron	-9490
ipts	-9491
sier	-9492
▁VER	-9493
▁bgp	-9494
▁fan	-9495
▁gbp	-9496
▁gre	-9497
▁iid	-9498
▁ipc	-9499
▁lte	-9500
BOARD	-9501
coops	-9502
etail	-9503
nders	-9504
▁crit	-9505
▁rsps	-9506
AMPLES	-9507
PARAMS	-9508
extend	-9509
ublish	-9510
▁stake	-9511
DOMAINS	-9512
billing	-9513
▁bypass	-9514
▁raised	-9515
inations	-9516
▁testbot	-9517
agreement	-9518
timedelta	-9519
▁PASSWORD	-9520
▁coursier	-9521
▁passthru	-9522
▁prefetch	-9523
▁INSTALLED	-9524
▁appliance	-9525
▁autoscale	-9526
▁normalize	-9527
▁verifying	-9528
▁buffersize	-9529
TX	-9530
Per	-9531
ROM	-9532
Run	-9533
quo	-9534
▁nr	-9535
▁wa	-9536
POOL	-9537
algo	-9538
fqfn	-9539
ught	-9540
▁anl	-9541
▁ell	-9542
▁fab	-9543
▁pkt	-9544
DEFIN	-9545
Queue	-9546
iette	-9547
▁deck	-9548
▁dust	-9549
Window	-9550
pacing	-9551
restri	-9552
▁INTER	-9553
▁crawl	-9554
▁nargs	-9555
▁yaxis	-9556
startup	-9557
▁bridge	-9558
▁pickle	-9559
▁shadow	-9560
▁imports	-9561
▁landing	-9562
protected	-9563
▁baseview	-9564
▁eligible	-9565
▁importer	-9566
javascript	-9567
▁eventinfo	-9568
▁placement	-9569
▁retryable	-9570
▁subsystem	-9571
▁aggregated	-9572
▁filtration	-9573
▁nelectrons	-9574
▁population	-9575
▁unexpected	-9576
▁unresolved	-9577
▁matchgroups	-9578
▁synchronous	-9579
TA	-9580
Uri	-9581
ads	-9582
chi	-9583
dsl	-9584
ini	-9585
KWAR	-9586
PLAY	-9587
race	-9588
vail	-9589
▁UID	-9590
▁dur	-9591
liest	-9592
locks	-9593
outer	-9594
seqid	-9595
▁ANSI	-9596
▁ansi	-9597
▁stol	-9598
▁strs	-9599
ranked	-9600
▁bench	-9601
commits	-9602
expires	-9603
handles	-9604
limited	-9605
▁linker	-9606
▁watson	-9607
uploader	-9608
▁grouped	-9609
▁newname	-9610
▁overlap	-9611
▁rebuilt	-9612
▁setters	-9613
▁stringa	-9614
EXTENSION	-9615
▁examples	-9616
▁buffering	-9617
warninglist	-9618
▁precedence	-9619
correlations	-9620
▁organisation	-9621
FUN	-9622
lab	-9623
upt	-9624
Conn	-9625
DOWN	-9626
nics	-9627
nums	-9628
repe	-9629
▁aid	-9630
▁cbm	-9631
▁dri	-9632
▁imm	-9633
▁pal	-9634
▁poa	-9635
TTING	-9636
pcent	-9637
▁vout	-9638
▁wsgi	-9639
FILTER	-9640
KWARGS	-9641
actual	-9642
▁cases	-9643
▁deleg	-9644
▁myset	-9645
▁notif	-9646
▁assemb	-9647
▁revert	-9648
▁stages	-9649
DENTIALS	-9650
includes	-9651
original	-9652
▁argvstr	-9653
▁chapter	-9654
Sightings	-9655
▁delegate	-9656
▁suffixes	-9657
▁trackers	-9658
▁withAtta	-9659
▁breakdown	-9660
▁localfile	-9661
▁searchall	-9662
▁touchdown	-9663
Warninglist	-9664
blacklisted	-9665
passthrough	-9666
▁expectfail	-9667
▁headerless	-9668
▁includeCor	-9669
▁pubkeyhash	-9670
▁returnmain	-9671
environments	-9672
▁datapackage	-9673
▁quickFilter	-9674
▁installation	-9675
▁milliseconds	-9676
▁includeContext	-9677
▁withAttachments	-9678
GR	-9679
gs	-9680
rx	-9681
FLA	-9682
dow	-9683
pct	-9684
ptr	-9685
▁CU	-9686
▁am	-9687
▁ur	-9688
PART	-9689
ilar	-9690
laim	-9691
latt	-9692
▁jud	-9693
▁via	-9694
Param	-9695
crypt	-9696
gamma	-9697
grams	-9698
▁secs	-9699
OUTPUT	-9700
caches	-9701
▁guess	-9702
▁tinfo	-9703
▁unzip	-9704
COMMAND	-9705
▁CUSTOM	-9706
▁userId	-9707
JobGraph	-9708
Template	-9709
USERNAME	-9710
Variants	-9711
advanced	-9712
analysis	-9713
▁Session	-9714
▁capital	-9715
▁decrypt	-9716
▁indexed	-9717
▁scoring	-9718
▁visitor	-9719
▁computed	-9720
▁downtime	-9721
▁extattrs	-9722
▁invoking	-9723
▁parallel	-9724
▁proppath	-9725
Settlement	-9726
▁conference	-9727
▁privileged	-9728
▁invokingState	-9729
▁transformations	-9730
wf	-9731
xx	-9732
ALT	-9733
OTC	-9734
asp	-9735
nes	-9736
pks	-9737
tar	-9738
▁AR	-9739
DASH	-9740
KEYS	-9741
Rate	-9742
lift	-9743
outs	-9744
pist	-9745
ween	-9746
▁FLA	-9747
▁dum	-9748
▁gau	-9749
▁hdr	-9750
▁hst	-9751
▁led	-9752
▁nod	-9753
▁rss	-9754
Black	-9755
Regex	-9756
buser	-9757
decor	-9758
ender	-9759
puter	-9760
scene	-9761
story	-9762
▁HEAD	-9763
▁came	-9764
▁hkey	-9765
▁recp	-9766
Upload	-9767
defect	-9768
tracer	-9769
▁Graph	-9770
▁slack	-9771
▁timed	-9772
▁voigt	-9773
Defined	-9774
daemons	-9775
neutral	-9776
pistage	-9777
▁alerts	-9778
▁maries	-9779
▁uplift	-9780
formance	-9781
▁varargs	-9782
▁discover	-9783
▁ethernet	-9784
▁secgroup	-9785
registered	-9786
▁allowable	-9787
▁categorie	-9788
▁handlerId	-9789
predictions	-9790
▁calibration	-9791
▁continuable	-9792
▁recommended	-9793
▁readGroupSet	-9794
▁functionality	-9795
MM	-9796
DAP	-9797
THE	-9798
cue	-9799
drv	-9800
oxi	-9801
▁RO	-9802
▁ae	-9803
Card	-9804
buff	-9805
fast	-9806
nces	-9807
tics	-9808
toge	-9809
▁acs	-9810
▁fet	-9811
▁tre	-9812
▁wvh	-9813
▁wvw	-9814
QUEUE	-9815
RIVER	-9816
probs	-9817
unset	-9818
▁meas	-9819
▁plus	-9820
Server	-9821
▁globs	-9822
▁seuil	-9823
minimum	-9824
pentine	-9825
ursulas	-9826
▁SEARCH	-9827
▁owners	-9828
▁wallet	-9829
creation	-9830
equality	-9831
severity	-9832
▁csvfile	-9833
WithBlack	-9834
bandwidth	-9835
duplicate	-9836
▁consumed	-9837
▁flagAttr	-9838
▁implicit	-9839
▁localIds	-9840
▁calibrate	-9841
▁gaVariant	-9842
▁immutable	-9843
▁occupancy	-9844
▁temporary	-9845
stylesheets	-9846
▁apirequest	-9847
▁authorizer	-9848
▁capitalize	-9849
▁migrations	-9850
▁predictions	-9851
▁versionfile	-9852
▁ExitWithBlack	-9853
86	-9854
AP	-9855
cd	-9856
CHO	-9857
elt	-9858
ely	-9859
kva	-9860
▁bw	-9861
▁vf	-9862
curd	-9863
java	-9864
wiki	-9865
▁MON	-9866
▁kid	-9867
▁rek	-9868
▁vot	-9869
▁yum	-9870
admon	-9871
annot	-9872
digit	-9873
moner	-9874
spect	-9875
▁noun	-9876
▁succ	-9877
accept	-9878
filled	-9879
leader	-9880
▁QUERY	-9881
▁grace	-9882
▁inbox	-9883
▁learn	-9884
▁promi	-9885
▁renew	-9886
▁vhost	-9887
Profile	-9888
mediate	-9889
wrapped	-9890
▁fspath	-9891
▁kwdict	-9892
▁merges	-9893
▁needed	-9894
▁outbox	-9895
▁resize	-9896
▁social	-9897
gorithms	-9898
▁picture	-9899
▁rekcurd	-9900
Exception	-9901
▁assiette	-9902
▁copyfrom	-9903
▁deployer	-9904
▁interact	-9905
▁provides	-9906
▁uploaded	-9907
admonition	-9908
viewserver	-9909
▁bodyChars	-9910
▁dependent	-9911
▁initChars	-9912
▁descendant	-9913
▁destinations	-9914
7_	-9915
NE	-9916
Ph	-9917
fh	-9918
eps	-9919
ium	-9920
spl	-9921
uit	-9922
▁BU	-9923
▁SC	-9924
arun	-9925
iles	-9926
rist	-9927
umul	-9928
▁dxf	-9929
▁sam	-9930
▁sin	-9931
▁	-9932
e	-9933
t	-9934
a	-9935
s	-9936
r	-9937
o	-9938
i	-9939
n	-9940
_	-9941
l	-9942
c	-9943
d	-9944
p	-9945
m	-9946
u	-9947
g	-9948
f	-9949
v	-9950
h	-9951
k	-9952
y	-9953
b	-9954
w	-9955
x	-9956
j	-9957
q	-9958
E	-9959
T	-9960
S	-9961
z	-9962
A	-9963
R	-9964
I	-9965
N	-9966
O	-9967
C	-9968
L	-9969
D	-9970
P	-9971
2	-9972
M	-9973
F	-9974
U	-9975
1	-9976
G	-9977
H	-9978
B	-9979
V	-9980
3	-9981
Y	-9982
K	-9983
0	-9984
W	-9985
X	-9986
7	-9987
4	-9988
Q	-9989
5	-9990
J	-9991
6	-9992
8	-9993
Z	-9994
9	-9995
