<pad>	0
<unk>	0
<s>	0
</s>	0
at	-0
▁s	-1
▁d	-2
▁c	-3
es	-4
in	-5
er	-6
ar	-7
el	-8
on	-9
me	-10
al	-11
▁p	-12
▁r	-13
en	-14
or	-15
▁n	-16
▁t	-17
ata	-18
▁f	-19
pe	-20
▁sel	-21
ex	-22
▁self	-23
▁m	-24
▁v	-25
▁data	-26
ame	-27
arg	-28
st	-29
▁k	-30
ty	-31
ion	-32
▁co	-33
ct	-34
▁l	-35
▁in	-36
▁a	-37
args	-38
▁b	-39
ck	-40
▁i	-41
type	-42
ed	-43
ut	-44
le	-45
od	-46
id	-47
▁o	-48
▁val	-49
it	-50
ent	-51
re	-52
se	-53
lo	-54
an	-55
▁kw	-56
▁kwargs	-57
he	-58
ur	-59
ro	-60
ce	-61
dex	-62
▁dtype	-63
un	-64
fi	-65
ue	-66
um	-67
am	-68
▁re	-69
ate	-70
▁name	-71
di	-72
▁index	-73
▁st	-74
ul	-75
▁x	-76
as	-77
ag	-78
▁fi	-79
ath	-80
name	-81
▁res	-82
ey	-83
ad	-84
ol	-85
ing	-86
est	-87
li	-88
▁ex	-89
lock	-90
et	-91
▁col	-92
▁par	-93
▁con	-94
ab	-95
is	-96
▁block	-97
ult	-98
ch	-99
iz	-100
th	-101
ess	-102
py	-103
tr	-104
ation	-105
ter	-106
gr	-107
▁copy	-108
ig	-109
heck	-110
▁lo	-111
▁value	-112
▁w	-113
▁de	-114
▁args	-115
path	-116
bj	-117
em	-118
▁h	-119
val	-120
ns	-121
qu	-122
▁ax	-123
▁_	-124
nt	-125
put	-126
▁check	-127
age	-128
ment	-129
us	-130
im	-131
pt	-132
▁g	-133
▁colum	-134
ext	-135
ers	-136
▁key	-137
ord	-138
ode	-139
ect	-140
up	-141
ra	-142
▁columns	-143
ep	-144
▁y	-145
om	-146
▁fil	-147
fa	-148
ize	-149
ic	-150
ast	-151
il	-152
orm	-153
con	-154
ues	-155
ax	-156
▁out	-157
▁pro	-158
ot	-159
key	-160
pl	-161
ap	-162
int	-163
▁obj	-164
end	-165
dict	-166
▁me	-167
ew	-168
▁mod	-169
▁test	-170
ass	-171
err	-172
ction	-173
sg	-174
▁mgr	-175
igh	-176
url	-177
par	-178
str	-179
▁ar	-180
▁path	-181
▁values	-182
▁loc	-183
ha	-184
our	-185
▁parent	-186
▁axis	-187
▁result	-188
ial	-189
abel	-190
file	-191
▁e	-192
ver	-193
eld	-194
ri	-195
pon	-196
po	-197
ames	-198
▁cont	-199
ight	-200
and	-201
ort	-202
ime	-203
▁at	-204
▁com	-205
ub	-206
▁al	-207
▁msg	-208
value	-209
set	-210
ow	-211
res	-212
▁new	-213
▁id	-214
ff	-215
ine	-216
per	-217
fault	-218
ay	-219
ok	-220
▁ch	-221
data	-222
able	-223
ams	-224
art	-225
▁model	-226
ity	-227
ource	-228
out	-229
oc	-230
de	-231
fig	-232
head	-233
▁fast	-234
pect	-235
ist	-236
ponse	-237
oun	-238
▁fastpath	-239
ption	-240
▁po	-241
tem	-242
list	-243
ies	-244
ve	-245
ace	-246
lass	-247
▁j	-248
atch	-249
ack	-250
▁err	-251
▁se	-252
▁default	-253
▁num	-254
▁expect	-255
▁sc	-256
▁url	-257
size	-258
▁location	-259
ain	-260
keys	-261
hape	-262
ors	-263
▁max	-264
▁pre	-265
ke	-266
ename	-267
▁attr	-268
▁is	-269
▁en	-270
nel	-271
col	-272
▁expected	-273
pro	-274
▁label	-275
▁item	-276
▁le	-277
▁str	-278
▁response	-279
▁field	-280
▁im	-281
▁qu	-282
▁ap	-283
▁requ	-284
ask	-285
▁rate	-286
all	-287
▁text	-288
user	-289
ac	-290
thod	-291
▁head	-292
ase	-293
▁input	-294
▁un	-295
ure	-296
roup	-297
ir	-298
▁ad	-299
essage	-300
▁u	-301
pr	-302
index	-303
▁file	-304
dir	-305
ser	-306
▁output	-307
▁sub	-308
ore	-309
date	-310
ersion	-311
op	-312
obj	-313
▁log	-314
lient	-315
names	-316
order	-317
izer	-318
sc	-319
act	-320
▁init	-321
arget	-322
ormat	-323
ock	-324
▁user	-325
fix	-326
ip	-327
ateg	-328
annel	-329
eng	-330
▁node	-331
ray	-332
▁config	-333
lu	-334
▁filename	-335
▁request	-336
▁start	-337
▁ty	-338
▁tr	-339
ters	-340
dr	-341
ery	-342
▁fun	-343
▁el	-344
ge	-345
pec	-346
to	-347
▁message	-348
▁params	-349
▁ra	-350
fo	-351
ments	-352
▁X	-353
ategor	-354
▁arr	-355
ens	-356
▁ret	-357
bo	-358
ds	-359
▁end	-360
ft	-361
ength	-362
ance	-363
ls	-364
vi	-365
▁target	-366
▁cur	-367
▁blocks	-368
like	-369
com	-370
▁line	-371
dtype	-372
dim	-373
ition	-374
amp	-375
ount	-376
low	-377
cess	-378
▁arg	-379
▁di	-380
▁z	-381
ib	-382
fil	-383
▁sh	-384
▁stat	-385
pre	-386
▁ver	-387
▁des	-388
ise	-389
vel	-390
▁tok	-391
ans	-392
▁method	-393
▁var	-394
mod	-395
▁client	-396
vent	-397
▁fill	-398
ta	-399
▁initial	-400
ces	-401
▁shape	-402
▁ser	-403
map	-404
▁context	-405
▁doc	-406
▁query	-407
▁min	-408
time	-409
▁pl	-410
eight	-411
▁time	-412
ated	-413
ard	-414
annels	-415
▁pos	-416
ive	-417
ession	-418
point	-419
▁app	-420
▁pr	-421
ma	-422
eat	-423
mp	-424
cod	-425
port	-426
▁q	-427
▁color	-428
ids	-429
var	-430
▁axes	-431
▁or	-432
▁tem	-433
string	-434
ptions	-435
▁size	-436
▁errors	-437
▁order	-438
ind	-439
▁type	-440
ject	-441
▁names	-442
▁array	-443
params	-444
count	-445
▁gr	-446
ther	-447
▁exc	-448
code	-449
ite	-450
ffset	-451
old	-452
▁ent	-453
ule	-454
channels	-455
field	-456
▁header	-457
▁deep	-458
erm	-459
ild	-460
▁resource	-461
▁tag	-462
check	-463
ator	-464
co	-465
▁row	-466
▁other	-467
ale	-468
▁tra	-469
config	-470
▁version	-471
iter	-472
dress	-473
rent	-474
ameters	-475
ign	-476
▁as	-477
shape	-478
▁act	-479
▁source	-480
▁df	-481
▁use	-482
▁ro	-483
label	-484
idth	-485
ts	-486
▁right	-487
num	-488
▁th	-489
kw	-490
ost	-491
▁sy	-492
▁rec	-493
▁rel	-494
▁status	-495
▁content	-496
▁reg	-497
ork	-498
vice	-499
▁left	-500
cont	-501
pace	-502
class	-503
▁idx	-504
ias	-505
back	-506
▁valid	-507
ber	-508
▁group	-509
ail	-510
▁__	-511
ence	-512
uth	-513
word	-514
▁do	-515
md	-516
ide	-517
its	-518
▁base	-519
fun	-520
sh	-521
▁to	-522
▁cls	-523
rame	-524
▁coun	-525
info	-526
iv	-527
__	-528
rst	-529
group	-530
format	-531
▁attrs	-532
▁mock	-533
▁image	-534
ull	-535
▁lin	-536
▁mask	-537
▁extr	-538
pos	-539
▁up	-540
stance	-541
min	-542
▁allow	-543
▁an	-544
itle	-545
▁verbo	-546
▁event	-547
▁ref	-548
▁categor	-549
▁trans	-550
input	-551
ory	-552
bu	-553
▁mode	-554
ifi	-555
▁ac	-556
ob	-557
▁func	-558
ml	-559
ound	-560
ell	-561
▁token	-562
▁inter	-563
ample	-564
▁port	-565
ang	-566
ly	-567
▁verbose	-568
▁exp	-569
▁raw	-570
son	-571
▁current	-572
▁address	-573
▁sr	-574
ry	-575
row	-576
state	-577
ings	-578
ld	-579
egr	-580
▁prefix	-581
▁norm	-582
load	-583
▁match	-584
ust	-585
ant	-586
colum	-587
ates	-588
ith	-589
start	-590
▁action	-591
▁ndim	-592
pes	-593
ical	-594
if	-595
imit	-596
▁encod	-597
ibut	-598
▁T	-599
rom	-600
form	-601
▁read	-602
one	-603
▁desc	-604
model	-605
▁tmp	-606
▁format	-607
▁db	-608
object	-609
ary	-610
▁headers	-611
▁spec	-612
lin	-613
▁param	-614
▁offset	-615
pat	-616
plate	-617
ection	-618
▁project	-619
▁del	-620
▁first	-621
yt	-622
▁run	-623
▁initializer	-624
version	-625
▁comm	-626
attr	-627
▁bu	-628
pts	-629
▁term	-630
▁fl	-631
ss	-632
▁extra	-633
ref	-634
length	-635
▁iter	-636
values	-637
lude	-638
▁filter	-639
spec	-640
les	-641
▁place	-642
ords	-643
▁labels	-644
ange	-645
▁cmd	-646
integr	-647
▁ed	-648
▁old	-649
max	-650
▁prop	-651
▁pol	-652
▁level	-653
eps	-654
▁set	-655
▁A	-656
▁options	-657
ures	-658
▁klass	-659
mb	-660
▁session	-661
ayer	-662
rect	-663
▁orig	-664
ache	-665
ody	-666
▁class	-667
uct	-668
urn	-669
log	-670
▁error	-671
▁dis	-672
result	-673
▁pass	-674
kwargs	-675
prec	-676
item	-677
ampl	-678
▁feat	-679
integrity	-680
▁ext	-681
▁limit	-682
ender	-683
line	-684
cond	-685
▁host	-686
▁C	-687
▁on	-688
ER	-689
stat	-690
own	-691
tim	-692
categor	-693
▁state	-694
▁root	-695
▁su	-696
mt	-697
▁count	-698
uri	-699
ized	-700
▁no	-701
ST	-702
▁title	-703
▁conn	-704
▁placement	-705
▁src	-706
ustom	-707
des	-708
place	-709
arn	-710
▁ind	-711
cre	-712
omain	-713
▁timeout	-714
▁op	-715
tern	-716
ector	-717
ual	-718
▁api	-719
tric	-720
ree	-721
ger	-722
ec	-723
▁string	-724
▁get	-725
ription	-726
▁categories	-727
init	-728
idx	-729
weight	-730
unk	-731
▁oper	-732
get	-733
▁pad	-734
▁for	-735
mo	-736
pha	-737
▁function	-738
iod	-739
lic	-740
gn	-741
read	-742
ON	-743
▁all	-744
▁encoding	-745
orage	-746
parameters	-747
ations	-748
ions	-749
method	-750
▁sort	-751
work	-752
▁length	-753
odes	-754
▁arrays	-755
▁per	-756
inal	-757
▁ht	-758
otal	-759
▁fields	-760
▁weight	-761
▁table	-762
ents	-763
AT	-764
reg	-765
▁ele	-766
▁dim	-767
▁step	-768
▁env	-769
axis	-770
less	-771
func	-772
cast	-773
▁scale	-774
▁D	-775
of	-776
▁ct	-777
adata	-778
len	-779
▁S	-780
net	-781
fail	-782
req	-783
▁sp	-784
ler	-785
ags	-786
fact	-787
tadata	-788
exact	-789
ernel	-790
▁body	-791
stra	-792
que	-793
▁inputs	-794
▁return	-795
▁list	-796
▁code	-797
▁form	-798
del	-799
▁sk	-800
ener	-801
▁custom	-802
▁normal	-803
▁batch	-804
▁has	-805
ark	-806
▁call	-807
▁template	-808
precise	-809
height	-810
erial	-811
rel	-812
app	-813
▁M	-814
▁storage	-815
▁inc	-816
df	-817
▁command	-818
RE	-819
▁sample	-820
amples	-821
▁net	-822
eep	-823
output	-824
▁dt	-825
Name	-826
▁ign	-827
▁comment	-828
▁dist	-829
▁rand	-830
doc	-831
dices	-832
ages	-833
frame	-834
▁last	-835
source	-836
▁img	-837
▁full	-838
▁width	-839
categorical	-840
ef	-841
▁card	-842
hema	-843
▁auth	-844
resh	-845
▁info	-846
node	-847
IN	-848
▁ordered	-849
loc	-850
▁ip	-851
lot	-852
types	-853
▁N	-854
level	-855
text	-856
ele	-857
▁keep	-858
only	-859
▁dep	-860
requ	-861
▁vari	-862
for	-863
▁iterable	-864
loat	-865
response	-866
iss	-867
msg	-868
sub	-869
bug	-870
▁kernel	-871
tok	-872
▁password	-873
eg	-874
▁second	-875
block	-876
ins	-877
▁add	-878
ision	-879
▁ignore	-880
▁local	-881
feat	-882
▁cell	-883
▁attribut	-884
▁ca	-885
array	-886
▁task	-887
▁date	-888
ices	-889
cs	-890
inter	-891
enc	-892
straint	-893
▁child	-894
▁domain	-895
edi	-896
▁random	-897
eli	-898
▁raise	-899
aph	-900
ream	-901
valid	-902
▁unit	-903
sp	-904
▁total	-905
▁operation	-906
▁description	-907
▁namespace	-908
▁tim	-909
▁entry	-910
▁deserial	-911
▁resp	-912
▁dec	-913
bs	-914
ont	-915
▁debug	-916
ument	-917
mbol	-918
▁next	-919
▁ctx	-920
sed	-921
io	-922
not	-923
▁L	-924
▁contain	-925
▁force	-926
▁tol	-927
▁lat	-928
▁metric	-929
cept	-930
icy	-931
▁em	-932
▁P	-933
ner	-934
ired	-935
▁temp	-936
headers	-937
▁pat	-938
▁page	-939
▁cache	-940
▁back	-941
▁tx	-942
compat	-943
▁keys	-944
uto	-945
▁point	-946
uments	-947
▁cr	-948
test	-949
ctions	-950
prefix	-951
match	-952
▁chunk	-953
ype	-954
instance	-955
lob	-956
▁service	-957
▁fname	-958
wr	-959
▁cond	-960
grad	-961
ms	-962
olver	-963
mode	-964
her	-965
▁json	-966
ick	-967
cur	-968
ytes	-969
▁post	-970
elike	-971
▁dir	-972
▁record	-973
with	-974
ify	-975
ave	-976
▁element	-977
▁layer	-978
enter	-979
▁skip	-980
▁alpha	-981
plit	-982
process	-983
raw	-984
base	-985
2_	-986
▁I	-987
▁endpoint	-988
fields	-989
▁html	-990
vid	-991
datetim	-992
▁column	-993
tol	-994
token	-995
▁edge	-996
datetimelike	-997
▁by	-998
status	-999
os	-1000
ays	-1001
columns	-1002
failure	-1003
▁logger	-1004
▁parameters	-1005
ert	-1006
av	-1007
▁expr	-1008
cols	-1009
▁module	-1010
files	-1011
ph	-1012
andler	-1013
link	-1014
▁train	-1015
▁load	-1016
ding	-1017
column	-1018
▁diff	-1019
af	-1020
▁indexer	-1021
itions	-1022
ides	-1023
used	-1024
train	-1025
sum	-1026
▁ag	-1027
▁word	-1028
mask	-1029
▁include	-1030
default	-1031
▁height	-1032
▁object	-1033
filename	-1034
older	-1035
arch	-1036
vari	-1037
ps	-1038
ote	-1039
_1	-1040
▁pri	-1041
▁G	-1042
▁int	-1043
OR	-1044
▁part	-1045
▁top	-1046
ix	-1047
ializer	-1048
client	-1049
fn	-1050
▁lines	-1051
▁device	-1052
eta	-1053
▁seed	-1054
float	-1055
▁mark	-1056
▁bo	-1057
▁parser	-1058
▁frame	-1059
▁fn	-1060
ile	-1061
▁the	-1062
▁grad	-1063
▁results	-1064
▁transform	-1065
▁dest	-1066
▁B	-1067
EN	-1068
▁cre	-1069
are	-1070
▁link	-1071
▁uni	-1072
uid	-1073
sy	-1074
ifier	-1075
ables	-1076
▁normalize	-1077
from	-1078
width	-1079
▁metadata	-1080
▁tags	-1081
▁comments	-1082
▁stream	-1083
ash	-1084
ript	-1085
und	-1086
▁symbol	-1087
mat	-1088
▁mo	-1089
unit	-1090
▁work	-1091
features	-1092
▁F	-1093
no	-1094
▁process	-1095
by	-1096
▁instance	-1097
▁schema	-1098
▁ep	-1099
▁actual	-1100
▁sign	-1101
estamp	-1102
event	-1103
▁pool	-1104
pol	-1105
erence	-1106
▁show	-1107
pert	-1108
▁deserialized	-1109
use	-1110
scale	-1111
lust	-1112
_2	-1113
▁xp	-1114
ong	-1115
▁freq	-1116
▁feature	-1117
▁lang	-1118
ensor	-1119
vert	-1120
▁items	-1121
▁found	-1122
▁activ	-1123
▁mem	-1124
Id	-1125
▁dataset	-1126
▁clo	-1127
reshold	-1128
fl	-1129
try	-1130
▁toklist	-1131
▁region	-1132
▁stri	-1133
▁sig	-1134
labels	-1135
▁entity	-1136
call	-1137
parse	-1138
rection	-1139
▁ph	-1140
▁option	-1141
▁username	-1142
ID	-1143
perties	-1144
error	-1145
tag	-1146
▁validate	-1147
▁ne	-1148
ho	-1149
fin	-1150
ped	-1151
▁std	-1152
ank	-1153
▁replace	-1154
rix	-1155
auth	-1156
LE	-1157
tp	-1158
rap	-1159
▁update	-1160
▁period	-1161
su	-1162
▁cli	-1163
▁opts	-1164
samples	-1165
▁pack	-1166
▁det	-1167
▁R	-1168
▁ident	-1169
▁fmt	-1170
toc	-1171
▁render	-1172
▁vi	-1173
▁nb	-1174
▁req	-1175
json	-1176
▁profile	-1177
▁from	-1178
run	-1179
▁meta	-1180
▁Y	-1181
▁seq	-1182
▁trace	-1183
exp	-1184
number	-1185
atio	-1186
vars	-1187
color	-1188
▁stop	-1189
tocol	-1190
▁rout	-1191
▁unique	-1192
▁pattern	-1193
ling	-1194
▁filters	-1195
indow	-1196
▁comp	-1197
ete	-1198
ency	-1199
options	-1200
▁stride	-1201
1_	-1202
▁bias	-1203
▁site	-1204
▁uri	-1205
rop	-1206
▁wh	-1207
ential	-1208
ffix	-1209
rate	-1210
▁struct	-1211
▁sup	-1212
erce	-1213
▁document	-1214
arning	-1215
▁hist	-1216
rectory	-1217
image	-1218
ie	-1219
action	-1220
rol	-1221
▁job	-1222
▁network	-1223
related	-1224
ception	-1225
▁graph	-1226
tyle	-1227
part	-1228
▁mult	-1229
points	-1230
ient	-1231
tings	-1232
ayload	-1233
▁asset	-1234
dates	-1235
uration	-1236
ope	-1237
bject	-1238
table	-1239
message	-1240
face	-1241
vals	-1242
▁coerce	-1243
ak	-1244
▁files	-1245
▁number	-1246
ti	-1247
▁prec	-1248
▁wr	-1249
lection	-1250
▁codes	-1251
mock	-1252
ear	-1253
offset	-1254
ane	-1255
▁opt	-1256
led	-1257
▁view	-1258
content	-1259
filter	-1260
range	-1261
▁auto	-1262
ero	-1263
env	-1264
mit	-1265
air	-1266
▁sep	-1267
▁over	-1268
▁py	-1269
▁plot	-1270
▁delta	-1271
ries	-1272
ative	-1273
▁sender	-1274
dims	-1275
ION	-1276
▁indices	-1277
▁coords	-1278
request	-1279
▁coord	-1280
pty	-1281
▁real	-1282
▁eps	-1283
blocks	-1284
▁mat	-1285
bin	-1286
vider	-1287
river	-1288
dep	-1289
period	-1290
▁constraint	-1291
lines	-1292
▁ang	-1293
elp	-1294
▁callback	-1295
project	-1296
▁outputs	-1297
▁origin	-1298
In	-1299
▁low	-1300
ME	-1301
box	-1302
nodes	-1303
hs	-1304
▁fig	-1305
▁groups	-1306
ift	-1307
▁conf	-1308
ca	-1309
▁rep	-1310
▁fp	-1311
ake	-1312
▁ds	-1313
▁attributes	-1314
step	-1315
trans	-1316
▁nodes	-1317
▁prob	-1318
▁sum	-1319
series	-1320
bias	-1321
▁fit	-1322
tz	-1323
ud	-1324
ules	-1325
context	-1326
ards	-1327
▁H	-1328
very	-1329
new	-1330
ous	-1331
sert	-1332
▁padding	-1333
ecut	-1334
▁rem	-1335
▁tz	-1336
play	-1337
▁timestamp	-1338
serv	-1339
▁container	-1340
SE	-1341
lug	-1342
▁compon	-1343
▁bot	-1344
▁kwds	-1345
olut	-1346
factor	-1347
▁payload	-1348
query	-1349
▁weights	-1350
move	-1351
dist	-1352
case	-1353
▁pt	-1354
▁center	-1355
▁rows	-1356
▁server	-1357
och	-1358
▁reset	-1359
oin	-1360
▁channel	-1361
▁exclude	-1362
ular	-1363
ameter	-1364
▁dat	-1365
root	-1366
oices	-1367
az	-1368
▁allowed	-1369
▁kind	-1370
ources	-1371
desc	-1372
▁W	-1373
▁ns	-1374
▁ob	-1375
elements	-1376
te	-1377
luster	-1378
ific	-1379
verr	-1380
mag	-1381
▁original	-1382
▁section	-1383
hint	-1384
▁fix	-1385
▁this	-1386
▁dock	-1387
xy	-1388
▁cle	-1389
bytes	-1390
▁split	-1391
lobal	-1392
function	-1393
▁tar	-1394
▁bin	-1395
▁bas	-1396
fs	-1397
verse	-1398
ward	-1399
▁ge	-1400
▁char	-1401
ched	-1402
layer	-1403
results	-1404
▁types	-1405
anag	-1406
▁required	-1407
▁gen	-1408
cache	-1409
ores	-1410
issing	-1411
▁polling	-1412
▁extens	-1413
quence	-1414
▁beta	-1415
▁policy	-1416
update	-1417
▁style	-1418
▁serial	-1419
AR	-1420
arge	-1421
▁selector	-1422
▁prev	-1423
every	-1424
amma	-1425
sign	-1426
▁V	-1427
▁elmap	-1428
ities	-1429
▁loss	-1430
▁pid	-1431
ratio	-1432
norm	-1433
▁save	-1434
job	-1435
▁rule	-1436
write	-1437
pred	-1438
▁reference	-1439
arguments	-1440
indices	-1441
▁perm	-1442
▁angle	-1443
▁mapp	-1444
▁flag	-1445
▁filepath	-1446
initializer	-1447
▁fra	-1448
▁fail	-1449
nd	-1450
▁strict	-1451
▁position	-1452
▁precision	-1453
ire	-1454
▁sym	-1455
▁unused	-1456
ply	-1457
▁font	-1458
ffer	-1459
hash	-1460
bl	-1461
▁connection	-1462
ome	-1463
▁vals	-1464
▁bl	-1465
▁fieldname	-1466
imens	-1467
▁mon	-1468
▁search	-1469
▁category	-1470
iron	-1471
space	-1472
rec	-1473
▁strides	-1474
ug	-1475
▁print	-1476
▁stack	-1477
▁access	-1478
ounds	-1479
▁ifield	-1480
ret	-1481
▁mag	-1482
▁protocol	-1483
AL	-1484
heme	-1485
ql	-1486
▁wrap	-1487
▁atol	-1488
▁dimens	-1489
ng	-1490
conn	-1491
ges	-1492
host	-1493
▁create	-1494
▁alias	-1495
▁score	-1496
eline	-1497
▁subject	-1498
std	-1499
▁parsed	-1500
▁account	-1501
▁elem	-1502
▁E	-1503
▁high	-1504
▁cl	-1505
andle	-1506
TE	-1507
den	-1508
▁grid	-1509
errors	-1510
header	-1511
▁defaults	-1512
cret	-1513
HO	-1514
▁verify	-1515
eff	-1516
▁fo	-1517
lour	-1518
herit	-1519
Type	-1520
cent	-1521
▁backend	-1522
ping	-1523
▁features	-1524
▁indent	-1525
imal	-1526
target	-1527
estim	-1528
▁cs	-1529
List	-1530
abled	-1531
ature	-1532
▁rtol	-1533
conf	-1534
▁mapping	-1535
▁track	-1536
▁window	-1537
yte	-1538
▁scope	-1539
▁tree	-1540
▁cor	-1541
▁box	-1542
ildr	-1543
down	-1544
sel	-1545
ildren	-1546
▁dict	-1547
▁lay	-1548
▁pres	-1549
perty	-1550
▁plug	-1551
peri	-1552
▁exist	-1553
▁points	-1554
def	-1555
ports	-1556
▁scal	-1557
coords	-1558
access	-1559
pri	-1560
ination	-1561
▁sim	-1562
▁xml	-1563
▁package	-1564
▁theta	-1565
▁driver	-1566
▁lb	-1567
▁attribute	-1568
ula	-1569
gress	-1570
fmt	-1571
▁conv	-1572
dius	-1573
▁provider	-1574
ected	-1575
▁pk	-1576
position	-1577
▁seg	-1578
address	-1579
▁best	-1580
efore	-1581
DE	-1582
Str	-1583
metadata	-1584
nan	-1585
▁predi	-1586
▁annot	-1587
▁cluster	-1588
add	-1589
▁down	-1590
cr	-1591
icity	-1592
batch	-1593
ht	-1594
▁deg	-1595
ish	-1596
▁active	-1597
ume	-1598
pass	-1599
▁handler	-1600
▁sn	-1601
rows	-1602
▁suffix	-1603
▁red	-1604
ensity	-1605
▁mean	-1606
▁ids	-1607
ible	-1608
▁gener	-1609
cell	-1610
score	-1611
▁exact	-1612
cket	-1613
Val	-1614
AU	-1615
char	-1616
▁my	-1617
▁agent	-1618
▁traceback	-1619
▁xy	-1620
▁fact	-1621
ches	-1622
▁display	-1623
▁collection	-1624
▁pub	-1625
▁final	-1626
▁variable	-1627
azy	-1628
essages	-1629
▁U	-1630
▁eng	-1631
uage	-1632
FI	-1633
right	-1634
▁convert	-1635
arr	-1636
▁sigma	-1637
▁parse	-1638
▁am	-1639
▁direction	-1640
▁ev	-1641
▁main	-1642
▁with	-1643
▁rendered	-1644
mon	-1645
pute	-1646
▁role	-1647
constraint	-1648
ccess	-1649
items	-1650
▁pred	-1651
struct	-1652
▁not	-1653
▁eid	-1654
St	-1655
cls	-1656
apes	-1657
▁sparse	-1658
▁non	-1659
▁resolver	-1660
stem	-1661
dis	-1662
▁parameter	-1663
ified	-1664
AN	-1665
db	-1666
▁typ	-1667
na	-1668
▁execut	-1669
▁cat	-1670
▁help	-1671
▁txt	-1672
istr	-1673
ense	-1674
▁lazy	-1675
idget	-1676
ization	-1677
oms	-1678
▁cp	-1679
ases	-1680
sty	-1681
sl	-1682
amil	-1683
▁structure	-1684
▁br	-1685
▁solver	-1686
aster	-1687
bed	-1688
policy	-1689
▁vol	-1690
▁inst	-1691
ason	-1692
amily	-1693
▁noise	-1694
wd	-1695
periment	-1696
▁dc	-1697
title	-1698
empty	-1699
ee	-1700
abs	-1701
▁build	-1702
▁sd	-1703
yn	-1704
ites	-1705
oduct	-1706
▁formula	-1707
▁flags	-1708
▁activation	-1709
depth	-1710
▁fin	-1711
▁mid	-1712
vers	-1713
LT	-1714
session	-1715
▁threshold	-1716
anager	-1717
og	-1718
ainer	-1719
▁ts	-1720
handler	-1721
ict	-1722
copy	-1723
cid	-1724
▁observ	-1725
attribut	-1726
pool	-1727
▁ow	-1728
ators	-1729
view	-1730
rule	-1731
server	-1732
IT	-1733
▁dil	-1734
ys	-1735
▁hh	-1736
classes	-1737
▁identifier	-1738
gt	-1739
▁engine	-1740
▁que	-1741
▁us	-1742
AC	-1743
▁sess	-1744
▁DE	-1745
true	-1746
anc	-1747
tract	-1748
stats	-1749
▁units	-1750
author	-1751
mult	-1752
child	-1753
▁depend	-1754
FT	-1755
▁drop	-1756
▁bn	-1757
vious	-1758
arm	-1759
delete	-1760
▁vis	-1761
amb	-1762
variable	-1763
ton	-1764
▁null	-1765
dated	-1766
seq	-1767
opts	-1768
card	-1769
lice	-1770
▁av	-1771
▁plugin	-1772
▁wa	-1773
▁entries	-1774
▁hash	-1775
▁strings	-1776
▁gamma	-1777
bar	-1778
▁properties	-1779
folder	-1780
paths	-1781
3_	-1782
graph	-1783
▁dum	-1784
UR	-1785
▁map	-1786
▁join	-1787
print	-1788
entials	-1789
press	-1790
matrix	-1791
terns	-1792
▁language	-1793
uc	-1794
▁mu	-1795
▁cred	-1796
▁year	-1797
▁overr	-1798
▁member	-1799
flow	-1800
axes	-1801
parser	-1802
▁children	-1803
▁cal	-1804
▁qs	-1805
param	-1806
metric	-1807
DC	-1808
conds	-1809
module	-1810
▁cols	-1811
style	-1812
RO	-1813
▁inherit	-1814
none	-1815
▁choices	-1816
▁eval	-1817
schema	-1818
tom	-1819
prox	-1820
▁sl	-1821
▁experiment	-1822
regular	-1823
istry	-1824
do	-1825
template	-1826
words	-1827
scal	-1828
prob	-1829
▁regex	-1830
▁dst	-1831
element	-1832
▁sequence	-1833
▁existing	-1834
▁remove	-1835
▁sw	-1836
▁queue	-1837
cor	-1838
jobs	-1839
▁store	-1840
vision	-1841
codes	-1842
pi	-1843
sor	-1844
aces	-1845
▁subnet	-1846
▁tensor	-1847
entry	-1848
HOST	-1849
▁related	-1850
▁clean	-1851
fg	-1852
▁component	-1853
▁multi	-1854
weights	-1855
ingle	-1856
▁curr	-1857
diff	-1858
▁environ	-1859
▁cert	-1860
▁mer	-1861
icle	-1862
okup	-1863
first	-1864
▁meas	-1865
▁directory	-1866
▁if	-1867
▁family	-1868
▁K	-1869
▁overwrite	-1870
tries	-1871
olution	-1872
ili	-1873
exception	-1874
round	-1875
▁repres	-1876
limit	-1877
▁na	-1878
GE	-1879
▁outfile	-1880
ilon	-1881
▁prior	-1882
▁align	-1883
exist	-1884
compon	-1885
▁email	-1886
▁foo	-1887
▁amount	-1888
loss	-1889
▁learning	-1890
▁previous	-1891
▁buf	-1892
change	-1893
▁reverse	-1894
LO	-1895
perm	-1896
my	-1897
page	-1898
andid	-1899
enant	-1900
▁marker	-1901
_0	-1902
api	-1903
mand	-1904
▁np	-1905
expect	-1906
igid	-1907
tifact	-1908
steps	-1909
▁xref	-1910
inc	-1911
▁depth	-1912
ning	-1913
▁samples	-1914
▁artifact	-1915
▁http	-1916
▁closed	-1917
vs	-1918
bit	-1919
ances	-1920
over	-1921
▁detail	-1922
▁remote	-1923
properties	-1924
domain	-1925
zero	-1926
IC	-1927
ATE	-1928
▁typeobj	-1929
ulation	-1930
lat	-1931
▁extension	-1932
utton	-1933
▁widget	-1934
regularizer	-1935
pack	-1936
▁ut	-1937
threshold	-1938
▁sql	-1939
▁classes	-1940
▁decimal	-1941
thon	-1942
▁owner	-1943
▁epoch	-1944
FTDC	-1945
▁THOST	-1946
sample	-1947
▁recur	-1948
▁inplace	-1949
▁vm	-1950
▁condition	-1951
mary	-1952
eed	-1953
ved	-1954
▁channels	-1955
CO	-1956
▁inv	-1957
ple	-1958
task	-1959
stop	-1960
▁species	-1961
pc	-1962
▁pen	-1963
timeout	-1964
▁O	-1965
lem	-1966
tags	-1967
▁ste	-1968
ocab	-1969
anch	-1970
▁thread	-1971
▁named	-1972
▁rng	-1973
ants	-1974
itor	-1975
▁fr	-1976
ted	-1977
▁ab	-1978
▁vert	-1979
mem	-1980
▁dev	-1981
nown	-1982
▁counter	-1983
▁write	-1984
ences	-1985
qual	-1986
fr	-1987
oi	-1988
▁cid	-1989
ternal	-1990
▁lib	-1991
mark	-1992
▁es	-1993
▁ta	-1994
meta	-1995
▁expression	-1996
▁rect	-1997
▁compute	-1998
▁byte	-1999
▁property	-2000
idden	-2001
▁bucket	-2002
pression	-2003
▁master	-2004
▁settings	-2005
build	-2006
▁nd	-2007
▁tab	-2008
AS	-2009
▁accept	-2010
mean	-2011
ill	-2012
ared	-2013
▁syn	-2014
accession	-2015
▁sent	-2016
▁ma	-2017
settings	-2018
▁cha	-2019
der	-2020
▁we	-2021
▁steem	-2022
active	-2023
▁meth	-2024
▁matrix	-2025
▁listener	-2026
▁colour	-2027
AME	-2028
▁xyz	-2029
▁fh	-2030
▁admin	-2031
rigid	-2032
MP	-2033
vis	-2034
lay	-2035
▁factor	-2036
be	-2037
ighb	-2038
▁contents	-2039
▁xs	-2040
▁targets	-2041
▁lower	-2042
▁author	-2043
▁patch	-2044
▁finish	-2045
cl	-2046
network	-2047
▁fd	-2048
uuid	-2049
periodicity	-2050
▁containment	-2051
▁caches	-2052
projection	-2053
▁border	-2054
patch	-2055
▁long	-2056
erance	-2057
▁au	-2058
▁can	-2059
▁elements	-2060
▁shift	-2061
ility	-2062
▁interface	-2063
▁rv	-2064
▁zone	-2065
▁duration	-2066
channel	-2067
▁control	-2068
▁history	-2069
flag	-2070
▁org	-2071
mapping	-2072
rep	-2073
▁pers	-2074
▁success	-2075
anges	-2076
ics	-2077
File	-2078
▁relation	-2079
expected	-2080
▁alt	-2081
split	-2082
▁interval	-2083
UN	-2084
img	-2085
▁rot	-2086
▁constraints	-2087
▁orient	-2088
ded	-2089
▁case	-2090
▁parts	-2091
inputs	-2092
pair	-2093
▁mass	-2094
edirect	-2095
▁addr	-2096
▁serializer	-2097
PE	-2098
▁cursor	-2099
sup	-2100
▁exception	-2101
▁realm	-2102
gram	-2103
ENT	-2104
▁route	-2105
▁tokens	-2106
cp	-2107
▁tenant	-2108
estimator	-2109
▁bad	-2110
▁retry	-2111
AULT	-2112
▁atom	-2113
▁coef	-2114
non	-2115
directory	-2116
▁charge	-2117
FAULT	-2118
▁dx	-2119
izes	-2120
pout	-2121
▁differ	-2122
callback	-2123
cert	-2124
▁fixed	-2125
ea	-2126
▁global	-2127
▁sid	-2128
nal	-2129
ires	-2130
▁pair	-2131
▁dig	-2132
enames	-2133
▁ans	-2134
bas	-2135
▁validation	-2136
groups	-2137
▁abs	-2138
▁art	-2139
▁append	-2140
▁script	-2141
uple	-2142
▁space	-2143
▁updated	-2144
▁cm	-2145
attrs	-2146
post	-2147
▁bit	-2148
▁methods	-2149
attributes	-2150
center	-2151
cle	-2152
▁nid	-2153
▁colors	-2154
uble	-2155
▁phi	-2156
▁series	-2157
missing	-2158
dev	-2159
▁tick	-2160
▁problem	-2161
body	-2162
▁ps	-2163
▁bounds	-2164
▁report	-2165
▁rhs	-2166
red	-2167
filters	-2168
▁insert	-2169
resource	-2170
▁product	-2171
▁pe	-2172
▁uuid	-2173
▁float	-2174
▁degree	-2175
ropout	-2176
▁prim	-2177
ixel	-2178
▁quant	-2179
way	-2180
▁paths	-2181
▁bg	-2182
▁states	-2183
times	-2184
▁Z	-2185
▁tmpdir	-2186
▁frac	-2187
interval	-2188
▁reader	-2189
▁lon	-2190
Data	-2191
Set	-2192
vol	-2193
▁registry	-2194
location	-2195
MA	-2196
▁tpr	-2197
ade	-2198
▁folder	-2199
fer	-2200
▁enable	-2201
long	-2202
create	-2203
▁he	-2204
local	-2205
gen	-2206
alpha	-2207
verage	-2208
uff	-2209
ident	-2210
▁invalid	-2211
det	-2212
▁der	-2213
cc	-2214
▁periods	-2215
▁dimension	-2216
go	-2217
▁bound	-2218
▁destination	-2219
▁pip	-2220
▁radius	-2221
▁ho	-2222
▁epsilon	-2223
anit	-2224
imum	-2225
▁optional	-2226
adi	-2227
units	-2228
▁make	-2229
▁cap	-2230
command	-2231
ister	-2232
DI	-2233
▁medi	-2234
▁coeff	-2235
▁warm	-2236
▁warn	-2237
▁require	-2238
store	-2239
sk	-2240
top	-2241
sid	-2242
ING	-2243
predi	-2244
ness	-2245
pare	-2246
UT	-2247
chunk	-2248
▁handle	-2249
nu	-2250
▁short	-2251
▁actions	-2252
▁stats	-2253
▁lab	-2254
lip	-2255
▁pane	-2256
ells	-2257
_3	-2258
sent	-2259
▁lock	-2260
queue	-2261
global	-2262
▁pkg	-2263
▁expand	-2264
RI	-2265
ERS	-2266
▁environment	-2267
encies	-2268
▁cook	-2269
▁annotation	-2270
▁sanit	-2271
cat	-2272
here	-2273
Par	-2274
▁lookup	-2275
▁delete	-2276
encod	-2277
thread	-2278
▁select	-2279
▁bottom	-2280
stack	-2281
account	-2282
actions	-2283
▁times	-2284
br	-2285
▁arch	-2286
total	-2287
sets	-2288
parent	-2289
▁day	-2290
RES	-2291
imizer	-2292
ctionary	-2293
shot	-2294
▁connect	-2295
ification	-2296
▁go	-2297
grid	-2298
▁transl	-2299
▁agg	-2300
tensor	-2301
▁edges	-2302
▁reason	-2303
▁chain	-2304
▁nn	-2305
bound	-2306
ian	-2307
tice	-2308
▁len	-2309
▁dictionary	-2310
CT	-2311
▁missing	-2312
shift	-2313
▁distance	-2314
▁ncol	-2315
vector	-2316
▁progress	-2317
opt	-2318
ground	-2319
ne	-2320
imp	-2321
alt	-2322
med	-2323
▁cards	-2324
subfmt	-2325
rok	-2326
▁dummy	-2327
month	-2328
▁af	-2329
▁nids	-2330
ctx	-2331
da	-2332
▁win	-2333
▁tf	-2334
▁setup	-2335
plays	-2336
AD	-2337
▁updates	-2338
▁relative	-2339
▁metrics	-2340
▁stdout	-2341
sec	-2342
found	-2343
odel	-2344
shapes	-2345
▁csv	-2346
▁acc	-2347
▁messages	-2348
cmd	-2349
▁applic	-2350
utoff	-2351
▁candid	-2352
▁desired	-2353
ink	-2354
▁tile	-2355
▁credentials	-2356
▁leg	-2357
endpoint	-2358
anged	-2359
▁dims	-2360
secret	-2361
dirs	-2362
vec	-2363
▁repo	-2364
pattern	-2365
▁sm	-2366
▁volume	-2367
peat	-2368
reat	-2369
ware	-2370
▁need	-2371
gy	-2372
sr	-2373
sort	-2374
▁dd	-2375
tree	-2376
tach	-2377
▁subsc	-2378
▁lhs	-2379
bal	-2380
lim	-2381
aining	-2382
rowser	-2383
▁topic	-2384
▁lst	-2385
▁plays	-2386
ission	-2387
ention	-2388
0_	-2389
oice	-2390
▁variables	-2391
▁coplays	-2392
cal	-2393
ged	-2394
▁sprojection	-2395
lap	-2396
alty	-2397
▁sol	-2398
▁import	-2399
▁moment	-2400
apshot	-2401
▁inner	-2402
▁te	-2403
density	-2404
vate	-2405
trained	-2406
▁amp	-2407
real	-2408
any	-2409
▁rest	-2410
▁mut	-2411
uffle	-2412
▁sec	-2413
▁anal	-2414
we	-2415
ease	-2416
▁vector	-2417
Class	-2418
▁change	-2419
▁evt	-2420
▁before	-2421
▁cfg	-2422
fra	-2423
CH	-2424
hook	-2425
▁layers	-2426
wer	-2427
Path	-2428
▁outer	-2429
▁fake	-2430
▁vocab	-2431
▁DEFAULT	-2432
epoch	-2433
▁vec	-2434
▁matches	-2435
▁arguments	-2436
delta	-2437
▁blob	-2438
eno	-2439
ensors	-2440
lier	-2441
tas	-2442
book	-2443
script	-2444
coord	-2445
▁hook	-2446
sim	-2447
components	-2448
▁LO	-2449
ause	-2450
▁pretrained	-2451
same	-2452
▁events	-2453
▁clip	-2454
iet	-2455
▁objs	-2456
▁created	-2457
hase	-2458
▁cos	-2459
after	-2460
itive	-2461
ocket	-2462
▁components	-2463
intercept	-2464
▁tool	-2465
▁proj	-2466
▁flat	-2467
chain	-2468
stant	-2469
▁upper	-2470
▁variant	-2471
▁rece	-2472
▁fs	-2473
angle	-2474
▁ksize	-2475
▁login	-2476
ivity	-2477
ses	-2478
gor	-2479
ii	-2480
▁only	-2481
▁priority	-2482
▁area	-2483
etch	-2484
stream	-2485
oth	-2486
▁now	-2487
delay	-2488
▁phase	-2489
▁scalar	-2490
pad	-2491
freq	-2492
lName	-2493
▁deserializer	-2494
seconds	-2495
dec	-2496
▁sanitize	-2497
▁positions	-2498
option	-2499
▁aut	-2500
▁steps	-2501
▁cmap	-2502
plot	-2503
▁wait	-2504
afe	-2505
CE	-2506
▁conver	-2507
left	-2508
transform	-2509
▁primary	-2510
▁adj	-2511
▁layout	-2512
irt	-2513
parts	-2514
▁qual	-2515
▁cc	-2516
warn	-2517
suffix	-2518
itional	-2519
▁modal	-2520
PT	-2521
▁dimensions	-2522
ateway	-2523
▁empty	-2524
uplic	-2525
states	-2526
xt	-2527
tra	-2528
▁download	-2529
▁secret	-2530
let	-2531
▁browser	-2532
▁nest	-2533
▁shuffle	-2534
▁penalty	-2535
normal	-2536
▁ws	-2537
finition	-2538
▁quiet	-2539
gorith	-2540
▁face	-2541
wh	-2542
▁scores	-2543
Con	-2544
erve	-2545
last	-2546
▁dilation	-2547
curity	-2548
bits	-2549
▁quad	-2550
▁pop	-2551
▁button	-2552
Key	-2553
▁database	-2554
▁geom	-2555
▁identity	-2556
▁month	-2557
ship	-2558
return	-2559
elist	-2560
symbol	-2561
▁prefs	-2562
▁summary	-2563
fill	-2564
gb	-2565
▁span	-2566
▁represents	-2567
▁nl	-2568
lots	-2569
▁et	-2570
▁pipeline	-2571
rem	-2572
▁aliases	-2573
▁symbols	-2574
ich	-2575
▁single	-2576
▁rc	-2577
▁Q	-2578
alias	-2579
container	-2580
NAME	-2581
KE	-2582
exists	-2583
▁deriv	-2584
variables	-2585
mens	-2586
irtual	-2587
▁redirect	-2588
manager	-2589
current	-2590
▁marg	-2591
▁bits	-2592
▁edit	-2593
▁range	-2594
▁branch	-2595
▁assign	-2596
bn	-2597
▁resources	-2598
▁imp	-2599
ude	-2600
▁alph	-2601
ending	-2602
▁stage	-2603
▁ci	-2604
bot	-2605
finite	-2606
unc	-2607
▁ii	-2608
pars	-2609
compo	-2610
clo	-2611
▁system	-2612
▁internal	-2613
comp	-2614
▁mx	-2615
off	-2616
reen	-2617
▁bins	-2618
ipe	-2619
▁neg	-2620
ancer	-2621
▁rank	-2622
▁cost	-2623
▁tt	-2624
▁delim	-2625
ategy	-2626
tn	-2627
▁bbox	-2628
▁segment	-2629
▁hy	-2630
distance	-2631
ops	-2632
5_	-2633
control	-2634
▁training	-2635
allback	-2636
the	-2637
▁orientation	-2638
gorithm	-2639
EST	-2640
▁mac	-2641
astic	-2642
double	-2643
before	-2644
slice	-2645
▁sorted	-2646
▁inp	-2647
▁market	-2648
requency	-2649
AB	-2650
categories	-2651
amt	-2652
iles	-2653
▁contract	-2654
▁dropout	-2655
riptor	-2656
▁embed	-2657
▁proxy	-2658
mooth	-2659
▁enc	-2660
▁coeffs	-2661
plug	-2662
temp	-2663
▁wcs	-2664
dimens	-2665
aml	-2666
▁aw	-2667
repo	-2668
ighbors	-2669
objects	-2670
section	-2671
stribut	-2672
▁override	-2673
fp	-2674
EL	-2675
dat	-2676
Size	-2677
Value	-2678
entries	-2679
gener	-2680
eval	-2681
Reg	-2682
▁she	-2683
ting	-2684
buffer	-2685
▁open	-2686
lib	-2687
▁rules	-2688
▁extensions	-2689
ons	-2690
contents	-2691
term	-2692
▁enabled	-2693
▁buffer	-2694
▁router	-2695
plane	-2696
direction	-2697
gs	-2698
▁lattice	-2699
▁js	-2700
▁def	-2701
mbers	-2702
▁selection	-2703
choices	-2704
updates	-2705
▁sur	-2706
▁patterns	-2707
▁matched	-2708
▁cwd	-2709
ia	-2710
▁merge	-2711
▁signature	-2712
▁projection	-2713
edges	-2714
wrap	-2715
▁preserve	-2716
▁additional	-2717
search	-2718
▁dy	-2719
▁rs	-2720
anel	-2721
ambda	-2722
▁round	-2723
ze	-2724
▁register	-2725
so	-2726
rout	-2727
inate	-2728
▁vars	-2729
ower	-2730
dc	-2731
layers	-2732
▁ass	-2733
▁private	-2734
hor	-2735
▁tgt	-2736
▁hostname	-2737
▁band	-2738
seed	-2739
esh	-2740
▁poly	-2741
help	-2742
join	-2743
▁memory	-2744
feature	-2745
▁isinstance	-2746
▁asList	-2747
ging	-2748
▁extract	-2749
site	-2750
imetype	-2751
▁hidden	-2752
ready	-2753
▁tau	-2754
track	-2755
ollow	-2756
Re	-2757
▁where	-2758
To	-2759
LI	-2760
▁cookie	-2761
rules	-2762
Rec	-2763
▁LOG	-2764
balancer	-2765
orig	-2766
rr	-2767
▁binary	-2768
▁flow	-2769
▁tracker	-2770
▁done	-2771
▁attach	-2772
description	-2773
▁pod	-2774
▁which	-2775
▁so	-2776
▁elastic	-2777
formats	-2778
▁one	-2779
rypt	-2780
xml	-2781
Obj	-2782
▁flav	-2783
eek	-2784
ailable	-2785
protocol	-2786
▁fu	-2787
▁instr	-2788
▁compress	-2789
warnings	-2790
▁media	-2791
▁observation	-2792
▁quantity	-2793
▁cov	-2794
▁setter	-2795
flags	-2796
YPE	-2797
▁datum	-2798
ush	-2799
▁stderr	-2800
hist	-2801
connection	-2802
▁game	-2803
TR	-2804
▁python	-2805
▁levels	-2806
▁images	-2807
▁sched	-2808
uld	-2809
▁feed	-2810
▁numer	-2811
hex	-2812
alf	-2813
adient	-2814
email	-2815
inv	-2816
▁encoded	-2817
▁cv	-2818
acity	-2819
idge	-2820
String	-2821
▁concept	-2822
neg	-2823
fic	-2824
▁compression	-2825
handle	-2826
ten	-2827
▁J	-2828
▁tolerance	-2829
running	-2830
ideo	-2831
▁bmp	-2832
anes	-2833
▁uid	-2834
oint	-2835
acy	-2836
▁strip	-2837
service	-2838
OT	-2839
lyph	-2840
egin	-2841
ture	-2842
▁giv	-2843
URL	-2844
overr	-2845
eted	-2846
▁delay	-2847
▁off	-2848
messages	-2849
extens	-2850
inst	-2851
▁keepdims	-2852
▁inan	-2853
▁bind	-2854
▁nrow	-2855
custom	-2856
sig	-2857
isode	-2858
▁apply	-2859
sym	-2860
▁disk	-2861
▁filenames	-2862
▁application	-2863
▁asc	-2864
cards	-2865
▁wrapper	-2866
▁integr	-2867
▁pie	-2868
▁fore	-2869
▁clear	-2870
▁quote	-2871
prior	-2872
ability	-2873
▁io	-2874
▁estimator	-2875
▁gene	-2876
plates	-2877
SS	-2878
▁rol	-2879
▁selected	-2880
ounter	-2881
▁cd	-2882
ored	-2883
▁after	-2884
regex	-2885
▁shop	-2886
▁zero	-2887
▁snapshot	-2888
align	-2889
apter	-2890
kwarg	-2891
lux	-2892
patterns	-2893
▁public	-2894
12	-2895
rs	-2896
▁fraction	-2897
▁elamt	-2898
▁loop	-2899
ponses	-2900
▁bdf	-2901
ould	-2902
▁find	-2903
▁article	-2904
Ex	-2905
CON	-2906
radius	-2907
fit	-2908
▁failed	-2909
▁dirname	-2910
▁example	-2911
▁orcid	-2912
▁intercept	-2913
scores	-2914
▁external	-2915
bounds	-2916
▁release	-2917
era	-2918
metrics	-2919
threads	-2920
▁warning	-2921
▁predictions	-2922
▁cutoff	-2923
▁md	-2924
▁preprocess	-2925
▁nt	-2926
np	-2927
▁exchange	-2928
▁criter	-2929
OL	-2930
▁ID	-2931
▁predict	-2932
igger	-2933
▁reward	-2934
▁cn	-2935
▁man	-2936
▁obs	-2937
datetime	-2938
▁candidate	-2939
▁differential	-2940
▁aux	-2941
▁fc	-2942
area	-2943
stype	-2944
▁repeat	-2945
▁background	-2946
▁RE	-2947
▁static	-2948
▁caption	-2949
collection	-2950
▁ssl	-2951
▁close	-2952
oad	-2953
road	-2954
atform	-2955
▁cy	-2956
deg	-2957
initial	-2958
remove	-2959
dt	-2960
licit	-2961
▁recip	-2962
timestamp	-2963
▁lens	-2964
▁it	-2965
▁visible	-2966
▁manager	-2967
▁conditions	-2968
QU	-2969
TH	-2970
▁docstring	-2971
▁workspace	-2972
cut	-2973
core	-2974
▁ix	-2975
itude	-2976
ours	-2977
SC	-2978
▁est	-2979
window	-2980
▁sv	-2981
year	-2982
▁scheme	-2983
▁records	-2984
edge	-2985
▁what	-2986
▁links	-2987
▁tb	-2988
▁activity	-2989
seg	-2990
pub	-2991
▁price	-2992
▁words	-2993
olute	-2994
▁note	-2995
blank	-2996
AP	-2997
▁ti	-2998
▁infile	-2999
idence	-3000
ync	-3001
▁sampl	-3002
▁disable	-3003
downcast	-3004
uction	-3005
moms	-3006
plex	-3007
tables	-3008
mi	-3009
ATH	-3010
aries	-3011
kwh	-3012
▁assert	-3013
▁bar	-3014
▁keyword	-3015
crement	-3016
▁details	-3017
loy	-3018
▁sources	-3019
▁hard	-3020
▁how	-3021
stderr	-3022
execut	-3023
Pos	-3024
record	-3025
▁subclass	-3026
▁relationship	-3027
ach	-3028
driver	-3029
▁proto	-3030
pu	-3031
extra	-3032
ince	-3033
▁mor	-3034
▁lineno	-3035
profile	-3036
full	-3037
cape	-3038
Index	-3039
▁sg	-3040
▁thing	-3041
ugh	-3042
▁scen	-3043
▁overrides	-3044
day	-3045
inates	-3046
▁connectivity	-3047
tuple	-3048
▁argv	-3049
logy	-3050
factory	-3051
unused	-3052
▁icon	-3053
4_	-3054
ron	-3055
▁sentence	-3056
▁alphas	-3057
wo	-3058
▁fallback	-3059
password	-3060
entity	-3061
iver	-3062
medi	-3063
lig	-3064
▁core	-3065
images	-3066
▁virtual	-3067
▁separ	-3068
next	-3069
▁install	-3070
▁optimizer	-3071
theme	-3072
scheme	-3073
▁legend	-3074
varh	-3075
▁fw	-3076
prov	-3077
▁adv	-3078
▁put	-3079
ilent	-3080
▁colle	-3081
kvarh	-3082
targets	-3083
▁calc	-3084
multi	-3085
▁draw	-3086
ll	-3087
indexes	-3088
ives	-3089
ATION	-3090
▁srs	-3091
faces	-3092
Res	-3093
▁localId	-3094
▁partition	-3095
vms	-3096
periods	-3097
▁seen	-3098
perature	-3099
ificate	-3100
rees	-3101
ox	-3102
▁shared	-3103
entation	-3104
system	-3105
▁cloud	-3106
phase	-3107
loop	-3108
created	-3109
▁writer	-3110
theta	-3111
▁power	-3112
allel	-3113
▁generator	-3114
unds	-3115
▁slot	-3116
▁chunks	-3117
▁eff	-3118
▁inf	-3119
pk	-3120
▁pick	-3121
detail	-3122
▁security	-3123
multip	-3124
Ch	-3125
ORM	-3126
▁buff	-3127
open	-3128
▁docs	-3129
UP	-3130
SI	-3131
ysis	-3132
itch	-3133
filepath	-3134
src	-3135
verify	-3136
▁encoder	-3137
rand	-3138
▁rev	-3139
▁signed	-3140
counter	-3141
issions	-3142
▁pp	-3143
▁filtered	-3144
rain	-3145
▁revision	-3146
rank	-3147
Region	-3148
▁ui	-3149
colors	-3150
▁should	-3151
▁support	-3152
sn	-3153
▁crop	-3154
leep	-3155
chars	-3156
▁avg	-3157
▁leaf	-3158
aved	-3159
▁sys	-3160
agent	-3161
▁validator	-3162
Cont	-3163
TYPE	-3164
enabled	-3165
▁props	-3166
▁den	-3167
▁objects	-3168
▁fid	-3169
▁half	-3170
strings	-3171
▁requires	-3172
lus	-3173
▁exit	-3174
▁dilate	-3175
▁direct	-3176
rest	-3177
▁masked	-3178
uples	-3179
UM	-3180
roadcast	-3181
▁byteorder	-3182
cf	-3183
defaults	-3184
▁digits	-3185
hora	-3186
▁salt	-3187
member	-3188
repr	-3189
tmp	-3190
Ar	-3191
▁cent	-3192
strict	-3193
atype	-3194
structure	-3195
peak	-3196
▁gu	-3197
▁resol	-3198
als	-3199
▁true	-3200
AGE	-3201
strength	-3202
▁qubit	-3203
▁configuration	-3204
invalid	-3205
▁program	-3206
▁runtime	-3207
device	-3208
▁hparams	-3209
oper	-3210
leaf	-3211
counts	-3212
▁az	-3213
▁latex	-3214
bers	-3215
EX	-3216
▁ins	-3217
▁pixel	-3218
jor	-3219
frames	-3220
dicts	-3221
ik	-3222
percent	-3223
▁chunksize	-3224
MS	-3225
_4	-3226
ond	-3227
kernel	-3228
vention	-3229
tokens	-3230
▁ratio	-3231
outputs	-3232
▁processor	-3233
sep	-3234
▁pieces	-3235
ERSION	-3236
progress	-3237
sequence	-3238
▁filtervms	-3239
▁filteruser	-3240
▁reply	-3241
estion	-3242
positions	-3243
▁delimiter	-3244
▁cb	-3245
lens	-3246
▁parc	-3247
▁percent	-3248
peed	-3249
▁decod	-3250
▁rho	-3251
nn	-3252
ynam	-3253
▁initialW	-3254
ED	-3255
▁nm	-3256
▁mol	-3257
tgt	-3258
lish	-3259
10	-3260
tick	-3261
luded	-3262
bool	-3263
provider	-3264
▁mp	-3265
alog	-3266
dataset	-3267
reak	-3268
▁proc	-3269
cart	-3270
la	-3271
grade	-3272
▁export	-3273
▁xx	-3274
scalar	-3275
▁nan	-3276
6_	-3277
▁att	-3278
▁side	-3279
predict	-3280
▁retries	-3281
compounds	-3282
ilt	-3283
▁datetime	-3284
lusters	-3285
▁bytes	-3286
ceptions	-3287
KEY	-3288
▁eids	-3289
modified	-3290
▁builder	-3291
Dict	-3292
▁geo	-3293
▁correct	-3294
▁anch	-3295
prop	-3296
ectors	-3297
▁super	-3298
▁confidence	-3299
▁recurrent	-3300
▁slice	-3301
▁interpol	-3302
pose	-3303
▁kargs	-3304
▁magmoms	-3305
▁using	-3306
itory	-3307
▁observed	-3308
quee	-3309
▁ens	-3310
gamma	-3311
copyright	-3312
inplace	-3313
▁operator	-3314
▁configfile	-3315
sparse	-3316
acter	-3317
insert	-3318
▁postprocess	-3319
▁ss	-3320
FILE	-3321
known	-3322
▁transaction	-3323
environ	-3324
Met	-3325
stride	-3326
inel	-3327
▁person	-3328
olds	-3329
▁smooth	-3330
▁dr	-3331
▁css	-3332
▁lc	-3333
▁trim	-3334
▁unexpected	-3335
▁templates	-3336
hem	-3337
▁ok	-3338
▁execution	-3339
▁already	-3340
dio	-3341
zone	-3342
▁tod	-3343
▁descriptor	-3344
asc	-3345
▁commit	-3346
▁checksum	-3347
acc	-3348
TI	-3349
▁maxval	-3350
▁ub	-3351
▁archive	-3352
▁retention	-3353
queeze	-3354
now	-3355
ptr	-3356
addr	-3357
▁shapes	-3358
▁normalized	-3359
▁baseline	-3360
▁bold	-3361
▁dn	-3362
eras	-3363
documents	-3364
▁algorithm	-3365
ytest	-3366
▁zip	-3367
levels	-3368
license	-3369
▁recurs	-3370
▁sb	-3371
▁gt	-3372
▁menu	-3373
▁tp	-3374
stribution	-3375
variance	-3376
unch	-3377
▁cnt	-3378
hour	-3379
exc	-3380
▁subset	-3381
▁responses	-3382
bad	-3383
ait	-3384
▁decor	-3385
TO	-3386
▁subclassing	-3387
property	-3388
▁squeeze	-3389
▁sheet	-3390
▁disp	-3391
elem	-3392
▁forward	-3393
package	-3394
▁nested	-3395
▁rebuild	-3396
sizes	-3397
▁worker	-3398
tty	-3399
▁rd	-3400
cases	-3401
▁dic	-3402
pairs	-3403
Pro	-3404
light	-3405
▁sizer	-3406
▁web	-3407
▁pin	-3408
▁definition	-3409
Width	-3410
duplic	-3411
sw	-3412
▁video	-3413
▁dl	-3414
▁urls	-3415
rm	-3416
▁send	-3417
loglevel	-3418
▁nnodes	-3419
ross	-3420
cost	-3421
▁functional	-3422
▁lro	-3423
▁outerjoin	-3424
32	-3425
▁givens	-3426
ating	-3427
▁quot	-3428
alth	-3429
single	-3430
esian	-3431
▁cells	-3432
▁platform	-3433
▁counts	-3434
ridge	-3435
▁queryset	-3436
▁validators	-3437
Json	-3438
▁eve	-3439
▁oid	-3440
ilities	-3441
pick	-3442
▁changed	-3443
processor	-3444
uce	-3445
▁utc	-3446
▁frag	-3447
alleng	-3448
events	-3449
▁mocker	-3450
▁ys	-3451
rot	-3452
reatment	-3453
identifier	-3454
▁logits	-3455
encoding	-3456
fraction	-3457
▁fractional	-3458
byte	-3459
▁spac	-3460
▁pv	-3461
▁lambda	-3462
▁ener	-3463
particle	-3464
storage	-3465
▁rgb	-3466
▁generate	-3467
▁eig	-3468
▁plan	-3469
zz	-3470
sentinel	-3471
ines	-3472
html	-3473
plugin	-3474
Co	-3475
▁periodicity	-3476
▁shell	-3477
▁pts	-3478
▁hd	-3479
roll	-3480
▁comple	-3481
Time	-3482
hood	-3483
▁controller	-3484
ES	-3485
▁ll	-3486
▁receiver	-3487
▁begin	-3488
▁nob	-3489
▁absolute	-3490
▁mesh	-3491
▁glyph	-3492
dtypes	-3493
▁choice	-3494
scope	-3495
SER	-3496
▁spl	-3497
aging	-3498
ibr	-3499
▁equ	-3500
▁latest	-3501
▁extend	-3502
▁home	-3503
▁hide	-3504
▁cover	-3505
▁subcompounds	-3506
beta	-3507
▁measure	-3508
▁move	-3509
Num	-3510
▁average	-3511
ful	-3512
▁tax	-3513
irc	-3514
▁hi	-3515
Item	-3516
▁attrib	-3517
pet	-3518
mid	-3519
▁hor	-3520
▁ptr	-3521
▁loader	-3522
ssl	-3523
▁repr	-3524
▁currency	-3525
FORM	-3526
Text	-3527
PATH	-3528
▁iss	-3529
▁representation	-3530
span	-3531
▁persist	-3532
Or	-3533
▁contact	-3534
▁wrapped	-3535
extension	-3536
diag	-3537
uation	-3538
AG	-3539
▁da	-3540
save	-3541
▁vmax	-3542
ute	-3543
vl	-3544
ager	-3545
▁si	-3546
Count	-3547
ife	-3548
Com	-3549
▁ls	-3550
mix	-3551
http	-3552
ips	-3553
▁slo	-3554
▁loaded	-3555
▁days	-3556
▁sdca	-3557
adj	-3558
▁ga	-3559
ield	-3560
▁commands	-3561
retries	-3562
ets	-3563
▁strategy	-3564
▁intervals	-3565
wise	-3566
condition	-3567
▁xi	-3568
scaling	-3569
dig	-3570
activ	-3571
▁subscription	-3572
ASE	-3573
▁vn	-3574
▁retval	-3575
▁pa	-3576
short	-3577
▁hand	-3578
revision	-3579
marg	-3580
▁trigger	-3581
Info	-3582
▁filt	-3583
▁git	-3584
models	-3585
▁morb	-3586
▁rp	-3587
▁IN	-3588
▁fileobj	-3589
▁upload	-3590
dimension	-3591
ORT	-3592
▁dataframe	-3593
▁td	-3594
erred	-3595
umes	-3596
▁temperature	-3597
ildcard	-3598
▁analysis	-3599
holder	-3600
observ	-3601
▁topo	-3602
buf	-3603
▁good	-3604
force	-3605
anaged	-3606
eq	-3607
precision	-3608
IL	-3609
▁brok	-3610
▁multip	-3611
▁aggreg	-3612
▁refresh	-3613
MO	-3614
mpt	-3615
tolerance	-3616
permut	-3617
▁partial	-3618
cap	-3619
▁margins	-3620
▁got	-3621
allenge	-3622
▁major	-3623
DIR	-3624
cy	-3625
▁nobias	-3626
tx	-3627
▁sizes	-3628
▁axh	-3629
▁special	-3630
ometry	-3631
▁integ	-3632
▁minimum	-3633
▁Type	-3634
cepts	-3635
proxim	-3636
region	-3637
▁requests	-3638
▁dv	-3639
controller	-3640
ACK	-3641
▁deps	-3642
▁pars	-3643
▁cour	-3644
arrays	-3645
datum	-3646
hand	-3647
Tok	-3648
ormap	-3649
▁silent	-3650
ories	-3651
remaining	-3652
Col	-3653
▁dot	-3654
charge	-3655
Var	-3656
bins	-3657
include	-3658
nl	-3659
▁positive	-3660
trace	-3661
▁cart	-3662
ifiers	-3663
parameter	-3664
▁otp	-3665
▁wsd	-3666
Label	-3667
▁fobj	-3668
▁sf	-3669
▁formatter	-3670
lang	-3671
imitive	-3672
▁pretty	-3673
64	-3674
required	-3675
dic	-3676
display	-3677
▁density	-3678
▁iterator	-3679
sol	-3680
▁known	-3681
▁monitor	-3682
▁ipv	-3683
cover	-3684
override	-3685
selector	-3686
▁vmin	-3687
00	-3688
▁hhd	-3689
▁ST	-3690
itut	-3691
crets	-3692
▁cidr	-3693
ET	-3694
▁composition	-3695
▁ms	-3696
component	-3697
▁ml	-3698
▁vertices	-3699
▁dirs	-3700
▁remaining	-3701
▁quality	-3702
mass	-3703
uler	-3704
▁tri	-3705
sity	-3706
grads	-3707
asset	-3708
python	-3709
▁indexes	-3710
validation	-3711
Start	-3712
▁lr	-3713
▁available	-3714
▁character	-3715
▁tail	-3716
▁recursive	-3717
▁argument	-3718
▁terminate	-3719
cred	-3720
▁monkey	-3721
▁common	-3722
structor	-3723
moved	-3724
equal	-3725
history	-3726
▁solution	-3727
safe	-3728
alse	-3729
▁seconds	-3730
▁hardware	-3731
▁resid	-3732
▁present	-3733
▁constant	-3734
icode	-3735
relation	-3736
▁os	-3737
▁monkeypatch	-3738
cartesian	-3739
DS	-3740
▁dpi	-3741
▁permission	-3742
keywords	-3743
▁subst	-3744
▁cosmo	-3745
▁stand	-3746
▁TEST	-3747
sql	-3748
pixel	-3749
send	-3750
▁vl	-3751
▁prepare	-3752
prev	-3753
▁vs	-3754
mer	-3755
▁const	-3756
▁ant	-3757
GER	-3758
import	-3759
elihood	-3760
writes	-3761
▁dependencies	-3762
ATA	-3763
csv	-3764
fname	-3765
▁trunc	-3766
attribute	-3767
▁colormap	-3768
▁mi	-3769
ands	-3770
gence	-3771
▁whit	-3772
prot	-3773
▁tokenJson	-3774
chat	-3775
▁prox	-3776
▁serialized	-3777
▁async	-3778
▁flavor	-3779
▁wsdlName	-3780
expr	-3781
endar	-3782
▁vmod	-3783
▁minor	-3784
backend	-3785
▁rx	-3786
curr	-3787
sources	-3788
▁vmodlName	-3789
▁shp	-3790
callable	-3791
▁expanded	-3792
atoms	-3793
memory	-3794
PO	-3795
▁metas	-3796
▁xpath	-3797
▁CON	-3798
▁ensure	-3799
▁advance	-3800
▁tm	-3801
▁contig	-3802
▁pb	-3803
▁certificate	-3804
▁secrets	-3805
▁trytes	-3806
▁episode	-3807
icies	-3808
▁yaml	-3809
append	-3810
product	-3811
zip	-3812
▁samp	-3813
▁horiz	-3814
ponent	-3815
regexp	-3816
gateway	-3817
▁maximum	-3818
▁callbacks	-3819
▁fold	-3820
▁newlines	-3821
aff	-3822
nest	-3823
replace	-3824
▁IR	-3825
abilities	-3826
▁ord	-3827
▁prog	-3828
▁follow	-3829
sq	-3830
dle	-3831
lices	-3832
avg	-3833
corr	-3834
▁effect	-3835
hi	-3836
▁processed	-3837
▁ops	-3838
writer	-3839
embed	-3840
▁modul	-3841
▁tran	-3842
▁tex	-3843
▁datacenter	-3844
proto	-3845
▁supp	-3846
▁nu	-3847
uture	-3848
▁kwarg	-3849
render	-3850
enum	-3851
CK	-3852
quences	-3853
coef	-3854
▁notebook	-3855
reference	-3856
atory	-3857
▁ctr	-3858
listener	-3859
▁members	-3860
cv	-3861
ring	-3862
▁tokentype	-3863
DO	-3864
ole	-3865
ludes	-3866
▁frequency	-3867
▁hm	-3868
▁pf	-3869
▁gap	-3870
▁denom	-3871
▁pref	-3872
▁roi	-3873
dot	-3874
▁readonly	-3875
super	-3876
icate	-3877
logger	-3878
xx	-3879
INT	-3880
report	-3881
edir	-3882
ev	-3883
plan	-3884
▁enum	-3885
▁detect	-3886
▁attem	-3887
▁subscri	-3888
gg	-3889
▁unknown	-3890
details	-3891
owner	-3892
stdout	-3893
istics	-3894
▁wavel	-3895
inds	-3896
▁boot	-3897
deleted	-3898
▁cached	-3899
▁under	-3900
Dir	-3901
▁resolution	-3902
dum	-3903
▁question	-3904
pus	-3905
▁changes	-3906
▁panel	-3907
▁terminal	-3908
success	-3909
▁safe	-3910
▁mount	-3911
summary	-3912
▁press	-3913
proc	-3914
▁diag	-3915
▁hour	-3916
degree	-3917
▁kwh	-3918
▁mk	-3919
checks	-3920
▁formatted	-3921
▁mimetype	-3922
▁nrows	-3923
▁secondary	-3924
▁gateway	-3925
▁rotation	-3926
skip	-3927
allow	-3928
▁rid	-3929
▁workers	-3930
volume	-3931
▁compare	-3932
zer	-3933
▁basename	-3934
▁lim	-3935
FORMAT	-3936
▁primitive	-3937
orter	-3938
▁ec	-3939
role	-3940
▁sleep	-3941
neighbors	-3942
random	-3943
compute	-3944
▁versions	-3945
IP	-3946
commit	-3947
▁signal	-3948
▁blank	-3949
▁docker	-3950
Un	-3951
▁answer	-3952
ured	-3953
visions	-3954
▁prediction	-3955
▁subcase	-3956
processing	-3957
▁anchor	-3958
wards	-3959
▁shade	-3960
▁variance	-3961
▁pag	-3962
Ft	-3963
▁course	-3964
uni	-3965
▁spin	-3966
ynamic	-3967
las	-3968
cer	-3969
ZE	-3970
▁blue	-3971
▁aws	-3972
▁dm	-3973
PTION	-3974
props	-3975
Ftdc	-3976
Thost	-3977
ThostFtdc	-3978
▁statement	-3979
▁icase	-3980
▁stim	-3981
▁matching	-3982
lers	-3983
undle	-3984
▁mags	-3985
▁subtitle	-3986
▁aff	-3987
hd	-3988
lr	-3989
disk	-3990
conv	-3991
inherit	-3992
▁ports	-3993
fc	-3994
▁starting	-3995
wt	-3996
cfg	-3997
▁amphora	-3998
VER	-3999
sm	-4000
▁rsp	-4001
ited	-4002
▁hex	-4003
aced	-4004
meas	-4005
▁ary	-4006
▁probs	-4007
▁fg	-4008
▁bott	-4009
category	-4010
▁fpath	-4011
power	-4012
treatment	-4013
ribe	-4014
IS	-4015
▁scor	-4016
dest	-4017
trial	-4018
duration	-4019
▁mech	-4020
internal	-4021
▁entities	-4022
pop	-4023
changed	-4024
▁qh	-4025
▁dns	-4026
UB	-4027
▁editable	-4028
overwrites	-4029
▁adapter	-4030
secure	-4031
processed	-4032
▁fetch	-4033
comple	-4034
▁combin	-4035
▁energy	-4036
▁serialize	-4037
State	-4038
▁replic	-4039
▁peak	-4040
energy	-4041
engine	-4042
END	-4043
finish	-4044
▁sa	-4045
▁switch	-4046
atom	-4047
▁increment	-4048
ij	-4049
▁ny	-4050
▁pc	-4051
esc	-4052
▁coordinates	-4053
convention	-4054
▁datatype	-4055
Group	-4056
16	-4057
static	-4058
▁minion	-4059
▁socket	-4060
PAR	-4061
▁wnd	-4062
▁since	-4063
nc	-4064
mut	-4065
padding	-4066
▁locale	-4067
▁flip	-4068
connect	-4069
HE	-4070
▁thresh	-4071
▁parallel	-4072
▁be	-4073
▁yy	-4074
▁modules	-4075
naxis	-4076
interface	-4077
▁tor	-4078
▁bed	-4079
▁arglist	-4080
▁subtype	-4081
BU	-4082
eck	-4083
defin	-4084
matches	-4085
quest	-4086
obs	-4087
brok	-4088
▁specs	-4089
links	-4090
▁tensors	-4091
kind	-4092
▁fee	-4093
candid	-4094
▁dp	-4095
▁models	-4096
prm	-4097
▁nr	-4098
lik	-4099
▁circ	-4100
LATE	-4101
▁exe	-4102
SCRI	-4103
deps	-4104
▁anum	-4105
leneck	-4106
▁nbytes	-4107
mil	-4108
vas	-4109
End	-4110
ars	-4111
▁filtertag	-4112
rad	-4113
▁setting	-4114
ral	-4115
Life	-4116
▁chrom	-4117
admin	-4118
▁prompt	-4119
▁halfLife	-4120
lon	-4121
oci	-4122
▁issue	-4123
▁btn	-4124
▁cg	-4125
▁infer	-4126
price	-4127
find	-4128
▁atoms	-4129
inf	-4130
▁substitut	-4131
On	-4132
▁escape	-4133
▁recipient	-4134
▁sock	-4135
▁bases	-4136
constant	-4137
cnt	-4138
mage	-4139
▁saved	-4140
cli	-4141
▁du	-4142
_2_	-4143
▁broadcast	-4144
▁slope	-4145
specs	-4146
▁translate	-4147
bf	-4148
ibility	-4149
▁retain	-4150
▁neighbors	-4151
uced	-4152
▁repos	-4153
null	-4154
▁tracking	-4155
▁used	-4156
amount	-4157
▁nx	-4158
▁offsets	-4159
▁surface	-4160
high	-4161
lower	-4162
▁nsm	-4163
▁kv	-4164
reader	-4165
▁aa	-4166
urns	-4167
▁tot	-4168
▁deploy	-4169
▁strand	-4170
▁execute	-4171
01	-4172
eger	-4173
hod	-4174
lookup	-4175
rough	-4176
▁fuzz	-4177
percentage	-4178
ulk	-4179
▁rename	-4180
fast	-4181
colour	-4182
tensors	-4183
eries	-4184
▁suppress	-4185
▁dependency	-4186
▁stud	-4187
ws	-4188
▁want	-4189
▁theme	-4190
ficient	-4191
combin	-4192
fixture	-4193
VERSION	-4194
subnet	-4195
records	-4196
cov	-4197
▁conda	-4198
AND	-4199
cells	-4200
▁tests	-4201
gradient	-4202
▁dL	-4203
▁expire	-4204
rink	-4205
PRO	-4206
side	-4207
ifest	-4208
install	-4209
▁renderer	-4210
▁verbosity	-4211
Params	-4212
▁targ	-4213
▁tech	-4214
▁spc	-4215
probs	-4216
Loc	-4217
▁converter	-4218
pound	-4219
▁prod	-4220
paging	-4221
man	-4222
▁logs	-4223
▁iv	-4224
basename	-4225
▁newpar	-4226
ived	-4227
bottom	-4228
▁activate	-4229
▁week	-4230
fd	-4231
▁datasource	-4232
▁bal	-4233
▁free	-4234
▁bitmap	-4235
exit	-4236
ampling	-4237
▁dct	-4238
▁intent	-4239
urls	-4240
document	-4241
▁nelements	-4242
AX	-4243
yr	-4244
tax	-4245
▁eq	-4246
▁thum	-4247
VE	-4248
au	-4249
▁sat	-4250
▁places	-4251
▁kws	-4252
ault	-4253
pers	-4254
▁autoc	-4255
Method	-4256
proxy	-4257
namespace	-4258
ram	-4259
resid	-4260
overlap	-4261
dm	-4262
tuples	-4263
retry	-4264
▁symme	-4265
▁catalog	-4266
▁keywords	-4267
frequency	-4268
show	-4269
▁decode	-4270
▁ascending	-4271
VAL	-4272
▁ic	-4273
signature	-4274
nb	-4275
▁runner	-4276
comment	-4277
hat	-4278
▁dw	-4279
vocab	-4280
▁In	-4281
objs	-4282
▁inline	-4283
▁running	-4284
gmt	-4285
alet	-4286
▁try	-4287
▁ir	-4288
close	-4289
formed	-4290
▁annotations	-4291
ube	-4292
▁bottleneck	-4293
▁ault	-4294
▁gradient	-4295
Le	-4296
updated	-4297
▁degrees	-4298
▁cast	-4299
▁verb	-4300
depend	-4301
ropy	-4302
correct	-4303
▁users	-4304
▁numeric	-4305
ITS	-4306
self	-4307
wait	-4308
▁sline	-4309
opes	-4310
parsers	-4311
uctions	-4312
MPLATE	-4313
▁distribution	-4314
members	-4315
assign	-4316
button	-4317
can	-4318
transl	-4319
training	-4320
arity	-4321
▁decl	-4322
AY	-4323
support	-4324
▁wk	-4325
roid	-4326
▁backup	-4327
▁vo	-4328
disp	-4329
refs	-4330
▁ticker	-4331
prime	-4332
cluster	-4333
this	-4334
▁merged	-4335
noise	-4336
▁pytest	-4337
download	-4338
▁poss	-4339
generator	-4340
week	-4341
dian	-4342
▁predicted	-4343
▁pd	-4344
inator	-4345
▁methodName	-4346
▁serv	-4347
AM	-4348
tool	-4349
lengths	-4350
▁publish	-4351
rase	-4352
▁hint	-4353
atic	-4354
chunks	-4355
▁ctxt	-4356
sys	-4357
▁la	-4358
home	-4359
npy	-4360
entic	-4361
▁scan	-4362
resol	-4363
validate	-4364
▁comodel	-4365
blanks	-4366
without	-4367
▁inds	-4368
▁eta	-4369
sorted	-4370
▁calibr	-4371
▁ymax	-4372
▁pairs	-4373
ga	-4374
met	-4375
▁copyright	-4376
sider	-4377
▁soup	-4378
Container	-4379
▁hyper	-4380
ewidth	-4381
apse	-4382
ERR	-4383
▁CO	-4384
▁criterion	-4385
▁tls	-4386
alette	-4387
second	-4388
contract	-4389
semb	-4390
Model	-4391
▁black	-4392
proj	-4393
▁prot	-4394
▁lic	-4395
att	-4396
▁scene	-4397
IG	-4398
workers	-4399
▁libr	-4400
proximity	-4401
illar	-4402
▁scaled	-4403
resp	-4404
unique	-4405
▁each	-4406
▁translation	-4407
agg	-4408
▁break	-4409
▁whitelist	-4410
▁pw	-4411
itespace	-4412
TIME	-4413
FIG	-4414
ABLE	-4415
mimetype	-4416
lists	-4417
▁strain	-4418
WOR	-4419
istic	-4420
▁health	-4421
▁inverse	-4422
▁workflow	-4423
▁mocked	-4424
definition	-4425
▁vlan	-4426
▁tasks	-4427
▁px	-4428
▁ndvar	-4429
▁overlap	-4430
▁requirements	-4431
lict	-4432
writem	-4433
gpu	-4434
▁issu	-4435
termin	-4436
▁season	-4437
ones	-4438
has	-4439
Values	-4440
▁sites	-4441
terms	-4442
▁country	-4443
▁assignment	-4444
children	-4445
writemany	-4446
▁readwritemany	-4447
▁sync	-4448
▁restr	-4449
▁collect	-4450
▁instring	-4451
other	-4452
▁phot	-4453
wrapper	-4454
US	-4455
inger	-4456
ocus	-4457
▁scheduler	-4458
▁grads	-4459
▁standard	-4460
▁sq	-4461
mis	-4462
▁alert	-4463
▁getter	-4464
elow	-4465
▁parents	-4466
▁mix	-4467
▁digest	-4468
▁minute	-4469
ural	-4470
▁skipna	-4471
▁modified	-4472
▁nc	-4473
main	-4474
thresh	-4475
boot	-4476
▁substitutions	-4477
IST	-4478
▁vpc	-4479
▁alignment	-4480
nr	-4481
quant	-4482
▁ha	-4483
▁ssh	-4484
▁epochs	-4485
icon	-4486
Length	-4487
criter	-4488
11	-4489
lif	-4490
▁proxies	-4491
▁sortorder	-4492
Token	-4493
TER	-4494
lst	-4495
▁bb	-4496
strategy	-4497
▁let	-4498
▁xmax	-4499
xyz	-4500
upper	-4501
squ	-4502
▁wal	-4503
tests	-4504
▁mgmt	-4505
▁clause	-4506
ients	-4507
registry	-4508
▁ncols	-4509
▁tss	-4510
decimal	-4511
▁pressure	-4512
versions	-4513
▁have	-4514
▁pipe	-4515
methods	-4516
▁iteration	-4517
ead	-4518
▁pot	-4519
▁clone	-4520
▁dial	-4521
▁cross	-4522
▁invert	-4523
failed	-4524
▁compound	-4525
strap	-4526
▁jac	-4527
▁ignored	-4528
mx	-4529
▁peer	-4530
▁ff	-4531
▁flux	-4532
▁href	-4533
▁bond	-4534
▁alloc	-4535
▁cpu	-4536
▁pubkey	-4537
ndims	-4538
roles	-4539
▁contin	-4540
frag	-4541
▁canvas	-4542
rf	-4543
rrp	-4544
▁faces	-4545
▁numpy	-4546
▁vertex	-4547
pen	-4548
▁exec	-4549
iterations	-4550
▁tk	-4551
▁shrink	-4552
▁callable	-4553
implicit	-4554
▁stdin	-4555
hot	-4556
▁ef	-4557
rl	-4558
species	-4559
▁screen	-4560
reactive	-4561
ucle	-4562
▁dual	-4563
▁challenge	-4564
REQU	-4565
▁criteria	-4566
direct	-4567
realm	-4568
▁needs	-4569
▁comput	-4570
connected	-4571
eload	-4572
disc	-4573
▁macro	-4574
▁plane	-4575
▁predicate	-4576
▁interpolation	-4577
spl	-4578
dimensions	-4579
▁ncolors	-4580
serial	-4581
yy	-4582
PI	-4583
▁decay	-4584
redirect	-4585
const	-4586
▁refer	-4587
panel	-4588
▁added	-4589
Out	-4590
cook	-4591
urity	-4592
loader	-4593
▁chars	-4594
▁packages	-4595
duplicates	-4596
rt	-4597
▁dsk	-4598
▁vcf	-4599
cale	-4600
▁genome	-4601
▁provid	-4602
hidden	-4603
gu	-4604
▁fq	-4605
clip	-4606
vm	-4607
SIZE	-4608
calls	-4609
ival	-4610
▁dom	-4611
▁mot	-4612
▁pdf	-4613
ario	-4614
CTION	-4615
▁mime	-4616
▁simple	-4617
ontal	-4618
eloc	-4619
lusive	-4620
clusters	-4621
▁converted	-4622
▁writ	-4623
▁duplic	-4624
▁vrrp	-4625
gap	-4626
flat	-4627
▁permissions	-4628
▁audio	-4629
iler	-4630
tasks	-4631
▁mach	-4632
▁saxis	-4633
▁bp	-4634
▁small	-4635
▁differentials	-4636
LIN	-4637
bbox	-4638
▁cons	-4639
▁requested	-4640
reward	-4641
▁endian	-4642
posed	-4643
indexer	-4644
bucket	-4645
branch	-4646
▁gc	-4647
▁reduce	-4648
eig	-4649
▁figsize	-4650
Port	-4651
▁altern	-4652
▁license	-4653
▁neut	-4654
▁subsample	-4655
els	-4656
▁convergence	-4657
Field	-4658
versed	-4659
▁kwargsdict	-4660
▁trial	-4661
Request	-4662
▁material	-4663
resolution	-4664
▁uiparts	-4665
▁dump	-4666
▁descr	-4667
▁expires	-4668
PU	-4669
centr	-4670
sole	-4671
ingerprint	-4672
▁rm	-4673
NO	-4674
▁vt	-4675
simulation	-4676
quot	-4677
▁polyg	-4678
▁supplier	-4679
▁big	-4680
band	-4681
fixed	-4682
ice	-4683
▁ttl	-4684
▁interfaces	-4685
▁permut	-4686
▁transport	-4687
▁underline	-4688
▁rnd	-4689
▁expectation	-4690
▁checkpoint	-4691
▁routing	-4692
▁distances	-4693
▁nodeName	-4694
▁estim	-4695
ims	-4696
ways	-4697
▁xmin	-4698
▁geometry	-4699
▁labelsize	-4700
two	-4701
▁book	-4702
▁lex	-4703
protocols	-4704
▁tuple	-4705
exceptions	-4706
▁equal	-4707
LOG	-4708
▁insecure	-4709
umul	-4710
▁transcript	-4711
uous	-4712
ior	-4713
milli	-4714
▁stype	-4715
unt	-4716
MENT	-4717
measure	-4718
▁margin	-4719
▁stateful	-4720
▁separator	-4721
▁discard	-4722
▁ox	-4723
▁wcsprm	-4724
constraints	-4725
PER	-4726
▁nlabels	-4727
▁arrow	-4728
▁concat	-4729
rew	-4730
▁rr	-4731
OUT	-4732
pixels	-4733
fold	-4734
setup	-4735
park	-4736
▁extras	-4737
tot	-4738
▁identityfile	-4739
▁era	-4740
cpu	-4741
ned	-4742
▁cut	-4743
▁namesp	-4744
▁neighb	-4745
aker	-4746
▁exists	-4747
▁fv	-4748
▁cval	-4749
colle	-4750
▁slug	-4751
▁usage	-4752
▁upgrade	-4753
ommit	-4754
▁same	-4755
impurity	-4756
▁symprec	-4757
HT	-4758
PL	-4759
▁dry	-4760
▁featur	-4761
rates	-4762
▁processing	-4763
▁synapse	-4764
▁instructions	-4765
ains	-4766
raise	-4767
▁terms	-4768
▁uname	-4769
▁regexp	-4770
▁dh	-4771
lc	-4772
▁curve	-4773
▁aspect	-4774
▁momentum	-4775
uit	-4776
backup	-4777
▁clf	-4778
▁docks	-4779
oom	-4780
▁future	-4781
▁AR	-4782
▁IZ	-4783
Object	-4784
▁scoring	-4785
▁built	-4786
▁palette	-4787
▁working	-4788
bsocket	-4789
▁rf	-4790
▁optionals	-4791
▁lmd	-4792
▁corpus	-4793
etched	-4794
▁testdir	-4795
▁tables	-4796
▁resolvername	-4797
▁manifest	-4798
PRE	-4799
▁team	-4800
▁false	-4801
entities	-4802
▁methcode	-4803
zen	-4804
▁qubits	-4805
▁cdi	-4806
▁ymin	-4807
Msg	-4808
▁isub	-4809
▁fragment	-4810
stamp	-4811
▁assay	-4812
▁persistence	-4813
▁hit	-4814
VT	-4815
▁linear	-4816
▁ftype	-4817
imen	-4818
▁subm	-4819
▁speed	-4820
▁decoded	-4821
▁vertical	-4822
Colour	-4823
raph	-4824
▁gp	-4825
trie	-4826
clean	-4827
payload	-4828
subclass	-4829
▁flatten	-4830
▁dispatch	-4831
▁dtypes	-4832
vie	-4833
reams	-4834
lec	-4835
digits	-4836
▁organ	-4837
phi	-4838
ambig	-4839
volumes	-4840
▁torrent	-4841
▁expir	-4842
board	-4843
example	-4844
▁bug	-4845
sched	-4846
▁er	-4847
ks	-4848
▁highest	-4849
Fil	-4850
▁adjust	-4851
▁pi	-4852
sigma	-4853
▁phys	-4854
extract	-4855
▁transpose	-4856
MSG	-4857
▁middle	-4858
RESP	-4859
ech	-4860
▁fasta	-4861
numer	-4862
▁candidates	-4863
sect	-4864
imuth	-4865
▁algo	-4866
▁saltenv	-4867
follow	-4868
offsets	-4869
▁resolved	-4870
▁double	-4871
▁datasets	-4872
▁lam	-4873
▁unpack	-4874
▁hw	-4875
▁mkdir	-4876
▁issuer	-4877
▁ascii	-4878
observer	-4879
wildcard	-4880
ofm	-4881
plus	-4882
tablespace	-4883
▁objective	-4884
js	-4885
▁ctrl	-4886
▁recon	-4887
dropout	-4888
▁iterations	-4889
▁subdir	-4890
▁autocommit	-4891
▁loadbalancer	-4892
lvl	-4893
pres	-4894
▁imag	-4895
▁datadir	-4896
partitions	-4897
From	-4898
sv	-4899
ern	-4900
▁vdef	-4901
▁xz	-4902
▁mil	-4903
curacy	-4904
argument	-4905
orient	-4906
▁itime	-4907
▁collections	-4908
▁integer	-4909
divisions	-4910
best	-4911
ticks	-4912
▁assigned	-4913
▁generated	-4914
▁consider	-4915
▁weighted	-4916
▁defin	-4917
▁slices	-4918
segment	-4919
▁contexts	-4920
▁measurement	-4921
font	-4922
predictions	-4923
gration	-4924
shp	-4925
tein	-4926
▁ear	-4927
▁ln	-4928
▁isubcase	-4929
pip	-4930
qubits	-4931
ucleot	-4932
▁vmatch	-4933
ckey	-4934
▁forecast	-4935
▁TThostFtdc	-4936
Names	-4937
▁instances	-4938
pb	-4939
▁failure	-4940
▁lw	-4941
▁zs	-4942
TEMPLATE	-4943
Ali	-4944
▁poll	-4945
▁xlabel	-4946
Style	-4947
binary	-4948
lout	-4949
▁mov	-4950
▁swap	-4951
▁compar	-4952
▁reduced	-4953
▁fileName	-4954
OK	-4955
▁ion	-4956
▁markers	-4957
ally	-4958
dataframe	-4959
Unit	-4960
olid	-4961
coeff	-4962
▁depends	-4963
MAP	-4964
▁consum	-4965
▁segments	-4966
▁preprocessors	-4967
▁any	-4968
specified	-4969
▁residual	-4970
▁guess	-4971
▁warnings	-4972
lab	-4973
firm	-4974
▁angles	-4975
SET	-4976
▁deleted	-4977
▁managed	-4978
▁optim	-4979
▁flavors	-4980
▁age	-4981
LL	-4982
hh	-4983
▁bs	-4984
vecs	-4985
widget	-4986
▁encrypt	-4987
itles	-4988
▁hosts	-4989
▁iline	-4990
une	-4991
Line	-4992
▁zaxis	-4993
▁relationships	-4994
cd	-4995
tab	-4996
▁fuel	-4997
▁pages	-4998
ONSE	-4999
Image	-5000
sites	-5001
▁pyg	-5002
▁naxis	-5003
▁catch	-5004
IR	-5005
numpy	-5006
▁executor	-5007
multiple	-5008
▁removed	-5009
▁truncate	-5010
ERROR	-5011
Tr	-5012
▁cmds	-5013
apsed	-5014
forward	-5015
▁vartype	-5016
available	-5017
▁bootstrap	-5018
▁parentContainer	-5019
subject	-5020
resources	-5021
hel	-5022
▁dirty	-5023
▁EX	-5024
done	-5025
▁remain	-5026
▁logical	-5027
▁repository	-5028
▁disambig	-5029
ulate	-5030
▁green	-5031
▁pointer	-5032
▁constructor	-5033
hr	-5034
▁calendar	-5035
▁pygments	-5036
bind	-5037
bases	-5038
speed	-5039
arc	-5040
▁fullname	-5041
milliseconds	-5042
▁roles	-5043
▁starts	-5044
▁edata	-5045
arti	-5046
filenames	-5047
▁itemsize	-5048
▁capt	-5049
▁locs	-5050
▁distname	-5051
▁fixture	-5052
annot	-5053
▁radi	-5054
▁sensor	-5055
▁simulation	-5056
▁whitespace	-5057
expand	-5058
ermi	-5059
▁exponent	-5060
▁MAX	-5061
▁frames	-5062
minus	-5063
▁opacity	-5064
keep	-5065
iters	-5066
ises	-5067
ners	-5068
▁figure	-5069
▁equival	-5070
▁keyid	-5071
route	-5072
artifact	-5073
material	-5074
▁Bnode	-5075
▁dirpath	-5076
former	-5077
▁genes	-5078
▁fb	-5079
▁mapped	-5080
▁coefficient	-5081
▁sampling	-5082
cutoff	-5083
learning	-5084
once	-5085
▁SE	-5086
▁psi	-5087
docs	-5088
ascii	-5089
▁gff	-5090
▁wavelet	-5091
lb	-5092
xb	-5093
Pre	-5094
modules	-5095
▁fmatch	-5096
▁gain	-5097
adients	-5098
▁fac	-5099
complete	-5100
▁interp	-5101
▁useblanks	-5102
keyword	-5103
▁sha	-5104
Format	-5105
uped	-5106
▁ast	-5107
comm	-5108
▁rtype	-5109
▁large	-5110
RESPONSE	-5111
dn	-5112
ECT	-5113
epsilon	-5114
nx	-5115
▁htmlhelp	-5116
▁subjects	-5117
▁viewname	-5118
CL	-5119
tf	-5120
▁probability	-5121
functions	-5122
adapter	-5123
▁topology	-5124
▁urlconf	-5125
▁bool	-5126
ucleotides	-5127
▁comb	-5128
▁skipcheck	-5129
▁light	-5130
warning	-5131
funcs	-5132
going	-5133
▁disabled	-5134
aybe	-5135
Align	-5136
configuration	-5137
▁mis	-5138
▁boundary	-5139
txt	-5140
▁sbp	-5141
css	-5142
▁bi	-5143
▁checkexists	-5144
▁reuse	-5145
▁scaling	-5146
bb	-5147
▁spacing	-5148
irr	-5149
dicator	-5150
ASS	-5151
algorithm	-5152
▁rse	-5153
▁cases	-5154
▁comps	-5155
olutions	-5156
plugins	-5157
ptide	-5158
▁share	-5159
estimators	-5160
▁heap	-5161
mom	-5162
Ad	-5163
▁listen	-5164
elect	-5165
▁mapper	-5166
▁exceptions	-5167
▁services	-5168
udit	-5169
orth	-5170
▁plugins	-5171
escape	-5172
▁subscriber	-5173
mas	-5174
▁oappend	-5175
Err	-5176
▁linewidth	-5177
▁chos	-5178
▁expl	-5179
auto	-5180
final	-5181
rouped	-5182
▁padded	-5183
▁crypt	-5184
▁filled	-5185
▁slab	-5186
▁bundle	-5187
▁pix	-5188
margin	-5189
▁flask	-5190
▁sx	-5191
▁fps	-5192
▁reser	-5193
▁possible	-5194
▁library	-5195
reads	-5196
▁keypair	-5197
▁lengths	-5198
Read	-5199
▁lem	-5200
▁tight	-5201
denom	-5202
▁cx	-5203
yaml	-5204
▁sse	-5205
logging	-5206
▁contr	-5207
cb	-5208
loads	-5209
splits	-5210
when	-5211
ckeys	-5212
atcher	-5213
▁xdist	-5214
FIX	-5215
marker	-5216
▁memmap	-5217
▁chat	-5218
▁latt	-5219
▁intersection	-5220
Qu	-5221
▁allele	-5222
Level	-5223
▁solid	-5224
▁excluded	-5225
pid	-5226
▁yi	-5227
▁spark	-5228
▁gpu	-5229
rc	-5230
fac	-5231
slot	-5232
▁always	-5233
ined	-5234
select	-5235
PORT	-5236
▁HAS	-5237
▁occ	-5238
▁dicom	-5239
At	-5240
TED	-5241
▁workdir	-5242
vation	-5243
▁tbl	-5244
isodes	-5245
▁integration	-5246
defs	-5247
▁lead	-5248
▁repl	-5249
▁ben	-5250
▁dates	-5251
▁modo	-5252
▁schedule	-5253
Node	-5254
username	-5255
likelihood	-5256
▁limits	-5257
calc	-5258
▁expressions	-5259
EXT	-5260
episode	-5261
oration	-5262
planes	-5263
undance	-5264
▁corr	-5265
▁threaded	-5266
FO	-5267
▁invok	-5268
▁bulk	-5269
▁nargs	-5270
▁checked	-5271
▁ctype	-5272
▁ranges	-5273
database	-5274
▁gid	-5275
▁gate	-5276
veckeys	-5277
stage	-5278
▁connector	-5279
slots	-5280
▁gold	-5281
convert	-5282
ZI	-5283
security	-5284
dock	-5285
added	-5286
▁roots	-5287
qm	-5288
▁nod	-5289
▁pillar	-5290
▁reduction	-5291
devices	-5292
▁locator	-5293
intervals	-5294
▁ann	-5295
sequences	-5296
crease	-5297
▁termination	-5298
En	-5299
▁attachment	-5300
tage	-5301
▁was	-5302
▁mutation	-5303
STR	-5304
pod	-5305
secs	-5306
routes	-5307
▁wd	-5308
▁timest	-5309
execution	-5310
▁MO	-5311
▁tid	-5312
clause	-5313
Height	-5314
▁sector	-5315
ere	-5316
cloud	-5317
▁runs	-5318
Result	-5319
▁movie	-5320
cm	-5321
ather	-5322
mac	-5323
divid	-5324
ART	-5325
▁tup	-5326
MIN	-5327
▁lik	-5328
▁errs	-5329
ranges	-5330
orZI	-5331
reset	-5332
▁IZorZI	-5333
▁tokenizer	-5334
OUR	-5335
▁tdist	-5336
typ	-5337
shell	-5338
▁ntimes	-5339
unknown	-5340
▁ft	-5341
MM	-5342
itter	-5343
ordered	-5344
▁cycle	-5345
require	-5346
▁tempdir	-5347
▁scenario	-5348
▁cookies	-5349
▁dz	-5350
perms	-5351
▁ylabel	-5352
▁policies	-5353
_5	-5354
LIST	-5355
▁slow	-5356
Ref	-5357
▁study	-5358
ipro	-5359
▁dash	-5360
▁rg	-5361
checksum	-5362
IDX	-5363
sume	-5364
▁veloc	-5365
▁wb	-5366
▁fnm	-5367
wcs	-5368
pane	-5369
▁spacer	-5370
▁truth	-5371
▁sky	-5372
peated	-5373
hy	-5374
▁elt	-5375
▁sci	-5376
▁maxiter	-5377
▁profilefile	-5378
▁srid	-5379
preact	-5380
examples	-5381
▁nv	-5382
▁memo	-5383
extend	-5384
defined	-5385
identity	-5386
▁excinfo	-5387
descriptor	-5388
▁dynamic	-5389
▁adminrealm	-5390
ignore	-5391
UI	-5392
▁xzplane	-5393
aves	-5394
criterion	-5395
dx	-5396
basic	-5397
▁foreign	-5398
lied	-5399
star	-5400
relative	-5401
▁sz	-5402
▁balance	-5403
quote	-5404
▁shar	-5405
release	-5406
leg	-5407
sur	-5408
▁ticks	-5409
existing	-5410
good	-5411
▁dayfirst	-5412
▁flavorsfile	-5413
▁transformation	-5414
Ele	-5415
▁vault	-5416
logs	-5417
▁endcard	-5418
AUGER	-5419
▁kdims	-5420
register	-5421
▁bc	-5422
andas	-5423
BO	-5424
▁blacklist	-5425
uses	-5426
▁eol	-5427
▁nax	-5428
coordinates	-5429
coming	-5430
chainer	-5431
▁applications	-5432
▁wid	-5433
▁combined	-5434
Rect	-5435
▁routes	-5436
currency	-5437
▁centroid	-5438
candidates	-5439
▁cleanup	-5440
▁axw	-5441
▁sampler	-5442
Of	-5443
ui	-5444
ripts	-5445
▁replacement	-5446
usage	-5447
MAX	-5448
▁jwt	-5449
ued	-5450
DATA	-5451
masks	-5452
fasta	-5453
▁etype	-5454
REQUEST	-5455
▁panes	-5456
▁rad	-5457
generate	-5458
UE	-5459
▁bol	-5460
icles	-5461
▁rval	-5462
▁slic	-5463
smooth	-5464
▁gb	-5465
chainerx	-5466
Sizer	-5467
▁numbers	-5468
repl	-5469
seud	-5470
edit	-5471
▁attempt	-5472
▁provision	-5473
▁wf	-5474
▁rt	-5475
CONFIG	-5476
rece	-5477
▁binding	-5478
ancy	-5479
▁through	-5480
overrides	-5481
▁bm	-5482
truth	-5483
ippet	-5484
▁summ	-5485
Found	-5486
▁shard	-5487
▁tc	-5488
web	-5489
▁crit	-5490
▁seid	-5491
uss	-5492
▁od	-5493
ickness	-5494
rms	-5495
utes	-5496
▁hel	-5497
▁indx	-5498
conver	-5499
erior	-5500
▁story	-5501
▁solutions	-5502
PY	-5503
▁keysel	-5504
▁ifinite	-5505
cles	-5506
lobs	-5507
redshift	-5508
Stat	-5509
▁visited	-5510
CHE	-5511
▁anim	-5512
▁bill	-5513
▁letter	-5514
DATE	-5515
▁hdr	-5516
tyles	-5517
assert	-5518
refresh	-5519
▁locked	-5520
Exp	-5521
▁thr	-5522
▁pull	-5523
▁yearfirst	-5524
▁fromsubclass	-5525
rev	-5526
linear	-5527
pools	-5528
Offset	-5529
▁brush	-5530
hdus	-5531
▁player	-5532
▁transparent	-5533
▁dense	-5534
▁polygon	-5535
PS	-5536
she	-5537
need	-5538
certs	-5539
▁deprec	-5540
▁coverage	-5541
combination	-5542
users	-5543
▁secure	-5544
▁agw	-5545
indent	-5546
unicode	-5547
share	-5548
▁ini	-5549
▁li	-5550
Config	-5551
imitives	-5552
▁maybe	-5553
▁molec	-5554
free	-5555
▁jj	-5556
▁epg	-5557
▁artist	-5558
JECT	-5559
▁bindings	-5560
days	-5561
▁chains	-5562
apt	-5563
▁grp	-5564
layout	-5565
logits	-5566
▁extended	-5567
▁placeholder	-5568
ALL	-5569
pyxb	-5570
▁nfields	-5571
multiplier	-5572
Code	-5573
atures	-5574
▁slave	-5575
▁devices	-5576
▁oauth	-5577
▁abundance	-5578
▁live	-5579
▁vif	-5580
▁oname	-5581
▁remainder	-5582
▁tmpl	-5583
▁etag	-5584
execute	-5585
terminal	-5586
▁PRO	-5587
replic	-5588
▁complete	-5589
OURCE	-5590
stacklevel	-5591
xs	-5592
▁cam	-5593
▁basis	-5594
comments	-5595
ingState	-5596
irror	-5597
complex	-5598
▁contextname	-5599
transformation	-5600
iso	-5601
An	-5602
▁ansi	-5603
▁mand	-5604
▁clusters	-5605
▁processes	-5606
▁some	-5607
vertices	-5608
▁invokingState	-5609
LOW	-5610
eas	-5611
epos	-5612
▁chr	-5613
▁readme	-5614
▁testMethod	-5615
▁neur	-5616
▁boltz	-5617
▁fontsize	-5618
▁returned	-5619
fm	-5620
border	-5621
debug	-5622
▁logging	-5623
optimizer	-5624
dK	-5625
▁spat	-5626
ensities	-5627
sync	-5628
▁bet	-5629
▁maxlen	-5630
▁relpath	-5631
Max	-5632
▁msp	-5633
▁texinfo	-5634
traceback	-5635
▁authentic	-5636
▁supported	-5637
▁userid	-5638
▁slc	-5639
▁acqu	-5640
▁actor	-5641
▁learn	-5642
▁tw	-5643
FF	-5644
separ	-5645
▁spot	-5646
▁basic	-5647
▁compat	-5648
inx	-5649
GR	-5650
tm	-5651
wk	-5652
blob	-5653
aliases	-5654
▁aug	-5655
▁fignum	-5656
▁fa	-5657
Len	-5658
▁car	-5659
▁below	-5660
▁holid	-5661
cher	-5662
gene	-5663
▁restart	-5664
fferent	-5665
▁ri	-5666
dense	-5667
▁sublist	-5668
inner	-5669
▁neutron	-5670
setting	-5671
mech	-5672
▁hdf	-5673
fetched	-5674
priority	-5675
unction	-5676
menu	-5677
▁specimen	-5678
compress	-5679
▁fingerprint	-5680
Di	-5681
infos	-5682
Store	-5683
▁two	-5684
▁associ	-5685
plots	-5686
▁dropna	-5687
thing	-5688
▁anti	-5689
▁tuples	-5690
▁compressed	-5691
dings	-5692
▁protein	-5693
▁registered	-5694
▁deleg	-5695
ML	-5696
car	-5697
draw	-5698
timest	-5699
▁pseud	-5700
monitor	-5701
▁bus	-5702
dump	-5703
amble	-5704
▁locations	-5705
operator	-5706
▁analy	-5707
tip	-5708
pages	-5709
▁regions	-5710
▁bqm	-5711
▁negative	-5712
means	-5713
Fl	-5714
▁around	-5715
▁subs	-5716
prod	-5717
▁decision	-5718
du	-5719
▁packet	-5720
snapshot	-5721
▁symmetr	-5722
▁rpc	-5723
Min	-5724
tile	-5725
expression	-5726
seen	-5727
▁clos	-5728
DEFAULT	-5729
▁parsing	-5730
AMP	-5731
ene	-5732
contig	-5733
▁varname	-5734
▁linestyle	-5735
▁ur	-5736
LINE	-5737
▁evalu	-5738
▁filetype	-5739
bnail	-5740
▁tier	-5741
acing	-5742
describe	-5743
metry	-5744
vidence	-5745
conversion	-5746
bitmap	-5747
▁alarm	-5748
▁horizontal	-5749
TP	-5750
errs	-5751
▁preds	-5752
▁nullable	-5753
ansion	-5754
▁modname	-5755
aps	-5756
iterator	-5757
ampa	-5758
▁hold	-5759
▁taus	-5760
effect	-5761
factors	-5762
▁mn	-5763
mixed	-5764
▁confirm	-5765
▁mt	-5766
▁hess	-5767
IM	-5768
▁exclus	-5769
▁phases	-5770
configs	-5771
▁iface	-5772
▁runas	-5773
▁mm	-5774
▁plt	-5775
▁operating	-5776
▁stem	-5777
locs	-5778
▁vnf	-5779
allowed	-5780
▁censor	-5781
▁mandatory	-5782
▁transfer	-5783
login	-5784
parsed	-5785
LEN	-5786
dst	-5787
numeric	-5788
▁ioc	-5789
inline	-5790
▁interactive	-5791
▁ftp	-5792
changes	-5793
▁notify	-5794
cookie	-5795
▁comma	-5796
▁maxsize	-5797
Se	-5798
Tem	-5799
▁modes	-5800
▁plural	-5801
Map	-5802
oo	-5803
Vector	-5804
▁tmin	-5805
quality	-5806
▁annotator	-5807
▁completed	-5808
SH	-5809
CRE	-5810
Range	-5811
▁notification	-5812
▁sin	-5813
▁city	-5814
ACE	-5815
incip	-5816
gradients	-5817
▁compiler	-5818
ism	-5819
public	-5820
extensions	-5821
▁apic	-5822
▁serve	-5823
▁extractor	-5824
▁intensity	-5825
▁tpl	-5826
▁wor	-5827
▁splits	-5828
crete	-5829
▁freqs	-5830
▁magic	-5831
pp	-5832
AST	-5833
▁iso	-5834
ek	-5835
environment	-5836
aw	-5837
▁cds	-5838
fetch	-5839
▁facet	-5840
handles	-5841
▁precompute	-5842
multiprocessing	-5843
▁rollout	-5844
▁bid	-5845
▁logg	-5846
▁crd	-5847
language	-5848
selected	-5849
▁blink	-5850
ITY	-5851
selection	-5852
▁finished	-5853
▁population	-5854
▁chosen	-5855
▁grouped	-5856
suite	-5857
▁atlas	-5858
▁irow	-5859
▁kk	-5860
▁anc	-5861
Number	-5862
▁blast	-5863
▁transformed	-5864
learn	-5865
▁VERSION	-5866
▁circuit	-5867
▁incoming	-5868
frac	-5869
▁pnl	-5870
▁chart	-5871
preload	-5872
pot	-5873
tenant	-5874
▁basedir	-5875
ilarity	-5876
dividual	-5877
Func	-5878
zeros	-5879
▁prefixed	-5880
CS	-5881
dct	-5882
CODE	-5883
maps	-5884
mismatch	-5885
▁threads	-5886
▁means	-5887
▁timer	-5888
▁div	-5889
▁pname	-5890
decimals	-5891
eid	-5892
▁cores	-5893
coverage	-5894
cons	-5895
▁dow	-5896
▁functions	-5897
rd	-5898
▁todo	-5899
oins	-5900
▁DESCRI	-5901
lation	-5902
saved	-5903
▁ordering	-5904
deriv	-5905
GRO	-5906
▁prefixes	-5907
flip	-5908
scan	-5909
adjust	-5910
agger	-5911
▁cleaned	-5912
▁console	-5913
Up	-5914
chron	-5915
ENS	-5916
▁elapsed	-5917
hp	-5918
_1_	-5919
compound	-5920
DU	-5921
ano	-5922
since	-5923
centration	-5924
▁statistics	-5925
Match	-5926
lattice	-5927
primitives	-5928
large	-5929
▁dupe	-5930
▁cf	-5931
poly	-5932
builder	-5933
managed	-5934
epg	-5935
▁shear	-5936
▁charset	-5937
▁ks	-5938
shared	-5939
atter	-5940
cores	-5941
eigen	-5942
mesh	-5943
▁ddof	-5944
▁timezone	-5945
inherited	-5946
▁discount	-5947
lambda	-5948
phrase	-5949
▁blk	-5950
ITE	-5951
▁submission	-5952
▁zoom	-5953
▁mlflow	-5954
▁reject	-5955
luxes	-5956
▁efermi	-5957
PUT	-5958
Spec	-5959
▁toks	-5960
simple	-5961
▁rotate	-5962
▁notes	-5963
▁consumer	-5964
▁products	-5965
UNITS	-5966
increment	-5967
▁builtin	-5968
comb	-5969
▁snap	-5970
▁trust	-5971
▁handlers	-5972
▁selectors	-5973
▁integrator	-5974
nid	-5975
▁assets	-5976
▁allocation	-5977
▁deprecated	-5978
transaction	-5979
▁exprs	-5980
packages	-5981
▁colabel	-5982
ava	-5983
▁did	-5984
plement	-5985
epository	-5986
pix	-5987
liers	-5988
requests	-5989
▁testcase	-5990
div	-5991
▁bsc	-5992
▁capacity	-5993
▁unicode	-5994
▁embedded	-5995
▁neighbor	-5996
Row	-5997
abet	-5998
▁combine	-5999
▁factors	-6000
slo	-6001
margins	-6002
Array	-6003
▁feedback	-6004
jar	-6005
otes	-6006
▁refs	-6007
prediction	-6008
▁FI	-6009
▁msgs	-6010
spaces	-6011
ils	-6012
▁lvs	-6013
passes	-6014
ypes	-6015
▁nbr	-6016
▁imager	-6017
▁wildcard	-6018
▁embedding	-6019
emon	-6020
▁checks	-6021
ONG	-6022
ACT	-6023
Pix	-6024
▁early	-6025
▁classifier	-6026
acl	-6027
ensemb	-6028
Th	-6029
UND	-6030
mu	-6031
tech	-6032
▁tofile	-6033
▁broker	-6034
▁sketch	-6035
AV	-6036
▁wkt	-6037
datasets	-6038
locations	-6039
▁separation	-6040
▁jobs	-6041
family	-6042
▁xdensity	-6043
gw	-6044
comma	-6045
▁stmt	-6046
▁ydensity	-6047
ancel	-6048
atives	-6049
▁ce	-6050
Font	-6051
master	-6052
upload	-6053
▁fft	-6054
cursor	-6055
▁provisioning	-6056
erele	-6057
quantity	-6058
concat	-6059
▁thous	-6060
broadcast	-6061
▁ongoing	-6062
_40	-6063
▁nap	-6064
▁pids	-6065
▁tl	-6066
socket	-6067
ampaign	-6068
▁edited	-6069
▁crs	-6070
▁parname	-6071
▁reversed	-6072
▁arn	-6073
pipeline	-6074
isk	-6075
▁tip	-6076
itation	-6077
ulary	-6078
phot	-6079
▁masses	-6080
▁holidays	-6081
▁vv	-6082
MODE	-6083
numbers	-6084
▁zplane	-6085
▁namespaceprefix	-6086
▁pur	-6087
▁squ	-6088
Error	-6089
vectors	-6090
▁TR	-6091
verity	-6092
expanded	-6093
▁volumes	-6094
▁organization	-6095
Param	-6096
MET	-6097
slat	-6098
▁lp	-6099
many	-6100
vertex	-6101
▁snippet	-6102
bi	-6103
▁cns	-6104
TYPES	-6105
▁schem	-6106
TEST	-6107
▁chan	-6108
▁datavolumes	-6109
worker	-6110
▁verts	-6111
▁zorder	-6112
observed	-6113
Date	-6114
▁multus	-6115
▁imagerepository	-6116
yses	-6117
sections	-6118
icro	-6119
solver	-6120
visible	-6121
NF	-6122
▁vip	-6123
▁complex	-6124
attention	-6125
▁massnumber	-6126
▁halfLifeUnit	-6127
preds	-6128
policies	-6129
oked	-6130
guess	-6131
▁epub	-6132
▁foot	-6133
▁computed	-6134
Ax	-6135
COL	-6136
Del	-6137
eros	-6138
▁autom	-6139
periments	-6140
attem	-6141
break	-6142
▁prep	-6143
positive	-6144
drop	-6145
ryption	-6146
tps	-6147
▁byt	-6148
▁soft	-6149
▁tmax	-6150
▁likelihood	-6151
▁thresholds	-6152
▁starttime	-6153
Frame	-6154
▁fx	-6155
kward	-6156
▁neuron	-6157
▁constants	-6158
▁covariance	-6159
fu	-6160
▁transformer	-6161
lims	-6162
▁pwd	-6163
▁customer	-6164
tod	-6165
mm	-6166
prim	-6167
▁caller	-6168
▁preset	-6169
▁awkward	-6170
▁given	-6171
▁dialect	-6172
▁modulation	-6173
▁gs	-6174
mega	-6175
▁tokenobject	-6176
▁subparser	-6177
DER	-6178
git	-6179
▁mail	-6180
▁rdcc	-6181
▁assume	-6182
idxs	-6183
▁dfs	-6184
coslat	-6185
▁pause	-6186
repeated	-6187
▁groupby	-6188
ceed	-6189
▁ensemb	-6190
▁attention	-6191
ICE	-6192
▁delt	-6193
▁quadr	-6194
virtual	-6195
aref	-6196
▁attachments	-6197
▁endpoints	-6198
ised	-6199
▁more	-6200
▁latent	-6201
▁modulatory	-6202
ATOR	-6203
FIEL	-6204
▁nlri	-6205
episodes	-6206
▁trade	-6207
exec	-6208
onds	-6209
▁deployment	-6210
▁Re	-6211
onal	-6212
▁glob	-6213
WN	-6214
skew	-6215
ogram	-6216
negative	-6217
▁factory	-6218
jac	-6219
visor	-6220
▁orders	-6221
▁inferred	-6222
▁performer	-6223
▁executable	-6224
▁vox	-6225
ump	-6226
▁websocket	-6227
licity	-6228
▁tries	-6229
▁interpre	-6230
remote	-6231
▁photo	-6232
▁attempts	-6233
▁fuzzable	-6234
▁ends	-6235
ensitive	-6236
XT	-6237
Mode	-6238
▁cmp	-6239
▁nw	-6240
▁editor	-6241
Pr	-6242
attach	-6243
▁ograd	-6244
rewall	-6245
▁stacklevel	-6246
▁bw	-6247
Title	-6248
▁wall	-6249
signal	-6250
mags	-6251
▁walk	-6252
▁scr	-6253
▁decoder	-6254
▁horizon	-6255
▁vim	-6256
peaks	-6257
▁ismask	-6258
stddev	-6259
▁jobname	-6260
runner	-6261
amphora	-6262
diction	-6263
fft	-6264
oles	-6265
▁trainable	-6266
ni	-6267
stopping	-6268
outer	-6269
sleep	-6270
▁gram	-6271
▁suffixes	-6272
▁lbl	-6273
topic	-6274
velope	-6275
▁nbits	-6276
decrease	-6277
▁jd	-6278
reco	-6279
▁room	-6280
▁ccxt	-6281
accept	-6282
UNT	-6283
merge	-6284
▁thumb	-6285
▁dri	-6286
grams	-6287
▁enduse	-6288
IO	-6289
▁wat	-6290
▁hdul	-6291
atlas	-6292
▁eigen	-6293
encoder	-6294
nonzero	-6295
conflict	-6296
GET	-6297
Annot	-6298
▁reps	-6299
▁submit	-6300
▁miller	-6301
watcher	-6302
▁vardef	-6303
dh	-6304
▁met	-6305
▁sam	-6306
▁bench	-6307
▁vp	-6308
variant	-6309
anal	-6310
mapp	-6311
▁hours	-6312
▁datastore	-6313
▁highlight	-6314
22	-6315
▁outdir	-6316
▁multiplier	-6317
oke	-6318
permutations	-6319
▁lamb	-6320
resolvers	-6321
25	-6322
pkg	-6323
arefluxes	-6324
duplicate	-6325
▁magsarefluxes	-6326
domains	-6327
▁inject	-6328
alignment	-6329
requires	-6330
▁recurse	-6331
mgr	-6332
▁wx	-6333
▁arc	-6334
▁typename	-6335
API	-6336
▁beam	-6337
origin	-6338
▁pants	-6339
▁jar	-6340
▁trail	-6341
ingular	-6342
heads	-6343
intent	-6344
Rate	-6345
incipal	-6346
mol	-6347
▁neigh	-6348
Ids	-6349
exclude	-6350
dictionary	-6351
▁aggregate	-6352
▁thousands	-6353
tb	-6354
▁KE	-6355
▁srna	-6356
▁punch	-6357
hip	-6358
▁sip	-6359
isition	-6360
▁indptr	-6361
SP	-6362
decay	-6363
rices	-6364
angles	-6365
erarch	-6366
estr	-6367
azimuth	-6368
For	-6369
tls	-6370
Message	-6371
▁skipped	-6372
supported	-6373
validator	-6374
oped	-6375
requencies	-6376
▁passed	-6377
▁replica	-6378
outs	-6379
▁approx	-6380
▁ntotal	-6381
tokenizer	-6382
▁lif	-6383
▁legacy	-6384
ifications	-6385
▁play	-6386
prepar	-6387
▁errmsg	-6388
screen	-6389
note	-6390
▁indicator	-6391
trackers	-6392
▁lut	-6393
rols	-6394
signed	-6395
come	-6396
perf	-6397
relations	-6398
▁lf	-6399
actor	-6400
▁ry	-6401
trials	-6402
▁partner	-6403
Idx	-6404
▁fk	-6405
▁executes	-6406
OP	-6407
Ro	-6408
▁contours	-6409
▁convention	-6410
▁vid	-6411
dp	-6412
hn	-6413
▁iprot	-6414
limits	-6415
▁written	-6416
formation	-6417
▁methcodes	-6418
forms	-6419
▁plus	-6420
ric	-6421
▁treat	-6422
▁numerical	-6423
nums	-6424
Event	-6425
▁thumbnail	-6426
▁requirement	-6427
neur	-6428
▁spatial	-6429
adow	-6430
▁acl	-6431
▁vdims	-6432
processes	-6433
▁lengthscale	-6434
gray	-6435
▁lig	-6436
anches	-6437
pickle	-6438
realms	-6439
certain	-6440
▁helpstr	-6441
conditions	-6442
tpl	-6443
▁retcode	-6444
permissions	-6445
▁extent	-6446
▁noun	-6447
AIL	-6448
WID	-6449
tracking	-6450
partition	-6451
kl	-6452
ipv	-6453
spin	-6454
▁mpc	-6455
▁polar	-6456
distances	-6457
make	-6458
▁sugg	-6459
scaled	-6460
▁modifier	-6461
▁lmda	-6462
▁lons	-6463
▁inters	-6464
▁nat	-6465
mappings	-6466
▁thickness	-6467
relationship	-6468
▁wsp	-6469
▁tstop	-6470
ym	-6471
▁apps	-6472
▁classname	-6473
certificate	-6474
▁rz	-6475
Head	-6476
▁cas	-6477
▁creds	-6478
▁containers	-6479
BP	-6480
BUG	-6481
▁multiple	-6482
solid	-6483
▁nonneg	-6484
different	-6485
▁decorator	-6486
OB	-6487
appa	-6488
▁ttype	-6489
▁ld	-6490
▁lm	-6491
conda	-6492
partial	-6493
dom	-6494
dilation	-6495
▁severity	-6496
sha	-6497
_9	-6498
▁St	-6499
▁svc	-6500
hosts	-6501
enumber	-6502
▁downcast	-6503
dependencies	-6504
▁nlu	-6505
▁dset	-6506
▁icol	-6507
stim	-6508
begin	-6509
▁texts	-6510
▁npartitions	-6511
mot	-6512
▁affine	-6513
▁AN	-6514
▁dlg	-6515
▁fov	-6516
ves	-6517
▁heading	-6518
addresses	-6519
SON	-6520
STAT	-6521
ison	-6522
▁subparsers	-6523
▁rend	-6524
urations	-6525
▁newline	-6526
▁downgrade	-6527
▁ten	-6528
PREFIX	-6529
pointer	-6530
commands	-6531
instances	-6532
▁accuracy	-6533
cos	-6534
ircle	-6535
stress	-6536
▁machine	-6537
crl	-6538
roots	-6539
▁gf	-6540
Files	-6541
▁tstart	-6542
▁meths	-6543
erarchy	-6544
URE	-6545
▁lats	-6546
squared	-6547
original	-6548
Output	-6549
reason	-6550
optim	-6551
constructor	-6552
va	-6553
lies	-6554
▁joint	-6555
▁formats	-6556
▁PY	-6557
▁prov	-6558
▁merging	-6559
recur	-6560
▁extrap	-6561
timesteps	-6562
▁molecule	-6563
▁permutation	-6564
modes	-6565
▁footprint	-6566
▁denominator	-6567
Pat	-6568
ros	-6569
onical	-6570
▁spline	-6571
residual	-6572
boxes	-6573
Command	-6574
ANG	-6575
kws	-6576
video	-6577
▁xdim	-6578
▁wp	-6579
▁downs	-6580
▁elems	-6581
▁physical	-6582
BER	-6583
▁streams	-6584
▁normalization	-6585
grp	-6586
ung	-6587
Only	-6588
▁domains	-6589
taxa	-6590
▁slots	-6591
▁restrict	-6592
credentials	-6593
NUM	-6594
▁bvs	-6595
▁jid	-6596
▁queries	-6597
▁widgets	-6598
▁longitude	-6599
▁namespaced	-6600
▁nz	-6601
compression	-6602
small	-6603
▁bzero	-6604
▁pending	-6605
▁autoescape	-6606
All	-6607
tex	-6608
▁deltas	-6609
Pol	-6610
▁dg	-6611
▁amplit	-6612
magn	-6613
preparation	-6614
ced	-6615
icip	-6616
uids	-6617
getter	-6618
▁itable	-6619
calendar	-6620
schedule	-6621
hold	-6622
▁kde	-6623
21	-6624
▁resolvers	-6625
cn	-6626
QL	-6627
▁gl	-6628
▁pools	-6629
▁errfile	-6630
Url	-6631
decl	-6632
▁KEY	-6633
▁iri	-6634
▁scopes	-6635
▁todtype	-6636
▁inclusive	-6637
Is	-6638
trd	-6639
Vari	-6640
▁tfce	-6641
▁theano	-6642
neurons	-6643
tt	-6644
▁wt	-6645
▁twe	-6646
▁fromdtype	-6647
▁solutionset	-6648
▁acq	-6649
▁crypto	-6650
▁bd	-6651
curve	-6652
▁finder	-6653
subset	-6654
▁unmanaged	-6655
▁individual	-6656
nm	-6657
foo	-6658
▁voice	-6659
gression	-6660
▁connected	-6661
▁lng	-6662
▁click	-6663
▁titles	-6664
backward	-6665
▁aligned	-6666
Alignments	-6667
ipt	-6668
▁hits	-6669
Al	-6670
▁ring	-6671
activation	-6672
Arg	-6673
fwd	-6674
▁backward	-6675
▁sequences	-6676
▁acquisition	-6677
▁recipe	-6678
Page	-6679
delim	-6680
▁loggable	-6681
▁included	-6682
thetai	-6683
▁launch	-6684
xp	-6685
ots	-6686
LOAD	-6687
▁cum	-6688
▁ship	-6689
▁tipo	-6690
present	-6691
▁joined	-6692
▁bf	-6693
▁bra	-6694
▁SH	-6695
▁boxes	-6696
▁focus	-6697
istance	-6698
▁ending	-6699
▁spaces	-6700
▁formset	-6701
hooks	-6702
extent	-6703
▁lemma	-6704
▁omega	-6705
mediate	-6706
▁examples	-6707
rgb	-6708
nbytes	-6709
▁reload	-6710
prefixes	-6711
▁authorization	-6712
▁ey	-6713
pods	-6714
summ	-6715
decod	-6716
dispatch	-6717
▁backends	-6718
Ext	-6719
bmp	-6720
▁nf	-6721
▁none	-6722
▁blocksize	-6723
thr	-6724
▁TI	-6725
verbo	-6726
coeffs	-6727
magmom	-6728
▁detector	-6729
writ	-6730
operation	-6731
▁DO	-6732
▁references	-6733
MAGE	-6734
resolver	-6735
▁visibility	-6736
matched	-6737
external	-6738
▁solar	-6739
Cur	-6740
tar	-6741
spans	-6742
▁perms	-6743
tools	-6744
▁subgraph	-6745
▁blueprint	-6746
permutation	-6747
restoration	-6748
▁namespacedef	-6749
dynamic	-6750
▁operand	-6751
▁yaxis	-6752
▁dimensional	-6753
dri	-6754
health	-6755
▁supers	-6756
▁capabilities	-6757
RY	-6758
gies	-6759
symbols	-6760
ble	-6761
Mech	-6762
▁ips	-6763
org	-6764
▁AUT	-6765
pathname	-6766
utc	-6767
asket	-6768
coefs	-6769
panels	-6770
trigger	-6771
▁testing	-6772
dirty	-6773
ipher	-6774
▁idxs	-6775
contain	-6776
hostname	-6777
▁mutable	-6778
▁modulable	-6779
cidr	-6780
bounded	-6781
Response	-6782
▁presort	-6783
fx	-6784
▁evaluation	-6785
deploy	-6786
seqs	-6787
contour	-6788
▁networks	-6789
▁enter	-6790
▁instant	-6791
▁mr	-6792
▁imported	-6793
ulator	-6794
TRI	-6795
▁bt	-6796
De	-6797
▁bands	-6798
▁topics	-6799
ied	-6800
▁sun	-6801
▁rounded	-6802
▁velocity	-6803
crop	-6804
migration	-6805
Job	-6806
Local	-6807
▁occu	-6808
▁bgcolor	-6809
▁buttons	-6810
▁alphabet	-6811
▁diffs	-6812
handlers	-6813
▁inspect	-6814
▁tagspec	-6815
correction	-6816
▁equivalencies	-6817
apply	-6818
▁iy	-6819
▁interpolate	-6820
msp	-6821
▁dhcp	-6822
scopes	-6823
▁urlpatterns	-6824
▁Res	-6825
locale	-6826
▁abi	-6827
unity	-6828
▁funcs	-6829
▁campaign	-6830
▁flt	-6831
▁backoff	-6832
ereleases	-6833
guid	-6834
alloc	-6835
iteral	-6836
▁bytest	-6837
dists	-6838
nested	-6839
ulated	-6840
▁expiration	-6841
▁centers	-6842
anular	-6843
▁passw	-6844
▁unpacked	-6845
▁vocabulary	-6846
Attr	-6847
▁ints	-6848
▁oxid	-6849
▁pkgname	-6850
▁intr	-6851
▁svalue	-6852
▁decimals	-6853
▁assaycode	-6854
13	-6855
unct	-6856
Block	-6857
ayment	-6858
▁losses	-6859
fee	-6860
ased	-6861
iled	-6862
▁near	-6863
▁subnets	-6864
▁API	-6865
Template	-6866
▁explicit	-6867
fus	-6868
▁responseClass	-6869
Mon	-6870
▁um	-6871
aper	-6872
▁inifile	-6873
vcf	-6874
▁adjac	-6875
rotation	-6876
▁numerator	-6877
mach	-6878
moment	-6879
▁splitter	-6880
geometry	-6881
ONE	-6882
olate	-6883
isy	-6884
▁effective	-6885
▁mb	-6886
wers	-6887
GEX	-6888
▁otpkey	-6889
ove	-6890
pdf	-6891
▁SS	-6892
▁amb	-6893
horiz	-6894
▁ni	-6895
based	-6896
▁techno	-6897
platform	-6898
▁transitions	-6899
dit	-6900
▁Nu	-6901
Point	-6902
vo	-6903
constants	-6904
▁sink	-6905
▁codec	-6906
kb	-6907
tur	-6908
▁recipients	-6909
▁onto	-6910
▁well	-6911
▁ndata	-6912
catalog	-6913
oleon	-6914
▁iris	-6915
▁napoleon	-6916
▁orb	-6917
recogn	-6918
▁plate	-6919
▁preprocessor	-6920
Mat	-6921
alc	-6922
runs	-6923
provid	-6924
▁regular	-6925
distribut	-6926
▁tv	-6927
reater	-6928
50	-6929
Trans	-6930
uages	-6931
silent	-6932
▁fptr	-6933
▁imgs	-6934
▁subkey	-6935
certainty	-6936
RESOURCE	-6937
▁transition	-6938
false	-6939
▁scales	-6940
▁strord	-6941
textstyle	-6942
swap	-6943
mapped	-6944
archive	-6945
▁revoked	-6946
▁cpdis	-6947
arith	-6948
mlink	-6949
shards	-6950
▁extracted	-6951
▁verifylist	-6952
▁ctg	-6953
▁priv	-6954
Word	-6955
POINT	-6956
▁wipe	-6957
▁reads	-6958
special	-6959
▁native	-6960
▁symmetrical	-6961
LED	-6962
▁dof	-6963
evalu	-6964
previous	-6965
64_	-6966
aspect	-6967
▁stress	-6968
▁includes	-6969
▁configs	-6970
▁conversion	-6971
raises	-6972
▁gcode	-6973
challenge	-6974
impl	-6975
▁llfc	-6976
strain	-6977
iteration	-6978
▁tokeninfo	-6979
▁sku	-6980
calibr	-6981
▁adjoint	-6982
▁intersect	-6983
▁potential	-6984
▁OP	-6985
▁fip	-6986
▁vectors	-6987
▁specification	-6988
Ver	-6989
olean	-6990
▁when	-6991
▁pm	-6992
ndim	-6993
▁slim	-6994
▁tour	-6995
▁inobject	-6996
▁alternative	-6997
crs	-6998
async	-6999
ational	-7000
▁evts	-7001
▁xlim	-7002
▁installed	-7003
Def	-7004
▁RO	-7005
▁relax	-7006
▁concentration	-7007
cached	-7008
▁spans	-7009
▁correction	-7010
▁instrument	-7011
COUNT	-7012
spacing	-7013
▁contour	-7014
subsc	-7015
▁User	-7016
candidate	-7017
▁nbins	-7018
▁received	-7019
WORD	-7020
sampl	-7021
actual	-7022
▁retrie	-7023
extended	-7024
Anal	-7025
heel	-7026
▁symb	-7027
Options	-7028
batches	-7029
umulative	-7030
NOT	-7031
agraph	-7032
▁keras	-7033
▁patches	-7034
bet	-7035
▁mf	-7036
▁il	-7037
▁pg	-7038
ades	-7039
outh	-7040
▁oct	-7041
iprows	-7042
▁preamble	-7043
▁dependents	-7044
distribution	-7045
▁Di	-7046
▁iou	-7047
collect	-7048
▁unroll	-7049
PEC	-7050
empt	-7051
▁subj	-7052
permission	-7053
▁censoring	-7054
COMP	-7055
cycle	-7056
▁hl	-7057
Axis	-7058
epochs	-7059
▁agwStyle	-7060
finder	-7061
▁ether	-7062
IND	-7063
metic	-7064
BE	-7065
By	-7066
approx	-7067
▁failures	-7068
▁latitude	-7069
Sel	-7070
media	-7071
▁symm	-7072
▁then	-7073
resume	-7074
▁front	-7075
▁boundaries	-7076
▁flush	-7077
sampling	-7078
vr	-7079
▁stddev	-7080
▁interpreter	-7081
ween	-7082
▁isite	-7083
▁resize	-7084
▁qualifier	-7085
▁nmkw	-7086
▁nmrep	-7087
▁vlims	-7088
redirects	-7089
▁operations	-7090
▁callableObj	-7091
Chars	-7092
▁inlen	-7093
publish	-7094
▁bscale	-7095
▁encrypted	-7096
collections	-7097
▁masks	-7098
Filename	-7099
▁analyzer	-7100
▁detection	-7101
igs	-7102
▁flo	-7103
▁inStr	-7104
fore	-7105
▁kill	-7106
▁rb	-7107
▁kappa	-7108
▁usecols	-7109
responses	-7110
▁directive	-7111
Recs	-7112
agement	-7113
▁listeners	-7114
ulls	-7115
Int	-7116
normalized	-7117
▁posterior	-7118
UST	-7119
caped	-7120
etime	-7121
▁packed	-7122
▁featurizer	-7123
gc	-7124
comput	-7125
▁tempor	-7126
▁preview	-7127
Bu	-7128
▁hf	-7129
ider	-7130
AW	-7131
Seed	-7132
▁scalars	-7133
▁minimizer	-7134
▁bk	-7135
▁pic	-7136
▁conj	-7137
repeat	-7138
encoders	-7139
▁strength	-7140
ICT	-7141
▁nP	-7142
▁assertion	-7143
ULT	-7144
imag	-7145
pipe	-7146
▁cipher	-7147
activate	-7148
AIN	-7149
Args	-7150
▁CONF	-7151
▁company	-7152
▁lenient	-7153
ux	-7154
USER	-7155
instr	-7156
spect	-7157
▁restri	-7158
▁conflict	-7159
geo	-7160
href	-7161
mpan	-7162
ToPort	-7163
bundle	-7164
contact	-7165
▁quotes	-7166
templates	-7167
Tag	-7168
Test	-7169
▁cdf	-7170
estore	-7171
kwds	-7172
▁alts	-7173
dl	-7174
cla	-7175
quota	-7176
cycles	-7177
▁refit	-7178
▁trimmed	-7179
istration	-7180
ann	-7181
fid	-7182
flux	-7183
reed	-7184
▁qos	-7185
anced	-7186
segments	-7187
NT	-7188
ucer	-7189
▁logdir	-7190
whm	-7191
TEXT	-7192
argu	-7193
▁wif	-7194
LES	-7195
▁bib	-7196
▁nper	-7197
▁hints	-7198
▁design	-7199
▁entropy	-7200
▁cod	-7201
reate	-7202
▁ARD	-7203
▁avail	-7204
▁mtime	-7205
▁scaff	-7206
▁downsample	-7207
Order	-7208
izers	-7209
mocker	-7210
Policy	-7211
▁micro	-7212
▁corner	-7213
▁locals	-7214
▁smiles	-7215
▁outs	-7216
private	-7217
inverse	-7218
▁inherited	-7219
black	-7220
glyph	-7221
inp	-7222
recs	-7223
iline	-7224
todos	-7225
Status	-7226
▁ncards	-7227
▁supply	-7228
ecs	-7229
proba	-7230
▁loglevel	-7231
▁quadratic	-7232
blk	-7233
meth	-7234
bidden	-7235
residue	-7236
chronous	-7237
pin	-7238
▁gy	-7239
endor	-7240
▁footer	-7241
▁describe	-7242
▁idf	-7243
▁visitor	-7244
▁inference	-7245
▁ask	-7246
Window	-7247
▁trunk	-7248
▁timestep	-7249
▁abo	-7250
digest	-7251
▁ifile	-7252
▁minutes	-7253
▁sections	-7254
slash	-7255
▁recording	-7256
▁comparator	-7257
▁anchors	-7258
orders	-7259
ABEL	-7260
Sub	-7261
topo	-7262
sheet	-7263
▁prefer	-7264
aut	-7265
▁bgp	-7266
focus	-7267
deltas	-7268
▁await	-7269
geom	-7270
▁bam	-7271
▁hdu	-7272
veloc	-7273
▁coll	-7274
checker	-7275
scripts	-7276
ITH	-7277
▁ul	-7278
hints	-7279
ardown	-7280
enshot	-7281
▁scroll	-7282
▁mv	-7283
definitions	-7284
▁awkwardlib	-7285
bak	-7286
▁pmin	-7287
▁specie	-7288
supercell	-7289
▁accounts	-7290
▁rounding	-7291
▁extrapolate	-7292
BC	-7293
hz	-7294
▁txn	-7295
escapes	-7296
▁variants	-7297
▁HNF	-7298
▁chip	-7299
▁nonce	-7300
capacity	-7301
With	-7302
rack	-7303
▁remo	-7304
▁TE	-7305
▁dj	-7306
▁gx	-7307
▁AUTH	-7308
BACK	-7309
▁isol	-7310
▁mong	-7311
▁decays	-7312
interpol	-7313
recognized	-7314
▁credential	-7315
▁definitions	-7316
▁probe	-7317
oref	-7318
cross	-7319
posite	-7320
statement	-7321
▁envelope	-7322
blue	-7323
▁locus	-7324
▁maxfail	-7325
▁uv	-7326
▁broadcastable	-7327
slab	-7328
Actions	-7329
▁calibrations	-7330
ournal	-7331
▁dispatcher	-7332
RL	-7333
lips	-7334
rp	-7335
ker	-7336
izations	-7337
▁offline	-7338
▁air	-7339
▁assoc	-7340
▁profiles	-7341
▁addresses	-7342
▁amplitude	-7343
▁experiments	-7344
freqs	-7345
▁cube	-7346
▁hashed	-7347
translate	-7348
▁of	-7349
loaded	-7350
peaker	-7351
RED	-7352
bbvi	-7353
strip	-7354
IDs	-7355
itr	-7356
▁amt	-7357
Check	-7358
refer	-7359
removed	-7360
▁implicit	-7361
▁hs	-7362
bars	-7363
delt	-7364
▁ipt	-7365
▁weak	-7366
▁symmetry	-7367
helper	-7368
eids	-7369
▁tun	-7370
allery	-7371
URI	-7372
▁Str	-7373
▁rdf	-7374
estor	-7375
▁linked	-7376
petition	-7377
dip	-7378
Table	-7379
common	-7380
ques	-7381
▁aln	-7382
▁pval	-7383
encode	-7384
tracker	-7385
attempts	-7386
probability	-7387
feed	-7388
ventory	-7389
▁encode	-7390
INFO	-7391
paces	-7392
▁cand	-7393
▁clss	-7394
▁phrase	-7395
qs	-7396
si	-7397
obo	-7398
maint	-7399
returns	-7400
▁observer	-7401
arithmetic	-7402
▁cw	-7403
▁gui	-7404
▁audit	-7405
▁shadow	-7406
▁wavelength	-7407
▁fvg	-7408
reverse	-7409
▁dbname	-7410
▁compile	-7411
▁normalizer	-7412
▁frequencies	-7413
Sc	-7414
▁decim	-7415
▁returns	-7416
til	-7417
imes	-7418
▁tokenrealms	-7419
absolute	-7420
▁rescale	-7421
▁bil	-7422
assignment	-7423
▁decorated	-7424
ANCE	-7425
▁sweep	-7426
ony	-7427
ople	-7428
▁coin	-7429
▁mini	-7430
peptide	-7431
sessions	-7432
▁aggregator	-7433
▁ylim	-7434
▁cause	-7435
experiment	-7436
▁above	-7437
▁here	-7438
posure	-7439
▁cmaps	-7440
▁strat	-7441
▁exclusion	-7442
inct	-7443
▁prepar	-7444
▁learner	-7445
lt	-7446
▁combo	-7447
▁fld	-7448
▁supercell	-7449
extr	-7450
texts	-7451
▁nam	-7452
▁spk	-7453
▁calls	-7454
▁median	-7455
▁synMech	-7456
SSAGE	-7457
annotation	-7458
▁pagination	-7459
▁dbfile	-7460
▁planes	-7461
backwards	-7462
▁overview	-7463
▁doActions	-7464
ERY	-7465
middle	-7466
fragment	-7467
▁observations	-7468
▁tiles	-7469
restart	-7470
▁logfile	-7471
NS	-7472
▁kern	-7473
Version	-7474
▁globals	-7475
▁sortable	-7476
▁expansion	-7477
Pt	-7478
patt	-7479
▁pandas	-7480
▁characteristics	-7481
hole	-7482
▁EVT	-7483
▁olabel	-7484
▁optschema	-7485
▁intercepts	-7486
▁svg	-7487
estring	-7488
▁dmodel	-7489
▁shortcut	-7490
vt	-7491
▁stops	-7492
▁oxidation	-7493
▁IS	-7494
inge	-7495
▁piv	-7496
marks	-7497
until	-7498
▁eager	-7499
▁subpath	-7500
▁fuzzy	-7501
▁analog	-7502
▁basket	-7503
▁floating	-7504
▁calibration	-7505
roun	-7506
▁capsys	-7507
▁rpn	-7508
▁STAT	-7509
rounding	-7510
GROUP	-7511
▁NAME	-7512
▁heat	-7513
markup	-7514
estions	-7515
▁travers	-7516
▁ib	-7517
▁nelect	-7518
optional	-7519
▁servers	-7520
normalize	-7521
▁yend	-7522
pection	-7523
▁hasher	-7524
temperature	-7525
dos	-7526
▁ndx	-7527
▁BASE	-7528
▁land	-7529
▁zeros	-7530
▁pbc	-7531
VALID	-7532
dy	-7533
▁ME	-7534
▁logp	-7535
baseline	-7536
▁tense	-7537
covered	-7538
▁LOGGER	-7539
Settings	-7540
▁baseurl	-7541
AUTH	-7542
Base	-7543
IONS	-7544
Valid	-7545
▁posting	-7546
▁converters	-7547
▁world	-7548
▁styles	-7549
Form	-7550
styles	-7551
▁reltol	-7552
hdf	-7553
CONT	-7554
▁PATH	-7555
▁exprsFound	-7556
glob	-7557
▁nums	-7558
evidence	-7559
tle	-7560
▁TIME	-7561
nucleotides	-7562
▁preprocessing	-7563
▁hp	-7564
gate	-7565
obile	-7566
▁attn	-7567
▁uint	-7568
▁hline	-7569
riptions	-7570
▁overlay	-7571
ADD	-7572
▁kp	-7573
▁chk	-7574
▁ell	-7575
▁btype	-7576
▁https	-7577
Pattern	-7578
perfect	-7579
Iter	-7580
▁grouper	-7581
ups	-7582
editor	-7583
▁stored	-7584
▁validated	-7585
▁enforce	-7586
▁invoice	-7587
▁coordinate	-7588
▁ai	-7589
locally	-7590
▁pyfile	-7591
ficients	-7592
tran	-7593
▁fullpath	-7594
orientation	-7595
wal	-7596
encoded	-7597
▁mc	-7598
▁motif	-7599
ranks	-7600
▁prices	-7601
networks	-7602
workflow	-7603
▁duplicate	-7604
mount	-7605
tures	-7606
▁Flow	-7607
▁magn	-7608
▁joins	-7609
▁complib	-7610
▁authorized	-7611
▁timestamps	-7612
▁kl	-7613
VICE	-7614
oping	-7615
▁fout	-7616
▁vendor	-7617
▁branches	-7618
maintainer	-7619
▁gm	-7620
trip	-7621
▁wrt	-7622
▁seeds	-7623
ensemble	-7624
ASK	-7625
dur	-7626
▁quota	-7627
psi	-7628
mcid	-7629
reqs	-7630
▁sni	-7631
▁java	-7632
folds	-7633
▁DATA	-7634
▁migr	-7635
▁para	-7636
▁quat	-7637
passed	-7638
materials	-7639
permuted	-7640
Ind	-7641
idf	-7642
▁encryption	-7643
Box	-7644
sat	-7645
▁dA	-7646
Types	-7647
shade	-7648
balance	-7649
▁restore	-7650
▁prt	-7651
▁pseudo	-7652
DF	-7653
▁oob	-7654
▁pdb	-7655
▁homedir	-7656
▁strd	-7657
scales	-7658
▁xaxis	-7659
▁accepts	-7660
▁ndarray	-7661
IB	-7662
▁SBP	-7663
footer	-7664
▁vtype	-7665
bdf	-7666
lis	-7667
▁tn	-7668
▁redis	-7669
▁singular	-7670
integrator	-7671
▁similarity	-7672
ATCH	-7673
onoi	-7674
▁AUI	-7675
decor	-7676
export	-7677
oronoi	-7678
disabled	-7679
▁nesting	-7680
Parameters	-7681
▁today	-7682
Month	-7683
▁suite	-7684
parallel	-7685
▁trainer	-7686
GIN	-7687
▁EN	-7688
▁crc	-7689
▁lev	-7690
▁tin	-7691
▁LONG	-7692
starts	-7693
▁rigid	-7694
▁caplog	-7695
▁namespaces	-7696
▁Diam	-7697
listen	-7698
▁netloc	-7699
▁contains	-7700
regression	-7701
▁variances	-7702
23	-7703
fuel	-7704
▁conc	-7705
FN	-7706
sci	-7707
▁gw	-7708
▁guid	-7709
specifier	-7710
▁timeline	-7711
Sy	-7712
lace	-7713
▁cmdline	-7714
▁Ex	-7715
▁NO	-7716
▁just	-7717
▁pickle	-7718
endpoints	-7719
▁tokenkind	-7720
Lo	-7721
EW	-7722
slug	-7723
EVT	-7724
cho	-7725
▁fro	-7726
silently	-7727
▁sls	-7728
mapper	-7729
▁cosine	-7730
observations	-7731
▁larg	-7732
▁daemon	-7733
▁funcname	-7734
▁CThostFtdc	-7735
▁provided	-7736
dash	-7737
▁appro	-7738
▁ngram	-7739
▁resolve	-7740
▁decorators	-7741
▁partitions	-7742
chr	-7743
apping	-7744
▁clients	-7745
Clo	-7746
▁graphic	-7747
▁npoints	-7748
quad	-7749
indx	-7750
▁prepared	-7751
▁translations	-7752
OM	-7753
▁swagger	-7754
gest	-7755
▁NUM	-7756
▁nic	-7757
oid	-7758
_404	-7759
erate	-7760
▁perf	-7761
Tokens	-7762
▁longname	-7763
rtype	-7764
wrong	-7765
▁markup	-7766
▁substr	-7767
smoothing	-7768
8_	-7769
▁DEBUG	-7770
▁cname	-7771
▁coefs	-7772
▁shipping	-7773
▁seqid	-7774
▁consist	-7775
installed	-7776
RESS	-7777
▁DATE	-7778
compressed	-7779
cam	-7780
FIELD	-7781
▁pertur	-7782
▁tester	-7783
▁marking	-7784
▁uncertainty	-7785
CESS	-7786
reduce	-7787
▁alice	-7788
▁tweet	-7789
▁hspace	-7790
includes	-7791
▁axial	-7792
▁dialog	-7793
datasources	-7794
▁connections	-7795
Log	-7796
▁xc	-7797
▁argtypes	-7798
▁stepsize	-7799
▁passphrase	-7800
CA	-7801
ster	-7802
▁dmax	-7803
erated	-7804
ordering	-7805
▁creation	-7806
▁realmname	-7807
▁categorical	-7808
▁jun	-7809
IAL	-7810
emp	-7811
▁simp	-7812
▁adapt	-7813
▁wanted	-7814
▁technology	-7815
▁ij	-7816
COMM	-7817
zenith	-7818
▁cdx	-7819
▁hyp	-7820
▁nom	-7821
LIENT	-7822
▁brain	-7823
subtype	-7824
▁String	-7825
▁coordination	-7826
▁dead	-7827
Center	-7828
▁estimate	-7829
▁currentplan	-7830
▁featurestore	-7831
▁widths	-7832
unrecognized	-7833
portion	-7834
Su	-7835
▁trades	-7836
anularity	-7837
radi	-7838
▁goal	-7839
▁expiry	-7840
▁delegated	-7841
▁dae	-7842
inality	-7843
▁reserved	-7844
hm	-7845
▁kcl	-7846
readonly	-7847
▁ontology	-7848
▁shrinking	-7849
dns	-7850
▁fe	-7851
mats	-7852
▁ppp	-7853
▁USER	-7854
andbox	-7855
▁apikey	-7856
▁peptide	-7857
tau	-7858
datasource	-7859
▁preferred	-7860
dro	-7861
unches	-7862
▁without	-7863
▁jobStore	-7864
▁impl	-7865
decode	-7866
▁hooks	-7867
▁tooltip	-7868
ben	-7869
▁tic	-7870
▁wave	-7871
Tags	-7872
average	-7873
▁camera	-7874
▁firewall	-7875
▁roll	-7876
ulations	-7877
initialize	-7878
▁lu	-7879
▁most	-7880
services	-7881
▁voltage	-7882
idir	-7883
▁USE	-7884
▁recs	-7885
▁hatch	-7886
ORY	-7887
Ret	-7888
authentic	-7889
nans	-7890
inity	-7891
matrices	-7892
products	-7893
▁principal	-7894
▁xb	-7895
insic	-7896
hed	-7897
▁otype	-7898
▁estimated	-7899
YS	-7900
▁vb	-7901
▁characteristic	-7902
px	-7903
ARE	-7904
Ser	-7905
tri	-7906
libr	-7907
▁wspace	-7908
summaries	-7909
▁Form	-7910
machine	-7911
▁permutations	-7912
ike	-7913
▁nth	-7914
▁defined	-7915
Inv	-7916
WAR	-7917
▁years	-7918
FileName	-7919
▁alternate	-7920
▁resistance	-7921
▁pct	-7922
▁station	-7923
▁projects	-7924
▁subdomain	-7925
▁inside	-7926
UC	-7927
ERE	-7928
▁HT	-7929
▁onnx	-7930
deprec	-7931
▁gallery	-7932
▁encoders	-7933
▁sentences	-7934
MB	-7935
▁AC	-7936
Open	-7937
vile	-7938
▁sensors	-7939
peg	-7940
retch	-7941
▁mids	-7942
▁closest	-7943
hdr	-7944
▁ival	-7945
▁canonical	-7946
▁rpt	-7947
▁GITS	-7948
median	-7949
exe	-7950
HEAD	-7951
serve	-7952
embedding	-7953
▁xm	-7954
▁sofm	-7955
▁finite	-7956
▁FlowRate	-7957
▁migration	-7958
▁wide	-7959
tplen	-7960
pubkey	-7961
▁otplen	-7962
▁xl	-7963
▁clis	-7964
▁cmdir	-7965
▁kclidir	-7966
▁detailed	-7967
▁secretsfile	-7968
▁defaultclient	-7969
▁containerclient	-7970
▁currentplanfile	-7971
ird	-7972
STATE	-7973
elems	-7974
▁misc	-7975
▁ov	-7976
orph	-7977
trunc	-7978
▁plots	-7979
closed	-7980
hparams	-7981
Position	-7982
▁convers	-7983
Per	-7984
big	-7985
▁hue	-7986
stable	-7987
▁stripped	-7988
▁duplicates	-7989
tv	-7990
formatter	-7991
contin	-7992
router	-7993
profiles	-7994
▁capture	-7995
▁prefixlen	-7996
▁Con	-7997
▁prepend	-7998
▁citation	-7999
connections	-8000
DB	-8001
slop	-8002
under	-8003
▁nodel	-8004
▁unk	-8005
▁surf	-8006
filelike	-8007
▁calculation	-8008
sd	-8009
eles	-8010
▁beg	-8011
▁north	-8012
▁featuregroup	-8013
descr	-8014
reply	-8015
acters	-8016
slices	-8017
▁piece	-8018
retcode	-8019
▁published	-8020
push	-8021
logical	-8022
IZ	-8023
TERN	-8024
▁sem	-8025
audit	-8026
▁subtree	-8027
LETE	-8028
▁sal	-8029
▁Spec	-8030
sembly	-8031
voltage	-8032
▁authors	-8033
▁calculate	-8034
▁morph	-8035
▁warmup	-8036
references	-8037
loading	-8038
▁ground	-8039
origins	-8040
▁contribut	-8041
probabilities	-8042
BASE	-8043
parents	-8044
objective	-8045
ctrl	-8046
▁stub	-8047
callbacks	-8048
plementation	-8049
▁lun	-8050
▁breaks	-8051
▁matcher	-8052
▁Om	-8053
ends	-8054
▁ipos	-8055
itrage	-8056
persist	-8057
▁student	-8058
dem	-8059
umin	-8060
▁take	-8061
ACKAGE	-8062
▁views	-8063
wrapped	-8064
▁particip	-8065
ulas	-8066
stories	-8067
▁docname	-8068
▁getitem	-8069
Mem	-8070
jimage	-8071
▁dimname	-8072
▁dependent	-8073
▁va	-8074
ASSWORD	-8075
aux	-8076
▁exporter	-8077
requirements	-8078
dd	-8079
▁bx	-8080
servers	-8081
▁VI	-8082
ptag	-8083
REGEX	-8084
▁fancy	-8085
▁defect	-8086
reenshot	-8087
Mod	-8088
▁iq	-8089
pull	-8090
hashes	-8091
Context	-8092
▁kernels	-8093
▁disconnected	-8094
18	-8095
▁intrinsic	-8096
▁matchString	-8097
LD	-8098
▁digit	-8099
▁mobile	-8100
▁AP	-8101
ANGE	-8102
icast	-8103
graphs	-8104
compare	-8105
▁journal	-8106
▁negated	-8107
▁reading	-8108
widths	-8109
▁preference	-8110
hits	-8111
▁psf	-8112
▁wik	-8113
▁fitness	-8114
▁classpath	-8115
gp	-8116
▁hr	-8117
▁zf	-8118
click	-8119
hours	-8120
choice	-8121
▁inode	-8122
verification	-8123
EP	-8124
pcmd	-8125
▁disc	-8126
▁dispcmd	-8127
mr	-8128
flg	-8129
▁pow	-8130
mirror	-8131
▁inbound	-8132
▁randomSeed	-8133
▁saturation	-8134
utures	-8135
▁dists	-8136
articles	-8137
MD	-8138
▁past	-8139
STATUS	-8140
▁clamp	-8141
▁universe	-8142
ucl	-8143
lm	-8144
schem	-8145
▁voxel	-8146
clients	-8147
▁nsptag	-8148
FromPort	-8149
▁restriction	-8150
▁vc	-8151
INGS	-8152
toks	-8153
▁push	-8154
▁vitrage	-8155
▁downloaded	-8156
▁eb	-8157
▁gray	-8158
▁timeframe	-8159
▁mods	-8160
▁tune	-8161
▁cancel	-8162
▁must	-8163
▁datai	-8164
streams	-8165
▁ttFont	-8166
▁icmp	-8167
▁phone	-8168
symmetry	-8169
▁energies	-8170
▁MIN	-8171
▁slide	-8172
appbase	-8173
▁directed	-8174
ov	-8175
Items	-8176
anted	-8177
▁accumul	-8178
▁bounded	-8179
▁sampled	-8180
containers	-8181
ogle	-8182
▁abf	-8183
repres	-8184
▁infos	-8185
▁escaped	-8186
hg	-8187
▁tg	-8188
▁fwhm	-8189
ulse	-8190
stand	-8191
▁seek	-8192
▁nodata	-8193
▁sanitized	-8194
DESCRI	-8195
▁xdata	-8196
▁endtime	-8197
hide	-8198
▁txid	-8199
▁wxEVT	-8200
▁sigclip	-8201
Sh	-8202
lev	-8203
▁radii	-8204
No	-8205
▁subarr	-8206
▁nodelist	-8207
▁treatment	-8208
▁authenticator	-8209
Element	-8210
entropy	-8211
▁scoped	-8212
ran	-8213
uch	-8214
joint	-8215
compar	-8216
▁skiprows	-8217
▁randomize	-8218
▁excClass	-8219
▁paragraph	-8220
▁directories	-8221
uli	-8222
Inter	-8223
▁watch	-8224
OST	-8225
win	-8226
miss	-8227
subs	-8228
▁cla	-8229
▁rnn	-8230
keras	-8231
▁robot	-8232
failcount	-8233
▁teardown	-8234
▁subschema	-8235
▁FILE	-8236
▁accum	-8237
fallback	-8238
hierarchy	-8239
▁trackers	-8240
▁startingMonth	-8241
aug	-8242
▁ther	-8243
▁motor	-8244
▁quoting	-8245
▁collap	-8246
▁delayed	-8247
FUN	-8248
VAR	-8249
uman	-8250
▁gin	-8251
IMAGE	-8252
creation	-8253
rections	-8254
▁thisbin	-8255
trl	-8256
▁ieid	-8257
▁react	-8258
Analyses	-8259
replaced	-8260
▁animate	-8261
▁scatter	-8262
▁toc	-8263
Color	-8264
▁star	-8265
inserted	-8266
▁pulldown	-8267
contr	-8268
▁cats	-8269
▁libs	-8270
▁reqs	-8271
▁popen	-8272
▁modify	-8273
▁profil	-8274
▁nsptagname	-8275
▁subnetpool	-8276
Pri	-8277
▁utr	-8278
▁ping	-8279
VO	-8280
nam	-8281
hard	-8282
▁ntc	-8283
▁exposure	-8284
▁serialization	-8285
AGS	-8286
than	-8287
▁desk	-8288
masked	-8289
patches	-8290
▁fnames	-8291
▁allocator	-8292
rea	-8293
▁uniq	-8294
▁mtype	-8295
▁started	-8296
▁scaffold	-8297
Rep	-8298
cmb	-8299
aero	-8300
▁negate	-8301
▁ase	-8302
lename	-8303
▁continuous	-8304
bus	-8305
MAIL	-8306
▁ng	-8307
lify	-8308
alive	-8309
phinx	-8310
Handler	-8311
▁startup	-8312
▁skycoord	-8313
upe	-8314
▁AL	-8315
▁floats	-8316
IVE	-8317
▁cud	-8318
▁sandbox	-8319
▁stories	-8320
▁inserted	-8321
▁specific	-8322
▁UN	-8323
▁peering	-8324
▁comparison	-8325
▁lag	-8326
Flags	-8327
▁clust	-8328
isation	-8329
▁sigmas	-8330
9_	-8331
▁hb	-8332
ROOT	-8333
imize	-8334
Matrix	-8335
▁ba	-8336
▁east	-8337
needed	-8338
▁hover	-8339
▁resume	-8340
buff	-8341
libs	-8342
regions	-8343
tk	-8344
▁Xs	-8345
contains	-8346
whit	-8347
aclient	-8348
peratures	-8349
▁CH	-8350
▁ky	-8351
▁useC	-8352
▁filed	-8353
caption	-8354
_0_	-8355
orted	-8356
renderer	-8357
vectorized	-8358
normalization	-8359
WH	-8360
DEX	-8361
▁AD	-8362
▁needle	-8363
▁descend	-8364
elm	-8365
▁seqs	-8366
half	-8367
▁vin	-8368
▁fqdn	-8369
▁nout	-8370
engineer	-8371
▁modifiers	-8372
TON	-8373
bra	-8374
issue	-8375
using	-8376
▁maps	-8377
▁mirror	-8378
odb	-8379
▁Xt	-8380
tilt	-8381
dummy	-8382
▁vf	-8383
aint	-8384
▁che	-8385
▁chi	-8386
▁dvids	-8387
lication	-8388
▁referenceSet	-8389
▁nsims	-8390
▁thermod	-8391
ACHE	-8392
dots	-8393
▁printer	-8394
▁polarization	-8395
kit	-8396
ares	-8397
crit	-8398
dhcp	-8399
datas	-8400
▁dmin	-8401
▁exon	-8402
▁parm	-8403
▁schemas	-8404
▁replicas	-8405
▁intersphinx	-8406
FC	-8407
AMS	-8408
bust	-8409
websocket	-8410
PTOR	-8411
creds	-8412
written	-8413
deserial	-8414
▁reshape	-8415
▁artifacts	-8416
▁documents	-8417
▁thermodata	-8418
▁conditional	-8419
conc	-8420
▁som	-8421
Folder	-8422
▁people	-8423
▁userSettings	-8424
▁ck	-8425
cube	-8426
_8	-8427
▁Data	-8428
▁cbar	-8429
▁emit	-8430
▁indel	-8431
▁equation	-8432
▁mappings	-8433
2_0	-8434
below	-8435
▁dirnames	-8436
asst	-8437
pep	-8438
utdown	-8439
brid	-8440
ycle	-8441
▁augment	-8442
▁yml	-8443
Query	-8444
▁downloader	-8445
latt	-8446
▁sqrt	-8447
▁spack	-8448
▁swapped	-8449
placement	-8450
▁datafile	-8451
fw	-8452
200	-8453
Part	-8454
ermin	-8455
▁nmax	-8456
▁loffset	-8457
projected	-8458
BUT	-8459
▁ay	-8460
ango	-8461
EXTENS	-8462
▁offsetsize	-8463
▁fdr	-8464
▁cors	-8465
Button	-8466
▁subplot	-8467
▁complevel	-8468
vg	-8469
▁noisy	-8470
opacity	-8471
▁covers	-8472
▁tagname	-8473
▁vimtype	-8474
transformed	-8475
▁errorMessage	-8476
clear	-8477
pause	-8478
▁bare	-8479
▁recv	-8480
▁distribut	-8481
▁production	-8482
umn	-8483
upt	-8484
▁npy	-8485
▁ipar	-8486
▁dmats	-8487
▁escal	-8488
separator	-8489
▁pathname	-8490
▁conversation	-8491
WE	-8492
BUTE	-8493
▁itr	-8494
ertia	-8495
ithub	-8496
▁Text	-8497
▁lmax	-8498
REG	-8499
TRIC	-8500
some	-8501
▁Com	-8502
ibs	-8503
otp	-8504
bads	-8505
▁alg	-8506
▁taxon	-8507
program	-8508
accuracy	-8509
enu	-8510
▁loads	-8511
▁automatic	-8512
▁buffers	-8513
▁weekmask	-8514
▁ntwk	-8515
surface	-8516
▁nonzero	-8517
_201	-8518
▁ocr	-8519
abels	-8520
▁caps	-8521
letcher	-8522
▁lookups	-8523
▁xt	-8524
▁SUB	-8525
▁hop	-8526
TRIBUTE	-8527
calibration	-8528
transformer	-8529
Keys	-8530
▁audi	-8531
▁sets	-8532
enance	-8533
▁boost	-8534
▁wrong	-8535
▁CONFIG	-8536
▁unicast	-8537
▁fletcher	-8538
util	-8539
▁standardMsg	-8540
▁dP	-8541
▁kx	-8542
▁datas	-8543
globals	-8544
MAR	-8545
scra	-8546
▁mro	-8547
letter	-8548
▁ofile	-8549
structures	-8550
pv	-8551
▁manual	-8552
▁dropdown	-8553
▁deserialize	-8554
▁supersampling	-8555
Conn	-8556
▁fri	-8557
▁Test	-8558
▁iply	-8559
▁bonds	-8560
▁subcode	-8561
▁publisher	-8562
▁wl	-8563
ATAB	-8564
▁transposed	-8565
GTH	-8566
▁centered	-8567
elf	-8568
▁Model	-8569
sensitive	-8570
prise	-8571
▁perc	-8572
▁contacts	-8573
▁languages	-8574
▁ALL	-8575
▁intensities	-8576
oj	-8577
bill	-8578
▁sav	-8579
ading	-8580
▁regExp	-8581
▁classical	-8582
DR	-8583
dont	-8584
▁propag	-8585
▁checker	-8586
▁sharing	-8587
▁distinct	-8588
Score	-8589
inary	-8590
▁stock	-8591
compile	-8592
finished	-8593
06_	-8594
SUB	-8595
Desc	-8596
lags	-8597
supp	-8598
▁nor	-8599
nulls	-8600
accounts	-8601
conflicts	-8602
WordTemplate	-8603
VENT	-8604
codon	-8605
▁nlines	-8606
▁whiten	-8607
▁azimuth	-8608
▁cumulative	-8609
▁oos	-8610
pring	-8611
tiles	-8612
▁divisor	-8613
▁outcome	-8614
blueprint	-8615
▁interaction	-8616
fied	-8617
▁grade	-8618
entClass	-8619
▁percentage	-8620
▁returncode	-8621
mh	-8622
rum	-8623
VALUE	-8624
roids	-8625
▁pivot	-8626
variants	-8627
▁markets	-8628
▁filterable	-8629
▁sizePolicy	-8630
VEL	-8631
User	-8632
major	-8633
thers	-8634
▁traj	-8635
▁autod	-8636
▁sliced	-8637
Sets	-8638
▁anno	-8639
▁tower	-8640
MESSAGE	-8641
▁forget	-8642
failures	-8643
iff	-8644
AMPLE	-8645
Conds	-8646
▁ydata	-8647
AI	-8648
pd	-8649
roy	-8650
beat	-8651
pref	-8652
▁xpos	-8653
▁keyfile	-8654
▁weekday	-8655
▁adjacency	-8656
NET	-8657
fake	-8658
Record	-8659
▁dynam	-8660
▁counters	-8661
▁embeddings	-8662
▁regExpPattern	-8663
GS	-8664
fq	-8665
lhs	-8666
prog	-8667
▁sdk	-8668
▁comt	-8669
▁caero	-8670
▁peaks	-8671
placeholder	-8672
soft	-8673
quotes	-8674
TIMEOUT	-8675
▁facets	-8676
▁tunnel	-8677
▁declared	-8678
kv	-8679
pca	-8680
▁atta	-8681
▁buckets	-8682
▁inventory	-8683
INST	-8684
▁txy	-8685
▁arrs	-8686
▁bank	-8687
▁radio	-8688
▁scipy	-8689
optimization	-8690
▁ww	-8691
▁ori	-8692
anism	-8693
Header	-8694
▁alleles	-8695
▁exclusive	-8696
luid	-8697
▁emp	-8698
forces	-8699
▁throw	-8700
hemy	-8701
white	-8702
legend	-8703
sentence	-8704
scalars	-8705
▁webhook	-8706
uits	-8707
▁dup	-8708
switch	-8709
Sequence	-8710
▁specular	-8711
▁flattened	-8712
▁fractions	-8713
▁progressbar	-8714
▁inputtemplate	-8715
Add	-8716
▁Box	-8717
sizer	-8718
▁expt	-8719
▁whole	-8720
NING	-8721
CATION	-8722
observation	-8723
▁implementation	-8724
_7	-8725
▁nk	-8726
▁bio	-8727
▁csr	-8728
▁strs	-8729
elines	-8730
▁wallet	-8731
▁divisions	-8732
▁emb	-8733
▁xax	-8734
maker	-8735
▁REQU	-8736
amping	-8737
▁atomic	-8738
FL	-8739
ASH	-8740
fds	-8741
▁tis	-8742
▁vtk	-8743
▁iron	-8744
decoder	-8745
sentences	-8746
compatibility	-8747
apps	-8748
mods	-8749
warm	-8750
hemer	-8751
▁Pipe	-8752
speaker	-8753
▁expired	-8754
▁TH	-8755
uned	-8756
Rough	-8757
cidrs	-8758
▁mixed	-8759
▁shifted	-8760
▁cardinality	-8761
CR	-8762
New	-8763
▁gdf	-8764
▁svd	-8765
▁dobj	-8766
▁life	-8767
voronoi	-8768
▁privile	-8769
▁discardAnalyses	-8770
14	-8771
BR	-8772
cud	-8773
▁yt	-8774
drive	-8775
associ	-8776
enable	-8777
▁buggy	-8778
▁boolean	-8779
▁mds	-8780
queries	-8781
▁excludes	-8782
measurements	-8783
IDE	-8784
bulk	-8785
▁URL	-8786
▁ddf	-8787
fails	-8788
▁fixtures	-8789
▁replacements	-8790
ilar	-8791
METHO	-8792
zones	-8793
▁nofm	-8794
▁scra	-8795
▁synset	-8796
▁creator	-8797
▁PipeRough	-8798
▁Ob	-8799
answer	-8800
specific	-8801
▁restype	-8802
disconnected	-8803
▁lt	-8804
▁rew	-8805
vised	-8806
PUOnly	-8807
intensity	-8808
▁useCPUOnly	-8809
▁continuation	-8810
FR	-8811
SR	-8812
▁qty	-8813
broker	-8814
▁elval	-8815
centers	-8816
▁accepted	-8817
▁contenttype	-8818
ifm	-8819
capt	-8820
anent	-8821
▁void	-8822
broken	-8823
matching	-8824
▁sysmeta	-8825
▁uniques	-8826
▁subnetwork	-8827
▁rois	-8828
▁requester	-8829
Annotations	-8830
▁yp	-8831
assets	-8832
ecycle	-8833
masses	-8834
▁wspds	-8835
disable	-8836
▁curator	-8837
▁filterwarnings	-8838
Not	-8839
arrow	-8840
ensus	-8841
▁propos	-8842
▁review	-8843
▁ethertype	-8844
eml	-8845
ader	-8846
lems	-8847
MODEL	-8848
▁conntype	-8849
flo	-8850
PH	-8851
alls	-8852
▁RAW	-8853
▁pil	-8854
▁until	-8855
ATABASE	-8856
boundary	-8857
▁reaction	-8858
bid	-8859
raft	-8860
▁nlp	-8861
SPACE	-8862
▁extents	-8863
▁tmpfile	-8864
▁reporter	-8865
Sp	-8866
SEC	-8867
LOCK	-8868
Verb	-8869
▁ramp	-8870
blacklist	-8871
▁paneInfo	-8872
MI	-8873
▁TYPE	-8874
▁lstm	-8875
ratios	-8876
windows	-8877
computed	-8878
▁alignments	-8879
▁Al	-8880
IGHT	-8881
▁wit	-8882
▁pbar	-8883
cookies	-8884
▁colname	-8885
▁patched	-8886
▁optimize	-8887
aas	-8888
Char	-8889
▁syll	-8890
▁grant	-8891
▁doct	-8892
inated	-8893
▁sense	-8894
upd	-8895
▁rh	-8896
▁war	-8897
▁hunt	-8898
▁texture	-8899
▁affinity	-8900
▁filelist	-8901
▁isolated	-8902
▁deactivate	-8903
ool	-8904
▁hdfs	-8905
▁rhel	-8906
▁complet	-8907
▁fm	-8908
arize	-8909
pandas	-8910
▁slicer	-8911
▁general	-8912
▁subresource	-8913
Fn	-8914
mtp	-8915
ving	-8916
▁Neff	-8917
▁Tcmb	-8918
▁clim	-8919
arrows	-8920
▁addins	-8921
▁ensemble	-8922
▁elm	-8923
▁setters	-8924
chan	-8925
▁Get	-8926
▁narr	-8927
▁tabs	-8928
▁relev	-8929
▁approxim	-8930
rospection	-8931
_6	-8932
Strings	-8933
▁libver	-8934
etic	-8935
▁nos	-8936
named	-8937
stdev	-8938
folders	-8939
library	-8940
▁astype	-8941
▁cdipods	-8942
▁socketf	-8943
identifiers	-8944
▁rhelimages	-8945
▁extraclient	-8946
▁alb	-8947
▁pkgs	-8948
PTIONS	-8949
32_	-8950
rewind	-8951
▁spect	-8952
tte	-8953
uge	-8954
▁ei	-8955
▁hub	-8956
▁iam	-8957
sumed	-8958
▁mongo	-8959
binding	-8960
▁others	-8961
▁robust	-8962
▁aggfunc	-8963
BON	-8964
Bar	-8965
Flag	-8966
▁oas	-8967
▁grand	-8968
▁scaler	-8969
▁rewrite	-8970
bc	-8971
▁miss	-8972
▁bridge	-8973
▁tablename	-8974
translation	-8975
Copy	-8976
asing	-8977
pillar	-8978
▁ready	-8979
activity	-8980
▁grouping	-8981
▁prereleases	-8982
▁fed	-8983
▁multiplicity	-8984
pg	-8985
STE	-8986
poss	-8987
LABEL	-8988
▁accel	-8989
▁nover	-8990
▁utils	-8991
▁repeats	-8992
▁archived	-8993
▁readGroup	-8994
▁rms	-8995
▁greater	-8996
▁hdulist	-8997
sky	-8998
▁ipa	-8999
constr	-9000
horizontal	-9001
▁Par	-9002
▁rst	-9003
future	-9004
season	-9005
▁datal	-9006
▁idStr	-9007
▁minval	-9008
▁unordered	-9009
▁Un	-9010
epar	-9011
▁Sxx	-9012
WORDS	-9013
▁assembly	-9014
ORS	-9015
ier	-9016
▁mood	-9017
magmoms	-9018
▁filePath	-9019
▁UP	-9020
PAGE	-9021
▁ide	-9022
basis	-9023
▁scpi	-9024
Client	-9025
formula	-9026
Cat	-9027
GPU	-9028
▁trig	-9029
docker	-9030
▁primer	-9031
▁triple	-9032
filtered	-9033
csr	-9034
▁Xy	-9035
▁orbit	-9036
excluded	-9037
▁argspec	-9038
adv	-9039
rpc	-9040
▁HE	-9041
▁Ode	-9042
edent	-9043
submit	-9044
▁sumsq	-9045
▁sklearn	-9046
TF	-9047
epend	-9048
▁mmap	-9049
▁helpt	-9050
▁homepage	-9051
cmp	-9052
elt	-9053
CRET	-9054
flav	-9055
fusc	-9056
tabs	-9057
iency	-9058
▁handles	-9059
▁different	-9060
▁aggregation	-9061
EC	-9062
▁MTR	-9063
▁clock	-9064
▁blocknum	-9065
▁nucleotides	-9066
fir	-9067
▁mz	-9068
infer	-9069
prove	-9070
▁thin	-9071
ermark	-9072
retrie	-9073
▁pathway	-9074
▁controls	-9075
▁mip	-9076
notify	-9077
▁transformers	-9078
tor	-9079
psfs	-9080
▁grow	-9081
▁xtol	-9082
▁pixels	-9083
▁answers	-9084
▁observable	-9085
posit	-9086
▁loops	-9087
▁ironic	-9088
▁chromos	-9089
▁regexes	-9090
detection	-9091
trainable	-9092
pag	-9093
▁zi	-9094
iven	-9095
verbose	-9096
▁particle	-9097
34	-9098
ANS	-9099
Sign	-9100
▁own	-9101
▁zpe	-9102
Price	-9103
CLIENT	-9104
decorator	-9105
▁localized	-9106
▁multioutput	-9107
▁vcs	-9108
FILES	-9109
▁quick	-9110
replicas	-9111
▁permanent	-9112
▁SY	-9113
▁km	-9114
▁yc	-9115
bond	-9116
▁rough	-9117
▁durations	-9118
▁AA	-9119
▁hay	-9120
subdir	-9121
verter	-9122
background	-9123
bg	-9124
qhg	-9125
phys	-9126
sula	-9127
BUTTON	-9128
▁keyst	-9129
riptors	-9130
ParamValue	-9131
▁temporary	-9132
Ns	-9133
UTE	-9134
did	-9135
WORK	-9136
atar	-9137
▁pem	-9138
▁sas	-9139
▁csvfile	-9140
▁benchmark	-9141
▁bytestring	-9142
▁ligand	-9143
embeddings	-9144
▁combination	-9145
creator	-9146
▁distro	-9147
▁dotted	-9148
▁windows	-9149
interpolation	-9150
Get	-9151
fili	-9152
▁coreml	-9153
20	-9154
expl	-9155
▁gem	-9156
▁cron	-9157
iterable	-9158
▁weather	-9159
lh	-9160
IES	-9161
READ	-9162
clus	-9163
▁nmr	-9164
izard	-9165
▁INST	-9166
▁npts	-9167
▁linkage	-9168
▁abstra	-9169
▁protected	-9170
Pen	-9171
srna	-9172
bands	-9173
▁Samp	-9174
aggreg	-9175
isions	-9176
restri	-9177
connector	-9178
delimiter	-9179
▁introspection	-9180
▁nnz	-9181
built	-9182
ATTRIBUTE	-9183
▁med	-9184
▁nick	-9185
▁tflag	-9186
dirname	-9187
▁relations	-9188
party	-9189
▁routine	-9190
▁DESCRIPTION	-9191
44	-9192
OF	-9193
▁vx	-9194
▁fns	-9195
LENGTH	-9196
logies	-9197
▁moving	-9198
▁phased	-9199
ICK	-9200
POL	-9201
▁bcc	-9202
▁less	-9203
▁ypos	-9204
▁issues	-9205
▁artists	-9206
▁migrate	-9207
▁simplify	-9208
▁entityset	-9209
dof	-9210
▁FL	-9211
▁stamp	-9212
Variant	-9213
consist	-9214
framework	-9215
dependency	-9216
occ	-9217
▁Rs	-9218
▁endp	-9219
titles	-9220
▁qhull	-9221
▁logged	-9222
▁reservation	-9223
ja	-9224
▁eth	-9225
obian	-9226
▁ranks	-9227
▁south	-9228
▁obfusc	-9229
formative	-9230
▁helptext	-9231
bp	-9232
▁AT	-9233
▁pth	-9234
ENTRY	-9235
diffs	-9236
▁arri	-9237
PASSWORD	-9238
jd	-9239
KET	-9240
▁GC	-9241
▁WH	-9242
checkpoint	-9243
far	-9244
hub	-9245
earch	-9246
within	-9247
▁ionic	-9248
▁signals	-9249
interaction	-9250
IF	-9251
Directory	-9252
REE	-9253
sph	-9254
camera	-9255
ussian	-9256
▁colnames	-9257
▁datapath	-9258
▁participant	-9259
Gen	-9260
syn	-9261
lets	-9262
▁ANIS	-9263
▁asyn	-9264
▁dark	-9265
▁disks	-9266
▁savel	-9267
▁frozen	-9268
reduction	-9269
PAT	-9270
▁iid	-9271
Tuple	-9272
panes	-9273
▁ndims	-9274
▁spars	-9275
▁lensModel	-9276
▁gaia	-9277
▁rpts	-9278
scrapy	-9279
▁smoothing	-9280
informative	-9281
Results	-9282
▁leading	-9283
distributions	-9284
sing	-9285
▁moments	-9286
▁predictor	-9287
pa	-9288
td	-9289
256	-9290
▁wA	-9291
circ	-9292
▁dyn	-9293
▁nlevels	-9294
multiplicity	-9295
DICT	-9296
▁bob	-9297
▁fan	-9298
ivers	-9299
▁Pmag	-9300
▁west	-9301
▁hashes	-9302
▁satell	-9303
▁toolbar	-9304
▁structures	-9305
▁wav	-9306
▁bars	-9307
▁glyphs	-9308
▁BoxSize	-9309
▁batches	-9310
▁haystack	-9311
▁inverted	-9312
Im	-9313
▁lap	-9314
▁lsp	-9315
▁imax	-9316
▁heads	-9317
checked	-9318
concrete	-9319
▁callSet	-9320
▁decrypt	-9321
MIT	-9322
▁SER	-9323
▁arp	-9324
covery	-9325
lineno	-9326
▁dashboard	-9327
▁watermark	-9328
lok	-9329
▁END	-9330
▁gear	-9331
reload	-9332
▁compact	-9333
▁postfix	-9334
lag	-9335
▁Or	-9336
▁dk	-9337
▁wg	-9338
▁agents	-9339
notification	-9340
Net	-9341
cdf	-9342
▁stra	-9343
supply	-9344
indexers	-9345
_401	-9346
plds	-9347
▁offer	-9348
▁resstr	-9349
▁restricted	-9350
▁png	-9351
repos	-9352
▁yerr	-9353
▁symmetric	-9354
equ	-9355
Down	-9356
affine	-9357
interp	-9358
rhs	-9359
▁yr	-9360
math	-9361
ascade	-9362
iation	-9363
person	-9364
▁scripts	-9365
configure	-9366
docstring	-9367
▁Wn	-9368
▁fct	-9369
Delete	-9370
restore	-9371
▁profiler	-9372
DAY	-9373
▁cpus	-9374
▁offt	-9375
▁nbest	-9376
▁webo	-9377
▁stick	-9378
▁realms	-9379
▁quantize	-9380
fingerprint	-9381
vp	-9382
▁XY	-9383
▁pci	-9384
trees	-9385
▁fval	-9386
▁relu	-9387
PARAMS	-9388
▁useGPU	-9389
ildcards	-9390
▁skipbytes	-9391
POR	-9392
rime	-9393
ocial	-9394
▁echo	-9395
Iterator	-9396
ependent	-9397
▁basepath	-9398
PR	-9399
fh	-9400
fxn	-9401
vox	-9402
▁TAG	-9403
rightness	-9404
▁construct	-9405
more	-9406
Input	-9407
mixin	-9408
unders	-9409
▁formfield	-9410
▁percentile	-9411
▁meq	-9412
omial	-9413
claims	-9414
reversed	-9415
▁overflow	-9416
team	-9417
▁COL	-9418
LY	-9419
was	-9420
JSON	-9421
Rules	-9422
minutes	-9423
▁referer	-9424
▁deferred	-9425
▁paramValues	-9426
7_	-9427
▁yb	-9428
▁tea	-9429
▁stix	-9430
ilabel	-9431
nlevels	-9432
runtime	-9433
▁recent	-9434
criteria	-9435
▁libraries	-9436
▁lv	-9437
cceed	-9438
inside	-9439
systems	-9440
▁nworkers	-9441
▁backColour	-9442
tcp	-9443
Cell	-9444
KEYS	-9445
ulus	-9446
▁posts	-9447
▁Repeat	-9448
▁defaultvalue	-9449
mous	-9450
rend	-9451
union	-9452
▁gzip	-9453
▁xtick	-9454
▁forces	-9455
▁discrete	-9456
▁qr	-9457
ching	-9458
inspect	-9459
analysis	-9460
▁neutral	-9461
▁normals	-9462
▁subname	-9463
▁repetition	-9464
pem	-9465
▁uses	-9466
▁ialpha	-9467
▁batched	-9468
▁Repeating	-9469
▁DESCRIPTOR	-9470
authentication	-9471
ints	-9472
thes	-9473
▁eos	-9474
▁tiny	-9475
▁tref	-9476
ervers	-9477
oken	-9478
▁ones	-9479
Source	-9480
modify	-9481
imports	-9482
▁derived	-9483
character	-9484
Left	-9485
asso	-9486
nltk	-9487
roke	-9488
▁ROOT	-9489
▁look	-9490
should	-9491
▁SHORT	-9492
▁scrub	-9493
▁bboxes	-9494
▁cycles	-9495
transfer	-9496
▁PROJECT	-9497
compatible	-9498
azz	-9499
▁bund	-9500
▁mins	-9501
onymous	-9502
sampler	-9503
▁scorer	-9504
idspaces	-9505
▁incident	-9506
prompt	-9507
▁proba	-9508
▁three	-9509
viation	-9510
▁animation	-9511
peer	-9512
Graph	-9513
iform	-9514
▁union	-9515
pf	-9516
_3_	-9517
▁ik	-9518
Mask	-9519
▁roc	-9520
▁vdc	-9521
anagers	-9522
▁recall	-9523
Lines	-9524
▁receive	-9525
batchnorm	-9526
okeh	-9527
clone	-9528
itect	-9529
▁walkers	-9530
▁CL	-9531
▁Length	-9532
▁baseId	-9533
erministic	-9534
DESCRIPTION	-9535
lats	-9536
▁VAL	-9537
▁ren	-9538
fpath	-9539
xpath	-9540
UPDATE	-9541
extras	-9542
▁thetas	-9543
▁weboob	-9544
▁escalate	-9545
▁supplied	-9546
alph	-9547
▁sgn	-9548
topics	-9549
▁icard	-9550
▁estnltk	-9551
▁persons	-9552
▁structFormat	-9553
kt	-9554
TOK	-9555
▁Jtv	-9556
▁Out	-9557
provided	-9558
▁asynchronous	-9559
PC	-9560
nlu	-9561
ital	-9562
▁tcp	-9563
▁draws	-9564
▁quoteId	-9565
▁receipt	-9566
▁fueltype	-9567
eer	-9568
acle	-9569
▁spacy	-9570
igin	-9571
tail	-9572
enced	-9573
rewards	-9574
posterior	-9575
annotations	-9576
nf	-9577
▁vr	-9578
▁boto	-9579
▁copi	-9580
SERVER	-9581
▁dicts	-9582
▁Labels	-9583
▁acceptable	-9584
TY	-9585
ongs	-9586
▁Sxy	-9587
again	-9588
▁templ	-9589
▁reddit	-9590
AKE	-9591
Menu	-9592
omes	-9593
▁asm	-9594
▁sib	-9595
▁sty	-9596
▁vms	-9597
checksums	-9598
serializer	-9599
▁customers	-9600
▁MS	-9601
▁GPU	-9602
disks	-9603
▁reqd	-9604
losses	-9605
▁colno	-9606
wf	-9607
DEL	-9608
TRM	-9609
▁om	-9610
hess	-9611
CHECK	-9612
front	-9613
itlet	-9614
▁qname	-9615
▁pooling	-9616
▁autoscale	-9617
▁batchsize	-9618
▁lg	-9619
uled	-9620
visit	-9621
▁sect	-9622
▁PACKAGE	-9623
▁residues	-9624
svnid	-9625
▁lasso	-9626
▁itotal	-9627
▁traces	-9628
▁lifecycle	-9629
vac	-9630
▁dask	-9631
▁within	-9632
▁stretch	-9633
▁colorify	-9634
▁evaluate	-9635
▁ielement	-9636
▁initialize	-9637
BY	-9638
▁xxx	-9639
PARATOR	-9640
authors	-9641
▁proposal	-9642
▁forbidden	-9643
▁secs	-9644
Update	-9645
▁inreg	-9646
alleles	-9647
▁codebook	-9648
▁workunit	-9649
▁lowercase	-9650
rvs	-9651
ARCH	-9652
ater	-9653
most	-9654
ples	-9655
▁zen	-9656
between	-9657
▁savelist	-9658
▁kt	-9659
mins	-9660
▁Syy	-9661
▁vapp	-9662
resolve	-9663
▁teacher	-9664
deprecated	-9665
▁titleAlignments	-9666
_10	-9667
iced	-9668
velocity	-9669
▁providers	-9670
▁coefficients	-9671
DIM	-9672
sal	-9673
ntax	-9674
▁qhg	-9675
LEVEL	-9676
▁wcskey	-9677
▁approximate	-9678
CC	-9679
ka	-9680
ERT	-9681
▁tak	-9682
▁vpn	-9683
avail	-9684
▁dtyp	-9685
centered	-9686
INTER	-9687
▁tout	-9688
▁Image	-9689
▁lease	-9690
▁copied	-9691
▁sentencePos	-9692
▁nounAnnotations	-9693
possible	-9694
▁indexed	-9695
▁literal	-9696
NE	-9697
FOR	-9698
POS	-9699
BOOK	-9700
▁Site	-9701
▁csrf	-9702
firmed	-9703
▁rounds	-9704
▁cacheable	-9705
epth	-9706
story	-9707
▁even	-9708
METRIC	-9709
▁plain	-9710
customer	-9711
▁arrival	-9712
▁velocities	-9713
ENV	-9714
sca	-9715
RECT	-9716
▁Base	-9717
▁skew	-9718
NUMBER	-9719
▁calib	-9720
▁ftable	-9721
▁tracks	-9722
national	-9723
▁smallest	-9724
▁threadnum	-9725
▁descendants	-9726
bel	-9727
procs	-9728
▁purge	-9729
▁configure	-9730
▁satellite	-9731
lk	-9732
Bmp	-9733
▁nex	-9734
▁logo	-9735
▁ymid	-9736
Levels	-9737
jector	-9738
▁maint	-9739
scrapyd	-9740
whitelist	-9741
▁bandwidth	-9742
Ac	-9743
SY	-9744
aa	-9745
Act	-9746
bre	-9747
cwd	-9748
▁ea	-9749
Opts	-9750
does	-9751
▁formatters	-9752
▁obfuscated	-9753
▁screenshot	-9754
▁blockVector	-9755
BAR	-9756
dpi	-9757
▁fy	-9758
▁fpr	-9759
▁mess	-9760
iguous	-9761
▁statuses	-9762
MAIN	-9763
Tree	-9764
▁abort	-9765
▁aniso	-9766
console	-9767
▁argname	-9768
▁keyname	-9769
▁kpoints	-9770
converter	-9771
mc	-9772
sz	-9773
Doc	-9774
igma	-9775
stub	-9776
▁orth	-9777
▁affili	-9778
▁witness	-9779
▁imaginary	-9780
Top	-9781
▁gz	-9782
aged	-9783
isot	-9784
oose	-9785
Labels	-9786
wallet	-9787
itecture	-9788
▁transforms	-9789
▁consistency	-9790
sgi	-9791
SSION	-9792
▁visual	-9793
artifacts	-9794
▁hashfunc	-9795
▁objectType	-9796
▁probabilities	-9797
LOUR	-9798
Step	-9799
▁dag	-9800
▁pwm	-9801
▁hull	-9802
outfile	-9803
strained	-9804
initialization	-9805
CAL	-9806
Comp	-9807
acer	-9808
upling	-9809
▁album	-9810
▁prune	-9811
COMMAND	-9812
▁needed	-9813
▁missingval	-9814
eto	-9815
uum	-9816
▁upd	-9817
▁fcoords	-9818
▁rewards	-9819
▁tablefmt	-9820
WITH	-9821
coun	-9822
▁dsp	-9823
iness	-9824
▁evtId	-9825
integer	-9826
icRegion	-9827
▁opponent	-9828
▁trailing	-9829
▁cleanStrings	-9830
ai	-9831
cohp	-9832
CHEMA	-9833
▁folds	-9834
▁fract	-9835
▁graphs	-9836
bindings	-9837
checkout	-9838
▁modality	-9839
▁inputfile	-9840
mul	-9841
▁xf	-9842
Oper	-9843
ourc	-9844
▁iend	-9845
▁vecs	-9846
▁istart	-9847
▁jskeys	-9848
▁valuei	-9849
▁resized	-9850
▁attrname	-9851
wor	-9852
▁qb	-9853
Stim	-9854
▁tie	-9855
adapt	-9856
uediv	-9857
▁hofm	-9858
▁wofm	-9859
▁iters	-9860
artbeat	-9861
▁DB	-9862
stud	-9863
udge	-9864
▁srv	-9865
treat	-9866
▁htrd	-9867
▁wtrd	-9868
▁wheel	-9869
labware	-9870
reshape	-9871
uminant	-9872
evaluate	-9873
▁corners	-9874
ROW	-9875
png	-9876
▁PO	-9877
ilds	-9878
▁crl	-9879
Content	-9880
payment	-9881
▁ingest	-9882
▁opname	-9883
▁repair	-9884
mutation	-9885
▁dataname	-9886
TABLE	-9887
hyper	-9888
design	-9889
▁pyfunc	-9890
linewidth	-9891
▁specifier	-9892
ARD	-9893
AVE	-9894
ads	-9895
slc	-9896
sqr	-9897
▁mxnet	-9898
▁third	-9899
aintext	-9900
▁binning	-9901
▁nearest	-9902
▁gam	-9903
▁odd	-9904
ndupe	-9905
▁itype	-9906
▁lexer	-9907
destination	-9908
▁versionfile	-9909
GHT	-9910
▁gd	-9911
attn	-9912
▁ban	-9913
▁plat	-9914
▁yout	-9915
notebook	-9916
evaluation	-9917
▁association	-9918
▁ue	-9919
legacy	-9920
▁tools	-9921
▁typec	-9922
GEN	-9923
▁oc	-9924
bone	-9925
▁	-9926
e	-9927
a	-9928
t	-9929
s	-9930
r	-9931
i	-9932
n	-9933
o	-9934
_	-9935
l	-9936
d	-9937
c	-9938
p	-9939
m	-9940
u	-9941
f	-9942
g	-9943
y	-9944
h	-9945
k	-9946
x	-9947
b	-9948
v	-9949
w	-9950
j	-9951
z	-9952
q	-9953
2	-9954
T	-9955
E	-9956
1	-9957
S	-9958
A	-9959
I	-9960
R	-9961
N	-9962
O	-9963
C	-9964
L	-9965
D	-9966
P	-9967
M	-9968
F	-9969
X	-9970
0	-9971
U	-9972
G	-9973
B	-9974
H	-9975
3	-9976
V	-9977
Y	-9978
W	-9979
K	-9980
4	-9981
5	-9982
6	-9983
Z	-9984
Q	-9985
7	-9986
J	-9987
8	-9988
9	-9989
ω	-9990
Ω	-9991
ν	-9992
ñ	-9993
τ	-9994
β	-9995
