<pad>	0
<unk>	0
<s>	0
</s>	0
▁.	-0
▁(	-1
▁)	-2
▁,	-3
se	-4
▁=	-5
in	-6
or	-7
on	-8
re	-9
te	-10
▁:	-11
de	-12
▁i	-13
st	-14
▁se	-15
▁'	-16
at	-17
▁a	-18
lf	-19
▁self	-20
er	-21
▁c	-22
▁f	-23
le	-24
▁p	-25
me	-26
▁t	-27
ar	-28
al	-29
mp	-30
ro	-31
▁re	-32
▁[	-33
▁s	-34
▁n	-35
▁]	-36
ion	-37
▁de	-38
en	-39
▁"	-40
ra	-41
ut	-42
ct	-43
ur	-44
ort	-45
ge	-46
it	-47
0\	-48
ce	-49
▁d	-50
▁def	-51
la	-52
▁in	-53
lo	-54
mport	-55
ss	-56
▁e	-57
▁m	-58
▁o	-59
▁_	-60
▁import	-61
un	-62
▁1	-63
an	-64
pe	-65
xf	-66
▁b	-67
ame	-68
ue	-69
he	-70
▁\	-71
li	-72
▁if	-73
xe	-74
▁v	-75
ode	-76
5\	-77
1\	-78
ser	-79
tur	-80
turn	-81
2\	-82
ing	-83
4\	-84
3\	-85
rom	-86
▁0	-87
8\	-88
▁return	-89
9\	-90
7\	-91
6\	-92
▁from	-93
xa	-94
▁w	-95
▁as	-96
ck	-97
ter	-98
id	-99
xb	-100
nt	-101
▁{	-102
ch	-103
xc	-104
ate	-105
ot	-106
fi	-107
▁st	-108
ri	-109
get	-110
xd	-111
test	-112
▁N	-113
▁for	-114
ata	-115
pt	-116
ul	-117
is	-118
▁T	-119
__	-120
ol	-121
one	-122
▁}	-123
name	-124
ad	-125
di	-126
▁*	-127
ma	-128
ype	-129
il	-130
▁+	-131
iz	-132
el	-133
▁__	-134
ath	-135
▁con	-136
um	-137
▁None	-138
xt	-139
th	-140
sert	-141
▁g	-142
▁k	-143
ent	-144
ction	-145
ha	-146
▁x	-147
▁2	-148
up	-149
▁assert	-150
▁==	-151
▁-	-152
▁is	-153
int	-154
ult	-155
gs	-156
▁get	-157
▁lo	-158
ation	-159
lass	-160
co	-161
put	-162
ran	-163
ize	-164
▁F	-165
▁S	-166
alue	-167
et	-168
▁test	-169
ment	-170
▁ar	-171
ig	-172
ver	-173
qu	-174
▁r	-175
▁to	-176
00\	-177
der	-178
▁ex	-179
▁u	-180
as	-181
▁C	-182
con	-183
ab	-184
len	-185
ey	-186
ve	-187
am	-188
▁data	-189
▁h	-190
▁res	-191
xff	-192
ine	-193
ror	-194
▁co	-195
rue	-196
pp	-197
ect	-198
▁class	-199
od	-200
ile	-201
ime	-202
odel	-203
type	-204
▁not	-205
▁y	-206
do	-207
ption	-208
00	-209
text	-210
▁name	-211
▁A	-212
▁ma	-213
▁the	-214
▁@	-215
▁par	-216
ase	-217
ht	-218
end	-219
▁la	-220
▁P	-221
mat	-222
age	-223
ure	-224
ject	-225
▁3	-226
▁j	-227
ed	-228
ith	-229
ic	-230
▁an	-231
to	-232
po	-233
▁pro	-234
ack	-235
▁True	-236
▁l	-237
▁M	-238
and	-239
set	-240
▁el	-241
ub	-242
per	-243
rint	-244
▁out	-245
▁np	-246
▁else	-247
▁I	-248
us	-249
file	-250
es	-251
for	-252
tr	-253
par	-254
alse	-255
vi	-256
▁os	-257
▁di	-258
▁path	-259
fig	-260
ew	-261
▁me	-262
▁print	-263
ted	-264
▁D	-265
▁/	-266
list	-267
tem	-268
▁value	-269
able	-270
dd	-271
);	-272
unction	-273
ff	-274
▁th	-275
20\	-276
atch	-277
hape	-278
▁set	-279
Er	-280
▁%	-281
pro	-282
Error	-283
ers	-284
sc	-285
▁log	-286
code	-287
▁app	-288
path	-289
▁ran	-290
all	-291
data	-292
init	-293
out	-294
url	-295
▁False	-296
▁en	-297
▁''	-298
war	-299
▁tf	-300
ta	-301
▁len	-302
ns	-303
size	-304
▁var	-305
▁model	-306
ys	-307
mple	-308
que	-309
ord	-310
fo	-311
▁R	-312
▁add	-313
▁str	-314
▁un	-315
pa	-316
che	-317
ise	-318
str	-319
▁pa	-320
▁E	-321
stan	-322
▁B	-323
--	-324
bo	-325
im	-326
art	-327
▁he	-328
ault	-329
rain	-330
ger	-331
bu	-332
▁ob	-333
▁ra	-334
ow	-335
eld	-336
ore	-337
res	-338
unt	-339
our	-340
▁args	-341
est	-342
py	-343
▁input	-344
ry	-345
ER	-346
mage	-347
▁<	-348
▁key	-349
ule	-350
▁file	-351
▁L	-352
mb	-353
▁or	-354
dex	-355
▁with	-356
val	-357
ps	-358
▁ro	-359
▁po	-360
▁4	-361
▁format	-362
ob	-363
▁num	-364
pi	-365
util	-366
▁O	-367
▁and	-368
ph	-369
vent	-370
ray	-371
▁te	-372
dict	-373
ist	-374
tri	-375
ument	-376
▁ch	-377
IN	-378
mm	-379
▁result	-380
red	-381
cess	-382
ource	-383
ield	-384
dir	-385
ca	-386
stance	-387
▁'''	-388
▁of	-389
ll	-390
In	-391
rans	-392
pl	-393
▁0.	-394
▁V	-395
ex	-396
▁py	-397
bel	-398
ssion	-399
ial	-400
mo	-401
ON	-402
attr	-403
time	-404
31\	-405
▁int	-406
key	-407
quest	-408
oc	-409
▁time	-410
ity	-411
▁5	-412
ctor	-413
▁item	-414
▁sys	-415
ind	-416
tes	-417
LE	-418
date	-419
▁text	-420
lient	-421
ty	-422
▁>	-423
▁raise	-424
ump	-425
▁type	-426
ssage	-427
65\	-428
oo	-429
▁config	-430
odule	-431
pec	-432
▁function	-433
▁this	-434
▁pre	-435
▁W	-436
ne	-437
▁output	-438
ight	-439
line	-440
form	-441
ke	-442
lay	-443
▁shape	-444
arget	-445
ator	-446
▁url	-447
pen	-448
error	-449
gth	-450
reate	-451
olor	-452
qual	-453
▁exce	-454
▁**	-455
da	-456
tent	-457
ive	-458
nc	-459
ken	-460
▁pass	-461
wa	-462
son	-463
▁max	-464
xec	-465
und	-466
Con	-467
oin	-468
ock	-469
sh	-470
ces	-471
ip	-472
74\	-473
lu	-474
plo	-475
ly	-476
▁we	-477
ST	-478
▁arg	-479
rent	-480
▁'\	-481
ask	-482
▁sa	-483
01	-484
ader	-485
xce	-486
pre	-487
loat	-488
lic	-489
AT	-490
▁G	-491
30\	-492
nd	-493
▁val	-494
ams	-495
wargs	-496
value	-497
▁append	-498
▁sh	-499
uture	-500
dom	-501
min	-502
xis	-503
ute	-504
▁new	-505
heck	-506
pon	-507
▁im	-508
ext	-509
utils	-510
ls	-511
RE	-512
port	-513
▁U	-514
38\	-515
nel	-516
raph	-517
▁default	-518
▁be	-519
ptions	-520
▁join	-521
61\	-522
ild	-523
lp	-524
low	-525
future	-526
33\	-527
lib	-528
▁X	-529
34\	-530
num	-531
▁+=	-532
ft	-533
▁sc	-534
Re	-535
36\	-536
32\	-537
▁//	-538
▁start	-539
.0	-540
39\	-541
▁ha	-542
35\	-543
▁try	-544
ork	-545
▁z	-546
nsor	-547
instance	-548
▁object	-549
gin	-550
▁list	-551
thod	-552
ponse	-553
ery	-554
▁run	-555
▁range	-556
▁ab	-557
32	-558
▁sub	-559
▁kwargs	-560
ag	-561
69\	-562
count	-563
roup	-564
lif	-565
▁bu	-566
▁except	-567
63\	-568
add	-569
',	-570
ign	-571
37\	-572
▁id	-573
orm	-574
ary	-575
def	-576
unc	-577
▁line	-578
ber	-579
orch	-580
73\	-581
▁size	-582
umpy	-583
▁le	-584
▁Q	-585
▁image	-586
op	-587
ark	-588
ener	-589
▁H	-590
main	-591
72\	-592
vers	-593
back	-594
ble	-595
qui	-596
fe	-597
ward	-598
01\	-599
nn	-600
▁elif	-601
read	-602
ition	-603
Equal	-604
ts	-605
St	-606
update	-607
▁train	-608
izer	-609
atus	-610
//	-611
▁10	-612
vice	-613
function	-614
EN	-615
▁code	-616
Co	-617
▁check	-618
▁lay	-619
ml	-620
dow	-621
ink	-622
ir	-623
var	-624
ings	-625
▁user	-626
info	-627
▁wh	-628
▁sup	-629
og	-630
('	-631
tp	-632
uth	-633
▁request	-634
▁comp	-635
▁opt	-636
()	-637
70\	-638
{}	-639
.'	-640
fa	-641
▁6	-642
ters	-643
28\	-644
train	-645
ream	-646
arg	-647
▁target	-648
iner	-649
▁float	-650
▁!	-651
CT	-652
length	-653
OR	-654
load	-655
▁numpy	-656
ost	-657
22\	-658
▁random	-659
62\	-660
word	-661
plit	-662
'\	-663
ms	-664
cal	-665
ac	-666
▁cur	-667
▁on	-668
▁label	-669
▁|	-670
▁nn	-671
ature	-672
index	-673
cs	-674
▁base	-675
scri	-676
://	-677
class	-678
sed	-679
29\	-680
▁event	-681
ations	-682
."	-683
lock	-684
▁ca	-685
▁isinstance	-686
▁Test	-687
64\	-688
▁assertEqual	-689
pace	-690
▁state	-691
▁torch	-692
query	-693
Type	-694
shape	-695
▁inputs	-696
idth	-697
▁parser	-698
ies	-699
SE	-700
ng	-701
ang	-702
▁pytest	-703
iable	-704
version	-705
▁dtype	-706
▁batch	-707
▁comm	-708
▁at	-709
max	-710
▁utils	-711
ler	-712
▁bo	-713
./	-714
▁client	-715
late	-716
▁error	-717
==	-718
▁K	-719
config	-720
ep	-721
75\	-722
ust	-723
ull	-724
▁node	-725
▁models	-726
os	-727
arn	-728
lace	-729
if	-730
perty	-731
IT	-732
ging	-733
▁create	-734
▁trans	-735
rite	-736
ifi	-737
ree	-738
log	-739
66\	-740
▁""	-741
ync	-742
▁unit	-743
▁`	-744
ME	-745
▁back	-746
02\	-747
ory	-748
ay	-749
args	-750
we	-751
tra	-752
model	-753
▁{}	-754
ress	-755
▁reg	-756
iv	-757
▁img	-758
rig	-759
com	-760
▁abs	-761
68\	-762
▁In	-763
67\	-764
],	-765
ther	-766
▁response	-767
▁super	-768
":	-769
arch	-770
▁ac	-771
▁init	-772
▁main	-773
sa	-774
80\	-775
with	-776
user	-777
ick	-778
▁index	-779
map	-780
ix	-781
De	-782
▁min	-783
lob	-784
76\	-785
state	-786
▁tensor	-787
▁col	-788
Pro	-789
▁fa	-790
valid	-791
▁8	-792
xes	-793
ard	-794
AR	-795
▁read	-796
string	-797
55\	-798
input	-799
▁load	-800
▁op	-801
rame	-802
xae	-803
vis	-804
▁graph	-805
work	-806
12	-807
xfe	-808
▁message	-809
om	-810
xed	-811
own	-812
08\	-813
rad	-814
78\	-815
xception	-816
lement	-817
04\	-818
77\	-819
ron	-820
▁logging	-821
▁end	-822
Field	-823
ctory	-824
▁source	-825
sor	-826
▁array	-827
▁q	-828
wait	-829
result	-830
Ar	-831
15\	-832
argument	-833
03\	-834
process	-835
▁Con	-836
▁attr	-837
▁cls	-838
ctions	-839
64	-840
▁axis	-841
▁100	-842
mi	-843
iew	-844
[0	-845
lt	-846
AL	-847
ID	-848
79\	-849
▁unittest	-850
label	-851
ploit	-852
▁stri	-853
space	-854
▁logger	-855
▁open	-856
indow	-857
xab	-858
▁json	-859
ersion	-860
▁!=	-861
▁split	-862
be	-863
ou	-864
▁Re	-865
ses	-866
▁ht	-867
Test	-868
dent	-869
ffset	-870
▁temp	-871
ten	-872
▁update	-873
default	-874
26\	-875
parse	-876
57\	-877
ION	-878
49\	-879
43\	-880
▁has	-881
output	-882
col	-883
tribu	-884
AG	-885
::	-886
node	-887
itle	-888
by	-889
RO	-890
▁token	-891
xfc	-892
▁other	-893
07\	-894
▁web	-895
mbda	-896
06\	-897
xef	-898
▁module	-899
44\	-900
row	-901
tep	-902
color	-903
▁valid	-904
14\	-905
sg	-906
ding	-907
right	-908
pos	-909
05\	-910
annel	-911
▁by	-912
no	-913
09\	-914
xbb	-915
method	-916
▁await	-917
point	-918
▁help	-919
not	-920
60\	-921
▁all	-922
andler	-923
xcf	-924
db	-925
xfb	-926
image	-927
io	-928
item	-929
71\	-930
----	-931
52\	-932
ES	-933
its	-934
▁dis	-935
ak	-936
vel	-937
ren	-938
40\	-939
48\	-940
45\	-941
50\	-942
types	-943
▁property	-944
▁info	-945
xdf	-946
xee	-947
1'	-948
params	-949
▁lambda	-950
54\	-951
10\	-952
cale	-953
xfd	-954
▁parse	-955
array	-956
xample	-957
▁fla	-958
42\	-959
81\	-960
▁#	-961
eta	-962
▁write	-963
xbf	-964
ffer	-965
▁&	-966
cur	-967
58\	-968
pu	-969
sk	-970
▁dict	-971
0,	-972
md	-973
xaf	-974
xbe	-975
21\	-976
▁tra	-977
▁date	-978
base	-979
net	-980
xad	-981
47\	-982
53\	-983
pr	-984
xfa	-985
onent	-986
xeb	-987
bug	-988
82\	-989
xdb	-990
ok	-991
pected	-992
cre	-993
▁options	-994
56\	-995
▁requi	-996
place	-997
41\	-998
18\	-999
coder	-1000
▁parame	-1001
▁gener	-1002
ED	-1003
1,	-1004
▁al	-1005
ange	-1006
▁env	-1007
')	-1008
ernel	-1009
85\	-1010
ango	-1011
trans	-1012
../	-1013
▁pos	-1014
▁filename	-1015
▁ed	-1016
jango	-1017
▁items	-1018
▁obj	-1019
xbd	-1020
▁fil	-1021
ap	-1022
xba	-1023
app	-1024
ner	-1025
uct	-1026
lat	-1027
▁while	-1028
▁field	-1029
▁ser	-1030
xda	-1031
▁db	-1032
▁ver	-1033
▁cha	-1034
adata	-1035
87\	-1036
16\	-1037
atter	-1038
24\	-1039
ution	-1040
▁doc	-1041
xbc	-1042
12\	-1043
98\	-1044
''	-1045
Data	-1046
86\	-1047
comp	-1048
▁12	-1049
xcb	-1050
▁dataset	-1051
tin	-1052
den	-1053
97\	-1054
reg	-1055
json	-1056
59\	-1057
ded	-1058
xde	-1059
▁root	-1060
format	-1061
lugin	-1062
▁7	-1063
▁header	-1064
ld	-1065
fix	-1066
▁per	-1067
11\	-1068
▁ne	-1069
▁content	-1070
▁func	-1071
param	-1072
doc	-1073
89\	-1074
84\	-1075
95\	-1076
27\	-1077
xdc	-1078
▁'/	-1079
93\	-1080
▁context	-1081
xcc	-1082
xac	-1083
mit	-1084
DE	-1085
▁sum	-1086
23\	-1087
check	-1088
older	-1089
andle	-1090
xea	-1091
))	-1092
96\	-1093
▁Value	-1094
13\	-1095
▁'--	-1096
19\	-1097
xdd	-1098
cope	-1099
xcd	-1100
17\	-1101
AN	-1102
rc	-1103
▁task	-1104
▁inter	-1105
als	-1106
46\	-1107
▁can	-1108
94\	-1109
module	-1110
▁params	-1111
▁iter	-1112
xaa	-1113
83\	-1114
ite	-1115
call	-1116
uc	-1117
Case	-1118
90\	-1119
token	-1120
import	-1121
ocket	-1122
▁msg	-1123
tadata	-1124
cation	-1125
▁async	-1126
inter	-1127
51\	-1128
▁status	-1129
▁'__	-1130
sub	-1131
scription	-1132
move	-1133
ormal	-1134
vision	-1135
▁25	-1136
idget	-1137
lot	-1138
▁->	-1139
99\	-1140
▁act	-1141
[1	-1142
._	-1143
box	-1144
AC	-1145
▁do	-1146
lose	-1147
88\	-1148
ds	-1149
ush	-1150
▁Y	-1151
▁net	-1152
25\	-1153
ound	-1154
uple	-1155
▁version	-1156
yle	-1157
▁exec	-1158
xca	-1159
__'	-1160
92\	-1161
▁ext	-1162
Name	-1163
▁fe	-1164
inal	-1165
▁chainer	-1166
▁call	-1167
ome	-1168
▁action	-1169
▁ValueError	-1170
ated	-1171
];	-1172
91\	-1173
UT	-1174
ensor	-1175
▁word	-1176
comm	-1177
from	-1178
16	-1179
ql	-1180
ET	-1181
▁mat	-1182
start	-1183
10	-1184
_2	-1185
▁make	-1186
message	-1187
▁mark	-1188
http	-1189
olute	-1190
▁group	-1191
Se	-1192
▁cv	-1193
▁project	-1194
▁current	-1195
tings	-1196
raw	-1197
ook	-1198
▁next	-1199
'''	-1200
▁values	-1201
use	-1202
rate	-1203
Par	-1204
▁count	-1205
▁api	-1206
▁port	-1207
▁no	-1208
led	-1209
Node	-1210
ract	-1211
04	-1212
ton	-1213
lete	-1214
▁build	-1215
▁session	-1216
ide	-1217
object	-1218
uto	-1219
▁use	-1220
mail	-1221
');	-1222
ched	-1223
),	-1224
LT	-1225
▁color	-1226
▁row	-1227
ister	-1228
lect	-1229
thon	-1230
mission	-1231
ud	-1232
▁Se	-1233
▁stat	-1234
api	-1235
ze	-1236
▁expected	-1237
ana	-1238
peri	-1239
▁debug	-1240
tps	-1241
▁outputs	-1242
rect	-1243
ids	-1244
quen	-1245
bject	-1246
AME	-1247
flow	-1248
▁absolute	-1249
0000	-1250
LO	-1251
▁save	-1252
play	-1253
event	-1254
▁glob	-1255
width	-1256
▁conv	-1257
▁match	-1258
IC	-1259
▁};	-1260
▁Base	-1261
ong	-1262
dim	-1263
▁stream	-1264
batch	-1265
ody	-1266
UR	-1267
las	-1268
vert	-1269
ors	-1270
▁core	-1271
Po	-1272
create	-1273
ill	-1274
stri	-1275
plot	-1276
▁DE	-1277
▁are	-1278
▁St	-1279
2'	-1280
ax	-1281
viron	-1282
To	-1283
▁dir	-1284
▁Ar	-1285
ports	-1286
List	-1287
▁backend	-1288
▁li	-1289
igr	-1290
▁host	-1291
▁cli	-1292
cy	-1293
tx	-1294
▁django	-1295
03	-1296
▁layer	-1297
▁===	-1298
anager	-1299
AS	-1300
▁string	-1301
AP	-1302
Comp	-1303
group	-1304
utton	-1305
nsion	-1306
cu	-1307
link	-1308
▁copy	-1309
mbed	-1310
▁plt	-1311
orted	-1312
range	-1313
AD	-1314
order	-1315
ify	-1316
periment	-1317
▁The	-1318
umn	-1319
25	-1320
av	-1321
▁method	-1322
auth	-1323
tring	-1324
▁edge	-1325
▁loss	-1326
temp	-1327
poch	-1328
gra	-1329
LECT	-1330
▁spec	-1331
En	-1332
3_	-1333
▁sk	-1334
▁sample	-1335
▁pi	-1336
▁9	-1337
IG	-1338
run	-1339
Res	-1340
**	-1341
names	-1342
TE	-1343
func	-1344
CH	-1345
▁mock	-1346
▁testing	-1347
coding	-1348
otal	-1349
CO	-1350
ING	-1351
▁command	-1352
ru	-1353
ont	-1354
▁'-	-1355
▁find	-1356
TP	-1357
▁query	-1358
ref	-1359
▁exploit	-1360
sca	-1361
▁J	-1362
Lay	-1363
▁rand	-1364
ENT	-1365
▁yield	-1366
iter	-1367
ach	-1368
1_	-1369
lable	-1370
uld	-1371
atures	-1372
view	-1373
▁ret	-1374
▁},	-1375
loss	-1376
ulti	-1377
▁'_	-1378
icode	-1379
▁Co	-1380
UN	-1381
▁mode	-1382
▁ty	-1383
rectory	-1384
",	-1385
ights	-1386
wer	-1387
number	-1388
pect	-1389
gn	-1390
Model	-1391
[0]	-1392
▁Exception	-1393
ocab	-1394
ptional	-1395
Me	-1396
mark	-1397
client	-1398
rial	-1399
unk	-1400
lus	-1401
rap	-1402
gent	-1403
ual	-1404
itor	-1405
▁0;	-1406
ized	-1407
▁headers	-1408
of	-1409
8'	-1410
▁map	-1411
Ch	-1412
0}	-1413
tensor	-1414
▁df	-1415
▁last	-1416
):	-1417
ined	-1418
PE	-1419
▁>=	-1420
ative	-1421
wd	-1422
cord	-1423
▁mo	-1424
mode	-1425
▁labels	-1426
▁encode	-1427
Up	-1428
▁require	-1429
obj	-1430
ols	-1431
tinue	-1432
TH	-1433
AB	-1434
At	-1435
DI	-1436
oi	-1437
igh	-1438
tribute	-1439
""	-1440
https	-1441
ert	-1442
Ser	-1443
▁that	-1444
layer	-1445
sum	-1446
men	-1447
▁idx	-1448
gr	-1449
Di	-1450
▁plugin	-1451
▁char	-1452
▁layers	-1453
▁De	-1454
▁TestCase	-1455
dis	-1456
uccess	-1457
▁ast	-1458
▁device	-1459
▁0.5	-1460
0'	-1461
▁send	-1462
▁optim	-1463
▁flags	-1464
Key	-1465
table	-1466
queue	-1467
▁view	-1468
▁length	-1469
items	-1470
▁description	-1471
my	-1472
reak	-1473
are	-1474
upy	-1475
xy	-1476
arning	-1477
▁'.	-1478
▁datetime	-1479
2_	-1480
channel	-1481
▁zer	-1482
Array	-1483
cted	-1484
Log	-1485
▁1.0	-1486
▁ent	-1487
ib	-1488
rix	-1489
▁continue	-1490
▁oper	-1491
sample	-1492
ateg	-1493
status	-1494
▁||	-1495
content	-1496
ian	-1497
▁conn	-1498
▁auth	-1499
▁conta	-1500
LAG	-1501
▁up	-1502
▁register	-1503
this	-1504
mary	-1505
fil	-1506
▁&&	-1507
▁sy	-1508
11	-1509
▁width	-1510
mon	-1511
▁one	-1512
idden	-1513
Ex	-1514
licy	-1515
ssue	-1516
▁order	-1517
▁decode	-1518
05	-1519
pass	-1520
▁environ	-1521
)'	-1522
▁right	-1523
▁Math	-1524
bar	-1525
host	-1526
lean	-1527
quence	-1528
▁it	-1529
lasses	-1530
▁Tensor	-1531
▁link	-1532
▁scale	-1533
bot	-1534
eras	-1535
▁title	-1536
="	-1537
▁initial	-1538
target	-1539
02	-1540
ariable	-1541
▁grad	-1542
▁16	-1543
▁?	-1544
▁tag	-1545
face	-1546
old	-1547
▁work	-1548
action	-1549
LAGS	-1550
▁exp	-1551
▁util	-1552
▁cmd	-1553
▁block	-1554
round	-1555
ear	-1556
▁errors	-1557
▁http	-1558
source	-1559
▁32	-1560
bin	-1561
Object	-1562
Exception	-1563
Id	-1564
foo	-1565
▁filter	-1566
riter	-1567
uid	-1568
▁offset	-1569
▁Ex	-1570
ias	-1571
▁server	-1572
html	-1573
▁replace	-1574
▁sign	-1575
▁sg	-1576
24	-1577
3'	-1578
Config	-1579
bose	-1580
options	-1581
▁bot	-1582
▁step	-1583
ox	-1584
▁IN	-1585
rt	-1586
▁keys	-1587
edge	-1588
▁hasattr	-1589
▁number	-1590
uration	-1591
ible	-1592
idx	-1593
sing	-1594
store	-1595
▁eval	-1596
▁transform	-1597
irst	-1598
▁FLAGS	-1599
field	-1600
▁thread	-1601
▁parent	-1602
▁mon	-1603
ci	-1604
conv	-1605
Event	-1606
env	-1607
▁mean	-1608
new	-1609
▁kernel	-1610
▁break	-1611
nection	-1612
gle	-1613
View	-1614
dices	-1615
▁Py	-1616
OT	-1617
MP	-1618
)"	-1619
down	-1620
▁trace	-1621
context	-1622
▁division	-1623
▁must	-1624
parser	-1625
▁..	-1626
▁search	-1627
lection	-1628
▁<=	-1629
▁exist	-1630
▁stride	-1631
ould	-1632
Component	-1633
====	-1634
mory	-1635
board	-1636
US	-1637
▁mask	-1638
top	-1639
▁Pro	-1640
NAME	-1641
his	-1642
spec	-1643
Fa	-1644
Set	-1645
fg	-1646
,"	-1647
iform	-1648
lude	-1649
scale	-1650
Un	-1651
err	-1652
:`	-1653
ches	-1654
True	-1655
▁show	-1656
SS	-1657
34	-1658
lease	-1659
example	-1660
(?	-1661
ical	-1662
task	-1663
_1	-1664
fn	-1665
▁results	-1666
▁ctx	-1667
axis	-1668
▁close	-1669
olution	-1670
rop	-1671
istr	-1672
▁1.	-1673
▁DEF	-1674
dout	-1675
cket	-1676
▁six	-1677
ustom	-1678
mt	-1679
▁remove	-1680
tributes	-1681
ense	-1682
du	-1683
99	-1684
>'	-1685
the	-1686
▁ad	-1687
▁serial	-1688
▁instance	-1689
swith	-1690
grad	-1691
tail	-1692
server	-1693
yload	-1694
).	-1695
OD	-1696
▁unicode	-1697
▁first	-1698
utf	-1699
▁frame	-1700
▁SE	-1701
▁ren	-1702
▁table	-1703
▁"/	-1704
▁Not	-1705
request	-1706
UM	-1707
▁argv	-1708
EY	-1709
▁top	-1710
▁--	-1711
vider	-1712
▁metadata	-1713
▁sp	-1714
▁execute	-1715
IL	-1716
command	-1717
so	-1718
+)	-1719
▁global	-1720
ai	-1721
▁tmp	-1722
▁left	-1723
</	-1724
dnn	-1725
▁window	-1726
lan	-1727
▁plot	-1728
ments	-1729
"""	-1730
▁"""	-1731
mented	-1732
▁found	-1733
rypt	-1734
stant	-1735
stat	-1736
umer	-1737
[1]	-1738
cor	-1739
uments	-1740
▁element	-1741
gl	-1742
lice	-1743
▁process	-1744
ans	-1745
▁local	-1746
feren	-1747
▁Ch	-1748
adding	-1749
▁validate	-1750
000	-1751
resh	-1752
FI	-1753
▁pri	-1754
variable	-1755
cri	-1756
igrations	-1757
▁qu	-1758
▁account	-1759
sche	-1760
gener	-1761
▁exte	-1762
▁point	-1763
ie	-1764
Lo	-1765
▁'%	-1766
▁ax	-1767
▁webdnn	-1768
Bu	-1769
▁scope	-1770
frame	-1771
▁kind	-1772
▁template	-1773
ww	-1774
df	-1775
ste	-1776
ializer	-1777
▁generate	-1778
TTP	-1779
0.	-1780
ant	-1781
▁job	-1782
▁Qt	-1783
step	-1784
▁total	-1785
lines	-1786
local	-1787
handle	-1788
sp	-1789
File	-1790
chema	-1791
▁migrations	-1792
▁fi	-1793
SI	-1794
ivation	-1795
pool	-1796
imple	-1797
ization	-1798
Parser	-1799
return	-1800
▁0,	-1801
▁codecs	-1802
addr	-1803
▁exc	-1804
▁height	-1805
luster	-1806
3.	-1807
over	-1808
▁cal	-1809
▁param	-1810
▁so	-1811
▁variable	-1812
--------	-1813
opt	-1814
beta	-1815
labels	-1816
ped	-1817
▁page	-1818
last	-1819
EX	-1820
▁exit	-1821
();	-1822
15	-1823
▁true	-1824
amp	-1825
OL	-1826
requi	-1827
files	-1828
▁src	-1829
ifier	-1830
MA	-1831
▁orig	-1832
ved	-1833
block	-1834
201	-1835
▁del	-1836
mpty	-1837
▁vis	-1838
lication	-1839
gb	-1840
Text	-1841
equal	-1842
▁Data	-1843
eb	-1844
▁Variable	-1845
nnot	-1846
tag	-1847
▁compile	-1848
ain	-1849
▁verbose	-1850
page	-1851
tric	-1852
Layout	-1853
pack	-1854
uff	-1855
teger	-1856
enter	-1857
char	-1858
▁subprocess	-1859
orld	-1860
1"	-1861
Color	-1862
▁bin	-1863
▁argparse	-1864
▁down	-1865
▁password	-1866
here	-1867
mask	-1868
project	-1869
80	-1870
job	-1871
▁tensorflow	-1872
EL	-1873
IM	-1874
sy	-1875
style	-1876
reen	-1877
1.	-1878
title	-1879
tro	-1880
▁settings	-1881
trib	-1882
▁sess	-1883
true	-1884
dataset	-1885
bytes	-1886
ises	-1887
pri	-1888
sign	-1889
Def	-1890
Value	-1891
trace	-1892
istry	-1893
▁forward	-1894
uber	-1895
▁20	-1896
▁common	-1897
mplemented	-1898
▁"__	-1899
attern	-1900
serv	-1901
ec	-1902
▁fields	-1903
IP	-1904
header	-1905
act	-1906
lpha	-1907
▁setter	-1908
▁"\	-1909
▁pop	-1910
▁"%	-1911
▁strip	-1912
▁>>	-1913
▁cor	-1914
▁child	-1915
match	-1916
ass	-1917
iled	-1918
root	-1919
classes	-1920
▁reshape	-1921
▁200	-1922
ware	-1923
holder	-1924
stall	-1925
▁should	-1926
exports	-1927
pression	-1928
Annot	-1929
filter	-1930
19	-1931
liter	-1932
level	-1933
▁astype	-1934
INE	-1935
▁cache	-1936
Widget	-1937
buffer	-1938
▁will	-1939
▁zeros	-1940
parame	-1941
can	-1942
▁255	-1943
▁lower	-1944
▁0.0	-1945
conds	-1946
ility	-1947
▁style	-1948
loc	-1949
cond	-1950
cret	-1951
ning	-1952
netes	-1953
ubernetes	-1954
▁keras	-1955
▁ip	-1956
▁sha	-1957
▁extra	-1958
▁timeout	-1959
push	-1960
▁over	-1961
Handler	-1962
▁stdout	-1963
Box	-1964
account	-1965
ally	-1966
▁post	-1967
▁dirname	-1968
RA	-1969
unter	-1970
FF	-1971
``	-1972
AU	-1973
OS	-1974
▁socket	-1975
▁html	-1976
▁*/	-1977
graph	-1978
▁full	-1979
height	-1980
www	-1981
ux	-1982
ash	-1983
▁err	-1984
channels	-1985
▁convert	-1986
:'	-1987
▁alpha	-1988
▁setUp	-1989
▁seed	-1990
▁tuple	-1991
abled	-1992
▁Un	-1993
▁Me	-1994
▁Or	-1995
▁hash	-1996
let	-1997
Ra	-1998
__"	-1999
▁pad	-2000
mpl	-2001
OC	-2002
▁conf	-2003
verse	-2004
metadata	-2005
ATE	-2006
06	-2007
rid	-2008
▁normal	-2009
search	-2010
▁SELECT	-2011
▁Type	-2012
pth	-2013
2.	-2014
▁Key	-2015
▁raw	-2016
▁tree	-2017
TER	-2018
▁null	-2019
inputs	-2020
▁static	-2021
txt	-2022
leep	-2023
ply	-2024
learn	-2025
keys	-2026
Class	-2027
▁lib	-2028
try	-2029
rag	-2030
ique	-2031
TY	-2032
▁stack	-2033
ping	-2034
oice	-2035
offset	-2036
etch	-2037
gex	-2038
▁tokens	-2039
14	-2040
cache	-2041
literals	-2042
▁now	-2043
wise	-2044
Out	-2045
Net	-2046
uda	-2047
▁body	-2048
▁getattr	-2049
ruit	-2050
For	-2051
any	-2052
scope	-2053
verter	-2054
▁example	-2055
float	-2056
print	-2057
▁objects	-2058
ume	-2059
▁ans	-2060
response	-2061
ous	-2062
▁ref	-2063
ropo	-2064
▁kubernetes	-2065
hi	-2066
▁enumer	-2067
▁files	-2068
▁...	-2069
ores	-2070
dims	-2071
▁dump	-2072
56	-2073
▁box	-2074
▁``	-2075
▁dest	-2076
▁"--	-2077
▁dim	-2078
▁std	-2079
:"	-2080
org	-2081
▁head	-2082
##	-2083
ZE	-2084
▁patch	-2085
isode	-2086
tract	-2087
ropout	-2088
handler	-2089
▁payload	-2090
▁pack	-2091
▁delete	-2092
cle	-2093
SH	-2094
▁optimizer	-2095
ug	-2096
▁permission	-2097
gram	-2098
password	-2099
▁layout	-2100
ins	-2101
▁64	-2102
▁predi	-2103
open	-2104
prob	-2105
▁reset	-2106
▁CON	-2107
▁part	-2108
Py	-2109
▁cuda	-2110
▁zip	-2111
select	-2112
filename	-2113
values	-2114
dar	-2115
▁enumerate	-2116
pping	-2117
▁channel	-2118
▁callback	-2119
hot	-2120
▁you	-2121
▁vocab	-2122
ators	-2123
▁exists	-2124
transform	-2125
▁encoding	-2126
▁addr	-2127
HE	-2128
▁parametri	-2129
oogle	-2130
▁OR	-2131
▁pool	-2132
wag	-2133
▁handle	-2134
ait	-2135
▁classmethod	-2136
oom	-2137
ffe	-2138
imum	-2139
OK	-2140
resource	-2141
Time	-2142
Num	-2143
vg	-2144
tex	-2145
QU	-2146
split	-2147
13	-2148
ference	-2149
▁"-	-2150
Le	-2151
▁User	-2152
lections	-2153
Implemented	-2154
EST	-2155
▁stop	-2156
layers	-2157
Not	-2158
▁parametrize	-2159
uage	-2160
▁'{}	-2161
patch	-2162
OP	-2163
▁Arg	-2164
fore	-2165
No	-2166
clude	-2167
▁weight	-2168
dtype	-2169
stract	-2170
orage	-2171
▁resp	-2172
▁chunk	-2173
mote	-2174
show	-2175
▁username	-2176
only	-2177
▁padding	-2178
ast	-2179
';	-2180
nal	-2181
session	-2182
Item	-2183
rowser	-2184
gine	-2185
ions	-2186
▁Inc	-2187
State	-2188
18	-2189
Base	-2190
build	-2191
▁images	-2192
▁NotImplemented	-2193
fer	-2194
ason	-2195
wo	-2196
Len	-2197
▁15	-2198
▁directory	-2199
He	-2200
points	-2201
▁cfg	-2202
▁ur	-2203
▁address	-2204
address	-2205
The	-2206
ular	-2207
element	-2208
pose	-2209
Size	-2210
▁String	-2211
ui	-2212
xture	-2213
▁experiment	-2214
▁Par	-2215
▁resource	-2216
09	-2217
▁Res	-2218
▁This	-2219
her	-2220
▁lang	-2221
Logger	-2222
▁assertTrue	-2223
ene	-2224
▁predict	-2225
▁struct	-2226
ification	-2227
cli	-2228
.*	-2229
/'	-2230
oly	-2231
ublic	-2232
cate	-2233
manager	-2234
▁bool	-2235
String	-2236
repr	-2237
▁hidden	-2238
("	-2239
duce	-2240
▁prefix	-2241
▁need	-2242
▁ta	-2243
▁any	-2244
OM	-2245
ics	-2246
left	-2247
▁vx	-2248
User	-2249
verage	-2250
PAT	-2251
ategory	-2252
cat	-2253
▁agent	-2254
cc	-2255
}'	-2256
[2	-2257
▁proto	-2258
stants	-2259
conta	-2260
▁pred	-2261
▁dt	-2262
denc	-2263
outputs	-2264
▁HTTP	-2265
pendenc	-2266
current	-2267
af	-2268
ported	-2269
{0}	-2270
PI	-2271
▁List	-2272
laceholder	-2273
sent	-2274
▁startswith	-2275
Index	-2276
▁Text	-2277
20	-2278
web	-2279
bl	-2280
steps	-2281
▁Stream	-2282
device	-2283
lendar	-2284
▁sleep	-2285
17	-2286
\\	-2287
fla	-2288
▁old	-2289
▁/**	-2290
stream	-2291
89	-2292
▁embed	-2293
▁bytes	-2294
msg	-2295
itions	-2296
idd	-2297
▁epoch	-2298
▁level	-2299
iddle	-2300
LU	-2301
AULT	-2302
▁Z	-2303
go	-2304
sha	-2305
33	-2306
ance	-2307
▁auto	-2308
CE	-2309
])	-2310
▁collections	-2311
olver	-2312
epoch	-2313
2,	-2314
Info	-2315
gpu	-2316
..	-2317
▁fn	-2318
▁ke	-2319
▁sig	-2320
-9	-2321
▁dist	-2322
ich	-2323
URL	-2324
pper	-2325
▁nums	-2326
▁setup	-2327
84	-2328
kernel	-2329
DIR	-2330
au	-2331
▁gl	-2332
▁lin	-2333
uf	-2334
▁fit	-2335
BU	-2336
derr	-2337
layout	-2338
cp	-2339
▁network	-2340
NN	-2341
ground	-2342
▁schema	-2343
delete	-2344
atio	-2345
PO	-2346
▁dec	-2347
▁Image	-2348
aa	-2349
▁mod	-2350
▁wrap	-2351
Dict	-2352
▁Model	-2353
ULE	-2354
ocument	-2355
na	-2356
▁xp	-2357
samples	-2358
ny	-2359
nodes	-2360
Raises	-2361
▁'<	-2362
template	-2363
change	-2364
▁functions	-2365
CON	-2366
ailable	-2367
▁document	-2368
▁axes	-2369
servation	-2370
▁exception	-2371
jector	-2372
mean	-2373
istory	-2374
▁nb	-2375
22	-2376
Is	-2377
▁render	-2378
ITH	-2379
hash	-2380
ials	-2381
success	-2382
▁reward	-2383
Line	-2384
Ca	-2385
▁bound	-2386
86	-2387
score	-2388
../../	-2389
▁bl	-2390
Qu	-2391
▁buffer	-2392
▁getLogger	-2393
▁rest	-2394
▁assertRaises	-2395
▁allow	-2396
36	-2397
▁ep	-2398
▁gy	-2399
▁parameters	-2400
▁If	-2401
▁eps	-2402
mber	-2403
▁wait	-2404
None	-2405
mmand	-2406
lector	-2407
stamp	-2408
weight	-2409
cent	-2410
next	-2411
normal	-2412
tach	-2413
UP	-2414
▁lines	-2415
Of	-2416
hell	-2417
▁features	-2418
▁Code	-2419
▁font	-2420
▁parameter	-2421
▁non	-2422
▁queue	-2423
▁sorted	-2424
trol	-2425
settings	-2426
35	-2427
▁option	-2428
pred	-2429
Client	-2430
▁reduce	-2431
){	-2432
▁pk	-2433
direct	-2434
▁ds	-2435
admin	-2436
OW	-2437
fwd	-2438
duct	-2439
post	-2440
IS	-2441
JE	-2442
▁types	-2443
▁{}'	-2444
bg	-2445
pg	-2446
ote	-2447
body	-2448
untime	-2449
▁keep	-2450
▁ST	-2451
document	-2452
▁form	-2453
▁training	-2454
backend	-2455
▁128	-2456
▁typing	-2457
▁weights	-2458
scribe	-2459
▁iteritems	-2460
sen	-2461
▁activation	-2462
4'	-2463
sl	-2464
exec	-2465
weights	-2466
▁false	-2467
self	-2468
thread	-2469
▁'/'	-2470
dered	-2471
script	-2472
▁Col	-2473
nsions	-2474
07	-2475
abel	-2476
▁my	-2477
Path	-2478
▁connect	-2479
▁requests	-2480
del	-2481
▁:=	-2482
▁1000	-2483
Group	-2484
▁dete	-2485
IST	-2486
erge	-2487
nown	-2488
▁optional	-2489
▁where	-2490
tence	-2491
math	-2492
▁sen	-2493
App	-2494
▁fig	-2495
FO	-2496
loud	-2497
Module	-2498
▁rou	-2499
ultip	-2500
▁math	-2501
DB	-2502
▁display	-2503
ross	-2504
/"	-2505
dient	-2506
▁final	-2507
mbol	-2508
▁clip	-2509
▁Opt	-2510
▁Conv	-2511
cura	-2512
ting	-2513
stack	-2514
mental	-2515
random	-2516
▁score	-2517
ws	-2518
▁fin	-2519
▁record	-2520
75	-2521
▁ign	-2522
onents	-2523
gress	-2524
VER	-2525
ates	-2526
AM	-2527
▁bias	-2528
ipy	-2529
gor	-2530
norm	-2531
ector	-2532
Ac	-2533
words	-2534
▁click	-2535
vo	-2536
man	-2537
▁cat	-2538
gorith	-2539
features	-2540
='	-2541
▁hparams	-2542
{"	-2543
▁vec	-2544
ift	-2545
vide	-2546
KEY	-2547
phin	-2548
▁meta	-2549
img	-2550
req	-2551
IO	-2552
▁pick	-2553
LL	-2554
case	-2555
Down	-2556
Trans	-2557
ik	-2558
▁man	-2559
gest	-2560
▁change	-2561
"\	-2562
SELECT	-2563
▁>>>	-2564
je	-2565
nist	-2566
yper	-2567
dentials	-2568
dia	-2569
kwargs	-2570
}"	-2571
},	-2572
gy	-2573
gen	-2574
hook	-2575
1)	-2576
alog	-2577
▁sim	-2578
peline	-2579
tom	-2580
▁warn	-2581
▁interface	-2582
bind	-2583
▁staticmethod	-2584
▁0.1	-2585
([	-2586
▁which	-2587
▁used	-2588
bution	-2589
rst	-2590
zer	-2591
IONS	-2592
part	-2593
▁spa	-2594
std	-2595
comple	-2596
▁summary	-2597
▁done	-2598
27	-2599
chor	-2600
▁relu	-2601
gg	-2602
phinx	-2603
▁256	-2604
cept	-2605
▁At	-2606
stra	-2607
boxes	-2608
▁FI	-2609
bf	-2610
Hel	-2611
window	-2612
5'	-2613
▁only	-2614
LS	-2615
Te	-2616
curity	-2617
edgeql	-2618
xx	-2619
▁Name	-2620
curacy	-2621
▁memory	-2622
fc	-2623
tuple	-2624
▁',	-2625
▁arch	-2626
amma	-2627
▁WITH	-2628
▁comple	-2629
XT	-2630
dio	-2631
▁PRO	-2632
▁fixture	-2633
OG	-2634
rapper	-2635
▁required	-2636
Ro	-2637
▁0)	-2638
PRO	-2639
asic	-2640
plu	-2641
▁-=	-2642
`,	-2643
▁loop	-2644
kind	-2645
▁DEFINE	-2646
ithub	-2647
book	-2648
▁cle	-2649
tests	-2650
ideo	-2651
now	-2652
Number	-2653
hel	-2654
37	-2655
▁tests	-2656
latform	-2657
▁python	-2658
plugin	-2659
▁words	-2660
▁system	-2661
Function	-2662
ASE	-2663
▁download	-2664
pha	-2665
▁store	-2666
br	-2667
cay	-2668
SIZE	-2669
▁boxes	-2670
▁handler	-2671
2"	-2672
▁aut	-2673
close	-2674
▁extend	-2675
]'	-2676
embed	-2677
ell	-2678
By	-2679
Message	-2680
Al	-2681
▁1,	-2682
▁each	-2683
python	-2684
ek	-2685
uble	-2686
▁vol	-2687
▁!==	-2688
{}'	-2689
prefix	-2690
▁indices	-2691
ified	-2692
▁have	-2693
sup	-2694
yn	-2695
abla	-2696
▁fruit	-2697
write	-2698
ystem	-2699
termin	-2700
▁names	-2701
▁case	-2702
qrt	-2703
ODULE	-2704
▁Node	-2705
].	-2706
allback	-2707
-8'	-2708
meta	-2709
gorithm	-2710
Th	-2711
$'	-2712
▁position	-2713
▁201	-2714
▁year	-2715
cl	-2716
VE	-2717
▁urllib	-2718
:[	-2719
Default	-2720
fd	-2721
▁Sim	-2722
▁events	-2723
HT	-2724
▁Import	-2725
gd	-2726
uler	-2727
▁cupy	-2728
▁stderr	-2729
▁TypeError	-2730
Point	-2731
ptr	-2732
>"	-2733
pac	-2734
trics	-2735
Window	-2736
forward	-2737
▁distri	-2738
pider	-2739
▁skip	-2740
wh	-2741
ategor	-2742
▁30	-2743
position	-2744
ABLE	-2745
xml	-2746
js	-2747
▁ge	-2748
vices	-2749
▁draw	-2750
▁ali	-2751
AX	-2752
TestCase	-2753
tf	-2754
cmd	-2755
full	-2756
▁ray	-2757
UB	-2758
dev	-2759
▁{}"	-2760
▁++	-2761
▁Codec	-2762
pb	-2763
▁feature	-2764
SER	-2765
LTER	-2766
▁pattern	-2767
With	-2768
images	-2769
ummy	-2770
▁matrix	-2771
▁long	-2772
▁namespace	-2773
▁io	-2774
▁widget	-2775
CK	-2776
lobal	-2777
eval	-2778
▁ass	-2779
require	-2780
cast	-2781
▁req	-2782
email	-2783
attributes	-2784
▁lic	-2785
▁cond	-2786
rer	-2787
ND	-2788
TI	-2789
▁kw	-2790
▁coord	-2791
ftmax	-2792
88	-2793
▁attribute	-2794
sv	-2795
ceive	-2796
Tensor	-2797
cv	-2798
ssing	-2799
▁buil	-2800
iddleware	-2801
▁raises	-2802
▁sort	-2803
▁fetch	-2804
▁modules	-2805
:%	-2806
▁});	-2807
Tra	-2808
training	-2809
iler	-2810
schema	-2811
PATH	-2812
ities	-2813
tot	-2814
"'	-2815
zy	-2816
Add	-2817
ful	-2818
▁sequence	-2819
umentParser	-2820
':	-2821
bs	-2822
pc	-2823
MO	-2824
ating	-2825
▁email	-2826
Version	-2827
relu	-2828
========	-2829
vec	-2830
▁{0}	-2831
▁Ser	-2832
▁ins	-2833
▁using	-2834
erce	-2835
encode	-2836
▁profile	-2837
▁arguments	-2838
▁fl	-2839
▁container	-2840
All	-2841
End	-2842
bers	-2843
alid	-2844
angle	-2845
▁backward	-2846
ollow	-2847
-2	-2848
▁ImportError	-2849
td	-2850
▁flat	-2851
uffle	-2852
Factory	-2853
▁insert	-2854
Ad	-2855
andom	-2856
ML	-2857
ORT	-2858
▁fun	-2859
namespace	-2860
Sub	-2861
False	-2862
▁login	-2863
▁$	-2864
igration	-2865
Back	-2866
▁Config	-2867
▁norm	-2868
eq	-2869
▁opts	-2870
▁platform	-2871
pts	-2872
▁Di	-2873
agent	-2874
folder	-2875
▁foo	-2876
▁uniform	-2877
▁gen	-2878
▁bind	-2879
▁service	-2880
ception	-2881
pendencies	-2882
gt	-2883
++)	-2884
straint	-2885
──	-2886
sync	-2887
proto	-2888
Socket	-2889
▁fname	-2890
▁DEFAULT	-2891
RI	-2892
gre	-2893
▁pw	-2894
Inter	-2895
logger	-2896
▁evalu	-2897
><	-2898
▁IP	-2899
ia	-2900
Qt	-2901
iven	-2902
mod	-2903
bound	-2904
▁50	-2905
utor	-2906
▁beta	-2907
▁annot	-2908
▁extract	-2909
▁Axis	-2910
▁observation	-2911
▁registry	-2912
▁rl	-2913
location	-2914
Fe	-2915
AGE	-2916
abs	-2917
conn	-2918
ga	-2919
head	-2920
▁sql	-2921
service	-2922
▁button	-2923
ACK	-2924
pf	-2925
vas	-2926
ker	-2927
▁TEST	-2928
auto	-2929
Check	-2930
GB	-2931
ATA	-2932
ars	-2933
mock	-2934
▁win	-2935
Content	-2936
0;	-2937
3,	-2938
26	-2939
JECT	-2940
vocab	-2941
wrap	-2942
▁expect	-2943
Spec	-2944
▁'.'	-2945
▁inp	-2946
pk	-2947
delta	-2948
▁prev	-2949
Element	-2950
▁Column	-2951
lem	-2952
▁grid	-2953
39	-2954
tick	-2955
aded	-2956
▁multi	-2957
API	-2958
▁mid	-2959
Or	-2960
tmp	-2961
NS	-2962
▁Migration	-2963
▁gra	-2964
wagger	-2965
▁Incre	-2966
▁custom	-2967
▁placeholder	-2968
0"	-2969
74	-2970
cpu	-2971
izers	-2972
▁high	-2973
▁ident	-2974
umns	-2975
▁Get	-2976
aster	-2977
▁Module	-2978
Result	-2979
seconds	-2980
DER	-2981
ision	-2982
reshold	-2983
div	-2984
tyle	-2985
▁rng	-2986
Button	-2987
ingle	-2988
Source	-2989
▁install	-2990
rule	-2991
▁tile	-2992
xel	-2993
▁month	-2994
29	-2995
▁routers	-2996
Converter	-2997
HO	-2998
used	-2999
rl	-3000
PER	-3001
indices	-3002
));	-3003
▁lr	-3004
EM	-3005
_'	-3006
imation	-3007
blem	-3008
▁dot	-3009
cha	-3010
uri	-3011
▁cre	-3012
Stream	-3013
socket	-3014
▁contrib	-3015
entic	-3016
option	-3017
7,	-3018
8"	-3019
lack	-3020
▁buf	-3021
▁Incremental	-3022
Arg	-3023
alpha	-3024
PS	-3025
▁".	-3026
▁Error	-3027
▁RE	-3028
▁samples	-3029
▁location	-3030
imer	-3031
loop	-3032
annot	-3033
▁plugins	-3034
▁constant	-3035
DS	-3036
▁bucket	-3037
▁cluster	-3038
▁move	-3039
▁under	-3040
▁success	-3041
BO	-3042
▁constants	-3043
CP	-3044
mar	-3045
river	-3046
Encoder	-3047
CA	-3048
has	-3049
On	-3050
dist	-3051
▁com	-3052
decode	-3053
▁but	-3054
github	-3055
FILE	-3056
torch	-3057
▁tr	-3058
Command	-3059
▁category	-3060
Ed	-3061
▁da	-3062
rage	-3063
png	-3064
'"	-3065
▁14	-3066
▁remote	-3067
▁11	-3068
tour	-3069
struct	-3070
ixin	-3071
vate	-3072
OB	-3073
description	-3074
Start	-3075
▁nnabla	-3076
directory	-3077
▁entry	-3078
▁Add	-3079
fields	-3080
ster	-3081
SP	-3082
ho	-3083
Tree	-3084
▁does	-3085
Invalid	-3086
▁unique	-3087
▁File	-3088
▁worker	-3089
▁Char	-3090
Action	-3091
vars	-3092
▁pid	-3093
AY	-3094
zone	-3095
▁Issue	-3096
ultiple	-3097
85	-3098
wn	-3099
▁To	-3100
▁vy	-3101
▁Document	-3102
non	-3103
▁stats	-3104
cii	-3105
▁'[	-3106
76	-3107
ATION	-3108
▁exceptions	-3109
Buffer	-3110
hed	-3111
▁expand	-3112
uffix	-3113
lin	-3114
lip	-3115
▁apply	-3116
-3	-3117
Frame	-3118
Target	-3119
ickrage	-3120
▁enc	-3121
remove	-3122
ready	-3123
▁Graph	-3124
CL	-3125
px	-3126
parameters	-3127
'^	-3128
sm	-3129
matrix	-3130
Str	-3131
processing	-3132
▁ph	-3133
Count	-3134
Status	-3135
▁Al	-3136
SON	-3137
src	-3138
login	-3139
Sh	-3140
win	-3141
save	-3142
▁include	-3143
▁factory	-3144
▁dropout	-3145
copy	-3146
▁sklearn	-3147
▁sickrage	-3148
ropy	-3149
paths	-3150
▁column	-3151
CR	-3152
▁signal	-3153
▁gpu	-3154
ential	-3155
contract	-3156
SET	-3157
▁clear	-3158
▁pformat	-3159
AA	-3160
(!	-3161
lation	-3162
rit	-3163
tend	-3164
callback	-3165
django	-3166
▁Order	-3167
git	-3168
Types	-3169
▁arr	-3170
Format	-3171
6'	-3172
-1	-3173
ech	-3174
▁MODULE	-3175
▁Line	-3176
pert	-3177
author	-3178
network	-3179
rgb	-3180
atches	-3181
7'	-3182
feature	-3183
uniform	-3184
▁world	-3185
({	-3186
Pos	-3187
imal	-3188
Request	-3189
▁swagger	-3190
▁%(	-3191
ride	-3192
common	-3193
++	-3194
IF	-3195
nu	-3196
▁uuid	-3197
▁when	-3198
utable	-3199
day	-3200
▁Set	-3201
▁subscribe	-3202
GL	-3203
reds	-3204
▁nlp	-3205
▁scri	-3206
acc	-3207
lated	-3208
▁connection	-3209
alle	-3210
▁hel	-3211
▁points	-3212
Des	-3213
itive	-3214
▁strict	-3215
oper	-3216
pacity	-3217
▁provider	-3218
invalid	-3219
▁reverse	-3220
▁drop	-3221
totype	-3222
▁Event	-3223
▁expression	-3224
▁'#	-3225
08	-3226
Attr	-3227
icon	-3228
defined	-3229
property	-3230
▁put	-3231
Writer	-3232
▁ArgumentParser	-3233
exp	-3234
▁dst	-3235
column	-3236
▁Solution	-3237
▁language	-3238
Map	-3239
like	-3240
term	-3241
▁App	-3242
domain	-3243
▁Oper	-3244
GET	-3245
core	-3246
served	-3247
▁Check	-3248
▁loads	-3249
▁mu	-3250
cript	-3251
variables	-3252
Pa	-3253
Form	-3254
tree	-3255
▁episode	-3256
dy	-3257
DEF	-3258
▁seq	-3259
▁ndim	-3260
▁tear	-3261
▁Message	-3262
itch	-3263
ries	-3264
▁coerce	-3265
fs	-3266
olve	-3267
▁policy	-3268
Layer	-3269
▁cost	-3270
▁real	-3271
▁ctypes	-3272
▁;	-3273
era	-3274
ram	-3275
▁inline	-3276
▁cert	-3277
tv	-3278
▁sli	-3279
dings	-3280
▁force	-3281
aml	-3282
][	-3283
Conta	-3284
▁abstract	-3285
▁tz	-3286
roll	-3287
tention	-3288
Manager	-3289
▁dumps	-3290
lab	-3291
▁neg	-3292
WOR	-3293
Input	-3294
▁ignore	-3295
=%	-3296
▁low	-3297
▁fill	-3298
secret	-3299
sphinx	-3300
44	-3301
▁asyncio	-3302
Image	-3303
Label	-3304
▁domain	-3305
ba	-3306
▁nodes	-3307
▁Exploit	-3308
;\	-3309
▁original	-3310
▁generator	-3311
rb	-3312
very	-3313
parameter	-3314
▁1024	-3315
monkey	-3316
MS	-3317
PT	-3318
▁Object	-3319
▁empty	-3320
28	-3321
lr	-3322
▁Bu	-3323
▁screen	-3324
ority	-3325
▁video	-3326
Options	-3327
▁'{	-3328
Get	-3329
fter	-3330
ools	-3331
▁feed	-3332
▁abspath	-3333
RL	-3334
ily	-3335
!'	-3336
NO	-3337
Pool	-3338
-%	-3339
▁LOG	-3340
▁tick	-3341
▁space	-3342
▁compute	-3343
dr	-3344
ploy	-3345
derer	-3346
imizer	-3347
role	-3348
depth	-3349
▁transpose	-3350
▁routersploit	-3351
Server	-3352
▁reason	-3353
▁argument	-3354
URE	-3355
other	-3356
▁obs	-3357
▁role	-3358
▁merge	-3359
Auth	-3360
▁choice	-3361
Width	-3362
initializer	-3363
dirs	-3364
multi	-3365
generator	-3366
▁given	-3367
▁2.	-3368
▁xs	-3369
imat	-3370
▁clean	-3371
*'	-3372
Col	-3373
cker	-3374
QL	-3375
lank	-3376
▁google	-3377
23	-3378
rep	-3379
▁proc	-3380
Run	-3381
isc	-3382
VAL	-3383
extra	-3384
▁short	-3385
perties	-3386
uz	-3387
▁My	-3388
tered	-3389
ARE	-3390
▁tri	-3391
engine	-3392
▁rule	-3393
▁may	-3394
parent	-3395
np	-3396
amera	-3397
UD	-3398
▁Return	-3399
So	-3400
tl	-3401
rable	-3402
Mixin	-3403
pher	-3404
ural	-3405
▁diff	-3406
gment	-3407
INT	-3408
\.	-3409
bool	-3410
static	-3411
atterns	-3412
_3	-3413
.0.0	-3414
prec	-3415
▁encoder	-3416
Pre	-3417
▁trainer	-3418
1}	-3419
▁admin	-3420
limit	-3421
atcher	-3422
policy	-3423
59	-3424
▁2.0	-3425
5,	-3426
permission	-3427
child	-3428
▁1)	-3429
lang	-3430
▁FILTER	-3431
▁curr	-3432
▁attrs	-3433
▁randint	-3434
peat	-3435
lanes	-3436
▁En	-3437
▁Any	-3438
Scale	-3439
minator	-3440
4.	-3441
ctionary	-3442
PU	-3443
seq	-3444
▁byte	-3445
▁scal	-3446
▁loc	-3447
▁warning	-3448
▁tearDown	-3449
logs	-3450
si	-3451
sten	-3452
▁generic	-3453
ORM	-3454
stru	-3455
▁scipy	-3456
OUT	-3457
▁"_	-3458
▁Web	-3459
▁shuffle	-3460
▁pend	-3461
Instance	-3462
▁children	-3463
NG	-3464
FIG	-3465
▁sm	-3466
global	-3467
COL	-3468
lected	-3469
expected	-3470
▁pers	-3471
▁tags	-3472
Context	-3473
pers	-3474
record	-3475
▁named	-3476
debug	-3477
hidden	-3478
ops	-3479
Date	-3480
rows	-3481
▁acc	-3482
▁predictions	-3483
join	-3484
▁shell	-3485
▁dependencies	-3486
neg	-3487
zip	-3488
▁streamlink	-3489
TYPE	-3490
▁Input	-3491
▁randn	-3492
replace	-3493
numpy	-3494
▁prob	-3495
experiment	-3496
ueue	-3497
Token	-3498
reward	-3499
ndbg	-3500
outer	-3501
▁your	-3502
▁round	-3503
▁locale	-3504
2-	-3505
▁imp	-3506
▁inte	-3507
▁flask	-3508
100	-3509
▁bar	-3510
▁shutil	-3511
atility	-3512
00000000	-3513
▁targets	-3514
components	-3515
▁urls	-3516
▁1;	-3517
ire	-3518
lain	-3519
▁Attribute	-3520
dence	-3521
▁shut	-3522
▁folder	-3523
tz	-3524
ench	-3525
tokens	-3526
PL	-3527
jo	-3528
▁<<	-3529
roid	-3530
▁cast	-3531
▁const	-3532
▁logits	-3533
TO	-3534
ti	-3535
Pass	-3536
ater	-3537
known	-3538
▁angr	-3539
▁shared	-3540
79	-3541
▁Random	-3542
▁dp	-3543
prop	-3544
▁xml	-3545
events	-3546
Service	-3547
▁learning	-3548
lex	-3549
ilter	-3550
headers	-3551
END	-3552
plotlib	-3553
Job	-3554
vious	-3555
ACE	-3556
▁Ordered	-3557
▁EX	-3558
created	-3559
▁Th	-3560
▁actual	-3561
med	-3562
Mode	-3563
▁was	-3564
geome	-3565
!"	-3566
▁native	-3567
▁limit	-3568
▁CharField	-3569
rm	-3570
▁sock	-3571
Length	-3572
lai	-3573
▁512	-3574
actions	-3575
----------------	-3576
▁gt	-3577
▁binary	-3578
▁attributes	-3579
ident	-3580
▁GL	-3581
Gener	-3582
0_	-3583
first	-3584
pyright	-3585
▁package	-3586
▁release	-3587
container	-3588
cls	-3589
uditor	-3590
▁background	-3591
▁go	-3592
conf	-3593
heet	-3594
setup	-3595
▁select	-3596
ght	-3597
rategy	-3598
Reader	-3599
▁Trans	-3600
▁tolist	-3601
SA	-3602
▁fail	-3603
From	-3604
▁pprint	-3605
▁pwndbg	-3606
irs	-3607
▁delta	-3608
Process	-3609
section	-3610
slice	-3611
0)	-3612
scal	-3613
groups	-3614
▁Create	-3615
expression	-3616
9'	-3617
▁metrics	-3618
sure	-3619
MM	-3620
▁abc	-3621
fin	-3622
▁cl	-3623
▁access	-3624
backward	-3625
▁24	-3626
quare	-3627
▁Comp	-3628
▁follow	-3629
▁Optional	-3630
▁av	-3631
tools	-3632
▁Mock	-3633
optional	-3634
cert	-3635
cuda	-3636
olume	-3637
▁Linear	-3638
▁author	-3639
▁normalize	-3640
Mo	-3641
bb	-3642
member	-3643
▁(!	-3644
trained	-3645
+'	-3646
Do	-3647
rary	-3648
year	-3649
ESS	-3650
Per	-3651
wner	-3652
empty	-3653
▁actions	-3654
")	-3655
done	-3656
timeout	-3657
▁seconds	-3658
▁compat	-3659
▁second	-3660
Decoder	-3661
qt	-3662
geo	-3663
▁rel	-3664
ameter	-3665
sequence	-3666
▁storage	-3667
▁tempfile	-3668
mul	-3669
Response	-3670
lots	-3671
▁pickle	-3672
2}	-3673
ice	-3674
▁writer	-3675
TEXT	-3676
CC	-3677
▁qt	-3678
linear	-3679
HW	-3680
▁tx	-3681
Resource	-3682
▁dy	-3683
browser	-3684
▁volatility	-3685
▁day	-3686
▁Invalid	-3687
55	-3688
[3	-3689
ROR	-3690
Float	-3691
Query	-3692
▁sqrt	-3693
▁commit	-3694
('./	-3695
bucket	-3696
prototype	-3697
send	-3698
If	-3699
▁19	-3700
GR	-3701
sole	-3702
▁route	-3703
▁report	-3704
▁threads	-3705
▁ones	-3706
ination	-3707
access	-3708
button	-3709
sn	-3710
▁mk	-3711
▁caps	-3712
Policy	-3713
▁threading	-3714
1;	-3715
▁fp	-3716
confi	-3717
▁60	-3718
▁sparse	-3719
UI	-3720
[0-9	-3721
▁'1'	-3722
ffect	-3723
▁solver	-3724
formation	-3725
entry	-3726
Plugin	-3727
NE	-3728
▁issue	-3729
▁credentials	-3730
An	-3731
cell	-3732
okup	-3733
((	-3734
cf	-3735
▁emit	-3736
▁us	-3737
▁engine	-3738
]"	-3739
▁PyQt	-3740
application	-3741
▁uint	-3742
▁hs	-3743
▁cook	-3744
▁same	-3745
▁vector	-3746
Ne	-3747
lap	-3748
sig	-3749
TEST	-3750
none	-3751
ratio	-3752
▁slice	-3753
▁Up	-3754
loader	-3755
▁timestamp	-3756
stop	-3757
▁icon	-3758
▁some	-3759
package	-3760
ave	-3761
states	-3762
▁fd	-3763
▁after	-3764
BC	-3765
Max	-3766
bit	-3767
▁flag	-3768
zero	-3769
▁matplotlib	-3770
OF	-3771
Agent	-3772
available	-3773
▁distribution	-3774
Li	-3775
[2]	-3776
sec	-3777
▁gd	-3778
coord	-3779
aut	-3780
This	-3781
cheduler	-3782
quential	-3783
`.	-3784
cd	-3785
▁ord	-3786
episode	-3787
▁states	-3788
)?	-3789
▁assertFalse	-3790
-4	-3791
▁Lib	-3792
▁deep	-3793
▁Runtime	-3794
hes	-3795
▁Qu	-3796
fill	-3797
Found	-3798
4_	-3799
:\	-3800
UE	-3801
chat	-3802
decay	-3803
▁dpath	-3804
results	-3805
▁KeyError	-3806
csv	-3807
predi	-3808
▁history	-3809
▁ap	-3810
▁ev	-3811
Link	-3812
[0],	-3813
▁Request	-3814
▁Window	-3815
▁operator	-3816
▁Te	-3817
▁hex	-3818
Range	-3819
models	-3820
ctx	-3821
stats	-3822
binary	-3823
▁monkey	-3824
▁product	-3825
reams	-3826
resources	-3827
(\	-3828
ighb	-3829
impl	-3830
Style	-3831
▁capsys	-3832
ivity	-3833
▁script	-3834
Mat	-3835
Web	-3836
▁region	-3837
criminator	-3838
fail	-3839
moid	-3840
▁dns	-3841
▁rows	-3842
▁spe	-3843
exc	-3844
▁att	-3845
▁gamma	-3846
▁OrderedDict	-3847
TR	-3848
▁42	-3849
▁UN	-3850
lish	-3851
datetime	-3852
3"	-3853
ano	-3854
va	-3855
▁hook	-3856
▁Dense	-3857
▁supported	-3858
cho	-3859
▁fc	-3860
make	-3861
enchmark	-3862
register	-3863
units	-3864
▁bottom	-3865
▁AS	-3866
seed	-3867
▁Api	-3868
▁absl	-3869
▁zero	-3870
▁datasets	-3871
77	-3872
▁embedding	-3873
▁Def	-3874
▁fake	-3875
▁Gener	-3876
▁commands	-3877
ART	-3878
▁API	-3879
pus	-3880
andl	-3881
▁POS	-3882
mbers	-3883
▁master	-3884
\'	-3885
draw	-3886
ascii	-3887
▁chat	-3888
▁rect	-3889
dx	-3890
IND	-3891
Sign	-3892
factor	-3893
54	-3894
▁Date	-3895
▁"<	-3896
####	-3897
▁est	-3898
chors	-3899
▁before	-3900
->	-3901
ALL	-3902
licas	-3903
pick	-3904
Hello	-3905
▁prop	-3906
▁blank	-3907
▁tasks	-3908
?'	-3909
tags	-3910
Attrs	-3911
amily	-3912
issue	-3913
▁cursor	-3914
interval	-3915
▁Session	-3916
▁examples	-3917
ASS	-3918
▁defaults	-3919
gain	-3920
edit	-3921
Block	-3922
total	-3923
256	-3924
ving	-3925
▁big	-3926
▁reply	-3927
▁"{}	-3928
▁lex	-3929
pad	-3930
sched	-3931
▁dime	-3932
Offset	-3933
▁manager	-3934
Ob	-3935
loor	-3936
▁exports	-3937
NT	-3938
_0	-3939
olyg	-3940
▁ssl	-3941
Table	-3942
DEL	-3943
cos	-3944
▁shift	-3945
initial	-3946
▁Plugin	-3947
ake	-3948
▁"[	-3949
Oper	-3950
rypto	-3951
▁Plot	-3952
▁best	-3953
▁BY	-3954
Code	-3955
andard	-3956
MIN	-3957
ced	-3958
▁Po	-3959
▁nd	-3960
lates	-3961
ctools	-3962
grid	-3963
proc	-3964
uuid	-3965
▁views	-3966
transition	-3967
const	-3968
▁parts	-3969
▁override	-3970
3}	-3971
66	-3972
▁tele	-3973
memory	-3974
required	-3975
username	-3976
CS	-3977
▁cc	-3978
▁hist	-3979
ignore	-3980
serial	-3981
sort	-3982
returns	-3983
Provider	-3984
BUG	-3985
Axis	-3986
exit	-3987
▁Log	-3988
display	-3989
jection	-3990
download	-3991
ullable	-3992
▁center	-3993
▁RuntimeError	-3994
-5	-3995
Sha	-3996
orig	-3997
Property	-3998
Pi	-3999
examples	-4000
font	-4001
ness	-4002
▁accuracy	-4003
30	-4004
Page	-4005
▁browser	-4006
oll	-4007
▁pd	-4008
OKEN	-4009
SION	-4010
▁All	-4011
less	-4012
ulum	-4013
▁},{"	-4014
▁Function	-4015
▁functools	-4016
38	-4017
▁2,	-4018
▁COM	-4019
▁face	-4020
▁mnist	-4021
comment	-4022
▁','	-4023
chunk	-4024
agtail	-4025
▁proxy	-4026
▁variables	-4027
▁groups	-4028
▁ste	-4029
rection	-4030
▁inspect	-4031
IGHT	-4032
▁Path	-4033
▁anchor	-4034
▁maximum	-4035
▁failed	-4036
anh	-4037
live	-4038
▁than	-4039
▁Array	-4040
wb	-4041
ynam	-4042
▁Batch	-4043
Ids	-4044
▁va	-4045
▁Open	-4046
▁Update	-4047
▁running	-4048
▁^	-4049
▁(?	-4050
▁Fore	-4051
custom	-4052
profile	-4053
▁validation	-4054
rays	-4055
sets	-4056
▁Net	-4057
▁sin	-4058
▁assign	-4059
connection	-4060
We	-4061
Env	-4062
lec	-4063
andid	-4064
IR	-4065
fy	-4066
cel	-4067
theme	-4068
connect	-4069
▁bounds	-4070
▁*=	-4071
▁dflt	-4072
>\	-4073
▁As	-4074
▁indent	-4075
defaults	-4076
expr	-4077
Serializer	-4078
jpg	-4079
ategorical	-4080
Core	-4081
ific	-4082
gz	-4083
oices	-4084
▁serialize	-4085
`)	-4086
▁For	-4087
▁tools	-4088
▁single	-4089
UTH	-4090
icense	-4091
AND	-4092
pid	-4093
olygon	-4094
▁paths	-4095
▁attach	-4096
▁linear	-4097
▁public	-4098
ENSE	-4099
naps	-4100
Flow	-4101
quee	-4102
proxy	-4103
scores	-4104
▁arange	-4105
▁"#	-4106
▁dx	-4107
▁500	-4108
▁dev	-4109
Admin	-4110
▁scores	-4111
▁Element	-4112
▁warnings	-4113
▁into	-4114
▁Dict	-4115
raction	-4116
65	-4117
Be	-4118
▁then	-4119
▁entity	-4120
difi	-4121
ished	-4122
counter	-4123
help	-4124
▁menu	-4125
Mon	-4126
buil	-4127
▁{};	-4128
▁Field	-4129
▁factor	-4130
▁operations	-4131
WS	-4132
▁pas	-4133
▁secret	-4134
49	-4135
69	-4136
ROM	-4137
leg	-4138
tic	-4139
ored	-4140
▁two	-4141
after	-4142
▁bbox	-4143
detail	-4144
pattern	-4145
▁metric	-4146
▁desc	-4147
▁repr	-4148
uint	-4149
▁NOT	-4150
CTION	-4151
Regex	-4152
question	-4153
▁scatter	-4154
▁security	-4155
▁environment	-4156
▁80	-4157
▁gym	-4158
include	-4159
▁available	-4160
unic	-4161
ample	-4162
▁days	-4163
▁endswith	-4164
void	-4165
▁rot	-4166
▁vm	-4167
ilon	-4168
ialog	-4169
plots	-4170
▁https	-4171
▁upper	-4172
▁messages	-4173
▁By	-4174
TIME	-4175
▁den	-4176
oth	-4177
▁0.00	-4178
ternal	-4179
▁receive	-4180
worker	-4181
▁workers	-4182
Sc	-4183
▁cpu	-4184
Dis	-4185
road	-4186
Valid	-4187
acher	-4188
hello	-4189
▁pipeline	-4190
WE	-4191
bc	-4192
PORT	-4193
alled	-4194
cture	-4195
symbol	-4196
install	-4197
napshot	-4198
As	-4199
losed	-4200
▁rate	-4201
21	-4202
PF	-4203
desc	-4204
▁COMM	-4205
50	-4206
LI	-4207
▁specified	-4208
})	-4209
video	-4210
lecule	-4211
▁Experiment	-4212
▁configuration	-4213
PUT	-4214
iki	-4215
null	-4216
▁Project	-4217
▁nullable	-4218
Cy	-4219
off	-4220
ression	-4221
pot	-4222
▁MAX	-4223
patterns	-4224
▁finally	-4225
▁evaluate	-4226
▁PY	-4227
▁pe	-4228
side	-4229
▁0.9	-4230
▁bpy	-4231
▁figure	-4232
ef	-4233
auss	-4234
▁editor	-4235
_{	-4236
qd	-4237
cost	-4238
false	-4239
▁0.01	-4240
Level	-4241
licit	-4242
Conv	-4243
Create	-4244
▁Returns	-4245
queeze	-4246
▁parsed	-4247
dec	-4248
vector	-4249
▁assertIs	-4250
ks	-4251
flag	-4252
▁Alter	-4253
▁confi	-4254
▁classes	-4255
NodeSocket	-4256
RGB	-4257
▁builtin	-4258
TS	-4259
CRE	-4260
bad	-4261
active	-4262
summary	-4263
issing	-4264
▁license	-4265
▁filepath	-4266
200	-4267
▁uid	-4268
2)	-4269
78	-4270
room	-4271
caler	-4272
tokenizer	-4273
til	-4274
MPLE	-4275
LP	-4276
▁ps	-4277
▁rep	-4278
▁discriminator	-4279
Iter	-4280
nate	-4281
NUM	-4282
▁syn	-4283
▁Pupy	-4284
injector	-4285
▁pendulum	-4286
▁400	-4287
imator	-4288
validate	-4289
▁flatten	-4290
PRE	-4291
READ	-4292
▁colors	-4293
▁"{	-4294
▁IS	-4295
▁sent	-4296
▁Plotly	-4297
▁counter	-4298
Port	-4299
andlers	-4300
▁OrderN	-4301
OWN	-4302
ube	-4303
pted	-4304
▁0.2	-4305
Dataset	-4306
arguments	-4307
ouse	-4308
vals	-4309
xels	-4310
▁clf	-4311
▁comment	-4312
Loc	-4313
chine	-4314
▁Default	-4315
cb	-4316
flags	-4317
oolean	-4318
▁active	-4319
duration	-4320
▁Dis	-4321
▁checkpoint	-4322
▁ID	-4323
Meta	-4324
▁KEY	-4325
▁correct	-4326
_4	-4327
▁expr	-4328
▁ment	-4329
ynamic	-4330
▁rights	-4331
1/	-4332
mu	-4333
ranch	-4334
▁like	-4335
stride	-4336
▁Copyright	-4337
ITY	-4338
DATA	-4339
▁more	-4340
center	-4341
Norm	-4342
long	-4343
('../../	-4344
▁database	-4345
=0;	-4346
▁valType	-4347
▁permissions	-4348
lyph	-4349
udio	-4350
encoding	-4351
revision	-4352
geometric	-4353
-6	-4354
▁13	-4355
▁ut	-4356
▁depth	-4357
▁parlai	-4358
dt	-4359
OCK	-4360
zoom	-4361
arted	-4362
public	-4363
Met	-4364
▁cell	-4365
metric	-4366
▁inbox	-4367
GG	-4368
HTTP	-4369
find	-4370
ifest	-4371
imp	-4372
Opts	-4373
▁got	-4374
▁hi	-4375
ability	-4376
Ent	-4377
docs	-4378
▁Tree	-4379
Rule	-4380
turk	-4381
▁room	-4382
▁previous	-4383
sr	-4384
cro	-4385
byte	-4386
▁dig	-4387
vm	-4388
▁28	-4389
1234	-4390
ases	-4391
diff	-4392
▁10000	-4393
ish	-4394
▁bn	-4395
ntax	-4396
uter	-4397
▁'-'	-4398
▁Meta	-4399
▁site	-4400
▁arm	-4401
]+	-4402
axes	-4403
signed	-4404
4,	-4405
68	-4406
ja	-4407
STR	-4408
sys	-4409
▁misc	-4410
Method	-4411
▁origin	-4412
▁contain	-4413
sity	-4414
▁play	-4415
double	-4416
▁Multi	-4417
Min	-4418
▁Back	-4419
culate	-4420
exception	-4421
▁Sequential	-4422
SL	-4423
▁inc	-4424
ULL	-4425
▁No	-4426
▁ORDER	-4427
▁regex	-4428
(),	-4429
></	-4430
▁fmt	-4431
inity	-4432
▁note	-4433
Filter	-4434
timestamp	-4435
]);	-4436
enabled	-4437
dump	-4438
fruit	-4439
▁toga	-4440
ICENSE	-4441
▁resize	-4442
▁reserved	-4443
DP	-4444
▁bad	-4445
planes	-4446
aw	-4447
cut	-4448
/%	-4449
Task	-4450
bias	-4451
tasks	-4452
▁calc	-4453
Variable	-4454
}],	-4455
▁neon	-4456
▁sync	-4457
roadcast	-4458
▁prediction	-4459
Bar	-4460
Cur	-4461
Row	-4462
▁':'	-4463
Bo	-4464
bt	-4465
EXT	-4466
▁PI	-4467
▁osp	-4468
leted	-4469
sizes	-4470
▁average	-4471
MB	-4472
INTER	-4473
exist	-4474
chainer	-4475
history	-4476
messages	-4477
(1	-4478
5_	-4479
gas	-4480
▁incre	-4481
PN	-4482
▁Auto	-4483
▁linux	-4484
cluster	-4485
HA	-4486
▁push	-4487
▁eth	-4488
▁renderer	-4489
Annotation	-4490
▁ApiException	-4491
9,	-4492
_%	-4493
mpt	-4494
Init	-4495
▁listen	-4496
▁sentence	-4497
▁pow	-4498
strip	-4499
Normal	-4500
▁traceback	-4501
FR	-4502
▁URL	-4503
▁contains	-4504
▁Sh	-4505
USER	-4506
▁scan	-4507
▁created	-4508
rs	-4509
>(	-4510
?"	-4511
ava	-4512
found	-4513
▁owner	-4514
vs	-4515
▁bpf	-4516
▁cap	-4517
ipher	-4518
▁fron	-4519
▁protocol	-4520
▁[0,	-4521
▁"{0}	-4522
▁basename	-4523
▁timedelta	-4524
alk	-4525
hex	-4526
▁</	-4527
▁Pre	-4528
▁canvas	-4529
▁termin	-4530
▁serializer	-4531
gh	-4532
bi	-4533
Int	-4534
imize	-4535
▁atol	-4536
present	-4537
▁tab	-4538
Train	-4539
▁kids	-4540
tension	-4541
provider	-4542
-'	-4543
ensed	-4544
terable	-4545
stm	-4546
▁cd	-4547
orter	-4548
▁lock	-4549
47	-4550
kl	-4551
ited	-4552
lint	-4553
light	-4554
▁License	-4555
YPE	-4556
EC	-4557
Match	-4558
payload	-4559
subject	-4560
Ge	-4561
ats	-4562
Mock	-4563
▁roi	-4564
▁edit	-4565
Search	-4566
▁flush	-4567
▁pyplot	-4568
Ver	-4569
▁Ac	-4570
ffine	-4571
bounds	-4572
alt	-4573
called	-4574
▁itertools	-4575
oid	-4576
▁bit	-4577
▁exclude	-4578
▁dictionary	-4579
87	-4580
romise	-4581
▁actor	-4582
▁algorithm	-4583
▁transforms	-4584
TL	-4585
car	-4586
umb	-4587
▁pub	-4588
catenate	-4589
sw	-4590
abc	-4591
ested	-4592
errors	-4593
▁NUM	-4594
▁ptr	-4595
gments	-4596
modules	-4597
Connection	-4598
cn	-4599
▁Query	-4600
▁steps	-4601
sz	-4602
buf	-4603
cin	-4604
eno	-4605
serve	-4606
fferent	-4607
documents	-4608
().	-4609
apse	-4610
tester	-4611
▁enable	-4612
▁Integer	-4613
▁gradient	-4614
▁abstractmethod	-4615
.5	-4616
ANG	-4617
faces	-4618
▁apps	-4619
▁section	-4620
▁returned	-4621
My	-4622
ah	-4623
pan	-4624
trie	-4625
Multi	-4626
acket	-4627
Network	-4628
▁wagtail	-4629
\"	-4630
":"	-4631
lar	-4632
rot	-4633
▁OS	-4634
nected	-4635
bstract	-4636
Callback	-4637
clip	-4638
rules	-4639
atched	-4640
mpling	-4641
attribute	-4642
BY	-4643
SV	-4644
UL	-4645
IGN	-4646
▁Lay	-4647
▁cy	-4648
force	-4649
inf	-4650
▁IPv	-4651
▁trig	-4652
objects	-4653
▁returns	-4654
selection	-4655
collection	-4656
/{}	-4657
▁We	-4658
NING	-4659
urls	-4660
chemy	-4661
epochs	-4662
▁future	-4663
▁~	-4664
▁WH	-4665
home	-4666
owner	-4667
▁Time	-4668
▁matches	-4669
▁tensorboard	-4670
fake	-4671
▁testdir	-4672
▁Sub	-4673
▁uri	-4674
integer	-4675
▁converter	-4676
▁preprocess	-4677
4}	-4678
oriz	-4679
Bound	-4680
ither	-4681
thing	-4682
▁Thread	-4683
ferences	-4684
▁already	-4685
-8	-4686
cts	-4687
▁tb	-4688
▁SET	-4689
region	-4690
▁basic	-4691
▁verify	-4692
TV	-4693
/$'	-4694
ificate	-4695
itional	-4696
reference	-4697
gi	-4698
aly	-4699
spe	-4700
▁MO	-4701
▁rt	-4702
google	-4703
▁cloud	-4704
▁strides	-4705
EW	-4706
And	-4707
tain	-4708
Container	-4709
vironment	-4710
Application	-4711
▁annotations	-4712
clean	-4713
Widgets	-4714
▁Constant	-4715
Mark	-4716
Store	-4717
▁StreamWriter	-4718
73	-4719
▁sn	-4720
▁git	-4721
▁visit	-4722
▁methods	-4723
DR	-4724
IZ	-4725
['	-4726
▁Ad	-4727
Graph	-4728
users	-4729
;'	-4730
Sy	-4731
,"./	-4732
free	-4733
inte	-4734
span	-4735
sses	-4736
▁300	-4737
Sk	-4738
Plot	-4739
▁Per	-4740
▁theta	-4741
▁Client	-4742
▁channels	-4743
dap	-4744
uch	-4745
▁['	-4746
blue	-4747
▁scene	-4748
▁concat	-4749
▁StreamReader	-4750
00'	-4751
32'	-4752
▁pt	-4753
card	-4754
▁rgb	-4755
▁safe	-4756
▁begin	-4757
ationError	-4758
mits	-4759
selector	-4760
ONE	-4761
les	-4762
▁PO	-4763
utes	-4764
▁[];	-4765
▁edgedb	-4766
Generator	-4767
▁keepdims	-4768
nx	-4769
▁3,	-4770
alchemy	-4771
control	-4772
registry	-4773
Im	-4774
▁40	-4775
allow	-4776
▁epochs	-4777
complete	-4778
▁AttributeError	-4779
ret	-4780
▁18	-4781
▁So	-4782
▁ws	-4783
RAIN	-4784
Matrix	-4785
▁operators	-4786
VENT	-4787
('../	-4788
▁topic	-4789
aussian	-4790
▁integer	-4791
▁problem	-4792
▁extensions	-4793
EP	-4794
wt	-4795
ttp	-4796
▁mp	-4797
COLOR	-4798
mpler	-4799
writer	-4800
AI	-4801
unch	-4802
▁JSON	-4803
ograph	-4804
▁mturk	-4805
Url	-4806
ient	-4807
jobs	-4808
unit	-4809
▁ids	-4810
▁PROJECT	-4811
▁bet	-4812
▁comb	-4813
▁symbol	-4814
▁minimum	-4815
dl	-4816
site	-4817
ufffe	-4818
▁trial	-4819
Defaults	-4820
60	-4821
AK	-4822
NY	-4823
qn	-4824
LOW	-4825
▁ns	-4826
▁red	-4827
SU	-4828
XY	-4829
ixed	-4830
crete	-4831
▁imshow	-4832
▁compiler	-4833
Wh	-4834
az	-4835
00"	-4836
WORD	-4837
▁MIT	-4838
▁see	-4839
▁cached	-4840
033	-4841
big	-4842
ose	-4843
▁NO	-4844
high	-4845
127	-4846
Reg	-4847
▁mime	-4848
Simple	-4849
lative	-4850
changed	-4851
▁distance	-4852
lis	-4853
▁driver	-4854
▁locals	-4855
BB	-4856
MD	-4857
reset	-4858
shift	-4859
▁repo	-4860
verity	-4861
convert	-4862
▁loader	-4863
calendar	-4864
▁filters	-4865
45	-4866
mount	-4867
Loader	-4868
▁numbers	-4869
pn	-4870
pet	-4871
dius	-4872
uite	-4873
▁Str	-4874
short	-4875
▁backends	-4876
dete	-4877
allel	-4878
inates	-4879
▁links	-4880
▁accounts	-4881
▁elements	-4882
46	-4883
WN	-4884
failed	-4885
ged	-4886
▁Ed	-4887
columns	-4888
inition	-4889
▁((	-4890
encoder	-4891
▁simple	-4892
▁suffix	-4893
▁Read	-4894
▁codec	-4895
checkpoint	-4896
middleware	-4897
▁iteration	-4898
GS	-4899
iant	-4900
▁Int	-4901
bosity	-4902
distance	-4903
▁support	-4904
">	-4905
.1	-4906
PY	-4907
▁rd	-4908
▁sigma	-4909
missing	-4910
▁components	-4911
VI	-4912
qq	-4913
Exec	-4914
emon	-4915
orker	-4916
counts	-4917
compile	-4918
replicas	-4919
▁translate	-4920
72	-4921
▁Lo	-4922
POST	-4923
append	-4924
98	-4925
mc	-4926
same	-4927
▁CRE	-4928
▁OTH	-4929
Feature	-4930
DF	-4931
nv	-4932
▁30,	-4933
private	-4934
▁Assert	-4935
={	-4936
PC	-4937
kt	-4938
tle	-4939
cloud	-4940
cessed	-4941
threshold	-4942
31	-4943
nb	-4944
▁inst	-4945
exe	-4946
une	-4947
tile	-4948
▁compare	-4949
▁hostname	-4950
ssl	-4951
istic	-4952
▁media	-4953
▁called	-4954
▁spider	-4955
chain	-4956
times	-4957
▁FROM	-4958
▁cross	-4959
VERSION	-4960
storage	-4961
CI	-4962
────	-4963
actor	-4964
final	-4965
pyder	-4966
oop	-4967
eded	-4968
▁border	-4969
▁QtWidgets	-4970
================	-4971
opts	-4972
Trace	-4973
▁forms	-4974
verbose	-4975
structor	-4976
▁builtins	-4977
jp	-4978
real	-4979
▁equal	-4980
▁redis	-4981
▁repeat	-4982
▁invalid	-4983
▁ind	-4984
▁wra	-4985
troll	-4986
predict	-4987
unicode	-4988
▁runner	-4989
▁wrapped	-4990
▁revision	-4991
?)	-4992
Op	-4993
way	-4994
pare	-4995
iance	-4996
ircle	-4997
product	-4998
▁retval	-4999
▁calendar	-5000
▁resources	-5001
Ma	-5002
TF	-5003
sq	-5004
▁ui	-5005
▁adj	-5006
*"	-5007
[1],	-5008
ween	-5009
contrib	-5010
▁timezone	-5011
ky	-5012
boo	-5013
ulner	-5014
▁TYPE	-5015
▁Index	-5016
▁person	-5017
▁choices	-5018
ategories	-5019
constraint	-5020
▁sqlalchemy	-5021
tk	-5022
obs	-5023
dexes	-5024
(0,	-5025
TERN	-5026
forms	-5027
widget	-5028
▁Python	-5029
▁theano	-5030
96	-5031
Hi	-5032
world	-5033
▁zoom	-5034
simple	-5035
▁moves	-5036
▁separ	-5037
▁initialize	-5038
scan	-5039
▁inv	-5040
▁NAME	-5041
cedure	-5042
▁Color	-5043
▁columns	-5044
RC	-5045
eg	-5046
▁31,	-5047
orrent	-5048
▁decor	-5049
utation	-5050
▁reader	-5051
▁Job	-5052
94	-5053
`"	-5054
▁mx	-5055
▁WAR	-5056
report	-5057
▁align	-5058
▁outfd	-5059
release	-5060
▁decoder	-5061
▁wrapper	-5062
▁concatenate	-5063
SY	-5064
').	-5065
ffi	-5066
rnn	-5067
▁pr	-5068
2017,	-5069
tocol	-5070
▁Link	-5071
Update	-5072
▁direct	-5073
functions	-5074
▁selected	-5075
▁Placeholder	-5076
.2	-5077
MAX	-5078
TION	-5079
Python	-5080
▁control	-5081
▁operation	-5082
>>	-5083
TW	-5084
dp	-5085
ATCH	-5086
regex	-5087
▁creds	-5088
cei	-5089
mer	-5090
▁CO	-5091
INIT	-5092
inds	-5093
▁DEBUG	-5094
targets	-5095
▁QtCore	-5096
lfw	-5097
uous	-5098
▁Fla	-5099
▁avg	-5100
mnist	-5101
▁dummy	-5102
▁tmpdir	-5103
▁Option	-5104
▁LICENSE	-5105
UNT	-5106
Var	-5107
uted	-5108
▁Act	-5109
system	-5110
▁Infer	-5111
▁inner	-5112
workers	-5113
dot	-5114
linux	-5115
month	-5116
▁rllab	-5117
negative	-5118
▁threshold	-5119
NV	-5120
usr	-5121
▁ssh	-5122
▁PIPE	-5123
logits	-5124
▁auditor	-5125
▁visible	-5126
icro	-5127
▁argmax	-5128
▁xrange	-5129
▁fullLayout	-5130
*)	-5131
SM	-5132
SO	-5133
Cache	-5134
ather	-5135
▁Valid	-5136
▁assertIn	-5137
']	-5138
▁cnt	-5139
▁flx	-5140
▁licensed	-5141
▁vaex	-5142
before	-5143
▁TestV	-5144
Sum	-5145
calar	-5146
▁just	-5147
▁rank	-5148
Height	-5149
ending	-5150
shared	-5151
constants	-5152
▁contents	-5153
▁parameterized	-5154
ye	-5155
plus	-5156
▁'0'	-5157
ftware	-5158
orizont	-5159
▁sep	-5160
▁spacy	-5161
PES	-5162
rank	-5163
safe	-5164
cursor	-5165
▁Tuple	-5166
▁dialog	-5167
▁signature	-5168
(_	-5169
53	-5170
AF	-5171
▁mac	-5172
Child	-5173
decoder	-5174
filters	-5175
▁unpack	-5176
signature	-5177
(%	-5178
▁"/"	-5179
▁echo	-5180
▁perm	-5181
▁Token	-5182
pooling	-5183
windows	-5184
statement	-5185
▁duration	-5186
IV	-5187
Opt	-5188
Math	-5189
▁yaml	-5190
optimizer	-5191
▁textwrap	-5192
DD	-5193
SG	-5194
-8"	-5195
Tag	-5196
hover	-5197
pendency	-5198
fp	-5199
▁'$	-5200
0001	-5201
most	-5202
▁interval	-5203
fl	-5204
IME	-5205
prev	-5206
▁side	-5207
Output	-5208
▁track	-5209
▁lookup	-5210
▁area	-5211
▁requires	-5212
warn	-5213
cross	-5214
generate	-5215
language	-5216
▁partial	-5217
▁question	-5218
CN	-5219
alth	-5220
▁blob	-5221
Dialog	-5222
inline	-5223
Document	-5224
▁'0	-5225
▁ss	-5226
Enum	-5227
marker	-5228
▁marker	-5229
▁progress	-5230
101	-5231
avg	-5232
▁pkg	-5233
ssible	-5234
strict	-5235
95	-5236
FW	-5237
iq	-5238
.0'	-5239
▁sym	-5240
pture	-5241
tours	-5242
▁tool	-5243
hether	-5244
▁Class	-5245
ighbors	-5246
▁charac	-5247
▁softmax	-5248
irt	-5249
usic	-5250
quences	-5251
▁detection	-5252
XX	-5253
FIX	-5254
rel	-5255
cision	-5256
▁CONFIG	-5257
localhost	-5258
Open	-5259
cogn	-5260
scape	-5261
▁accum	-5262
3-	-5263
New	-5264
One	-5265
uzz	-5266
Char	-5267
▁'_'	-5268
▁leg	-5269
mooth	-5270
ogram	-5271
▁2012-	-5272
▁dense	-5273
▁Widget	-5274
orizontal	-5275
.\	-5276
capy	-5277
▁urlparse	-5278
0:	-5279
semb	-5280
tenv	-5281
▁testV	-5282
boolean	-5283
▁extension	-5284
48	-5285
hs	-5286
fun	-5287
▁"."	-5288
▁COL	-5289
verify	-5290
▁isfile	-5291
dst	-5292
itu	-5293
▁23	-5294
async	-5295
uring	-5296
▁free	-5297
▁qute	-5298
▁isdir	-5299
▁ls	-5300
Role	-5301
calc	-5302
vided	-5303
troller	-5304
▁disable	-5305
<>	-5306
▁tw	-5307
▁pkt	-5308
Warning	-5309
learning	-5310
HWC	-5311
gic	-5312
▁2)	-5313
area	-5314
▁gre	-5315
▁allowed	-5316
▁2012-2017,	-5317
untry	-5318
▁imgs	-5319
devices	-5320
+1	-5321
KE	-5322
▁Out	-5323
▁Auth	-5324
Failed	-5325
arm	-5326
dime	-5327
pair	-5328
ftime	-5329
fully	-5330
▁expi	-5331
unique	-5332
▁charmap	-5333
LM	-5334
▁iss	-5335
▁noise	-5336
▁pixel	-5337
configs	-5338
BD	-5339
[3]	-5340
eps	-5341
MENT	-5342
Queue	-5343
▁learn	-5344
estimation	-5345
PR	-5346
^{	-5347
▁Reg	-5348
istri	-5349
paces	-5350
▁shutit	-5351
▁redirect	-5352
TA	-5353
ird	-5354
game	-5355
ways	-5356
mathbf	-5357
9.	-5358
alloc	-5359
▁Temp	-5360
assert	-5361
screen	-5362
▁angle	-5363
▁accept	-5364
▁resolve	-5365
▁setattr	-5366
Transform	-5367
▁makedirs	-5368
▁undefined	-5369
42	-5370
curs	-5371
▁program	-5372
enc	-5373
{}"	-5374
Zoom	-5375
enar	-5376
mentum	-5377
single	-5378
▁Popen	-5379
▁gfile	-5380
▁answer	-5381
..."	-5382
once	-5383
▁'2'	-5384
Space	-5385
buted	-5386
▁bits	-5387
Shader	-5388
▁decay	-5389
▁detail	-5390
tensions	-5391
JOB	-5392
▁cos	-5393
▁attack	-5394
flat	-5395
inet	-5396
▁mar	-5397
▁Task	-5398
▁here	-5399
ulation	-5400
aN	-5401
fr	-5402
'),	-5403
ncy	-5404
Coord	-5405
grade	-5406
updated	-5407
▁ensure	-5408
Position	-5409
▁decoding	-5410
▁condition	-5411
▁information	-5412
WR	-5413
bed	-5414
▁'&	-5415
▁mem	-5416
Integer	-5417
BR	-5418
gu	-5419
▁sw	-5420
aaaa	-5421
blocks	-5422
second	-5423
ryptograph	-5424
bn	-5425
▁Cha	-5426
▁qui	-5427
▁defer	-5428
hostname	-5429
▁dimension	-5430
Api	-5431
dian	-5432
%%	-5433
click	-5434
▁BASE	-5435
Backend	-5436
multiple	-5437
pm	-5438
ero	-5439
lso	-5440
▁Le	-5441
▁pie	-5442
▁good	-5443
▁heap	-5444
▁nose	-5445
compat	-5446
define	-5447
running	-5448
Calendar	-5449
accuracy	-5450
▁epsilon	-5451
▁subject	-5452
▁initializer	-5453
VP	-5454
Val	-5455
views	-5456
▁pipe	-5457
▁saved	-5458
▁dispatch	-5459
kw	-5460
▁99	-5461
maps	-5462
▁'./	-5463
topic	-5464
▁cols	-5465
translate	-5466
lm	-5467
orn	-5468
▁Item	-5469
▁elem	-5470
▁hour	-5471
Option	-5472
▁detect	-5473
▁helpers	-5474
=1	-5475
LN	-5476
zh	-5477
};	-5478
Windows	-5479
▁spaces	-5480
▁Abstract	-5481
▁calculate	-5482
▁application	-5483
svg	-5484
▁fs	-5485
gers	-5486
udnn	-5487
▁1.5	-5488
▁gui	-5489
suffix	-5490
▁props	-5491
▁tokenizer	-5492
▁RO	-5493
agic	-5494
▁dat	-5495
stead	-5496
▁quote	-5497
▁Kernel	-5498
▁collection	-5499
cm	-5500
uv	-5501
▁/=	-5502
...'	-5503
rong	-5504
83	-5505
dest	-5506
esca	-5507
▁ann	-5508
▁dep	-5509
olved	-5510
DEFAULT	-5511
▁sender	-5512
▁monkeypatch	-5513
67	-5514
BE	-5515
Ext	-5516
▁pg	-5517
riend	-5518
itecture	-5519
projects	-5520
FE	-5521
dic	-5522
qua	-5523
▁IO	-5524
ERROR	-5525
codes	-5526
▁translation	-5527
SD	-5528
▁'"	-5529
▁21	-5530
▁VER	-5531
ading	-5532
▁Note	-5533
Address	-5534
members	-5535
▁DateTime	-5536
Vis	-5537
▁{:	-5538
▁Cal	-5539
Stack	-5540
Change	-5541
entity	-5542
rypted	-5543
FT	-5544
LY	-5545
UV	-5546
rf	-5547
▁rnn	-5548
▁algo	-5549
▁freq	-5550
anchor	-5551
precated	-5552
97	-5553
▁22	-5554
▁Args	-5555
mapping	-5556
▁shader	-5557
▁hashlib	-5558
▁priority	-5559
some	-5560
▁exe	-5561
127.0.0	-5562
▁Dataset	-5563
▁Example	-5564
tw	-5565
genta	-5566
noise	-5567
▁there	-5568
▁scalar	-5569
▁Command	-5570
▁segment	-5571
57	-5572
MAP	-5573
Tile	-5574
blob	-5575
▁emb	-5576
▁let	-5577
itude	-5578
▁square	-5579
64'	-5580
▁OF	-5581
▁typ	-5582
loaded	-5583
%(	-5584
2;	-5585
8.	-5586
SC	-5587
▁monitor	-5588
▁defaultdict	-5589
oto	-5590
▁Sc	-5591
INFO	-5592
roker	-5593
irtual	-5594
softmax	-5595
ryptography	-5596
redu	-5597
Names	-5598
▁frag	-5599
▁member	-5600
▁special	-5601
roy	-5602
▁Run	-5603
Access	-5604
indexOf	-5605
Injector	-5606
Annotated	-5607
Go	-5608
tn	-5609
Act	-5610
VALID	-5611
▁ORTH	-5612
▁stdin	-5613
batches	-5614
strings	-5615
▁dedent	-5616
▁following	-5617
-+	-5618
hr	-5619
...	-5620
mes	-5621
mid	-5622
▁off	-5623
posit	-5624
▁cont	-5625
istent	-5626
versed	-5627
hparams	-5628
▁cookie	-5629
gradient	-5630
▁identifier	-5631
QN	-5632
▁Be	-5633
arvis	-5634
imate	-5635
▁enum	-5636
▁scra	-5637
dialog	-5638
▁scapy	-5639
scatter	-5640
▁CREATE	-5641
▁synapse	-5642
▁Parameter	-5643
CV	-5644
▁AR	-5645
INGS	-5646
formed	-5647
Middleware	-5648
52	-5649
▁fix	-5650
average	-5651
▁agents	-5652
▁either	-5653
▁loaded	-5654
43	-5655
xs	-5656
567	-5657
sli	-5658
entropy	-5659
▁double	-5660
▁Operand	-5661
8,	-5662
ives	-5663
attrs	-5664
▁clone	-5665
factory	-5666
pository	-5667
▁optimize	-5668
[^	-5669
ssh	-5670
probe	-5671
finity	-5672
Bl	-5673
Red	-5674
▁"'	-5675
▁TR	-5676
rase	-5677
▁You	-5678
typeof	-5679
▁strings	-5680
ji	-5681
▁INFO	-5682
Thread	-5683
▁StringIO	-5684
createComponent	-5685
Com	-5686
Mar	-5687
FORM	-5688
cook	-5689
▁Max	-5690
TYPES	-5691
chars	-5692
slots	-5693
▁audio	-5694
▁imple	-5695
:/	-5696
Cre	-5697
ngine	-5698
bottom	-5699
▁coords	-5700
upported	-5701
▁ndarray	-5702
DU	-5703
▁1]	-5704
aries	-5705
press	-5706
▁instead	-5707
embeddings	-5708
▁{"	-5709
plor	-5710
rupt	-5711
▁csv	-5712
apping	-5713
entication	-5714
▁Documentation	-5715
63	-5716
mn	-5717
zz	-5718
CHE	-5719
▁md	-5720
Icon	-5721
ines	-5722
▁again	-5723
Session	-5724
numbers	-5725
▁attention	-5726
IB	-5727
REG	-5728
sin	-5729
{},	-5730
▁oc	-5731
andit	-5732
ograd	-5733
▁hyper	-5734
▁refresh	-5735
arr	-5736
Edit	-5737
ongo	-5738
▁asarray	-5739
benchmark	-5740
supported	-5741
links	-5742
▁Http	-5743
▁ratio	-5744
▁enabled	-5745
mentation	-5746
RY	-5747
jor	-5748
▁-1	-5749
Batch	-5750
▁poly	-5751
tences	-5752
▁listdir	-5753
▁without	-5754
▁Response	-5755
BACK	-5756
Root	-5757
dropout	-5758
6_	-5759
Ref	-5760
▁SH	-5761
ADER	-5762
▁stage	-5763
chedule	-5764
padding	-5765
wagtail	-5766
ployment	-5767
protocol	-5768
▁namedtuple	-5769
8_	-5770
MI	-5771
cer	-5772
▁TH	-5773
▁memo	-5774
cached	-5775
outerr	-5776
▁readouterr	-5777
ric	-5778
▁xa	-5779
cause	-5780
▁Button	-5781
▁anchors	-5782
>`	-5783
▁36	-5784
Tick	-5785
▁Red	-5786
orary	-5787
▁STAT	-5788
▁pair	-5789
▁ksize	-5790
8-	-5791
<=	-5792
CY	-5793
Cal	-5794
lite	-5795
polate	-5796
▁communic	-5797
▁callbacks	-5798
SSL	-5799
]+)	-5800
▁AND	-5801
▁'../	-5802
Return	-5803
getitem	-5804
pointer	-5805
LD	-5806
ev	-5807
limi	-5808
ling	-5809
atial	-5810
▁they	-5811
▁caffe	-5812
▁component	-5813
Sp	-5814
dc	-5815
uo	-5816
▁'1	-5817
mult	-5818
oose	-5819
▁MIN	-5820
ignKey	-5821
lapsed	-5822
sparse	-5823
hoto	-5824
▁div	-5825
uation	-5826
▁chain	-5827
Pooling	-5828
▁remain	-5829
▁Network	-5830
Pri	-5831
▁He	-5832
reader	-5833
▁qtbot	-5834
validation	-5835
It	-5836
gW	-5837
ICE	-5838
mac	-5839
▁phys	-5840
colors	-5841
▁TRAIN	-5842
logging	-5843
▁vulner	-5844
▁OSError	-5845
Formatter	-5846
▁serializers	-5847
51	-5848
fk	-5849
ilar	-5850
▁Find	-5851
master	-5852
▁OrderNHWC	-5853
pol	-5854
▁ER	-5855
scalar	-5856
▁Queue	-5857
▁COMMON	-5858
▁estimator	-5859
agg	-5860
etc	-5861
two	-5862
vor	-5863
HOST	-5864
tool	-5865
▁Box	-5866
▁tok	-5867
trieve	-5868
▁sigmoid	-5869
prediction	-5870
▁reference	-5871
▁OperandDef	-5872
▁TensorFlow	-5873
inv	-5874
freq	-5875
rome	-5876
xies	-5877
correct	-5878
execute	-5879
metrics	-5880
Password	-5881
selectAll	-5882
▁strftime	-5883
[4	-5884
▁ir	-5885
ffff	-5886
extend	-5887
pename	-5888
requen	-5889
istence	-5890
▁generated	-5891
▁verbosity	-5892
transaction	-5893
FA	-5894
YY	-5895
▁inject	-5896
▁Sequence	-5897
▁multiple	-5898
"]	-5899
bj	-5900
mk	-5901
_01	-5902
fit	-5903
heel	-5904
Order	-5905
▁Build	-5906
Sequence	-5907
hat	-5908
LENG	-5909
note	-5910
sqrt	-5911
ures	-5912
▁cel	-5913
idual	-5914
CONFIG	-5915
Scaler	-5916
iation	-5917
Directory	-5918
▁selection	-5919
EB	-5920
}}	-5921
ANN	-5922
pub	-5923
ROUP	-5924
▁{},	-5925
▁recv	-5926
▁digest	-5927
Backward	-5928
▁encoded	-5929
interface	-5930
▁molecule	-5931
4"	-5932
tab	-5933
▁/*	-5934
hase	-5935
Prober	-5936
▁ground	-5937
▁endpoint	-5938
▁setdefault	-5939
40	-5940
82	-5941
fb	-5942
hh	-5943
▁Do	-5944
imul	-5945
lazy	-5946
▁","	-5947
▁ops	-5948
▁logs	-5949
▁want	-5950
Volume	-5951
frames	-5952
ressed	-5953
lusters	-5954
category	-5955
children	-5956
properties	-5957
00:	-5958
Can	-5959
▁17	-5960
assign	-5961
ameters	-5962
▁family	-5963
▁negative	-5964
▁Activation	-5965
3;	-5966
GD	-5967
PAR	-5968
enu	-5969
Loss	-5970
fetch	-5971
isten	-5972
▁been	-5973
▁week	-5974
▁Inline	-5975
▁jarvis	-5976
background	-5977
$1	-5978
Ta	-5979
mx	-5980
▁vals	-5981
native	-5982
ko	-5983
GUI	-5984
ITE	-5985
ili	-5986
****	-5987
repo	-5988
inner	-5989
▁Magic	-5990
▁retry	-5991
▁usage	-5992
▁complete	-5993
Pt	-5994
▁On	-5995
▁"1"	-5996
insert	-5997
▁users	-5998
▁mention	-5999
▁'*'	-6000
latest	-6001
strategy	-6002
▁globals	-6003
▁positive	-6004
AV	-6005
MPL	-6006
▁cs	-6007
INET	-6008
lied	-6009
rand	-6010
skip	-6011
pixel	-6012
▁disabled	-6013
▁selector	-6014
GO	-6015
pow	-6016
vie	-6017
▁Pi	-6018
apply	-6019
floor	-6020
quote	-6021
Header	-6022
Points	-6023
tesian	-6024
PATTERN	-6025
▁autograd	-6026
tc	-6027
▁gx	-6028
cupy	-6029
▁exa	-6030
uplic	-6031
▁game	-6032
-7	-6033
DV	-6034
Idx	-6035
rest	-6036
▁keyword	-6037
▁magenta	-6038
iteration	-6039
Over	-6040
sted	-6041
▁slim	-6042
Teacher	-6043
redirect	-6044
▁existing	-6045
62	-6046
ee	-6047
hn	-6048
LED	-6049
ACHE	-6050
▁THE	-6051
audio	-6052
abinet	-6053
▁Custom	-6054
▁candid	-6055
▁chainerx	-6056
▁different	-6057
vc	-6058
You	-6059
olo	-6060
▁AF	-6061
lette	-6062
▁dash	-6063
▁Union	-6064
serialize	-6065
Attributes	-6066
▁destination	-6067
)|	-6068
90	-6069
255	-6070
_1_	-6071
tip	-6072
▁rc	-6073
[0].	-6074
feed	-6075
enario	-6076
ama	-6077
▁Ans	-6078
▁SSH	-6079
istics	-6080
stdout	-6081
Control	-6082
▁frontend	-6083
▁AlterField	-6084
▁conditions	-6085
QY	-6086
RU	-6087
velo	-6088
lower	-6089
▁vert	-6090
▁ForeignKey	-6091
(?:	-6092
KER	-6093
▁its	-6094
LENGTH	-6095
cription	-6096
DJ	-6097
QR	-6098
rn	-6099
Exit	-6100
Rect	-6101
ands	-6102
▁[],	-6103
▁notify	-6104
database	-6105
▁Counter	-6106
▁represent	-6107
ov	-6108
tty	-6109
udo	-6110
Word	-6111
agne	-6112
bits	-6113
wiki	-6114
▁ABC	-6115
filer	-6116
uting	-6117
▁AUTH	-6118
▁crop	-6119
▁regular	-6120
Attribute	-6121
▁shutdown	-6122
▁elementwise	-6123
92	-6124
GC	-6125
▁alias	-6126
KN	-6127
Pytd	-6128
hist	-6129
opacity	-6130
ractive	-6131
▁Schema	-6132
93	-6133
Cli	-6134
ole	-6135
Temp	-6136
▁'..'	-6137
nowled	-6138
▁pNode	-6139
▁outfile	-6140
▁texture	-6141
▁})	-6142
UX	-6143
STM	-6144
cfg	-6145
urn	-6146
▁Win	-6147
QUEST	-6148
render	-6149
volume	-6150
▁between	-6151
▁missing	-6152
GE	-6153
▁'@	-6154
TOKEN	-6155
align	-6156
gamma	-6157
▁diag	-6158
plural	-6159
▁escape	-6160
MatchPytd	-6161
▁RandomState	-6162
▁assertTypes	-6163
zA	-6164
BER	-6165
mem	-6166
▁tk	-6167
Util	-6168
▁Edge	-6169
▁pyqt	-6170
▁Inter	-6171
▁edges	-6172
▁spyder	-6173
Parameter	-6174
▁MagicMock	-6175
DO	-6176
dk	-6177
icip	-6178
tion	-6179
▁chunks	-6180
>=	-6181
PH	-6182
zen	-6183
▁bi	-6184
Keys	-6185
fire	-6186
▁"-"	-6187
escape	-6188
▁clock	-6189
PD	-6190
▁[]	-6191
basic	-6192
▁book	-6193
nowledge	-6194
▁private	-6195
dimension	-6196
mq	-6197
ni	-6198
Fla	-6199
JSON	-6200
shell	-6201
▁Label	-6202
▁plain	-6203
▁cannot	-6204
▁filenames	-6205
▁ValidationError	-6206
*.	-6207
Js	-6208
MN	-6209
trl	-6210
shot	-6211
Listen	-6212
▁lineno	-6213
▁Boolean	-6214
VV	-6215
inc	-6216
▁td	-6217
▁0.3	-6218
▁Process	-6219
▁provided	-6220
▁formatter	-6221
vd	-6222
-01	-6223
▁3.	-6224
SPACE	-6225
andas	-6226
▁DATA	-6227
resnet	-6228
▁console	-6229
embedding	-6230
permissions	-6231
BG	-6232
PP	-6233
Bot	-6234
Dir	-6235
LOG	-6236
css	-6237
▁ts	-6238
sock	-6239
▁addWidget	-6240
+"	-6241
jk	-6242
wx	-6243
Bin	-6244
ARCH	-6245
▁SIM	-6246
▁tcp	-6247
cheme	-6248
problem	-6249
▁Simple	-6250
(0	-6251
IA	-6252
["	-6253
/(?	-6254
▁Mo	-6255
FFER	-6256
enum	-6257
▁blue	-6258
Please	-6259
▁losses	-6260
▁pytype	-6261
▁IOError	-6262
Permission	-6263
categorical	-6264
qr	-6265
uk	-6266
ury	-6267
{1}	-6268
▁bs	-6269
dash	-6270
uses	-6271
▁BPF	-6272
▁Num	-6273
56789	-6274
parts	-6275
▁imread	-6276
▁Address	-6277
wl	-6278
()'	-6279
MAC	-6280
▁2;	-6281
ABEL	-6282
Full	-6283
keep	-6284
plat	-6285
▁Loc	-6286
inate	-6287
isted	-6288
white	-6289
▁DataFrame	-6290
yperparameter	-6291
ARY	-6292
hum	-6293
▁CH	-6294
▁],	-6295
DING	-6296
drop	-6297
▁-1,	-6298
▁nargs	-6299
▁visited	-6300
Optimizer	-6301
dat	-6302
expi	-6303
hosts	-6304
track	-6305
Vector	-6306
quared	-6307
▁cipher	-6308
roi	-6309
ugh	-6310
bert	-6311
▁dow	-6312
calls	-6313
pages	-6314
sigma	-6315
▁zone	-6316
▁Source	-6317
▁deepcopy	-6318
TC	-6319
dn	-6320
Arm	-6321
▁4,	-6322
lify	-6323
raft	-6324
ually	-6325
▁NULL	-6326
remote	-6327
▁ERROR	-6328
▁delay	-6329
framework	-6330
dummy	-6331
pairs	-6332
ulator	-6333
ilities	-6334
▁setting	-6335
0]	-6336
91	-6337
ali	-6338
ngra	-6339
isArray	-6340
streams	-6341
▁counts	-6342
QQ	-6343
mS	-6344
▁Fa	-6345
cing	-6346
▁sur	-6347
dapter	-6348
▁Flask	-6349
▁Group	-6350
▁glyph	-6351
▁subplot	-6352
formatted	-6353
▁functional	-6354
3)	-6355
70	-6356
Da	-6357
Fn	-6358
dns	-6359
Year	-6360
voke	-6361
▁PIL	-6362
▁urh	-6363
super	-6364
▁updated	-6365
Description	-6366
ZX	-6367
lev	-6368
World	-6369
DEFINIT	-6370
sources	-6371
Algorithm	-6372
DEFINITIONS	-6373
58	-6374
Ph	-6375
DEX	-6376
LOAD	-6377
▁'\\	-6378
iline	-6379
effect	-6380
ometry	-6381
▁board	-6382
▁outer	-6383
▁spatial	-6384
Classifier	-6385
tensorflow	-6386
▁coordinates	-6387
)\	-6388
gc	-6389
vy	-6390
cap	-6391
pache	-6392
▁envs	-6393
dition	-6394
helper	-6395
▁crypto	-6396
▁passed	-6397
NotFound	-6398
Gui	-6399
emb	-6400
iso	-6401
EMMA	-6402
medi	-6403
▁See	-6404
ender	-6405
▁LEMMA	-6406
regular	-6407
▁Server	-6408
Endpoint	-6409
▁trigger	-6410
5"	-6411
gx	-6412
","	-6413
▁",	-6414
Part	-6415
▁VAL	-6416
resses	-6417
submit	-6418
▁alter	-6419
▁bases	-6420
visible	-6421
QueryResult	-6422
}\	-6423
▁iv	-6424
CRIP	-6425
reat	-6426
▁writ	-6427
letion	-6428
▁phase	-6429
gettext	-6430
▁company	-6431
▁primary	-6432
▁streams	-6433
annotations	-6434
istribution	-6435
$$	-6436
())	-6437
CUR	-6438
IVE	-6439
▁'(	-6440
▁drag	-6441
▁fast	-6442
▁quant	-6443
▁getenv	-6444
▁embeddings	-6445
2(	-6446
MX	-6447
rat	-6448
▁ON	-6449
▁hp	-6450
▁px	-6451
Cell	-6452
lists	-6453
▁throw	-6454
▁rewards	-6455
▁widgets	-6456
Ab	-6457
lier	-6458
uest	-6459
▁ttl	-6460
media	-6461
scene	-6462
▁Page	-6463
▁span	-6464
Unable	-6465
resize	-6466
▁music	-6467
▁System	-6468
▁projects	-6469
pretrained	-6470
JK	-6471
Are	-6472
RAY	-6473
STAT	-6474
yaml	-6475
Bounds	-6476
raises	-6477
▁propos	-6478
▁tables	-6479
qdm	-6480
clear	-6481
▁also	-6482
▁timer	-6483
▁trunc	-6484
▁units	-6485
▁legend	-6486
positions	-6487
▁fetchall	-6488
activation	-6489
▁confidence	-6490
$"	-6491
]{	-6492
▁IM	-6493
▁Pa	-6494
Chat	-6495
Push	-6496
ROOT	-6497
ents	-6498
menu	-6499
Cycle	-6500
▁flip	-6501
builder	-6502
▁manifest	-6503
▁snapshot	-6504
El	-6505
ASK	-6506
pipe	-6507
▁mkdir	-6508
chainerx	-6509
▁contact	-6510
BL	-6511
concat	-6512
handles	-6513
filepath	-6514
internal	-6515
(-	-6516
2/	-6517
Jo	-6518
MT	-6519
Done	-6520
Stat	-6521
quire	-6522
▁Sign	-6523
driver	-6524
pytest	-6525
ibility	-6526
identity	-6527
▁complex	-6528
▁mapping	-6529
▁possible	-6530
▁precision	-6531
ea	-6532
pdf	-6533
▁ml	-6534
▁seen	-6535
▁pixels	-6536
SimpleGUI	-6537
▁installed	-6538
6,	-6539
ua	-6540
10'	-6541
ASH	-6542
ORY	-6543
nan	-6544
rpc	-6545
▁1);	-6546
Record	-6547
▁volume	-6548
allclose	-6549
▁decrypt	-6550
ArmNodeSocket	-6551
hk	-6552
yb	-6553
mmon	-6554
▁pupy	-6555
criptor	-6556
Ha	-6557
OO	-6558
wap	-6559
▁ys	-6560
Font	-6561
▁'+'	-6562
▁ndb	-6563
timer	-6564
coords	-6565
person	-6566
▁Serial	-6567
tachment	-6568
▁severity	-6569
▁Connection	-6570
5.	-6571
61	-6572
ym	-6573
:0'	-6574
ral	-6575
udit	-6576
▁tex	-6577
ipping	-6578
▁modifi	-6579
▁tzinfo	-6580
requency	-6581
▁indexes	-6582
DG	-6583
'],	-6584
_201	-6585
rant	-6586
▁agg	-6587
▁car	-6588
▁href	-6589
Vertex	-6590
markup	-6591
▁sampling	-6592
▁scheduler	-6593
▁An	-6594
park	-6595
lopen	-6596
▁Enum	-6597
▁flow	-6598
▁rllib	-6599
▁encrypt	-6600
fullLayout	-6601
FL	-6602
WW	-6603
vp	-6604
▁HT	-6605
▁Cur	-6606
▁abi	-6607
Handle	-6608
manage	-6609
threads	-6610
▁radius	-6611
▁cookies	-6612
▁interfaces	-6613
/?	-6614
FS	-6615
lim	-6616
pod	-6617
Head	-6618
axon	-6619
probs	-6620
cesses	-6621
▁Search	-6622
▁amount	-6623
########	-6624
▁related	-6625
attention	-6626
▁Permission	-6627
▁transaction	-6628
81	-6629
cnt	-6630
▁cf	-6631
▁ms	-6632
IMIT	-6633
Pick	-6634
emit	-6635
land	-6636
▁san	-6637
inalg	-6638
▁home	-6639
ayload	-6640
▁TOKEN	-6641
▁every	-6642
wrapper	-6643
elements	-6644
▁squeeze	-6645
versation	-6646
▁baseline	-6647
▁contract	-6648
▁standard	-6649
ya	-6650
tar	-6651
Flat	-6652
[0];	-6653
COUNT	-6654
Month	-6655
contact	-6656
▁Buffer	-6657
▁perform	-6658
▁identity	-6659
1-	-6660
II	-6661
qs	-6662
pop	-6663
Host	-6664
keras	-6665
route	-6666
▁Style	-6667
authors	-6668
▁scrapy	-6669
component	-6670
apt	-6671
CADE	-6672
PASS	-6673
gate	-6674
black	-6675
Wrapper	-6676
texture	-6677
▁Xtrain	-6678
scheduler	-6679
▁PySimpleGUI	-6680
FG	-6681
LINE	-6682
SERT	-6683
roke	-6684
luded	-6685
▁many	-6686
exists	-6687
plugins	-6688
unsigned	-6689
▁runtime	-6690
▁tracker	-6691
▁upgrade	-6692
▁executor	-6693
▁reversed	-6694
▁argparser	-6695
elementwise	-6696
KB	-6697
MY	-6698
NC	-6699
QH	-6700
DOC	-6701
RED	-6702
ATED	-6703
trig	-6704
▁Non	-6705
outine	-6706
reason	-6707
iterator	-6708
▁activity	-6709
▁direction	-6710
aws	-6711
green	-6712
ASCADE	-6713
assemb	-6714
splits	-6715
▁closed	-6716
▁rotate	-6717
▁machine	-6718
placeholder	-6719
em	-6720
|'	-6721
▁DB	-6722
fast	-6723
ring	-6724
▁0.4	-6725
edges	-6726
mbols	-6727
▁walk	-6728
editor	-6729
izable	-6730
complex	-6731
original	-6732
▁Dropout	-6733
La	-6734
ka	-6735
}{	-6736
0-9	-6737
rac	-6738
ltas	-6739
verted	-6740
▁faust	-6741
▁times	-6742
▁arrays	-6743
▁Chainer	-6744
4(	-6745
Sa	-6746
ens	-6747
eth	-6748
LOCK	-6749
aker	-6750
bbox	-6751
▁tar	-6752
,"../	-6753
alias	-6754
sheet	-6755
▁Output	-6756
▁Resource	-6757
▁injector	-6758
▁queryset	-6759
▁cryptography	-6760
&)	-6761
Ok	-6762
ERE	-6763
PID	-6764
_2'	-6765
▁cb	-6766
Only	-6767
▁ale	-6768
▁digits	-6769
▁prompt	-6770
▁scheme	-6771
memberof	-6772
▁trainable	-6773
bd	-6774
▁bg	-6775
▁adv	-6776
Ratio	-6777
Cannot	-6778
iguous	-6779
▁sources	-6780
Iteration	-6781
▁partition	-6782
${	-6783
BA	-6784
FC	-6785
LZ	-6786
PG	-6787
}_	-6788
ban	-6789
▁'3'	-6790
TINGS	-6791
sumer	-6792
▁Byte	-6793
▁branch	-6794
▁because	-6795
hc	-6796
▁88	-6797
▁tp	-6798
▁how	-6799
▁tol	-6800
hooks	-6801
ListView	-6802
handlers	-6803
HH	-6804
JD	-6805
sep	-6806
Hook	-6807
Life	-6808
▁RED	-6809
quired	-6810
signal	-6811
▁EVENT	-6812
▁TABLE	-6813
▁thumb	-6814
Account	-6815
▁Channel	-6816
▁sampler	-6817
▁realpath	-6818
▁	-6819
e	-6820
t	-6821
s	-6822
r	-6823
a	-6824
i	-6825
o	-6826
n	-6827
x	-6828
l	-6829
\	-6830
d	-6831
_	-6832
f	-6833
c	-6834
p	-6835
m	-6836
.	-6837
u	-6838
)	-6839
(	-6840
,	-6841
=	-6842
'	-6843
g	-6844
b	-6845
h	-6846
0	-6847
:	-6848
y	-6849
1	-6850
2	-6851
"	-6852
v	-6853
3	-6854
w	-6855
k	-6856
6	-6857
5	-6858
4	-6859
7	-6860
[	-6861
]	-6862
8	-6863
T	-6864
E	-6865
9	-6866
S	-6867
N	-6868
A	-6869
-	-6870
C	-6871
I	-6872
R	-6873
P	-6874
L	-6875
O	-6876
/	-6877
D	-6878
{	-6879
F	-6880
j	-6881
}	-6882
M	-6883
z	-6884
q	-6885
*	-6886
+	-6887
;	-6888
B	-6889
U	-6890
G	-6891
H	-6892
V	-6893
W	-6894
>	-6895
%	-6896
@	-6897
X	-6898
<	-6899
Y	-6900
K	-6901
`	-6902
Q	-6903
J	-6904
!	-6905
Z	-6906
|	-6907
?	-6908
#	-6909
&	-6910
$	-6911
^	-6912
~	-6913
─	-6914
的	-6915
а	-6916
个	-6917
数	-6918
е	-6919
一	-6920
。	-6921
φ	-6922
о	-6923
λ	-6924
н	-6925
т	-6926
и	-6927
р	-6928
用	-6929
是	-6930
с	-6931
中	-6932
к	-6933
л	-6934
在	-6935
д	-6936
件	-6937
в	-6938
文	-6939
м	-6940
可	-6941
有	-6942
为	-6943
以	-6944
│	-6945
点	-6946
下	-6947
ا	-6948
图	-6949
时	-6950
行	-6951
字	-6952
ε	-6953
到	-6954
у	-6955
═	-6956
码	-6957
é	-6958
取	-6959
如	-6960
不	-6961
这	-6962
δ	-6963
出	-6964
π	-6965
入	-6966
据	-6967
名	-6968
对	-6969
要	-6970
ь	-6971
目	-6972
上	-6973
值	-6974
代	-6975
п	-6976
录	-6977
б	-6978
я	-6979
果	-6980
小	-6981
后	-6982
最	-6983
定	-6984
理	-6985
成	-6986
请	-6987
存	-6988
信	-6989
回	-6990
输	-6991
新	-6992
器	-6993
大	-6994
்	-6995
像	-6996
接	-6997
詞	-6998
所	-6999
μ	-7000
我	-7001
ы	-7002
口	-7003
载	-7004
г	-7005
息	-7006
法	-7007
前	-7008
于	-7009
使	-7010
务	-7011
方	-7012
置	-7013
ч	-7014
能	-7015
α	-7016
将	-7017
通	-7018
和	-7019
序	-7020
二	-7021
动	-7022
ä	-7023
会	-7024
来	-7025
分	-7026
式	-7027
获	-7028
视	-7029
度	-7030
第	-7031
з	-7032
刺	-7033
日	-7034
了	-7035
列	-7036
当	-7037
讽	-7038
ه	-7039
月	-7040
类	-7041
τ	-7042
ن	-7043
开	-7044
加	-7045
号	-7046
户	-7047
本	-7048
重	-7049
ш	-7050
ل	-7051
表	-7052
ρ	-7053
ی	-7054
ι	-7055
组	-7056
们	-7057
子	-7058
就	-7059
符	-7060
任	-7061
标	-7062
从	-7063
令	-7064
单	-7065
间	-7066
й	-7067
证	-7068
过	-7069
á	-7070
م	-7071
作	-7072
返	-7073
自	-7074
次	-7075
函	-7076
示	-7077
面	-7078
ر	-7079
结	-7080
י	-7081
提	-7082
需	-7083
ு	-7084
人	-7085
算	-7086
高	-7087
化	-7088
进	-7089
ा	-7090
现	-7091
每	-7092
测	-7093
█	-7094
线	-7095
ب	-7096
’	-7097
否	-7098
正	-7099
程	-7100
路	-7101
د	-7102
”	-7103
已	-7104
节	-7105
í	-7106
“	-7107
参	-7108
查	-7109
і	-7110
ә	-7111
ت	-7112
制	-7113
位	-7114
它	-7115
量	-7116
า	-7117
服	-7118
检	-7119
ο	-7120
া	-7121
ö	-7122
و	-7123
年	-7124
径	-7125
格	-7126
验	-7127
ร	-7128
应	-7129
求	-7130
配	-7131
里	-7132
包	-7133
按	-7134
色	-7135
认	-7136
例	-7137
形	-7138
误	-7139
发	-7140
错	-7141
变	-7142
同	-7143
找	-7144
设	-7145
κ	-7146
อ	-7147
指	-7148
片	-7149
å	-7150
传	-7151
无	-7152
登	-7153
被	-7154
س	-7155
ي	-7156
两	-7157
你	-7158
国	-7159
始	-7160
意	-7161
放	-7162
矩	-7163
试	-7164
链	-7165
ش	-7166
串	-7167
只	-7168
地	-7169
此	-7170
项	-7171
ν	-7172
เ	-7173
其	-7174
助	-7175
失	-7176
关	-7177
向	-7178
启	-7179
密	-7180
整	-7181
σ	-7182
则	-7183
并	-7184
模	-7185
相	-7186
更	-7187
部	-7188
ц	-7189
த	-7190
保	-7191
功	-7192
弱	-7193
多	-7194
直	-7195
者	-7196
ü	-7197
之	-7198
常	-7199
素	-7200
调	-7201
都	-7202
内	-7203
机	-7204
权	-7205
计	-7206
败	-7207
น	-7208
网	-7209
ع	-7210
ม	-7211
三	-7212
得	-7213
打	-7214
条	-7215
生	-7216
等	-7217
话	-7218
性	-7219
్	-7220
击	-7221
含	-7222
显	-7223
确	-7224
选	-7225
页	-7226
à	-7227
ה	-7228
ส	-7229
、	-7230
实	-7231
执	-7232
该	-7233
复	-7234
好	-7235
换	-7236
根	-7237
ю	-7238
体	-7239
别	-7240
操	-7241
漏	-7242
—	-7243
与	-7244
建	-7245
洞	-7246
空	-7247
默	-7248
ו	-7249
ி	-7250
义	-7251
型	-7252
界	-7253
除	-7254
ó	-7255
ப	-7256
├	-7257
区	-7258
合	-7259
未	-7260
没	-7261
系	-7262
转	-7263
è	-7264
่	-7265
交	-7266
及	-7267
命	-7268
排	-7269
树	-7270
角	-7271
订	-7272
读	-7273
월	-7274
°	-7275
ั	-7276
€	-7277
种	-7278
经	-7279
运	-7280
ό	-7281
র	-7282
ன	-7283
ง	-7284
ย	-7285
元	-7286
写	-7287
编	-7288
联	-7289
ė	-7290
š	-7291
ं	-7292
ি	-7293
ق	-7294
र	-7295
台	-7296
因	-7297
学	-7298
完	-7299
问	-7300
ב	-7301
ి	-7302
全	-7303
天	-7304
期	-7305
管	-7306
连	-7307
阵	-7308
ð	-7309
ר	-7310
ת	-7311
پ	-7312
共	-7313
卫	-7314
危	-7315
导	-7316
控	-7317
边	-7318
ற	-7319
ు	-7320
库	-7321
心	-7322
景	-7323
比	-7324
流	-7325
解	-7326
去	-7327
员	-7328
状	-7329
维	-7330
ά	-7331
ς	-7332
ম	-7333
க	-7334
้	-7335
叉	-7336
支	-7337
明	-7338
致	-7339
说	-7340
题	-7341
┼	-7342
么	-7343
也	-7344
些	-7345
周	-7346
址	-7347
微	-7348
手	-7349
改	-7350
频	-7351
ட	-7352
న	-7353
ก	-7354
即	-7355
原	-7356
四	-7357
域	-7358
而	-7359
般	-7360
ক	-7361
ล	-7362
ิ	-7363
或	-7364
票	-7365
道	-7366
限	-7367
±	-7368
ж	-7369
ל	-7370
מ	-7371
ம	-7372
も	-7373
但	-7374
头	-7375
效	-7376
称	-7377
绝	-7378
资	-7379
ί	-7380
θ	-7381
ف	-7382
ය	-7383
ต	-7384
左	-7385
持	-7386
构	-7387
版	-7388
看	-7389
离	-7390
窗	-7391
给	-7392
西	-7393
还	-7394
长	-7395
ç	-7396
ñ	-7397
γ	-7398
ी	-7399
හ	-7400
บ	-7401
工	-7402
择	-7403
注	-7404
然	-7405
索	-7406
针	-7407
ą	-7408
έ	-7409
ল	-7410
ว	-7411
–	-7412
他	-7413
删	-7414
十	-7415
右	-7416
样	-7417
知	-7418
访	-7419
金	-7420
钮	-7421
键	-7422
非	-7423
顺	-7424
η	-7425
х	-7426
א	-7427
ह	-7428
处	-7429
断	-7430
析	-7431
框	-7432
记	-7433
语	-7434
ê	-7435
ų	-7436
্	-7437
ా	-7438
න	-7439
公	-7440
判	-7441
印	-7442
坐	-7443
容	-7444
平	-7445
很	-7446
斯	-7447
普	-7448
特	-7449
端	-7450
费	-7451
超	-7452
ú	-7453
ı	-7454
්	-7455
ි	-7456
ค	-7457
历	-7458
态	-7459
插	-7460
ח	-7461
त	-7462
्	-7463
ர	-7464
ห	-7465
主	-7466
先	-7467
增	-7468
搜	-7469
收	-7470
移	-7471
ø	-7472
ة	-7473
े	-7474
ন	-7475
ে	-7476
享	-7477
优	-7478
攻	-7479
波	-7480
率	-7481
环	-7482
简	-7483
绘	-7484
闭	-7485
전	-7486
ф	-7487
五	-7488
免	-7489
初	-7490
外	-7491
廓	-7492
情	-7493
把	-7494
授	-7495
源	-7496
略	-7497
股	-7498
脸	-7499
菜	-7500
车	-7501
远	-7502
那	-7503
预	-7504
ק	-7505
أ	-7506
ث	-7507
ز	-7508
क	-7509
न	-7510
ব	-7511
ல	-7512
ด	-7513
ป	-7514
ไ	-7515
做	-7516
具	-7517
创	-7518
利	-7519
匹	-7520
场	-7521
块	-7522
安	-7523
层	-7524
海	-7525
省	-7526
考	-7527
阅	-7528
요	-7529
«	-7530
ë	-7531
ę	-7532
ή	-7533
ग	-7534
स	-7535
ద	-7536
ක	-7537
ද	-7538
┤	-7539
京	-7540
候	-7541
博	-7542
句	-7543
均	-7544
少	-7545
批	-7546
掉	-7547
步	-7548
清	-7549
爱	-7550
电	-7551
笑	-7552
署	-7553
群	-7554
נ	-7555
ா	-7556
క	-7557
ත	-7558
ව	-7559
ะ	-7560
‘	-7561
且	-7562
修	-7563
動	-7564
北	-7565
弹	-7566
描	-7567
核	-7568
站	-7569
级	-7570
终	-7571
询	-7572
速	-7573
队	-7574
陆	-7575
일	-7576
э	-7577
ד	-7578
ע	-7579
ש	-7580
ర	-7581
์	-7582
事	-7583
似	-7584
六	-7585
再	-7586
备	-7587
市	-7588
异	-7589
快	-7590
积	-7591
练	-7592
识	-7593
门	-7594
阈	-7595
颜	-7596
ө	-7597
כ	-7598
ج	-7599
ك	-7600
ए	-7601
স	-7602
ந	-7603
డ	-7604
ప	-7605
ల	-7606
็	-7607
•	-7608
何	-7609
供	-7610
属	-7611
座	-7612
播	-7613
某	-7614
泄	-7615
灰	-7616
由	-7617
盘	-7618
续	-7619
藏	-7620
言	-7621
象	-7622
近	-7623
露	-7624
鼠	-7625
ł	-7626
ś	-7627
һ	-7628
ो	-7629
东	-7630
兰	-7631
卷	-7632
压	-7633
客	-7634
尾	-7635
歌	-7636
滑	-7637
滤	-7638
白	-7639
章	-7640
装	-7641
词	-7642
钟	-7643
â	-7644
χ	-7645
ύ	-7646
य	-7647
য	-7648
ய	-7649
ூ	-7650
└	-7651
世	-7652
双	-7653
帐	-7654
引	-7655
消	-7656
照	-7657
画	-7658
缩	-7659
送	-7660
遍	-7661
集	-7662
£	-7663
č	-7664
ž	-7665
ώ	-7666
ि	-7667
வ	-7668
ం	-7669
మ	-7670
ර	-7671
ุ	-7672
โ	-7673
→	-7674
┬	-7675
┴	-7676
侵	-7677
八	-7678
准	-7679
华	-7680
总	-7681
推	-7682
止	-7683
添	-7684
物	-7685
禁	-7686
策	-7687
统	-7688
训	-7689
负	-7690
购	-7691
额	-7692
§	-7693
ß	-7694
ã	-7695
î	-7696
ô	-7697
υ	-7698
ω	-7699
В	-7700
Г	-7701
С	-7702
У	-7703
ј	-7704
ң	-7705
ү	-7706
ح	-7707
ک	-7708
ள	-7709
ట	-7710
┌	-7711
に	-7712
余	-7713
家	-7714
宽	-7715
射	-7716
影	-7717
征	-7718
待	-7719
必	-7720
慢	-7721
括	-7722
梯	-7723
深	-7724
滚	-7725
缓	-7726
账	-7727
起	-7728
®	-7729
¿	-7730
ć	-7731
Ω	-7732
Б	-7733
К	-7734
М	-7735
П	-7736
ص	-7737
ब	-7738
ल	-7739
।	-7740
ড	-7741
య	-7742
స	-7743
จ	-7744
ช	-7745
ี	-7746
ู	-7747
┐	-7748
┘	-7749
╔	-7750
の	-7751
习	-7752
低	-7753
况	-7754
几	-7755
噪	-7756
圆	-7757
基	-7758
广	-7759
感	-7760
抓	-7761
旋	-7762
江	-7763
申	-7764
览	-7765
記	-7766
轴	-7767
述	-7768
采	-7769
音	-7770
黑	-7771
세	-7772
～	-7773
»	-7774
ă	-7775
ş	-7776
Δ	-7777
И	-7778
Н	-7779
Т	-7780
щ	-7781
җ	-7782
פ	-7783
ো	-7784
ท	-7785
✔	-7786
》	-7787
す	-7788
仅	-7789
付	-7790
价	-7791
停	-7792
南	-7793
响	-7794
哪	-7795
固	-7796
尝	-7797
山	-7798
师	-7799
帧	-7800
张	-7801
您	-7802
教	-7803
曲	-7804
母	-7805
浏	-7806
立	-7807
至	-7808
论	-7809
辑	-7810
达	-7811
邮	-7812
隐	-7813
시	-7814
에	-7815
초	-7816
️	-7817
¥	-7818
Ł	-7819
Α	-7820
Ε	-7821
ї	-7822
प	-7823
ই	-7824
ট	-7825
়	-7826
இ	-7827
ை	-7828
ె	-7829
ై	-7830
ල	-7831
ා	-7832
ු	-7833
แ	-7834
►	-7835
《	-7836
で	-7837
今	-7838
典	-7839
决	-7840
副	-7841
声	-7842
己	-7843
幅	-7844
循	-7845
恢	-7846
托	-7847
扫	-7848
拖	-7849
拾	-7850
易	-7851
棋	-7852
百	-7853
细	-7854
補	-7855
见	-7856
责	-7857
距	-7858
轮	-7859
迭	-7860
递	-7861
首	-7862
주	-7863
·	-7864
É	-7865
æ	-7866
û	-7867
А	-7868
خ	-7869
ژ	-7870
ओ	-7871
ट	-7872
গ	-7873
ழ	-7874
ප	-7875
ම	-7876
ස	-7877
พ	-7878
ื	-7879
║	-7880
は	-7881
七	-7882
乐	-7883
九	-7884
产	-7885
减	-7886
切	-7887
境	-7888
想	-7889
截	-7890
才	-7891
拉	-7892
敏	-7893
星	-7894
栈	-7895
河	-7896
父	-7897
眼	-7898
磁	-7899
红	-7900
络	-7901
背	-7902
語	-7903
软	-7904
造	-7905
闻	-7906
随	-7907
顶	-7908
齐	-7909
다	-7910
후	-7911
ï	-7912
ū	-7913
ż	-7914
ु	-7915
আ	-7916
ত	-7917
দ	-7918
ச	-7919
ண	-7920
బ	-7921
వ	-7922
ో	-7923
ට	-7924
ึ	-7925
๊	-7926
↓	-7927
【	-7928
】	-7929
い	-7930
く	-7931
ち	-7932
ん	-7933
业	-7934
云	-7935
互	-7936
凸	-7937
午	-7938
反	-7939
商	-7940
围	-7941
堆	-7942
夹	-7943
委	-7944
岛	-7945
底	-7946
志	-7947
扩	-7948
暂	-7949
替	-7950
林	-7951
游	-7952
澳	-7953
留	-7954
科	-7955
签	-7956
箱	-7957
若	-7958
荐	-7959
谱	-7960
辞	-7961
适	-7962
香	-7963
녕	-7964
분	-7965
있	-7966
하	-7967
ğ	-7968
ș	-7969
́	-7970
ϊ	-7971
Ч	-7972
ё	-7973
ם	-7974
آ	-7975
ط	-7976
ٔ	-7977
ै	-7978
খ	-7979
ু	-7980
எ	-7981
ಠ	-7982
ᕮ	-7983
⁄	-7984
「	-7985
」	-7986
よ	-7987
ー	-7988
严	-7989
乘	-7990
书	-7991
份	-7992
住	-7993
依	-7994
假	-7995
匿	-7996
叶	-7997
奇	-7998
宝	-7999
屋	-8000
展	-8001
巴	-8002
归	-8003
拟	-8004
挥	-8005
映	-8006
束	-8007
档	-8008
欢	-8009
气	-8010
水	-8011
湾	-8012
溢	-8013
火	-8014
热	-8015
爬	-8016
球	-8017
皇	-8018
监	-8019
继	-8020
美	-8021
育	-8022
花	-8023
英	-8024
议	-8025
评	-8026
详	-8027
质	-8028
走	-8029
跟	-8030
轻	-8031
透	-8032
降	-8033
雪	-8034
년	-8035
안	-8036
×	-8037
ΐ	-8038
ΰ	-8039
ϋ	-8040
ן	-8041
צ	-8042
إ	-8043
ئ	-8044
ظ	-8045
ہ	-8046
च	-8047
द	-8048
এ	-8049
ங	-8050
త	-8051
ළ	-8052
ො	-8053
ศ	-8054
ใ	-8055
╝	-8056
る	-8057
专	-8058
临	-8059
什	-8060
介	-8061
休	-8062
刀	-8063
刷	-8064
券	-8065
剪	-8066
半	-8067
史	-8068
吗	-8069
呢	-8070
品	-8071
塔	-8072
寻	-8073
峰	-8074
差	-8075
布	-8076
往	-8077
急	-8078
抗	-8079
折	-8080
报	-8081
旗	-8082
术	-8083
概	-8084
港	-8085
皮	-8086
真	-8087
着	-8088
秒	-8089
紧	-8090
缺	-8091
老	-8092
耐	-8093
规	-8094
让	-8095
讯	-8096
跳	-8097
较	-8098
迎	-8099
锯	-8100
须	-8101
风	-8102
齿	-8103
구	-8104
는	-8105
니	-8106
영	-8107
이	-8108
🍻	-8109
©	-8110
đ	-8111
ξ	-8112
Й	-8113
Л	-8114
Р	-8115
Ф	-8116
є	-8117
ט	-8118
؟	-8119
ى	-8120
ड	-8121
व	-8122
ू	-8123
৩	-8124
ஸ	-8125
ெ	-8126
ொ	-8127
ோ	-8128
ొ	-8129
ả	-8130
ế	-8131
↑	-8132
□	-8133
●	-8134
✓	-8135
っ	-8136
ま	-8137
を	-8138
サ	-8139
亚	-8140
伦	-8141
便	-8142
倒	-8143
偶	-8144
克	-8145
友	-8146
召	-8147
听	-8148
嘴	-8149
圣	-8150
宁	-8151
封	-8152
州	-8153
希	-8154
帜	-8155
带	-8156
弃	-8157
怎	-8158
悍	-8159
戏	-8160
技	-8161
护	-8162
摄	-8163
料	-8164
晴	-8165
杰	-8166
染	-8167
段	-8168
毕	-8169
渲	-8170
湖	-8171
猫	-8172
甲	-8173
硬	-8174
职	-8175
范	-8176
足	-8177
钥	-8178
险	-8179
간	-8180
고	-8181
려	-8182
수	-8183
자	-8184
𐀀	-8185
Ö	-8186
õ	-8187
į	-8188
Η	-8189
Д	-8190
Ж	-8191
О	-8192
Ь	-8193
Ә	-8194
ס	-8195
ض	-8196
ـ	-8197
ں	-8198
ے	-8199
۰	-8200
अ	-8201
इ	-8202
म	-8203
ঃ	-8204
அ	-8205
ఎ	-8206
ూ	-8207
ං	-8208
අ	-8209
ග	-8210
බ	-8211
ộ	-8212
←	-8213
━	-8214
╗	-8215
✗	-8216
『	-8217
』	-8218
き	-8219
こ	-8220
だ	-8221
て	-8222
タ	-8223
リ	-8224
亮	-8225
储	-8226
允	-8227
划	-8228
力	-8229
占	-8230
卧	-8231
古	-8232
另	-8233
吧	-8234
告	-8235
哦	-8236
喜	-8237
圈	-8238
圳	-8239
士	-8240
変	-8241
够	-8242
太	-8243
威	-8244
尔	-8245
尚	-8246
帮	-8247
幕	-8248
强	-8249
德	-8250
忽	-8251
恒	-8252
捷	-8253
政	-8254
杯	-8255
板	-8256
极	-8257
棒	-8258
棵	-8259
浪	-8260
满	-8261
灵	-8262
睛	-8263
短	-8264
神	-8265
绕	-8266
缀	-8267
翻	-8268
腐	-8269
航	-8270
蓝	-8271
虑	-8272
虫	-8273
补	-8274
讨	-8275
许	-8276
财	-8277
踪	-8278
退	-8279
邻	-8280
锚	-8281
闰	-8282
防	-8283
阶	-8284
际	-8285
院	-8286
隔	-8287
雷	-8288
靠	-8289
领	-8290
개	-8291
금	-8292
등	-8293
를	-8294
맛	-8295
알	-8296
오	-8297
좀	-8298
집	-8299
토	-8300
포	-8301
👋	-8302
😏	-8303
¢	-8304
¬	-8305
ò	-8306
ā	-8307
ț	-8308
̄	-8309
Έ	-8310
І	-8311
Е	-8312
З	-8313
Х	-8314
Ш	-8315
Я	-8316
ђ	-8317
ך	-8318
،	-8319
غ	-8320
چ	-8321
ँ	-8322
आ	-8323
ख	-8324
ज	-8325
ौ	-8326
ং	-8327
জ	-8328
থ	-8329
ধ	-8330
হ	-8331
ஐ	-8332
ஒ	-8333
అ	-8334
ఆ	-8335
గ	-8336
ధ	-8337
భ	-8338
ీ	-8339
ే	-8340
ෙ	-8341
ฉ	-8342
ํ	-8343
ᑌ	-8344
ᑎ	-8345
ᑕ	-8346
ᗪ	-8347
᙭	-8348
ᚴ	-8349
ậ	-8350
‐	-8351
↔	-8352
┻	-8353
╯	-8354
☃	-8355
❚	-8356
❤	-8357
あ	-8358
う	-8359
お	-8360
し	-8361
た	-8362
わ	-8363
ル	-8364
ワ	-8365
ン	-8366
万	-8367
丑	-8368
买	-8369
予	-8370
仕	-8371
众	-8372
係	-8373
健	-8374
傻	-8375
充	-8376
光	-8377
冰	-8378
剩	-8379
办	-8380
升	-8381
卡	-8382
卸	-8383
叫	-8384
吾	-8385
哈	-8386
哼	-8387
坏	-8388
坡	-8389
填	-8390
女	-8391
媒	-8392
官	-8393
害	-8394
尺	-8395
局	-8396
屏	-8397
岸	-8398
川	-8399
庆	-8400
康	-8401
惊	-8402
房	-8403
抖	-8404
抱	-8405
拍	-8406
旧	-8407
東	-8408
栏	-8409
校	-8410
案	-8411
永	-8412
汉	-8413
津	-8414
涨	-8415
濟	-8416
灯	-8417
牙	-8418
独	-8419
瓦	-8420
男	-8421
番	-8422
病	-8423
盛	-8424
础	-8425
硕	-8426
突	-8427
篇	-8428
經	-8429
続	-8430
绑	-8431
聊	-8432
聚	-8433
肤	-8434
胀	-8435
膨	-8436
荣	-8437
触	-8438
誉	-8439
译	-8440
質	-8441
贴	-8442
趣	-8443
跌	-8444
輩	-8445
逆	-8446
連	-8447
释	-8448
铁	-8449
青	-8450
革	-8451
马	-8452
鼻	-8453
龙	-8454
근	-8455
동	-8456
목	-8457
살	-8458
서	-8459
습	-8460
울	-8461
워	-8462
을	-8463
처	-8464
타	-8465
할	-8466
화	-8467
🇯	-8468
🇵	-8469
🐔	-8470
👹	-8471
Ñ	-8472
ý	-8473
Ā	-8474
ň	-8475
ư	-8476
Ά	-8477
Ί	-8478
β	-8479
Ё	-8480
Ц	-8481
Ъ	-8482
Ы	-8483
Э	-8484
ъ	-8485
љ	-8486
њ	-8487
ћ	-8488
қ	-8489
ذ	-8490
۲	-8491
ठ	-8492
फ	-8493
़	-8494
৳	-8495
ஆ	-8496
చ	-8497
ష	-8498
హ	-8499
එ	-8500
ඔ	-8501
ී	-8502
ූ	-8503
ේ	-8504
ณ	-8505
ธ	-8506
ผ	-8507
ฮ	-8508
฿	-8509
ๆ	-8510
ệ	-8511
ủ	-8512
ự	-8513
„	-8514
₩	-8515
∂	-8516
−	-8517
∞	-8518
○	-8519
☎	-8520
♥	-8521
が	-8522
ス	-8523
丝	-8524
乎	-8525
仓	-8526
仿	-8527
伍	-8528
伙	-8529
佳	-8530
侠	-8531
俄	-8532
倍	-8533
兼	-8534
册	-8535
勾	-8536
医	-8537
协	-8538
叁	-8539
又	-8540
受	-8541
叠	-8542
吉	-8543
哥	-8544
哭	-8545
唐	-8546
啊	-8547
团	-8548
垂	-8549
埃	-8550
墟	-8551
墨	-8552
壹	-8553
夏	-8554
夜	-8555
姓	-8556
孩	-8557
宋	-8558
宗	-8559
寸	-8560
尤	-8561
尽	-8562
居	-8563
幻	-8564
延	-8565
廷	-8566
弟	-8567
徽	-8568
思	-8569
抑	-8570
抛	-8571
抽	-8572
拥	-8573
拼	-8574
拿	-8575
挂	-8576
挪	-8577
振	-8578
捌	-8579
掌	-8580
握	-8581
旅	-8582
望	-8583
杂	-8584
李	-8585
柒	-8586
桌	-8587
楼	-8588
榜	-8589
殊	-8590
民	-8591
汗	-8592
沙	-8593
油	-8594
泪	-8595
泰	-8596
泽	-8597
洲	-8598
浙	-8599
牌	-8600
猜	-8601
玖	-8602
甘	-8603
疆	-8604
疏	-8605
社	-8606
祖	-8607
稀	-8608
答	-8609
箭	-8610
籍	-8611
粉	-8612
精	-8613
糊	-8614
累	-8615
終	-8616
纠	-8617
织	-8618
绿	-8619
缘	-8620
罗	-8621
肃	-8622
肆	-8623
脚	-8624
腊	-8625
腾	-8626
芬	-8627
苏	-8628
苹	-8629
茶	-8630
药	-8631
荷	-8632
萄	-8633
萌	-8634
葡	-8635
蒙	-8636
虚	-8637
血	-8638
衣	-8639
袖	-8640
讲	-8641
谢	-8642
豆	-8643
贰	-8644
贵	-8645
赋	-8646
赞	-8647
越	-8648
身	-8649
辽	-8650
邦	-8651
酒	-8652
醒	-8653
铃	-8654
银	-8655
镜	-8656
阿	-8657
陕	-8658
零	-8659
韩	-8660
颗	-8661
飞	-8662
饰	-8663
驱	-8664
鸟	-8665
鸡	-8666
국	-8667
까	-8668
도	-8669
로	-8670
새	-8671
의	-8672
인	-8673
정	-8674
코	-8675
한	-8676
🌈	-8677
😀	-8678
😁	-8679
🙂	-8680
🚨	-8681
🤡	-8682
¡	-8683
Í	-8684
Ó	-8685
Ü	-8686
ù	-8687
ÿ	-8688
ī	-8689
Ș	-8690
Ό	-8691
Щ	-8692
Ю	-8693
Ѩ	-8694
ґ	-8695
ғ	-8696
Қ	-8697
ԛ	-8698
ז	-8699
ء	-8700
ّ	-8701
۔	-8702
۱	-8703
۳	-8704
ई	-8705
ऊ	-8706
ध	-8707
श	-8708
ঁ	-8709
অ	-8710
ও	-8711
চ	-8712
ছ	-8713
ঠ	-8714
ঢ	-8715
ণ	-8716
শ	-8717
ষ	-8718
ী	-8719
৫	-8720
৬	-8721
ஏ	-8722
ே	-8723
ఏ	-8724
ఒ	-8725
జ	-8726
ఫ	-8727
ජ	-8728
ධ	-8729
ඹ	-8730
ශ	-8731
ැ	-8732
ෝ	-8733
ข	-8734
ซ	-8735
ถ	-8736
ạ	-8737
ấ	-8738
ị	-8739
ố	-8740
ờ	-8741
ứ	-8742
ỳ	-8743
Ἑ	-8744
‡	-8745
‿	-8746
₹	-8747
₺	-8748
₽	-8749
↖	-8750
∀	-8751
√	-8752
⌫	-8753
╒	-8754
╕	-8755
╘	-8756
╛	-8757
╞	-8758
╡	-8759
╤	-8760
╧	-8761
╪	-8762
▄	-8763
■	-8764
◆	-8765
◎	-8766
◕	-8767
☑	-8768
♠	-8769
♬	-8770
❌	-8771
⹂	-8772
〈	-8773
〉	-8774
イ	-8775
オ	-8776
ギ	-8777
シ	-8778
ジ	-8779
ツ	-8780
ド	-8781
ナ	-8782
フ	-8783
ラ	-8784
ロ	-8785
丢	-8786
丰	-8787
亲	-8788
亿	-8789
仔	-8790
仙	-8791
企	-8792
侧	-8793
儿	-8794
兄	-8795
兔	-8796
党	-8797
兴	-8798
兵	-8799
军	-8800
冲	-8801
冷	-8802
冻	-8803
凤	-8804
凰	-8805
劲	-8806
千	-8807
吻	-8808
呀	-8809
啤	-8810
喝	-8811
嘘	-8812
嘿	-8813
城	-8814
墓	-8815
契	-8816
娱	-8817
富	-8818
巫	-8819
干	-8820
幹	-8821
弦	-8822
弧	-8823
彩	-8824
律	-8825
忘	-8826
恐	-8827
恭	-8828
投	-8829
招	-8830
拳	-8831
捐	-8832
掩	-8833
搞	-8834
散	-8835
斐	-8836
斗	-8837
既	-8838
早	-8839
春	-8840
昨	-8841
晨	-8842
晰	-8843
曝	-8844
朝	-8845
架	-8846
柄	-8847
械	-8848
森	-8849
椒	-8850
検	-8851
椭	-8852
横	-8853
橘	-8854
橡	-8855
欠	-8856
款	-8857
歉	-8858
汇	-8859
汽	-8860
活	-8861
淆	-8862
混	-8863
演	-8864
激	-8865
炉	-8866
炮	-8867
烛	-8868
王	-8869
班	-8870
瓶	-8871
益	-8872
盖	-8873
礼	-8874
福	-8875
秘	-8876
笔	-8877
笼	-8878
筋	-8879
筛	-8880
篮	-8881
粗	-8882
约	-8883
纪	-8884
绍	-8885
绳	-8886
综	-8887
缝	-8888
耗	-8889
肯	-8890
胜	-8891
脏	-8892
落	-8893
蛋	-8894
融	-8895
袋	-8896
裁	-8897
覆	-8898
討	-8899
読	-8900
警	-8901
谈	-8902
谜	-8903
贝	-8904
货	-8905
赛	-8906
赠	-8907
赤	-8908
車	-8909
轿	-8910
迅	-8911
逐	-8912
逻	-8913
遅	-8914
達	-8915
避	-8916
邀	-8917
锅	-8918
雨	-8919
静	-8920
鞭	-8921
頭	-8922
食	-8923
饭	-8924
馈	-8925
骰	-8926
體	-8927
魔	-8928
麽	-8929
가	-8930
달	-8931
뒤	-8932
드	-8933
배	-8934
빨	-8935
상	-8936
앞	-8937
애	-8938
용	-8939
운	-8940
적	-8941
중	-8942
차	-8943
크	-8944
플	-8945
🌋	-8946
🌑	-8947
🌒	-8948
🌓	-8949
🌔	-8950
🌕	-8951
🌖	-8952
🌗	-8953
🌘	-8954
🍔	-8955
🍕	-8956
🏗	-8957
😊	-8958
😶	-8959
🚀	-8960
🚧	-8961
🤘	-8962
🤣	-8963
🤷	-8964
Ã	-8965
Ä	-8966
Å	-8967
Î	-8968
Ø	-8969
Đ	-8970
ē	-8971
ě	-8972
Ğ	-8973
Į	-8974
İ	-8975
ľ	-8976
ń	-8977
ō	-8978
Œ	-8979
œ	-8980
Š	-8981
ƒ	-8982
ƭ	-8983
ǎ	-8984
ǒ	-8985
ǿ	-8986
Ƀ	-8987
Ξ	-8988
Π	-8989
Σ	-8990
ζ	-8991
Ђ	-8992
Є	-8993
Ї	-8994
џ	-8995
ѥ	-8996
Ґ	-8997
Ғ	-8998
Ң	-8999
Ү	-9000
Ұ	-9001
ұ	-9002
Һ	-9003
Ө	-9004
ג	-9005
ً	-9006
َ	-9007
٪	-9008
٫	-9009
گ	-9010
ھ	-9011
۴	-9012
۵	-9013
۸	-9014
उ	-9015
छ	-9016
थ	-9017
ष	-9018
ॉ	-9019
॥	-9020
ভ	-9021
০	-9022
৯	-9023
ஃ	-9024
உ	-9025
ஹ	-9026
ீ	-9027
ఇ	-9028
ఉ	-9029
ఐ	-9030
ళ	-9031
శ	-9032
ආ	-9033
ඇ	-9034
ඛ	-9035
ඟ	-9036
ච	-9037
ඩ	-9038
ණ	-9039
ෂ	-9040
ෑ	-9041
ญ	-9042
ภ	-9043
๋	-9044
ẩ	-9045
ẫ	-9046
ằ	-9047
ể	-9048
ọ	-9049
ổ	-9050
ớ	-9051
ợ	-9052
ỷ	-9053
‒	-9054
―	-9055
‚	-9056
‛	-9057
‟	-9058
†	-9059
‰	-9060
‹	-9061
›	-9062
⁊	-9063
₣	-9064
₪	-9065
₫	-9066
₴	-9067
₸	-9068
↗	-9069
↘	-9070
↙	-9071
⇒	-9072
⇠	-9073
⇡	-9074
⇢	-9075
⇣	-9076
⇦	-9077
⇧	-9078
⇨	-9079
∧	-9080
∶	-9081
≅	-9082
≈	-9083
≥	-9084
⌃	-9085
⌘	-9086
⌚	-9087
⌛	-9088
⌥	-9089
⌦	-9090
⎋	-9091
⏰	-9092
⏳	-9093
╚	-9094
△	-9095
▸	-9096
▼	-9097
▽	-9098
◂	-9099
◇	-9100
◉	-9101
◜	-9102
◝	-9103
◞	-9104
◟	-9105
◠	-9106
◡	-9107
◢	-9108
◣	-9109
◤	-9110
◥	-9111
◦	-9112
★	-9113
☐	-9114
☒	-9115
☔	-9116
☕	-9117
☠	-9118
☯	-9119
☺	-9120
♦	-9121
⚓	-9122
⚠	-9123
⚡	-9124
⚽	-9125
⚾	-9126
⛄	-9127
⛅	-9128
⛪	-9129
⛲	-9130
⛳	-9131
⛵	-9132
⛺	-9133
⛼	-9134
⛽	-9135
✏	-9136
✘	-9137
✨	-9138
❄	-9139
❑	-9140
➤	-9141
⠁	-9142
⦿	-9143
⭐	-9144
〇	-9145
〔	-9146
〕	-9147
〝	-9148
〞	-9149
ご	-9150
つ	-9151
な	-9152
べ	-9153
め	-9154
や	-9155
り	-9156
ア	-9157
ィ	-9158
カ	-9159
コ	-9160
ッ	-9161
プ	-9162
ボ	-9163
メ	-9164
丘	-9165
举	-9166
乒	-9167
乓	-9168
乡	-9169
乱	-9170
亭	-9171
仟	-9172
仪	-9173
伤	-9174
伪	-9175
伯	-9176
伴	-9177
佣	-9178
佰	-9179
偷	-9180
傲	-9181
億	-9182
償	-9183
兆	-9184
养	-9185
冒	-9186
冗	-9187
农	-9188
凄	-9189
凋	-9190
凌	-9191
凹	-9192
刘	-9193
剧	-9194
勒	-9195
卅	-9196
卌	-9197
卍	-9198
卖	-9199
厢	-9200
厦	-9201
县	-9202
吃	-9203
各	-9204
吐	-9205
吓	-9206
呃	-9207
呆	-9208
呗	-9209
呲	-9210
咒	-9211
咖	-9212
哒	-9213
哨	-9214
唤	-9215
唾	-9216
啡	-9217
啥	-9218
啦	-9219
喔	-9220
喵	-9221
喷	-9222
困	-9223
坊	-9224
垣	-9225
塑	-9226
塞	-9227
墙	-9228
壇	-9229
壳	-9230
夸	-9231
奈	-9232
奋	-9233
奔	-9234
奕	-9235
套	-9236
奥	-9237
奴	-9238
奶	-9239
她	-9240
妆	-9241
妇	-9242
孔	-9243
季	-9244
宣	-9245
宿	-9246
察	-9247
尬	-9248
尴	-9249
屈	-9250
岂	-9251
嵌	-9252
币	-9253
帅	-9254
帝	-9255
席	-9256
帽	-9257
幼	-9258
幽	-9259
庇	-9260
店	-9261
庭	-9262
廊	-9263
廿	-9264
忍	-9265
念	-9266
怄	-9267
怒	-9268
怕	-9269
怜	-9270
恋	-9271
恼	-9272
悬	-9273
惯	-9274
愿	-9275
慌	-9276
慕	-9277
憨	-9278
战	-9279
戳	-9280
扑	-9281
扔	-9282
扰	-9283
承	-9284
抠	-9285
担	-9286
拒	-9287
拜	-9288
拷	-9289
捕	-9290
损	-9291
探	-9292
損	-9293
搬	-9294
摆	-9295
摘	-9296
摩	-9297
撇	-9298
擎	-9299
擦	-9300
故	-9301
敲	-9302
斑	-9303
斜	-9304
旁	-9305
旦	-9306
昵	-9307
晕	-9308
晚	-9309
暗	-9310
朋	-9311
末	-9312
杭	-9313
枣	-9314
枪	-9315
桂	-9316
桃	-9317
桥	-9318
梅	-9319
棉	-9320
植	-9321
業	-9322
槽	-9323
樱	-9324
欧	-9325
武	-9326
歩	-9327
毒	-9328
毛	-9329
毫	-9330
氓	-9331
氣	-9332
沃	-9333
治	-9334
泡	-9335
浮	-9336
涧	-9337
渐	-9338
渣	-9339
温	-9340
測	-9341
準	-9342
溯	-9343
滞	-9344
滨	-9345
漠	-9346
灶	-9347
炸	-9348
烦	-9349
焦	-9350
煲	-9351
熊	-9352
爆	-9353
牛	-9354
牧	-9355
狂	-9356
狮	-9357
猪	-9358
献	-9359
玄	-9360
玩	-9361
玫	-9362
玻	-9363
珊	-9364
琴	-9365
琶	-9366
瑚	-9367
瑞	-9368
瑰	-9369
璃	-9370
瓜	-9371
瓢	-9372
畅	-9373
疑	-9374
疗	-9375
疼	-9376
痕	-9377
痴	-9378
皂	-9379
皕	-9380
盅	-9381
盈	-9382
盐	-9383
盒	-9384
盗	-9385
盟	-9386
眠	-9387
眨	-9388
睡	-9389
瞻	-9390
石	-9391
破	-9392
碎	-9393
磕	-9394
磨	-9395
祈	-9396
祝	-9397
祷	-9398
私	-9399
秤	-9400
稍	-9401
稳	-9402
稻	-9403
竖	-9404
童	-9405
筐	-9406
米	-9407
粤	-9408
粥	-9409
糕	-9410
糖	-9411
糗	-9412
繁	-9413
纯	-9414
纸	-9415
绣	-9416
羊	-9417
羞	-9418
羡	-9419
耳	-9420
肥	-9421
胶	-9422
脈	-9423
腔	-9424
腕	-9425
腮	-9426
興	-9427
舞	-9428
舟	-9429
艺	-9430
苍	-9431
苔	-9432
苯	-9433
菊	-9434
菠	-9435
菱	-9436
萝	-9437
营	-9438
蒸	-9439
蔡	-9440
蕉	-9441
薯	-9442
虎	-9443
虽	-9444
蚀	-9445
蚁	-9446
蚂	-9447
蛙	-9448
蜂	-9449
蜜	-9450
蜡	-9451
蜥	-9452
蜴	-9453
蝇	-9454
蟹	-9455
衍	-9456
街	-9457
衡	-9458
衰	-9459
試	-9460
論	-9461
讶	-9462
诉	-9463
诚	-9464
课	-9465
谁	-9466
谓	-9467
負	-9468
責	-9469
賠	-9470
購	-9471
贤	-9472
贺	-9473
赫	-9474
跃	-9475
跑	-9476
踢	-9477
転	-9478
辖	-9479
辣	-9480
迁	-9481
迹	-9482
追	-9483
逗	-9484
運	-9485
鄙	-9486
酱	-9487
酷	-9488
醇	-9489
醛	-9490
鉴	-9491
钞	-9492
铛	-9493
铲	-9494
锁	-9495
锣	-9496
锦	-9497
閉	-9498
開	-9499
闪	-9500
闲	-9501
闹	-9502
阳	-9503
阴	-9504
附	-9505
陈	-9506
陵	-9507
陷	-9508
隶	-9509
难	-9510
雄	-9511
雾	-9512
靴	-9513
頂	-9514
領	-9515
顔	-9516
顿	-9517
飙	-9518
饥	-9519
饿	-9520
馨	-9521
驼	-9522
骂	-9523
骑	-9524
骚	-9525
骨	-9526
骷	-9527
髅	-9528
鸣	-9529
鸥	-9530
鹤	-9531
鼓	-9532
갛	-9533
검	-9534
것	-9535
겠	-9536
기	-9537
나	-9538
녁	-9539
담	-9540
던	-9541
됐	-9542
되	-9543
라	-9544
란	-9545
러	-9546
런	-9547
록	-9548
롭	-9549
마	-9550
매	-9551
메	-9552
뭡	-9553
뭣	-9554
밤	-9555
벽	-9556
보	-9557
봇	-9558
부	-9559
샌	-9560
생	-9561
손	-9562
스	-9563
신	-9564
아	-9565
어	-9566
억	-9567
업	-9568
은	-9569
임	-9570
입	-9571
장	-9572
저	-9573
좋	-9574
지	-9575
책	-9576
커	-9577
큰	-9578
클	-9579
파	-9580
프	-9581
합	-9582
해	-9583
행	-9584
𝄞	-9585
🃏	-9586
🌀	-9587
🌁	-9588
🌂	-9589
🌃	-9590
🌄	-9591
🌅	-9592
🌆	-9593
🌇	-9594
🌉	-9595
🌊	-9596
🌌	-9597
🌍	-9598
🌎	-9599
🌏	-9600
🌐	-9601
🌙	-9602
🌚	-9603
🌛	-9604
🌜	-9605
🌝	-9606
🌞	-9607
🌟	-9608
🌠	-9609
🌭	-9610
🌮	-9611
🌯	-9612
🌰	-9613
🌱	-9614
🌲	-9615
🌳	-9616
🌴	-9617
🌵	-9618
🌽	-9619
🌾	-9620
🌿	-9621
🍀	-9622
🍁	-9623
🍂	-9624
🍃	-9625
🍄	-9626
🍅	-9627
🍆	-9628
🍇	-9629
🍈	-9630
🍉	-9631
🍊	-9632
🍋	-9633
🍌	-9634
🍍	-9635
🍏	-9636
🍐	-9637
🍑	-9638
🍒	-9639
🍓	-9640
🍖	-9641
🍗	-9642
🍘	-9643
🍙	-9644
🍚	-9645
🍛	-9646
🍜	-9647
🍝	-9648
🍞	-9649
🍟	-9650
🍠	-9651
🍡	-9652
🍢	-9653
🍣	-9654
🍤	-9655
🍥	-9656
🍦	-9657
🍧	-9658
🍨	-9659
🍩	-9660
🍪	-9661
🍫	-9662
🍬	-9663
🍭	-9664
🍮	-9665
🍯	-9666
🍰	-9667
🍱	-9668
🍲	-9669
🍳	-9670
🍴	-9671
🍵	-9672
🍶	-9673
🍷	-9674
🍸	-9675
🍹	-9676
🍺	-9677
🍼	-9678
🍾	-9679
🍿	-9680
🎁	-9681
🎂	-9682
🎃	-9683
🎄	-9684
🎆	-9685
🎇	-9686
🎈	-9687
🎉	-9688
🎊	-9689
🎋	-9690
🎍	-9691
🎎	-9692
🎏	-9693
🎐	-9694
🎑	-9695
🎠	-9696
🎡	-9697
🎢	-9698
🎣	-9699
🎤	-9700
🎥	-9701
🎧	-9702
🎨	-9703
🎪	-9704
🎫	-9705
🎬	-9706
🎭	-9707
🎮	-9708
🎯	-9709
🎰	-9710
🎱	-9711
🎲	-9712
🎳	-9713
🎴	-9714
🎵	-9715
🎶	-9716
🎷	-9717
🎸	-9718
🎹	-9719
🎺	-9720
🎻	-9721
🎼	-9722
🎽	-9723
🎾	-9724
🎿	-9725
🏀	-9726
🏅	-9727
🏆	-9728
🏈	-9729
🏉	-9730
🏏	-9731
🏐	-9732
🏑	-9733
🏒	-9734
🏓	-9735
🏠	-9736
🏡	-9737
🏢	-9738
🏣	-9739
🏤	-9740
🏥	-9741
🏦	-9742
🏨	-9743
🏩	-9744
🏪	-9745
🏫	-9746
🏬	-9747
🏭	-9748
🏯	-9749
🏰	-9750
🏸	-9751
🏹	-9752
🏺	-9753
🐞	-9754
💈	-9755
💒	-9756
💙	-9757
💜	-9758
💡	-9759
💧	-9760
💰	-9761
💱	-9762
💲	-9763
💳	-9764
💴	-9765
💵	-9766
💶	-9767
💷	-9768
💸	-9769
💺	-9770
💻	-9771
💼	-9772
💽	-9773
💾	-9774
💿	-9775
📀	-9776
📁	-9777
📂	-9778
📃	-9779
📄	-9780
📅	-9781
📆	-9782
📇	-9783
📋	-9784
📌	-9785
📍	-9786
📎	-9787
📏	-9788
📐	-9789
📑	-9790
📒	-9791
📓	-9792
📔	-9793
📕	-9794
📖	-9795
📗	-9796
📘	-9797
📙	-9798
📚	-9799
📜	-9800
📝	-9801
📞	-9802
📟	-9803
📠	-9804
📡	-9805
📢	-9806
📣	-9807
📤	-9808
📥	-9809
📦	-9810
📧	-9811
📨	-9812
📩	-9813
📪	-9814
📫	-9815
📬	-9816
📭	-9817
📮	-9818
📯	-9819
📰	-9820
📱	-9821
📲	-9822
📷	-9823
📸	-9824
📹	-9825
📺	-9826
📻	-9827
📼	-9828
🔇	-9829
🔈	-9830
🔉	-9831
🔊	-9832
🔋	-9833
🔌	-9834
🔍	-9835
🔎	-9836
🔏	-9837
🔐	-9838
🔑	-9839
🔒	-9840
🔓	-9841
🔔	-9842
🔕	-9843
🔖	-9844
🔗	-9845
🔥	-9846
🔦	-9847
🔧	-9848
🔨	-9849
🔩	-9850
🔪	-9851
🔫	-9852
🔬	-9853
🔭	-9854
🔮	-9855
🕋	-9856
🕌	-9857
🕍	-9858
🗻	-9859
🗼	-9860
🗽	-9861
🗾	-9862
🗿	-9863
😂	-9864
😃	-9865
😄	-9866
😅	-9867
😆	-9868
😇	-9869
😈	-9870
😉	-9871
😋	-9872
😌	-9873
😍	-9874
😎	-9875
😐	-9876
😑	-9877
😒	-9878
😓	-9879
😔	-9880
😕	-9881
😗	-9882
😘	-9883
😙	-9884
😚	-9885
😛	-9886
😜	-9887
😝	-9888
😣	-9889
😥	-9890
😪	-9891
😫	-9892
😮	-9893
😯	-9894
😲	-9895
😴	-9896
😵	-9897
😸	-9898
😹	-9899
😺	-9900
😻	-9901
😼	-9902
😽	-9903
😾	-9904
😿	-9905
🙀	-9906
🙁	-9907
🙃	-9908
🙄	-9909
🙈	-9910
🙉	-9911
🙊	-9912
🚁	-9913
🚂	-9914
🚃	-9915
🚄	-9916
🚅	-9917
🚆	-9918
🚇	-9919
🚈	-9920
🚉	-9921
🚊	-9922
🚋	-9923
🚌	-9924
🚍	-9925
🚎	-9926
🚏	-9927
🚐	-9928
🚑	-9929
🚒	-9930
🚓	-9931
🚔	-9932
🚕	-9933
🚖	-9934
🚗	-9935
🚘	-9936
🚙	-9937
🚚	-9938
🚛	-9939
🚜	-9940
🚝	-9941
🚞	-9942
🚟	-9943
🚠	-9944
🚡	-9945
🚢	-9946
🚤	-9947
🚥	-9948
🚦	-9949
🚪	-9950
🚬	-9951
🚲	-9952
🚽	-9953
🚿	-9954
🛀	-9955
🛁	-9956
🛌	-9957
🛒	-9958
🛫	-9959
🛬	-9960
🛴	-9961
🛵	-9962
🛶	-9963
🤐	-9964
🤑	-9965
🤓	-9966
🤔	-9967
🤗	-9968
🤠	-9969
🤤	-9970
🤥	-9971
🥁	-9972
🥂	-9973
🥃	-9974
🥄	-9975
🥅	-9976
🥇	-9977
🥈	-9978
🥉	-9979
🥊	-9980
🥋	-9981
🥐	-9982
🥑	-9983
🥒	-9984
🥓	-9985
🥔	-9986
🥕	-9987
🥖	-9988
🥗	-9989
🥘	-9990
🥙	-9991
🥚	-9992
🥛	-9993
🥜	-9994
🥝	-9995
