<pad>	0
<unk>	0
<s>	0
</s>	0
er	-0
re	-1
in	-2
at	-3
on	-4
st	-5
__	-6
et	-7
al	-8
en	-9
▁s	-10
ar	-11
▁c	-12
es	-13
or	-14
it	-15
le	-16
▁p	-17
▁f	-18
ion	-19
▁__	-20
de	-21
am	-22
ad	-23
get	-24
ed	-25
▁re	-26
ac	-27
▁m	-28
ER	-29
ex	-30
lo	-31
an	-32
▁t	-33
as	-34
op	-35
IN	-36
un	-37
▁get	-38
ON	-39
RE	-40
pe	-41
ro	-42
▁S	-43
▁d	-44
tion	-45
ame	-46
ing	-47
fi	-48
val	-49
ue	-50
ut	-51
TE	-52
co	-53
OR	-54
ent	-55
ag	-56
ate	-57
is	-58
▁n	-59
LE	-60
ul	-61
TI	-62
ec	-63
int	-64
▁b	-65
ap	-66
ic	-67
▁st	-68
el	-69
▁C	-70
▁E	-71
im	-72
um	-73
AL	-74
em	-75
▁h	-76
▁de	-77
▁_	-78
DE	-79
ext	-80
ke	-81
ers	-82
ur	-83
KE	-84
se	-85
name	-86
NO	-87
value	-88
ST	-89
ch	-90
ce	-91
ult	-92
PE	-93
▁fi	-94
ack	-95
ess	-96
str	-97
ab	-98
AR	-99
and	-100
LO	-101
▁l	-102
add	-103
all	-104
tr	-105
▁T	-106
RO	-107
key	-108
AN	-109
▁P	-110
▁op	-111
SE	-112
id	-113
▁co	-114
arg	-115
fa	-116
AT	-117
UN	-118
od	-119
▁w	-120
up	-121
ype	-122
ME	-123
▁is	-124
iz	-125
ot	-126
age	-127
▁in	-128
fault	-129
FI	-130
ub	-131
ist	-132
ig	-133
ass	-134
▁set	-135
ip	-136
iter	-137
▁lo	-138
▁r	-139
▁M	-140
▁ex	-141
pl	-142
KEY	-143
iv	-144
est	-145
ont	-146
res	-147
AD	-148
▁I	-149
ol	-150
▁g	-151
il	-152
ated	-153
▁A	-154
UT	-155
ize	-156
string	-157
32	-158
SS	-159
eld	-160
end	-161
orm	-162
CO	-163
▁B	-164
▁ma	-165
able	-166
code	-167
ath	-168
us	-169
▁o	-170
▁F	-171
cl	-172
ert	-173
ead	-174
▁option	-175
SI	-176
unc	-177
IT	-178
ort	-179
essage	-180
ATE	-181
yt	-182
ERR	-183
args	-184
peated	-185
▁un	-186
▁par	-187
▁default	-188
64	-189
CE	-190
err	-191
fix	-192
item	-193
ck	-194
▁KEY	-195
▁add	-196
ir	-197
YPE	-198
ime	-199
file	-200
qu	-201
ata	-202
GE	-203
▁N	-204
▁v	-205
TION	-206
ok	-207
ct	-208
rom	-209
fo	-210
lin	-211
▁repeated	-212
ew	-213
CH	-214
RI	-215
ation	-216
TO	-217
UL	-218
ace	-219
ING	-220
ign	-221
▁en	-222
set	-223
type	-224
ERROR	-225
EN	-226
art	-227
ect	-228
ormat	-229
LI	-230
CK	-231
do	-232
mp	-233
▁value	-234
TP	-235
UP	-236
ff	-237
OP	-238
attr	-239
len	-240
ED	-241
ter	-242
DI	-243
AB	-244
▁*	-245
CT	-246
ment	-247
ytes	-248
▁read	-249
ib	-250
▁R	-251
▁a	-252
bj	-253
▁V	-254
to	-255
app	-256
cep	-257
▁ch	-258
▁optional	-259
▁W	-260
ict	-261
MA	-262
SH	-263
pr	-264
▁D	-265
ase	-266
que	-267
▁con	-268
▁key	-269
▁pro	-270
message	-271
error	-272
cr	-273
ersion	-274
ord	-275
ma	-276
ames	-277
▁str	-278
FA	-279
MP	-280
ay	-281
LA	-282
▁max	-283
ress	-284
ho	-285
▁se	-286
valu	-287
port	-288
size	-289
NOT	-290
act	-291
erv	-292
ROTO	-293
back	-294
values	-295
OL	-296
one	-297
head	-298
FILE	-299
roup	-300
▁dum	-301
▁parse	-302
are	-303
▁iter	-304
CON	-305
our	-306
▁map	-307
class	-308
QU	-309
ode	-310
ABLE	-311
NT	-312
US	-313
nt	-314
url	-315
▁DE	-316
cont	-317
list	-318
▁new	-319
ith	-320
bytes	-321
con	-322
th	-323
cal	-324
cod	-325
ure	-326
▁TI	-327
▁al	-328
ator	-329
tions	-330
▁format	-331
IG	-332
of	-333
ive	-334
call	-335
po	-336
par	-337
put	-338
TYPE	-339
atch	-340
path	-341
▁field	-342
▁IP	-343
andl	-344
▁ext	-345
EX	-346
bu	-347
ule	-348
func	-349
TR	-350
eg	-351
if	-352
ind	-353
cess	-354
quest	-355
yp	-356
low	-357
ource	-358
ial	-359
ire	-360
mod	-361
LIN	-362
▁from	-363
NE	-364
umb	-365
ener	-366
▁res	-367
▁cont	-368
▁load	-369
wr	-370
ite	-371
reate	-372
TH	-373
ory	-374
ran	-375
info	-376
enter	-377
▁X	-378
▁path	-379
ORT	-380
opy	-381
pack	-382
UR	-383
ens	-384
ock	-385
out	-386
▁LO	-387
uint	-388
refix	-389
▁type	-390
▁H	-391
▁x	-392
VER	-393
eth	-394
▁cl	-395
loat	-396
time	-397
andler	-398
NA	-399
ve	-400
▁e	-401
▁sub	-402
▁head	-403
UM	-404
TER	-405
▁do	-406
ethod	-407
lag	-408
▁comp	-409
OC	-410
tp	-411
wn	-412
ach	-413
▁TO	-414
ffer	-415
ception	-416
kw	-417
ast	-418
dir	-419
▁wr	-420
▁file	-421
▁pack	-422
VE	-423
mm	-424
sl	-425
default	-426
bo	-427
▁G	-428
SET	-429
pro	-430
sub	-431
▁item	-432
her	-433
▁IN	-434
▁RE	-435
line	-436
▁has	-437
version	-438
AC	-439
FO	-440
ULT	-441
▁O	-442
data	-443
main	-444
▁data	-445
▁func	-446
▁create	-447
BU	-448
enum	-449
ML	-450
VAL	-451
ary	-452
col	-453
eck	-454
ifi	-455
FAULT	-456
my	-457
ANT	-458
pec	-459
▁bu	-460
▁pr	-461
SION	-462
Fi	-463
32_	-464
▁AF	-465
crip	-466
read	-467
ested	-468
fixed	-469
float	-470
ition	-471
▁attr	-472
▁copy	-473
▁start	-474
IL	-475
ars	-476
map	-477
ream	-478
▁TYPE	-479
header	-480
lename	-481
CA	-482
unt	-483
▁lin	-484
bject	-485
▁dummy	-486
ge	-487
TIME	-488
▁aut	-489
DO	-490
▁ST	-491
date	-492
▁ass	-493
andle	-494
ection	-495
▁values	-496
ore	-497
NAME	-498
load	-499
lock	-500
▁fil	-501
EL	-502
sg	-503
KEN	-504
TED	-505
USE	-506
ity	-507
▁qu	-508
▁sh	-509
AUT	-510
ild	-511
▁CO	-512
▁SO	-513
▁ro	-514
group	-515
▁L	-516
INT	-517
ONG	-518
▁AL	-519
▁MA	-520
▁error	-521
▁assert	-522
SP	-523
ZE	-524
READ	-525
▁arg	-526
▁mod	-527
field	-528
ension	-529
ra	-530
AND	-531
ERT	-532
ask	-533
ies	-534
lob	-535
▁SP	-536
pace	-537
▁dis	-538
▁url	-539
umber	-540
▁call	-541
▁items	-542
ID	-543
WN	-544
▁K	-545
TTP	-546
ost	-547
pon	-548
▁del	-549
PROTO	-550
other	-551
context	-552
getitem	-553
no	-554
emp	-555
▁ac	-556
fore	-557
coding	-558
sh	-559
Name	-560
▁int	-561
▁reg	-562
erver	-563
oneof	-564
▁TIOC	-565
▁list	-566
▁gener	-567
ds	-568
ix	-569
rr	-570
yn	-571
▁j	-572
ORY	-573
SSL	-574
use	-575
vel	-576
▁NE	-577
▁XML	-578
▁out	-579
▁name	-580
nested	-581
prefix	-582
om	-583
COL	-584
ttp	-585
ache	-586
SG	-587
af	-588
OUT	-589
rst	-590
▁UN	-591
▁to	-592
uble	-593
user	-594
▁pre	-595
▁TOKEN	-596
▁other	-597
▁message	-598
DS	-599
pi	-600
64_	-601
ail	-602
ver	-603
▁as	-604
AUTH	-605
ibut	-606
text	-607
▁end	-608
names	-609
▁test	-610
▁unpack	-611
RA	-612
SC	-613
mt	-614
ORM	-615
dex	-616
ice	-617
flag	-618
from	-619
▁log	-620
escrip	-621
▁oneof	-622
MO	-623
UE	-624
os	-625
▁y	-626
LINE	-627
SIZE	-628
▁run	-629
import	-630
▁PROTO	-631
▁allow	-632
SL	-633
ly	-634
old	-635
dict	-636
econ	-637
empl	-638
rror	-639
▁exc	-640
ivate	-641
ponse	-642
valid	-643
▁conn	-644
▁find	-645
▁init	-646
▁make	-647
format	-648
▁source	-649
OF	-650
ak	-651
ep	-652
fr	-653
SER	-654
TRI	-655
und	-656
▁**	-657
▁AT	-658
▁EX	-659
irect	-660
level	-661
▁open	-662
▁send	-663
option	-664
▁string	-665
00	-666
UB	-667
CAL	-668
OST	-669
UND	-670
fil	-671
lic	-672
mul	-673
new	-674
▁SE	-675
▁tr	-676
cert	-677
plit	-678
▁LOG	-679
apper	-680
▁sock	-681
▁group	-682
▁local	-683
request	-684
ek	-685
mo	-686
oo	-687
ARY	-688
als	-689
not	-690
pos	-691
ATEG	-692
tern	-693
arget	-694
ister	-695
lines	-696
param	-697
actory	-698
method	-699
emplate	-700
IE	-701
md	-702
CRE	-703
com	-704
gth	-705
PORT	-706
ULTI	-707
oken	-708
stat	-709
CTION	-710
mmand	-711
▁DEFAULT	-712
▁request	-713
▁filename	-714
PEN	-715
ear	-716
elp	-717
ify	-718
ence	-719
word	-720
ypes	-721
▁SIG	-722
▁rec	-723
place	-724
ublic	-725
▁last	-726
▁time	-727
▁CATEG	-728
LY	-729
PI	-730
RD	-731
FTP	-732
PAR	-733
UNI	-734
amp	-735
gor	-736
▁TC	-737
imit	-738
open	-739
▁SSL	-740
TABLE	-741
▁base	-742
▁dump	-743
address	-744
wrapper	-745
▁handle	-746
SY	-747
ca	-748
abs	-749
ote	-750
red	-751
RONG	-752
alue	-753
vert	-754
▁min	-755
▁write	-756
▁target	-757
▁CATEGORY	-758
IF	-759
av	-760
ts	-761
GET	-762
PRO	-763
afe	-764
ain	-765
ait	-766
ser	-767
▁KQ	-768
▁ra	-769
MENT	-770
USER	-771
host	-772
ithm	-773
Error	-774
▁stat	-775
double	-776
ignore	-777
▁Value	-778
gorithm	-779
▁module	-780
▁options	-781
ie	-782
AGE	-783
ATA	-784
FIL	-785
LEN	-786
ONE	-787
REC	-788
day	-789
ong	-790
tur	-791
ush	-792
▁NO	-793
▁up	-794
cept	-795
inal	-796
lose	-797
only	-798
vent	-799
▁MAX	-800
▁col	-801
▁exp	-802
▁foo	-803
PTION	-804
arent	-805
start	-806
▁args	-807
▁http	-808
▁headers	-809
▁version	-810
PC	-811
▁i	-812
BAD	-813
ORD	-814
mar	-815
ull	-816
▁an	-817
▁id	-818
bool	-819
spec	-820
▁env	-821
coder	-822
▁exec	-823
▁next	-824
▁check	-825
▁param	-826
options	-827
▁packed	-828
▁IPPROTO	-829
extension	-830
▁generate	-831
6_	-832
IS	-833
INE	-834
LED	-835
SIG	-836
ody	-837
▁sy	-838
LINK	-839
Test	-840
conn	-841
iron	-842
cache	-843
ments	-844
types	-845
▁auth	-846
kwargs	-847
module	-848
foreign	-849
handler	-850
▁stream	-851
▁content	-852
BA	-853
IP	-854
by	-855
▁z	-856
LAG	-857
LIC	-858
LOW	-859
MAX	-860
reg	-861
ync	-862
▁OP	-863
CESS	-864
FIEL	-865
comp	-866
lass	-867
ning	-868
▁CAN	-869
▁VER	-870
Field	-871
MULTI	-872
inter	-873
▁host	-874
FILTER	-875
buffer	-876
length	-877
▁names	-878
▁context	-879
▁replace	-880
exception	-881
_1	-882
ns	-883
ADD	-884
KNO	-885
MIT	-886
ash	-887
clu	-888
eek	-889
for	-890
igh	-891
kip	-892
LITE	-893
mode	-894
okie	-895
sint	-896
▁PRO	-897
▁cls	-898
▁use	-899
KNOWN	-900
VALUE	-901
▁HTTP	-902
▁code	-903
sfixed	-904
▁first	-905
VERSION	-906
▁decode	-907
▁server	-908
▁address	-909
▁register	-910
FIX	-911
FUN	-912
KET	-913
MAP	-914
STR	-915
elf	-916
opt	-917
▁SQ	-918
▁th	-919
DATA	-920
DING	-921
FLAG	-922
SCRI	-923
char	-924
lear	-925
pect	-926
▁COM	-927
▁IPV	-928
▁app	-929
▁cap	-930
▁com	-931
▁cur	-932
ATTRI	-933
count	-934
local	-935
▁tran	-936
▁with	-937
cation	-938
domain	-939
▁print	-940
▁SQLITE	-941
▁ignore	-942
Ex	-943
FD	-944
TY	-945
▁k	-946
ALL	-947
LOB	-948
ang	-949
ile	-950
obj	-951
per	-952
▁sm	-953
BUTE	-954
NORE	-955
ance	-956
cape	-957
lect	-958
reak	-959
sign	-960
▁CON	-961
▁MSG	-962
▁std	-963
check	-964
icode	-965
state	-966
tring	-967
▁pass	-968
attern	-969
ibutes	-970
umbers	-971
▁WRONG	-972
▁bytes	-973
▁input	-974
Handler	-975
factory	-976
headers	-977
function	-978
AY	-979
BE	-980
xy	-981
ADV	-982
CHE	-983
ITY	-984
REA	-985
ard	-986
del	-987
ete	-988
▁CH	-989
RITE	-990
move	-991
uple	-992
▁can	-993
▁obj	-994
▁CANT	-995
▁header	-996
ATTRIBUTE	-997
BO	-998
IC	-999
LS	-1000
FER	-1001
LOG	-1002
TEM	-1003
WIT	-1004
env	-1005
ide	-1006
its	-1007
tag	-1008
ust	-1009
▁su	-1010
LOCK	-1011
ROUP	-1012
form	-1013
hook	-1014
itle	-1015
link	-1016
onth	-1017
rent	-1018
▁FTP	-1019
▁Get	-1020
ative	-1021
clude	-1022
flags	-1023
match	-1024
table	-1025
tocol	-1026
trace	-1027
▁FILE	-1028
▁glob	-1029
▁user	-1030
DESCRI	-1031
number	-1032
▁ERROR	-1033
content	-1034
▁buffer	-1035
▁method	-1036
▁object	-1037
▁output	-1038
▁unpacked	-1039
DESCRIPTION	-1040
EC	-1041
ES	-1042
OK	-1043
PO	-1044
TA	-1045
pa	-1046
rc	-1047
IEW	-1048
UPD	-1049
cur	-1050
▁no	-1051
LENG	-1052
WITH	-1053
istr	-1054
turn	-1055
▁var	-1056
FIELD	-1057
LIMIT	-1058
quire	-1059
▁extr	-1060
▁inst	-1061
CREATE	-1062
object	-1063
▁ALERT	-1064
private	-1065
▁remove	-1066
▁strict	-1067
encoding	-1068
SA	-1069
sy	-1070
wd	-1071
▁U	-1072
▁Z	-1073
ANY	-1074
EXI	-1075
FOR	-1076
OLL	-1077
RES	-1078
TON	-1079
ULL	-1080
bug	-1081
div	-1082
unk	-1083
CODE	-1084
File	-1085
ILED	-1086
entr	-1087
lean	-1088
part	-1089
▁msg	-1090
▁pop	-1091
ature	-1092
erial	-1093
range	-1094
▁dict	-1095
▁enum	-1096
▁self	-1097
▁sign	-1098
CODING	-1099
lement	-1100
▁split	-1101
▁encode	-1102
▁encoding	-1103
In	-1104
LU	-1105
PP	-1106
ml	-1107
Equ	-1108
aut	-1109
cor	-1110
fig	-1111
ren	-1112
try	-1113
▁im	-1114
CHAR	-1115
STAT	-1116
WORD	-1117
arch	-1118
ffix	-1119
help	-1120
init	-1121
isit	-1122
mask	-1123
▁tag	-1124
CONNE	-1125
UTTON	-1126
uture	-1127
▁hash	-1128
▁mode	-1129
▁skip	-1130
▁text	-1131
▁wait	-1132
LENGTH	-1133
▁extra	-1134
DEFAULT	-1135
▁parent	-1136
▁prefix	-1137
▁callback	-1138
▁iterable	-1139
escription	-1140
09	-1141
25	-1142
PT	-1143
RT	-1144
VI	-1145
AIT	-1146
ART	-1147
QUE	-1148
SUP	-1149
def	-1150
log	-1151
tim	-1152
yte	-1153
▁AB	-1154
▁at	-1155
addr	-1156
eter	-1157
ient	-1158
ific	-1159
izer	-1160
long	-1161
next	-1162
stmt	-1163
vers	-1164
▁BIN	-1165
▁NET	-1166
▁met	-1167
▁num	-1168
▁red	-1169
WRITE	-1170
ument	-1171
STRING	-1172
encode	-1173
escape	-1174
stream	-1175
upport	-1176
▁close	-1177
command	-1178
callback	-1179
▁VERSION	-1180
12	-1181
2_	-1182
CM	-1183
CR	-1184
PA	-1185
XY	-1186
ty	-1187
ACE	-1188
DEN	-1189
RED	-1190
SHA	-1191
cel	-1192
hon	-1193
ift	-1194
tor	-1195
uct	-1196
▁fp	-1197
▁pl	-1198
▁wh	-1199
ATCH	-1200
ager	-1201
glob	-1202
idth	-1203
mark	-1204
nown	-1205
with	-1206
▁for	-1207
▁pol	-1208
▁raw	-1209
child	-1210
ffset	-1211
igest	-1212
index	-1213
write	-1214
ython	-1215
▁TIPC	-1216
▁cert	-1217
▁flag	-1218
▁stop	-1219
UPDATE	-1220
action	-1221
ession	-1222
pected	-1223
rocess	-1224
source	-1225
▁clear	-1226
timeout	-1227
▁BUTTON	-1228
▁select	-1229
SO	-1230
az	-1231
nl	-1232
CAN	-1233
COM	-1234
DEX	-1235
END	-1236
ell	-1237
emb	-1238
eno	-1239
ery	-1240
ibr	-1241
ine	-1242
ipe	-1243
ise	-1244
min	-1245
pre	-1246
uri	-1247
ute	-1248
var	-1249
▁FO	-1250
▁SH	-1251
ANGE	-1252
COMP	-1253
HAND	-1254
HTTP	-1255
cryp	-1256
loop	-1257
▁DEF	-1258
▁SER	-1259
▁TOO	-1260
▁dir	-1261
▁pos	-1262
▁sho	-1263
▁ssl	-1264
▁ver	-1265
EXIST	-1266
ORTED	-1267
SPACE	-1268
econd	-1269
ified	-1270
point	-1271
▁MADV	-1272
▁SOCK	-1273
▁back	-1274
FAILED	-1275
▁visit	-1276
unicode	-1277
filename	-1278
▁template	-1279
SU	-1280
gr	-1281
ws	-1282
ARN	-1283
BER	-1284
BUG	-1285
KED	-1286
can	-1287
exp	-1288
ias	-1289
oin	-1290
ree	-1291
run	-1292
uid	-1293
wer	-1294
▁le	-1295
▁on	-1296
▁py	-1297
ADDR	-1298
ONLY	-1299
ight	-1300
keys	-1301
sing	-1302
▁doc	-1303
Equal	-1304
GROUP	-1305
break	-1306
files	-1307
gener	-1308
limit	-1309
▁line	-1310
▁root	-1311
String	-1312
ations	-1313
econds	-1314
▁block	-1315
▁strip	-1316
▁token	-1317
▁expand	-1318
▁filter	-1319
ENCODING	-1320
defaults	-1321
position	-1322
▁convert	-1323
▁environ	-1324
Exception	-1325
▁response	-1326
▁connection	-1327
IO	-1328
MT	-1329
ND	-1330
ll	-1331
BIN	-1332
DIR	-1333
DRO	-1334
ENT	-1335
NUM	-1336
OPT	-1337
PRE	-1338
▁kw	-1339
▁ut	-1340
ENTI	-1341
INFO	-1342
LECT	-1343
LETE	-1344
NOTE	-1345
QUAL	-1346
SIGN	-1347
TENT	-1348
WAIT	-1349
etch	-1350
exec	-1351
hash	-1352
mult	-1353
sure	-1354
test	-1355
▁NOT	-1356
▁TCP	-1357
▁sch	-1358
▁tim	-1359
LOBAL	-1360
ORMAT	-1361
TIONS	-1362
adata	-1363
block	-1364
bound	-1365
ction	-1366
eters	-1367
patch	-1368
slice	-1369
strip	-1370
▁safe	-1371
▁size	-1372
▁sort	-1373
IGNORE	-1374
decode	-1375
fields	-1376
TIMEOUT	-1377
numbers	-1378
process	-1379
▁cookie	-1380
▁domain	-1381
▁errors	-1382
▁public	-1383
▁return	-1384
FUNCTION	-1385
certific	-1386
template	-1387
▁connect	-1388
▁pattern	-1389
▁algorithm	-1390
▁exception	-1391
▁extension	-1392
LD	-1393
NC	-1394
OD	-1395
SK	-1396
09_	-1397
CUR	-1398
ONT	-1399
SED	-1400
VAR	-1401
icy	-1402
ior	-1403
neg	-1404
ued	-1405
win	-1406
▁CR	-1407
▁NA	-1408
▁TR	-1409
▁ap	-1410
▁mk	-1411
▁tb	-1412
▁us	-1413
ATOR	-1414
CANT	-1415
ENUM	-1416
METH	-1417
RECT	-1418
TEMP	-1419
vars	-1420
▁ENO	-1421
▁all	-1422
▁bar	-1423
▁cor	-1424
▁dst	-1425
▁old	-1426
order	-1427
uediv	-1428
▁WARN	-1429
▁body	-1430
▁char	-1431
▁comm	-1432
▁repr	-1433
estamp	-1434
public	-1435
update	-1436
utable	-1437
▁index	-1438
▁inter	-1439
▁proxy	-1440
▁state	-1441
▁title	-1442
▁trace	-1443
▁fields	-1444
▁serial	-1445
▁socket	-1446
▁suffix	-1447
response	-1448
escriptor	-1449
1_	-1450
AP	-1451
HU	-1452
di	-1453
CLA	-1454
CLO	-1455
EAD	-1456
MIN	-1457
NET	-1458
REF	-1459
cre	-1460
der	-1461
msg	-1462
net	-1463
ref	-1464
xor	-1465
yle	-1466
▁Do	-1467
▁MO	-1468
▁ip	-1469
DROP	-1470
From	-1471
HOST	-1472
PIPE	-1473
TIFI	-1474
ages	-1475
dent	-1476
dout	-1477
ical	-1478
just	-1479
orig	-1480
pare	-1481
repr	-1482
sock	-1483
▁RDS	-1484
▁cmd	-1485
▁not	-1486
INDEX	-1487
VALID	-1488
entry	-1489
event	-1490
ibute	-1491
inary	-1492
parse	-1493
stack	-1494
▁fail	-1495
▁full	-1496
▁lock	-1497
▁port	-1498
▁recv	-1499
▁show	-1500
▁smtp	-1501
STATUS	-1502
apping	-1503
errors	-1504
ibrary	-1505
loader	-1506
params	-1507
quence	-1508
server	-1509
▁PROXY	-1510
▁attrs	-1511
▁debug	-1512
▁lower	-1513
▁query	-1514
▁valid	-1515
UNKNOWN	-1516
▁initial	-1517
▁process	-1518
▁compress	-1519
▁protocol	-1520
22	-1521
AS	-1522
EK	-1523
HT	-1524
ow	-1525
su	-1526
Reg	-1527
ant	-1528
eme	-1529
man	-1530
max	-1531
num	-1532
seq	-1533
son	-1534
▁AI	-1535
▁EA	-1536
▁fl	-1537
▁fr	-1538
ATED	-1539
DOWN	-1540
EXEC	-1541
LIST	-1542
RECV	-1543
abel	-1544
amed	-1545
auth	-1546
case	-1547
exit	-1548
ices	-1549
ield	-1550
into	-1551
rmul	-1552
safe	-1553
serv	-1554
stem	-1555
temp	-1556
▁MFD	-1557
▁fix	-1558
▁ins	-1559
▁sep	-1560
▁top	-1561
▁zip	-1562
ACKET	-1563
Class	-1564
LOCAL	-1565
async	-1566
attrs	-1567
efore	-1568
first	-1569
split	-1570
token	-1571
▁INFO	-1572
▁VIEW	-1573
▁node	-1574
▁spec	-1575
METHOD	-1576
PORTED	-1577
arning	-1578
future	-1579
handle	-1580
▁fetch	-1581
▁match	-1582
charset	-1583
▁RLIMIT	-1584
▁accept	-1585
▁delete	-1586
▁transl	-1587
upported	-1588
▁command	-1589
▁package	-1590
algorithm	-1591
▁expected	-1592
attributes	-1593
4_	-1594
cy	-1595
fc	-1596
fd	-1597
IGN	-1598
MEM	-1599
MON	-1600
ROW	-1601
URE	-1602
azy	-1603
dat	-1604
ece	-1605
ilt	-1606
met	-1607
ool	-1608
sec	-1609
▁BO	-1610
▁fe	-1611
▁ru	-1612
▁sp	-1613
BACK	-1614
HUGE	-1615
down	-1616
ixed	-1617
keep	-1618
plic	-1619
▁MIN	-1620
▁MON	-1621
▁dat	-1622
▁put	-1623
▁sec	-1624
▁sha	-1625
ators	-1626
chars	-1627
cript	-1628
frame	-1629
print	-1630
width	-1631
▁TIME	-1632
▁date	-1633
▁dest	-1634
▁fill	-1635
▁link	-1636
▁uint	-1637
DIRECT	-1638
config	-1639
eekday	-1640
frames	-1641
lineno	-1642
▁TABLE	-1643
▁TIOCM	-1644
▁annot	-1645
▁class	-1646
▁lines	-1647
▁stack	-1648
allback	-1649
ization	-1650
truediv	-1651
▁SERVER	-1652
▁digest	-1653
▁import	-1654
▁python	-1655
▁result	-1656
▁stdout	-1657
▁update	-1658
traceback	-1659
connection	-1660
▁namespace	-1661
CI	-1662
CP	-1663
De	-1664
GR	-1665
fl	-1666
fp	-1667
ft	-1668
uc	-1669
ARG	-1670
BEG	-1671
DIG	-1672
FIN	-1673
GEN	-1674
ION	-1675
ITS	-1676
LAY	-1677
LOC	-1678
PAT	-1679
PRI	-1680
TLS	-1681
UDI	-1682
URL	-1683
VED	-1684
cls	-1685
dis	-1686
iew	-1687
imp	-1688
ish	-1689
pol	-1690
ret	-1691
ros	-1692
row	-1693
sed	-1694
tml	-1695
▁EP	-1696
▁dt	-1697
▁fd	-1698
509_	-1699
CAST	-1700
LUSH	-1701
NONE	-1702
RESS	-1703
SYNC	-1704
UBLE	-1705
ared	-1706
base	-1707
inst	-1708
ject	-1709
pend	-1710
play	-1711
ters	-1712
ures	-1713
▁COL	-1714
▁EAI	-1715
▁SOL	-1716
▁src	-1717
BOUND	-1718
EADER	-1719
FIXED	-1720
MATCH	-1721
ember	-1722
ename	-1723
icate	-1724
items	-1725
okens	-1726
pires	-1727
queue	-1728
shift	-1729
style	-1730
words	-1731
▁LOCK	-1732
▁MODE	-1733
▁coro	-1734
▁join	-1735
▁part	-1736
▁push	-1737
▁view	-1738
ERATOR	-1739
HANDLE	-1740
SELECT	-1741
ayload	-1742
output	-1743
▁cache	-1744
▁count	-1745
▁level	-1746
gettext	-1747
▁indent	-1748
▁number	-1749
▁params	-1750
▁second	-1751
▁status	-1752
▁stderr	-1753
▁verify	-1754
▁compile	-1755
▁current	-1756
▁extract	-1757
▁handler	-1758
▁prepare	-1759
▁require	-1760
▁session	-1761
▁timeout	-1762
SUPPORTED	-1763
▁defaults	-1764
▁password	-1765
▁resource	-1766
▁attribute	-1767
certificate	-1768
▁description	-1769
21	-1770
BY	-1771
DB	-1772
EV	-1773
_3	-1774
ls	-1775
mb	-1776
ug	-1777
wh	-1778
▁q	-1779
256	-1780
AIL	-1781
DAY	-1782
ERY	-1783
LAR	-1784
LIB	-1785
NON	-1786
QUI	-1787
Res	-1788
SPE	-1789
STA	-1790
TRY	-1791
UMN	-1792
doc	-1793
dum	-1794
ero	-1795
ger	-1796
ick	-1797
▁De	-1798
▁QU	-1799
▁Re	-1800
▁mo	-1801
▁ph	-1802
PARA	-1803
STOP	-1804
UDIO	-1805
dirs	-1806
http	-1807
mbol	-1808
pawn	-1809
resh	-1810
▁Con	-1811
▁seq	-1812
ATION	-1813
FOUND	-1814
START	-1815
alize	-1816
color	-1817
empty	-1818
month	-1819
▁POLL	-1820
▁auto	-1821
▁help	-1822
▁keys	-1823
▁mult	-1824
▁over	-1825
▁temp	-1826
▁wrap	-1827
ACCESS	-1828
COLUMN	-1829
EXISTS	-1830
SIGNED	-1831
▁AUDIO	-1832
▁DEBUG	-1833
▁files	-1834
▁quote	-1835
▁raise	-1836
▁trans	-1837
▁upper	-1838
globals	-1839
package	-1840
▁GLOBAL	-1841
▁append	-1842
▁common	-1843
comments	-1844
location	-1845
redirect	-1846
▁Default	-1847
▁NETLINK	-1848
▁comment	-1849
▁include	-1850
supported	-1851
▁metadata	-1852
parameters	-1853
En	-1854
FE	-1855
HI	-1856
JE	-1857
MS	-1858
Op	-1859
cs	-1860
ss	-1861
ANS	-1862
BCM	-1863
CEL	-1864
ECK	-1865
IPE	-1866
OLD	-1867
RAW	-1868
ROM	-1869
SYS	-1870
TAG	-1871
alt	-1872
ann	-1873
ans	-1874
arr	-1875
ava	-1876
cap	-1877
cmd	-1878
dig	-1879
gid	-1880
mac	-1881
mis	-1882
ork	-1883
sch	-1884
sgi	-1885
▁SY	-1886
▁by	-1887
▁tz	-1888
ARSE	-1889
BREA	-1890
CLIC	-1891
FAIL	-1892
MESS	-1893
MODE	-1894
NING	-1895
PASS	-1896
PEAT	-1897
Time	-1898
arse	-1899
copy	-1900
etag	-1901
prog	-1902
sive	-1903
▁NEW	-1904
▁NON	-1905
▁SSH	-1906
▁buf	-1907
▁def	-1908
▁err	-1909
▁net	-1910
BEGIN	-1911
BREAK	-1912
CHECK	-1913
CLASS	-1914
LOWED	-1915
QUEST	-1916
REIGN	-1917
erved	-1918
inish	-1919
loord	-1920
quote	-1921
stats	-1922
usage	-1923
▁info	-1924
▁java	-1925
▁real	-1926
▁serv	-1927
ENTITY	-1928
OPTION	-1929
access	-1930
andard	-1931
iority	-1932
leanup	-1933
marker	-1934
struct	-1935
thread	-1936
▁CHECK	-1937
▁child	-1938
▁decor	-1939
▁month	-1940
▁stdin	-1941
Decoder	-1942
MESSAGE	-1943
environ	-1944
lection	-1945
loordiv	-1946
▁enable	-1947
▁kwargs	-1948
▁nested	-1949
▁policy	-1950
ceptions	-1951
irectory	-1952
▁UNKNOWN	-1953
▁charset	-1954
▁private	-1955
namespace	-1956
▁HTTPAUTH	-1957
▁fallback	-1958
▁instance	-1959
▁redirect	-1960
Al	-1961
EP	-1962
Lo	-1963
OT	-1964
Ra	-1965
be	-1966
rg	-1967
sa	-1968
tb	-1969
BIG	-1970
BUF	-1971
CER	-1972
FIR	-1973
ISS	-1974
MSG	-1975
NEW	-1976
TOO	-1977
UMP	-1978
UNT	-1979
aml	-1980
rel	-1981
uce	-1982
▁AC	-1983
▁PO	-1984
▁ab	-1985
▁he	-1986
CATE	-1987
ITER	-1988
MANY	-1989
NORM	-1990
PATH	-1991
RDMA	-1992
Rais	-1993
Type	-1994
URCE	-1995
ange	-1996
body	-1997
byte	-1998
cket	-1999
days	-2000
imet	-2001
ites	-2002
ized	-2003
node	-2004
once	-2005
otal	-2006
pair	-2007
pass	-2008
pipe	-2009
task	-2010
ules	-2011
zero	-2012
▁SRE	-2013
▁det	-2014
▁mem	-2015
▁neg	-2016
▁typ	-2017
▁win	-2018
LARGE	-2019
OCKET	-2020
REQUI	-2021
SHORT	-2022
STATE	-2023
alias	-2024
apped	-2025
ather	-2026
etime	-2027
imple	-2028
input	-2029
known	-2030
opert	-2031
piece	-2032
▁PIPE	-2033
▁dist	-2034
▁post	-2035
▁rand	-2036
▁rest	-2037
▁wsgi	-2038
FORMAT	-2039
Raises	-2040
atform	-2041
dition	-2042
istory	-2043
versed	-2044
▁ABMON	-2045
▁build	-2046
▁chunk	-2047
▁event	-2048
▁final	-2049
▁resol	-2050
▁retry	-2051
CLICKED	-2052
CONNECT	-2053
actions	-2054
getattr	-2055
▁FILTER	-2056
▁action	-2057
▁client	-2058
▁ensure	-2059
▁escape	-2060
▁gather	-2061
▁loader	-2062
▁parser	-2063
BOUNDARY	-2064
TIFICATE	-2065
fference	-2066
getslice	-2067
hostname	-2068
itespace	-2069
▁disable	-2070
▁display	-2071
▁PROTOCOL	-2072
▁Repeated	-2073
▁argument	-2074
▁function	-2075
exceptions	-2076
▁attributes	-2077
38	-2078
AX	-2079
CL	-2080
FF	-2081
GG	-2082
LK	-2083
Le	-2084
PK	-2085
St	-2086
WD	-2087
_2	-2088
aw	-2089
ci	-2090
▁J	-2091
512	-2092
AVE	-2093
DNT	-2094
DUP	-2095
IED	-2096
IMP	-2097
MER	-2098
Not	-2099
OFF	-2100
OTE	-2101
PED	-2102
REP	-2103
TUR	-2104
alk	-2105
ave	-2106
clo	-2107
cmp	-2108
ctx	-2109
ded	-2110
des	-2111
dev	-2112
eak	-2113
exc	-2114
ibu	-2115
ous	-2116
own	-2117
raw	-2118
ted	-2119
umn	-2120
vid	-2121
▁BA	-2122
▁DN	-2123
▁ER	-2124
▁KH	-2125
▁PY	-2126
▁ca	-2127
▁ct	-2128
▁fn	-2129
▁fs	-2130
CEPT	-2131
COND	-2132
COUL	-2133
DONT	-2134
ENCE	-2135
ERIC	-2136
ITEM	-2137
JECT	-2138
LAVE	-2139
LOAD	-2140
MASK	-2141
NULL	-2142
OPEN	-2143
PEND	-2144
REAM	-2145
STER	-2146
TIVE	-2147
TURN	-2148
USED	-2149
aces	-2150
ason	-2151
ateg	-2152
avar	-2153
decl	-2154
dump	-2155
fill	-2156
hint	-2157
icon	-2158
lazy	-2159
rant	-2160
vari	-2161
work	-2162
wrap	-2163
xies	-2164
year	-2165
▁MAP	-2166
▁STR	-2167
▁day	-2168
▁uri	-2169
FIRST	-2170
FLUSH	-2171
actor	-2172
compl	-2173
ffect	-2174
iltin	-2175
istry	-2176
paths	-2177
short	-2178
trans	-2179
▁SECT	-2180
▁eval	-2181
▁exit	-2182
▁oper	-2183
▁pres	-2184
▁prod	-2185
▁salt	-2186
▁yaml	-2187
▁year	-2188
DENIED	-2189
PPTYPE	-2190
cookie	-2191
groups	-2192
indent	-2193
locals	-2194
plicit	-2195
serial	-2196
socket	-2197
status	-2198
▁LOCAL	-2199
▁Parse	-2200
▁flags	-2201
▁float	-2202
▁ident	-2203
▁recur	-2204
▁sched	-2205
▁short	-2206
▁spawn	-2207
COULDNT	-2208
andlers	-2209
connect	-2210
domains	-2211
history	-2212
istribu	-2213
▁DEFINE	-2214
▁STRING	-2215
▁UPDATE	-2216
▁global	-2217
▁lstrip	-2218
▁report	-2219
▁search	-2220
▁thread	-2221
OPERATOR	-2222
REQUIRED	-2223
iterable	-2224
iterator	-2225
▁backend	-2226
▁compare	-2227
▁element	-2228
▁callable	-2229
▁dispatch	-2230
▁location	-2231
CONNECTION	-2232
descriptor	-2233
▁translate	-2234
▁extensions	-2235
10	-2236
16	-2237
IR	-2238
MB	-2239
RM	-2240
To	-2241
WR	-2242
_4	-2243
ax	-2244
ne	-2245
ph	-2246
▁Y	-2247
▁u	-2248
384	-2249
ALI	-2250
API	-2251
ARK	-2252
DED	-2253
Dec	-2254
FLO	-2255
ILL	-2256
INS	-2257
IRE	-2258
LEG	-2259
PKT	-2260
PUT	-2261
REG	-2262
TEN	-2263
UTF	-2264
ake	-2265
any	-2266
ark	-2267
cim	-2268
dow	-2269
ech	-2270
etr	-2271
hex	-2272
mem	-2273
ner	-2274
ply	-2275
pow	-2276
rev	-2277
roz	-2278
wap	-2279
▁EN	-2280
▁IG	-2281
▁PA	-2282
▁ad	-2283
▁bl	-2284
▁cr	-2285
▁my	-2286
ABEL	-2287
AUTO	-2288
BYTE	-2289
CHED	-2290
CURS	-2291
Decl	-2292
FROM	-2293
SOCK	-2294
TLSv	-2295
UINT	-2296
VICE	-2297
VIEW	-2298
angu	-2299
ceiv	-2300
cord	-2301
ency	-2302
expr	-2303
fold	-2304
iler	-2305
mote	-2306
ound	-2307
peat	-2308
quot	-2309
radd	-2310
rsub	-2311
rule	-2312
suer	-2313
verr	-2314
▁ALG	-2315
▁BAD	-2316
▁BOM	-2317
▁CRE	-2318
▁DUP	-2319
▁ECH	-2320
▁FOO	-2321
▁GEN	-2322
▁Int	-2323
▁SHA	-2324
▁SUB	-2325
▁bas	-2326
▁beg	-2327
▁der	-2328
▁hex	-2329
▁nan	-2330
▁rfc	-2331
▁row	-2332
▁sum	-2333
▁val	-2334
COUNT	-2335
CTYPE	-2336
TYPES	-2337
Tests	-2338
USAGE	-2339
abase	-2340
annel	-2341
array	-2342
cimal	-2343
crypt	-2344
endar	-2345
ingle	-2346
integ	-2347
mlink	-2348
rozen	-2349
tuple	-2350
▁LONG	-2351
▁main	-2352
▁mark	-2353
▁orig	-2354
▁pipe	-2355
DELETE	-2356
DITION	-2357
DOUBLE	-2358
SOCKET	-2359
VALUES	-2360
accept	-2361
aclass	-2362
multip	-2363
offset	-2364
parser	-2365
reduce	-2366
▁COLOR	-2367
▁EPOLL	-2368
▁capit	-2369
▁compl	-2370
▁flush	-2371
▁force	-2372
▁limit	-2373
▁overl	-2374
▁patch	-2375
▁popen	-2376
▁reset	-2377
▁small	-2378
▁table	-2379
CONTENT	-2380
Process	-2381
ategory	-2382
crement	-2383
imetype	-2384
initial	-2385
library	-2386
pattern	-2387
reshold	-2388
running	-2389
strings	-2390
▁Domain	-2391
▁locals	-2392
▁script	-2393
▁writer	-2394
PROTOCOL	-2395
floordiv	-2396
interval	-2397
reversed	-2398
▁CPPTYPE	-2399
▁FOREIGN	-2400
▁allowed	-2401
▁exclude	-2402
▁expires	-2403
▁globals	-2404
▁newline	-2405
▁numbers	-2406
▁unquote	-2407
timestamp	-2408
▁readline	-2409
▁validate	-2410
ATTRIBUTES	-2411
▁traceback	-2412
CERTIFICATE	-2413
DeclHandler	-2414
11	-2415
23	-2416
29	-2417
GO	-2418
IZ	-2419
OB	-2420
SR	-2421
TX	-2422
UD	-2423
_0	-2424
pt	-2425
ARD	-2426
CLU	-2427
EOF	-2428
FOO	-2429
IFY	-2430
ILD	-2431
IRD	-2432
PER	-2433
PLE	-2434
ROU	-2435
RUN	-2436
SEQ	-2437
buf	-2438
cii	-2439
fer	-2440
ian	-2441
ibe	-2442
ill	-2443
led	-2444
les	-2445
lib	-2446
loc	-2447
scr	-2448
std	-2449
▁Ex	-2450
▁IO	-2451
▁RO	-2452
▁SI	-2453
▁iz	-2454
▁ob	-2455
▁ur	-2456
CONN	-2457
CONT	-2458
FULL	-2459
LAST	-2460
LOOP	-2461
MAND	-2462
NECT	-2463
Pipe	-2464
SSLv	-2465
STRI	-2466
TERN	-2467
amic	-2468
ates	-2469
chor	-2470
diff	-2471
done	-2472
gram	-2473
iadd	-2474
imul	-2475
rdiv	-2476
root	-2477
tabs	-2478
tach	-2479
▁ALL	-2480
▁CRL	-2481
▁OPT	-2482
▁PRE	-2483
▁STD	-2484
▁TLS	-2485
▁VAR	-2486
▁cip	-2487
▁cmp	-2488
▁cwd	-2489
▁fmt	-2490
▁inf	-2491
▁len	-2492
▁pen	-2493
▁per	-2494
▁ter	-2495
BLOCK	-2496
CACHE	-2497
DELAY	-2498
IABLE	-2499
ORITY	-2500
READY	-2501
TRANS	-2502
ainer	-2503
curve	-2504
flict	-2505
ision	-2506
lease	-2507
mixed	-2508
ollow	-2509
verse	-2510
vider	-2511
▁ATTR	-2512
▁ENOT	-2513
▁POST	-2514
▁SEEK	-2515
▁byte	-2516
▁cons	-2517
▁expr	-2518
▁getp	-2519
▁html	-2520
▁icon	-2521
▁izip	-2522
▁keep	-2523
▁long	-2524
▁look	-2525
▁norm	-2526
▁poll	-2527
▁same	-2528
▁star	-2529
▁vari	-2530
▁walk	-2531
▁word	-2532
CATION	-2533
CURSOR	-2534
ITERAL	-2535
NUMBER	-2536
PREFIX	-2537
SERVED	-2538
SYSTEM	-2539
filter	-2540
onical	-2541
parent	-2542
ynamic	-2543
▁Field	-2544
▁ROUND	-2545
▁apply	-2546
▁begin	-2547
▁break	-2548
▁color	-2549
▁frame	-2550
▁label	-2551
▁total	-2552
▁tuple	-2553
COMMENT	-2554
Encoder	-2555
INVALID	-2556
Message	-2557
Options	-2558
archive	-2559
manager	-2560
methods	-2561
missing	-2562
require	-2563
section	-2564
warning	-2565
weekday	-2566
▁CREATE	-2567
▁METHOD	-2568
▁before	-2569
▁cancel	-2570
▁finish	-2571
▁insert	-2572
▁kwonly	-2573
▁remote	-2574
▁rstrip	-2575
▁scheme	-2576
argument	-2577
calendar	-2578
callable	-2579
children	-2580
instance	-2581
▁CONNECT	-2582
▁INVALID	-2583
▁factory	-2584
▁mapping	-2585
▁payload	-2586
▁preserv	-2587
▁reverse	-2588
MULTICAST	-2589
signature	-2590
streaming	-2591
▁UNSIGNED	-2592
▁category	-2593
▁required	-2594
▁sequence	-2595
▁assertRaises	-2596
FT	-2597
IX	-2598
LL	-2599
XT	-2600
bl	-2601
dh	-2602
dr	-2603
kg	-2604
nd	-2605
Arg	-2606
BAR	-2607
COR	-2608
CRL	-2609
FMT	-2610
HOP	-2611
LCK	-2612
LEA	-2613
Log	-2614
MTP	-2615
PUB	-2616
SUB	-2617
SUS	-2618
UNK	-2619
Unl	-2620
VEL	-2621
bin	-2622
fmt	-2623
ich	-2624
ipt	-2625
lop	-2626
non	-2627
pop	-2628
req	-2629
uch	-2630
▁EL	-2631
▁SF	-2632
▁TE	-2633
▁XA	-2634
▁dr	-2635
▁gr	-2636
▁if	-2637
0000	-2638
ANCE	-2639
ARGU	-2640
CALE	-2641
CALL	-2642
CERT	-2643
CTED	-2644
Dict	-2645
FUNC	-2646
HTML	-2647
KEEP	-2648
LONG	-2649
MPTY	-2650
OKIE	-2651
OPTS	-2652
OVER	-2653
POST	-2654
TFTP	-2655
VAIL	-2656
ater	-2657
ends	-2658
erge	-2659
flow	-2660
ings	-2661
ists	-2662
ount	-2663
rand	-2664
tags	-2665
unix	-2666
▁BAR	-2667
▁DAY	-2668
▁NUM	-2669
▁WIF	-2670
▁abs	-2671
▁act	-2672
▁css	-2673
▁ctx	-2674
▁mic	-2675
DIGIT	-2676
FLAGS	-2677
FLOAT	-2678
Named	-2679
PARAM	-2680
Plist	-2681
REFER	-2682
ROUTE	-2683
Regex	-2684
SPEED	-2685
STAMP	-2686
WRONG	-2687
ached	-2688
acity	-2689
allow	-2690
annot	-2691
close	-2692
email	-2693
etric	-2694
extra	-2695
funcs	-2696
iptic	-2697
okies	-2698
orage	-2699
parts	-2700
proxy	-2701
slash	-2702
title	-2703
▁COMP	-2704
▁Conn	-2705
▁From	-2706
▁POSI	-2707
▁READ	-2708
▁best	-2709
▁coun	-2710
▁curs	-2711
▁gets	-2712
▁json	-2713
▁prog	-2714
▁scan	-2715
▁seek	-2716
▁step	-2717
▁swap	-2718
▁tear	-2719
CHANGE	-2720
HEADER	-2721
NORMAL	-2722
PACKET	-2723
REPEAT	-2724
Unless	-2725
binary	-2726
blocks	-2727
ceived	-2728
digits	-2729
member	-2730
operty	-2731
outine	-2732
scheme	-2733
tokens	-2734
▁Error	-2735
▁MULTI	-2736
▁QUERY	-2737
▁START	-2738
▁chars	-2739
▁clone	-2740
▁entry	-2741
▁ljust	-2742
▁optim	-2743
▁proto	-2744
▁queue	-2745
▁rjust	-2746
▁zfill	-2747
ACTIONS	-2748
ALLOWED	-2749
ALREADY	-2750
Cleanup	-2751
PROCESS	-2752
UNICODE	-2753
builtin	-2754
encoder	-2755
generic	-2756
objects	-2757
parator	-2758
▁BINARY	-2759
▁FORMAT	-2760
▁STREAM	-2761
▁String	-2762
▁center	-2763
▁issuer	-2764
▁length	-2765
▁reader	-2766
▁region	-2767
▁secret	-2768
ARGUMENT	-2769
elliptic	-2770
protocol	-2771
services	-2772
▁CONTENT	-2773
▁TIOCPKT	-2774
▁TIOCSER	-2775
▁feature	-2776
▁methods	-2777
▁product	-2778
▁resolve	-2779
▁service	-2780
▁subject	-2781
▁unicode	-2782
▁unknown	-2783
LINEBREAK	-2784
TestsFrom	-2785
specified	-2786
▁children	-2787
▁fromfile	-2788
▁keywords	-2789
▁mimetype	-2790
▁preserve	-2791
▁swapcase	-2792
difference	-2793
▁assertNot	-2794
▁condition	-2795
▁readlines	-2796
▁recursive	-2797
▁timestamp	-2798
▁GetOptions	-2799
▁SSLVERSION	-2800
▁annotation	-2801
▁capitalize	-2802
▁expandtabs	-2803
▁loadTestsFrom	-2804
▁optionalgroup	-2805
15	-2806
18	-2807
3_	-2808
CF	-2809
CS	-2810
FL	-2811
RK	-2812
Re	-2813
Up	-2814
df	-2815
eq	-2816
fs	-2817
hi	-2818
io	-2819
ta	-2820
ACK	-2821
ASH	-2822
BAZ	-2823
CRY	-2824
DIS	-2825
ERO	-2826
GHT	-2827
HER	-2828
MIS	-2829
OTH	-2830
Que	-2831
REE	-2832
SUF	-2833
Str	-2834
TAL	-2835
TIL	-2836
TLD	-2837
WIN	-2838
XML	-2839
_30	-2840
aem	-2841
amb	-2842
ank	-2843
den	-2844
eof	-2845
iff	-2846
ily	-2847
lem	-2848
mag	-2849
ome	-2850
ook	-2851
pid	-2852
rol	-2853
sep	-2854
ses	-2855
sib	-2856
sum	-2857
xed	-2858
▁DO	-2859
▁ES	-2860
▁In	-2861
▁LC	-2862
▁LE	-2863
▁NI	-2864
▁Py	-2865
▁UF	-2866
▁ag	-2867
▁bg	-2868
▁el	-2869
▁gu	-2870
▁pa	-2871
▁pw	-2872
▁sc	-2873
▁sq	-2874
▁tc	-2875
BAND	-2876
CAPE	-2877
GING	-2878
HITE	-2879
LACE	-2880
LICY	-2881
List	-2882
MARK	-2883
NEED	-2884
NTAX	-2885
OLVE	-2886
PROC	-2887
REMO	-2888
RTSP	-2889
SEND	-2890
SHIF	-2891
SING	-2892
SUCH	-2893
TEXT	-2894
TIAL	-2895
abil	-2896
ally	-2897
aque	-2898
clus	-2899
come	-2900
conf	-2901
edir	-2902
face	-2903
inel	-2904
last	-2905
nets	-2906
oked	-2907
prec	-2908
rans	-2909
resp	-2910
wner	-2911
▁GET	-2912
▁Not	-2913
▁PRI	-2914
▁RSA	-2915
▁SPE	-2916
▁Set	-2917
▁TRG	-2918
▁USE	-2919
▁ast	-2920
▁cho	-2921
▁clo	-2922
▁div	-2923
▁gen	-2924
▁mac	-2925
▁mak	-2926
▁non	-2927
▁pub	-2928
▁rev	-2929
▁utf	-2930
AVAIL	-2931
DEBUG	-2932
GRANT	-2933
LEVEL	-2934
Level	-2935
Names	-2936
Queue	-2937
RIGHT	-2938
SSAPI	-2939
acing	-2940
aemon	-2941
alive	-2942
avail	-2943
certs	-2944
ctime	-2945
debug	-2946
defin	-2947
ffers	-2948
herit	-2949
ident	-2950
inder	-2951
ities	-2952
mtime	-2953
olute	-2954
orary	-2955
paces	-2956
pilog	-2957
recur	-2958
unver	-2959
▁FORM	-2960
▁NAME	-2961
▁RTLD	-2962
▁USER	-2963
▁atom	-2964
▁bool	-2965
▁decl	-2966
▁dirs	-2967
▁done	-2968
▁feed	-2969
▁kind	-2970
▁left	-2971
▁mail	-2972
▁null	-2973
▁pred	-2974
▁quit	-2975
▁quot	-2976
▁vars	-2977
▁week	-2978
ACCEPT	-2979
CANCEL	-2980
DIGITS	-2981
IMPORT	-2982
ISSING	-2983
MEMORY	-2984
Number	-2985
Result	-2986
SERVER	-2987
cancel	-2988
digest	-2989
etrans	-2990
frozen	-2991
ialect	-2992
imiter	-2993
iteral	-2994
locale	-2995
result	-2996
return	-2997
scribe	-2998
signal	-2999
stract	-3000
system	-3001
▁ABDAY	-3002
▁FIELD	-3003
▁Fixed	-3004
▁GROUP	-3005
▁RANGE	-3006
▁SCHED	-3007
▁SLAVE	-3008
▁alias	-3009
▁delay	-3010
▁empty	-3011
▁https	-3012
▁known	-3013
▁loads	-3014
▁owner	-3015
▁right	-3016
▁rpart	-3017
▁times	-3018
CEPTION	-3019
CLOEXEC	-3020
REQUEST	-3021
Version	-3022
channel	-3023
closure	-3024
clusive	-3025
comment	-3026
decimal	-3027
entinel	-3028
lenames	-3029
mapping	-3030
mmetric	-3031
mutable	-3032
session	-3033
uration	-3034
variate	-3035
▁Create	-3036
▁HEADER	-3037
▁IGNORE	-3038
▁INADDR	-3039
▁PACKET	-3040
▁SPARSE	-3041
▁binary	-3042
▁bucket	-3043
▁double	-3044
▁extras	-3045
▁future	-3046
▁lookup	-3047
▁member	-3048
▁micros	-3049
▁multip	-3050
▁reason	-3051
▁record	-3052
▁rsplit	-3053
▁simple	-3054
▁single	-3055
▁symbol	-3056
▁tokens	-3057
▁window	-3058
COMPRESS	-3059
MISMATCH	-3060
PRIORITY	-3061
boundary	-3062
compress	-3063
cryption	-3064
distribu	-3065
matching	-3066
sequence	-3067
standard	-3068
▁Process	-3069
▁filters	-3070
▁install	-3071
▁keyfile	-3072
▁library	-3073
▁proxies	-3074
CONDITION	-3075
NamedPipe	-3076
REFERENCE	-3077
directory	-3078
▁INFOTYPE	-3079
▁complete	-3080
▁cssclass	-3081
▁database	-3082
▁getstate	-3083
▁negative	-3084
▁platform	-3085
▁reserved	-3086
▁username	-3087
▁PROXYTYPE	-3088
▁canonical	-3089
▁partition	-3090
▁predicate	-3091
▁selection	-3092
▁signature	-3093
description	-3094
▁executable	-3095
▁rpartition	-3096
13	-3097
14	-3098
19	-3099
65	-3100
BL	-3101
DN	-3102
FY	-3103
Is	-3104
PN	-3105
PR	-3106
PY	-3107
RC	-3108
RX	-3109
SW	-3110
UC	-3111
Un	-3112
WE	-3113
_8	-3114
ey	-3115
fn	-3116
he	-3117
lt	-3118
oc	-3119
pn	-3120
wk	-3121
224	-3122
Alm	-3123
CAP	-3124
DER	-3125
DOM	-3126
DSA	-3127
DUR	-3128
ELP	-3129
ENG	-3130
EXT	-3131
GIC	-3132
GRP	-3133
MAL	-3134
Mod	-3135
PEM	-3136
RAN	-3137
SCO	-3138
TRC	-3139
UED	-3140
UNC	-3141
aph	-3142
arn	-3143
bas	-3144
crl	-3145
dsa	-3146
ean	-3147
eer	-3148
ern	-3149
gan	-3150
hlo	-3151
hop	-3152
inf	-3153
jor	-3154
oid	-3155
ors	-3156
pem	-3157
pth	-3158
ton	-3159
ugh	-3160
zip	-3161
▁DI	-3162
▁EC	-3163
▁FI	-3164
▁MF	-3165
▁RC	-3166
▁TA	-3167
▁Un	-3168
▁ar	-3169
▁cp	-3170
▁dw	-3171
▁er	-3172
▁nl	-3173
▁or	-3174
▁sl	-3175
2965	-3176
CMSG	-3177
Case	-3178
Cont	-3179
DUMP	-3180
FADV	-3181
FAST	-3182
FIND	-3183
INIT	-3184
INTS	-3185
LATE	-3186
MORE	-3187
NEGO	-3188
SAFE	-3189
SHED	-3190
SINT	-3191
SIVE	-3192
SUME	-3193
VALL	-3194
ains	-3195
ampl	-3196
aren	-3197
arge	-3198
frag	-3199
fter	-3200
full	-3201
html	-3202
ible	-3203
iled	-3204
ines	-3205
ixor	-3206
json	-3207
left	-3208
nder	-3209
ntax	-3210
odes	-3211
oper	-3212
opts	-3213
pose	-3214
pres	-3215
rase	-3216
send	-3217
term	-3218
ucer	-3219
unct	-3220
utor	-3221
ward	-3222
▁ANY	-3223
▁AUT	-3224
▁FOR	-3225
▁HAS	-3226
▁INT	-3227
▁OLD	-3228
▁PUT	-3229
▁Reg	-3230
▁TAB	-3231
▁baz	-3232
▁bot	-3233
▁cal	-3234
▁cre	-3235
▁dot	-3236
▁eof	-3237
▁lib	-3238
▁mis	-3239
▁php	-3240
▁rel	-3241
▁sup	-3242
▁tab	-3243
▁tra	-3244
▁utc	-3245
ACITY	-3246
BYTES	-3247
EQUAL	-3248
FIXES	-3249
Fixed	-3250
LEGAL	-3251
QUERY	-3252
RECUR	-3253
Sizer	-3254
after	-3255
align	-3256
angle	-3257
build	-3258
chunk	-3259
clear	-3260
creen	-3261
grant	-3262
label	-3263
onent	-3264
ospec	-3265
pairs	-3266
plain	-3267
right	-3268
tasks	-3269
tings	-3270
ulate	-3271
uting	-3272
▁BLOB	-3273
▁CHAR	-3274
▁CURL	-3275
▁DATE	-3276
▁EBAD	-3277
▁NULL	-3278
▁OPEN	-3279
▁SECP	-3280
▁WIRE	-3281
▁XAER	-3282
▁addr	-3283
▁argv	-3284
▁bind	-3285
▁days	-3286
▁ehlo	-3287
▁entr	-3288
▁hide	-3289
▁hook	-3290
▁imap	-3291
▁loop	-3292
▁memo	-3293
▁mock	-3294
▁move	-3295
▁peer	-3296
▁pend	-3297
▁prev	-3298
▁repl	-3299
▁sync	-3300
▁unix	-3301
▁uses	-3302
▁weak	-3303
▁writ	-3304
Almost	-3305
BUFFER	-3306
CLOSED	-3307
ENGINE	-3308
FIELDS	-3309
GLOBAL	-3310
Method	-3311
PARSER	-3312
RESSED	-3313
SFIXED	-3314
Strict	-3315
TERNAL	-3316
THREAD	-3317
UTDOWN	-3318
amples	-3319
attach	-3320
client	-3321
create	-3322
effect	-3323
embers	-3324
entity	-3325
folder	-3326
invert	-3327
python	-3328
script	-3329
suffix	-3330
symbol	-3331
ternal	-3332
urrent	-3333
utures	-3334
▁FIRST	-3335
▁LABEL	-3336
▁NETRC	-3337
▁POSIX	-3338
▁TCSET	-3339
▁TIOCG	-3340
▁bound	-3341
▁enter	-3342
▁guess	-3343
▁langu	-3344
▁large	-3345
▁login	-3346
▁mtime	-3347
▁phase	-3348
▁range	-3349
▁round	-3350
▁store	-3351
▁tests	-3352
▁unreg	-3353
▁usage	-3354
▁verbo	-3355
▁width	-3356
CHARSET	-3357
RESOLVE	-3358
SUPPORT	-3359
current	-3360
grammar	-3361
ifiable	-3362
integer	-3363
lements	-3364
metavar	-3365
modules	-3366
present	-3367
replace	-3368
seconds	-3369
slashes	-3370
symlink	-3371
upports	-3372
verride	-3373
▁DELETE	-3374
▁ESCAPE	-3375
▁NUMBER	-3376
▁REPORT	-3377
▁RETURN	-3378
▁anchor	-3379
▁column	-3380
▁cursor	-3381
▁deprec	-3382
▁derive	-3383
▁detach	-3384
▁export	-3385
▁follow	-3386
▁groups	-3387
▁lineno	-3388
▁locale	-3389
▁logger	-3390
▁render	-3391
▁static	-3392
PASSWORD	-3393
VARIABLE	-3394
dispatch	-3395
emporary	-3396
erialize	-3397
generate	-3398
negative	-3399
packages	-3400
password	-3401
pendency	-3402
prefixes	-3403
priority	-3404
received	-3405
repeated	-3406
rtruediv	-3407
▁REQUEST	-3408
▁dynamic	-3409
▁fileobj	-3410
▁getsock	-3411
▁parents	-3412
▁weekday	-3413
BEGINNING	-3414
STATEMENT	-3415
functions	-3416
generator	-3417
multipart	-3418
redirects	-3419
validator	-3420
▁GROUPREF	-3421
▁REDIRECT	-3422
▁WIRETYPE	-3423
▁boundary	-3424
▁certfile	-3425
▁fetchall	-3426
▁finalize	-3427
▁foogroup	-3428
▁hostname	-3429
▁newlines	-3430
▁original	-3431
▁property	-3432
▁recvfrom	-3433
▁standard	-3434
▁supports	-3435
▁testlist	-3436
▁tostring	-3437
▁variable	-3438
ganization	-3439
whitespace	-3440
▁directory	-3441
▁generator	-3442
▁increment	-3443
▁iteritems	-3444
▁parameter	-3445
▁validator	-3446
▁algorithms	-3447
▁deprecated	-3448
▁failUnless	-3449
▁kwonlyargs	-3450
▁parameters	-3451
▁setdefault	-3452
▁splitlines	-3453
▁unregister	-3454
emporaryFile	-3455
▁DomainStrict	-3456
17	-3457
24	-3458
28	-3459
31	-3460
57	-3461
8_	-3462
ET	-3463
FC	-3464
II	-3465
If	-3466
MD	-3467
MI	-3468
OS	-3469
RB	-3470
SF	-3471
VO	-3472
_5	-3473
_7	-3474
gn	-3475
hq	-3476
ia	-3477
pb	-3478
sm	-3479
sv	-3480
tz	-3481
200	-3482
600	-3483
ACT	-3484
AIN	-3485
ASE	-3486
CED	-3487
Con	-3488
DEP	-3489
DEV	-3490
EAR	-3491
ERI	-3492
ERS	-3493
Fil	-3494
GER	-3495
GRA	-3496
Key	-3497
LEX	-3498
NAM	-3499
NTL	-3500
OFT	-3501
PCM	-3502
RAG	-3503
Rec	-3504
Run	-3505
Suc	-3506
TCP	-3507
TLE	-3508
UER	-3509
USR	-3510
UTC	-3511
WAY	-3512
_32	-3513
abb	-3514
abc	-3515
acl	-3516
anc	-3517
aps	-3518
box	-3519
cat	-3520
cpt	-3521
enc	-3522
grp	-3523
hqx	-3524
hyp	-3525
ics	-3526
igu	-3527
ipv	-3528
jug	-3529
lap	-3530
lex	-3531
nam	-3532
nan	-3533
oct	-3534
ole	-3535
ony	-3536
ops	-3537
oun	-3538
ped	-3539
rfc	-3540
seg	-3541
seu	-3542
slo	-3543
tle	-3544
tom	-3545
top	-3546
trl	-3547
ual	-3548
unn	-3549
war	-3550
wit	-3551
zon	-3552
▁AP	-3553
▁DB	-3554
▁ON	-3555
▁PK	-3556
▁St	-3557
▁VT	-3558
▁Wr	-3559
▁am	-3560
▁cc	-3561
▁db	-3562
▁es	-3563
▁gi	-3564
▁po	-3565
▁si	-3566
ARGS	-3567
ATAL	-3568
ATTR	-3569
CIFI	-3570
Call	-3571
DIST	-3572
DOES	-3573
DOUT	-3574
Down	-3575
FLOW	-3576
FREE	-3577
Fail	-3578
HAVE	-3579
INAL	-3580
ISON	-3581
IZED	-3582
KILL	-3583
LASH	-3584
LDAP	-3585
LEAN	-3586
MARY	-3587
MEDI	-3588
ONSE	-3589
PAGE	-3590
PEER	-3591
POOL	-3592
QUIT	-3593
RESH	-3594
RTMP	-3595
SCHE	-3596
SCII	-3597
SEQU	-3598
SESS	-3599
UPLE	-3600
acem	-3601
ader	-3602
amer	-3603
apho	-3604
arsh	-3605
asst	-3606
atio	-3607
bits	-3608
card	-3609
comm	-3610
enge	-3611
eval	-3612
free	-3613
hand	-3614
hmac	-3615
iand	-3616
inue	-3617
isub	-3618
join	-3619
kwds	-3620
lags	-3621
leep	-3622
ling	-3623
many	-3624
mous	-3625
norm	-3626
plus	-3627
pool	-3628
refs	-3629
rpow	-3630
self	-3631
shot	-3632
sion	-3633
step	-3634
ster	-3635
tree	-3636
ture	-3637
ular	-3638
used	-3639
vide	-3640
weak	-3641
zone	-3642
▁BAZ	-3643
▁COR	-3644
▁NEG	-3645
▁OUT	-3646
▁Pro	-3647
▁Res	-3648
▁SUP	-3649
▁SYM	-3650
▁YES	-3651
▁alt	-3652
▁any	-3653
▁ask	-3654
▁des	-3655
▁dev	-3656
▁isp	-3657
▁med	-3658
▁mut	-3659
▁now	-3660
▁opt	-3661
▁rad	-3662
▁req	-3663
▁rot	-3664
▁rsa	-3665
▁sig	-3666
▁sql	-3667
▁sys	-3668
▁xml	-3669
ALIZE	-3670
ALTER	-3671
ASYNC	-3672
ATURE	-3673
CHUNK	-3674
CLOSE	-3675
CLUDE	-3676
CODES	-3677
CRYPT	-3678
DEFIN	-3679
EXTEN	-3680
HANDL	-3681
LETED	-3682
OTHER	-3683
PROXY	-3684
QUOTE	-3685
RANGE	-3686
RESET	-3687
SHIFT	-3688
TICAL	-3689
TIMER	-3690
TRIGG	-3691
UNTIL	-3692
WEIRD	-3693
WHITE	-3694
ading	-3695
agent	-3696
amily	-3697
argin	-3698
await	-3699
blank	-3700
ccess	-3701
chang	-3702
cname	-3703
codes	-3704
const	-3705
dates	-3706
entic	-3707
ickle	-3708
ights	-3709
lapse	-3710
lopen	-3711
multi	-3712
ntity	-3713
plist	-3714
press	-3715
regex	-3716
retry	-3717
round	-3718
shake	-3719
shell	-3720
store	-3721
tries	-3722
turns	-3723
until	-3724
ystem	-3725
zones	-3726
▁ECHO	-3727
▁ELIB	-3728
▁LINE	-3729
▁PASS	-3730
▁RAND	-3731
▁SCAN	-3732
▁TEST	-3733
▁ZLIB	-3734
▁blue	-3735
▁case	-3736
▁elem	-3737
▁etag	-3738
▁fork	-3739
▁home	-3740
▁hour	-3741
▁lazy	-3742
▁mask	-3743
▁prec	-3744
▁rcpt	-3745
▁samp	-3746
▁save	-3747
▁scal	-3748
▁seed	-3749
▁term	-3750
▁warn	-3751
APPEND	-3752
BINARY	-3753
BINLOG	-3754
DURING	-3755
ENABLE	-3756
Handle	-3757
INSERT	-3758
LOCALE	-3759
Module	-3760
NEGOTI	-3761
NOWAIT	-3762
PUBLIC	-3763
Record	-3764
Regexp	-3765
SCHEMA	-3766
SECOND	-3767
SOURCE	-3768
SPONSE	-3769
TEQUAL	-3770
UPLOAD	-3771
adding	-3772
aphore	-3773
breaks	-3774
connec	-3775
consum	-3776
divmod	-3777
elcome	-3778
enable	-3779
factor	-3780
getnew	-3781
global	-3782
iguous	-3783
istent	-3784
jugate	-3785
marize	-3786
memory	-3787
oolean	-3788
policy	-3789
ponses	-3790
quoted	-3791
reader	-3792
second	-3793
stderr	-3794
uation	-3795
writer	-3796
▁ABORT	-3797
▁ECDSA	-3798
▁EMPTY	-3799
▁QUOTE	-3800
▁REDIR	-3801
▁SHORT	-3802
▁Start	-3803
▁WRITE	-3804
▁abort	-3805
▁align	-3806
▁ascii	-3807
▁async	-3808
▁bases	-3809
▁delet	-3810
▁depth	-3811
▁dumps	-3812
▁fixed	-3813
▁grant	-3814
▁klass	-3815
▁nonce	-3816
▁realm	-3817
▁setup	-3818
▁union	-3819
▁which	-3820
▁yield	-3821
ABORTED	-3822
CHARACT	-3823
COMMAND	-3824
ERATION	-3825
Element	-3826
IGNORED	-3827
LITERAL	-3828
LOGGING	-3829
NUMERIC	-3830
OPTIONS	-3831
REPLACE	-3832
RUNNING	-3833
SERVICE	-3834
SESSION	-3835
Success	-3836
allenge	-3837
convert	-3838
essages	-3839
expires	-3840
ithread	-3841
minator	-3842
onymous	-3843
revoked	-3844
storage	-3845
▁ACCESS	-3846
▁CANCEL	-3847
▁COOKIE	-3848
▁DOUBLE	-3849
▁Double	-3850
▁MASTER	-3851
▁RCVALL	-3852
▁REPEAT	-3853
▁VERIFY	-3854
▁access	-3855
▁applic	-3856
▁cipher	-3857
▁combin	-3858
▁compat	-3859
▁config	-3860
▁daemon	-3861
▁epilog	-3862
▁extend	-3863
▁intern	-3864
▁inters	-3865
▁marker	-3866
▁master	-3867
▁median	-3868
▁notify	-3869
▁offset	-3870
▁passwd	-3871
▁random	-3872
▁rename	-3873
▁repeat	-3874
▁secure	-3875
▁syntax	-3876
▁system	-3877
▁tofile	-3878
▁tzinfo	-3879
CAPACITY	-3880
DOWNLOAD	-3881
FILESIZE	-3882
FileName	-3883
LOOPBACK	-3884
OPTIONAL	-3885
RESERVED	-3886
SHUTDOWN	-3887
SUFFIXES	-3888
TEMPLATE	-3889
capacity	-3890
commands	-3891
datetime	-3892
duration	-3893
emaphore	-3894
enticate	-3895
expected	-3896
handlers	-3897
metadata	-3898
platform	-3899
provider	-3900
registry	-3901
stringnl	-3902
subclass	-3903
▁FPARSER	-3904
▁MISSING	-3905
▁Message	-3906
▁capabil	-3907
▁capture	-3908
▁choices	-3909
▁console	-3910
▁country	-3911
▁heading	-3912
▁network	-3913
▁onerror	-3914
▁provide	-3915
▁release	-3916
▁routing	-3917
▁runtime	-3918
▁seconds	-3919
▁targets	-3920
▁varargs	-3921
▁verbose	-3922
▁warning	-3923
DIRECTORY	-3924
SECONDARY	-3925
addresses	-3926
available	-3927
callbacks	-3928
completer	-3929
coroutine	-3930
docstring	-3931
handshake	-3932
immutable	-3933
locations	-3934
recursive	-3935
statement	-3936
subscribe	-3937
threshold	-3938
timezones	-3939
▁assertIs	-3940
▁collapse	-3941
▁compiler	-3942
▁conflict	-3943
▁decorate	-3944
▁endpoint	-3945
▁explicit	-3946
▁fillchar	-3947
▁getvalue	-3948
▁handlers	-3949
▁interval	-3950
▁optimize	-3951
▁pathname	-3952
▁position	-3953
▁priority	-3954
▁registry	-3955
▁seekable	-3956
IMPORTANCE	-3957
annotation	-3958
executable	-3959
extensions	-3960
getnewargs	-3961
positional	-3962
▁conjugate	-3963
▁decorator	-3964
▁delimiter	-3965
▁fetchmany	-3966
▁itermonth	-3967
▁maketrans	-3968
▁normalize	-3969
▁separator	-3970
▁serialize	-3971
▁subdomain	-3972
▁summarize	-3973
▁symmetric	-3974
▁threshold	-3975
COMPRESSION	-3976
connections	-3977
nonstandard	-3978
requirement	-3979
▁itervalues	-3980
▁overlapped	-3981
▁serializer	-3982
▁whitespace	-3983
certificates	-3984
unverifiable	-3985
▁UNSUPPORTED	-3986
▁application	-3987
▁defaultTest	-3988
▁disposition	-3989
▁intersection	-3990
▁TIMECONDITION	-3991
01	-3992
85	-3993
AF	-3994
BT	-3995
DR	-3996
GB	-3997
HO	-3998
IM	-3999
MR	-4000
MU	-4001
OV	-4002
Or	-4003
Pi	-4004
Pr	-4005
RN	-4006
SN	-4007
SQ	-4008
SV	-4009
TT	-4010
Th	-4011
VC	-4012
WS	-4013
_6	-4014
dd	-4015
fe	-4016
gt	-4017
ln	-4018
qs	-4019
sc	-4020
we	-4021
1_1	-4022
1_2	-4023
AGG	-4024
ALT	-4025
ASS	-4026
BLE	-4027
BLK	-4028
BRO	-4029
CES	-4030
CQU	-4031
DEC	-4032
DNS	-4033
DOT	-4034
DOW	-4035
DST	-4036
EOL	-4037
FIG	-4038
For	-4039
Get	-4040
HIB	-4041
HUP	-4042
IES	-4043
IFI	-4044
ILE	-4045
INI	-4046
IPV	-4047
IVE	-4048
Int	-4049
LIT	-4050
REN	-4051
RTH	-4052
SIC	-4053
SUM	-4054
Std	-4055
Sub	-4056
TOP	-4057
TRG	-4058
UDP	-4059
URI	-4060
WOR	-4061
War	-4062
_10	-4063
agr	-4064
boo	-4065
ces	-4066
cip	-4067
crt	-4068
dfa	-4069
dll	-4070
dot	-4071
eed	-4072
ere	-4073
eto	-4074
gen	-4075
ges	-4076
ids	-4077
ims	-4078
ins	-4079
jar	-4080
jwk	-4081
kdf	-4082
mak	-4083
mtp	-4084
mut	-4085
oft	-4086
pan	-4087
qui	-4088
ror	-4089
rot	-4090
rsa	-4091
rss	-4092
tar	-4093
ten	-4094
tls	-4095
uth	-4096
vfs	-4097
xml	-4098
▁AN	-4099
▁BE	-4100
▁BS	-4101
▁BU	-4102
▁CS	-4103
▁DC	-4104
▁IL	-4105
▁JS	-4106
▁No	-4107
▁OK	-4108
▁PF	-4109
▁Sh	-4110
▁bb	-4111
▁cn	-4112
▁di	-4113
▁fa	-4114
▁ge	-4115
▁lr	-4116
▁md	-4117
▁ok	-4118
▁qs	-4119
▁tp	-4120
▁ts	-4121
ALSE	-4122
ARCH	-4123
BLOB	-4124
BOOL	-4125
CASE	-4126
CONV	-4127
CORE	-4128
CSEQ	-4129
Code	-4130
DATE	-4131
DEAD	-4132
DEST	-4133
DIAN	-4134
EXIT	-4135
EXPI	-4136
FORK	-4137
FORM	-4138
Func	-4139
HELP	-4140
HING	-4141
IDEN	-4142
INCE	-4143
INET	-4144
INTR	-4145
Info	-4146
KEYS	-4147
LNET	-4148
Line	-4149
MAGE	-4150
MAIL	-4151
NOTI	-4152
NTLM	-4153
PERM	-4154
PING	-4155
Pars	-4156
RACE	-4157
RAIN	-4158
REVO	-4159
ROLL	-4160
ROUT	-4161
SERV	-4162
SHOT	-4163
SIDE	-4164
SOFT	-4165
SPEC	-4166
STAR	-4167
STRA	-4168
Size	-4169
VENT	-4170
WANT	-4171
abbr	-4172
aint	-4173
alse	-4174
aram	-4175
atom	-4176
auto	-4177
bind	-4178
cast	-4179
cate	-4180
coun	-4181
dows	-4182
echo	-4183
egid	-4184
enom	-4185
ense	-4186
ersp	-4187
fifo	-4188
ging	-4189
greg	-4190
here	-4191
ides	-4192
ique	-4193
ired	-4194
junk	-4195
kall	-4196
loor	-4197
mail	-4198
make	-4199
none	-4200
oint	-4201
onom	-4202
peer	-4203
poly	-4204
rmod	-4205
roll	-4206
rows	-4207
rray	-4208
rxor	-4209
scan	-4210
site	-4211
skip	-4212
stit	-4213
tear	-4214
wait	-4215
week	-4216
writ	-4217
▁ASS	-4218
▁BTP	-4219
▁CLD	-4220
▁ERA	-4221
▁ERE	-4222
▁EXT	-4223
▁End	-4224
▁IMP	-4225
▁IOC	-4226
▁PAR	-4227
▁PEM	-4228
▁PER	-4229
▁POP	-4230
▁RUN	-4231
▁UNI	-4232
▁UTC	-4233
▁WIN	-4234
▁ZIP	-4235
▁aes	-4236
▁and	-4237
▁aws	-4238
▁bit	-4239
▁crc	-4240
▁dig	-4241
▁dup	-4242
▁fun	-4243
▁got	-4244
▁ids	-4245
▁imp	-4246
▁inv	-4247
▁lch	-4248
▁oid	-4249
▁pid	-4250
▁pin	-4251
▁qux	-4252
▁ref	-4253
▁ret	-4254
▁tmp	-4255
▁uid	-4256
▁wid	-4257
00000	-4258
2109_	-4259
ADPCM	-4260
CHARS	-4261
COLLA	-4262
Count	-4263
DELEG	-4264
Event	-4265
IDDEN	-4266
INTER	-4267
INUED	-4268
LABEL	-4269
LIENT	-4270
LOWAT	-4271
MAGIC	-4272
MENTS	-4273
MERGE	-4274
METER	-4275
MOUSE	-4276
Match	-4277
ORARY	-4278
OURCE	-4279
PARSE	-4280
POINT	-4281
PRESS	-4282
Piece	-4283
RELEA	-4284
REPLY	-4285
SCOPE	-4286
SECUR	-4287
SETLK	-4288
SLAVE	-4289
SOCKS	-4290
TOKEN	-4291
TRUNC	-4292
Warns	-4293
ables	-4294
addrs	-4295
aexit	-4296
andir	-4297
apter	-4298
arena	-4299
ascii	-4300
atime	-4301
atmul	-4302
calls	-4303
cover	-4304
digit	-4305
enssl	-4306
ernal	-4307
ersed	-4308
etags	-4309
final	-4310
hosts	-4311
hyper	-4312
idden	-4313
ifier	-4314
illis	-4315
itive	-4316
langu	-4317
ocket	-4318
outer	-4319
panel	-4320
proto	-4321
rants	-4322
ratio	-4323
relse	-4324
rough	-4325
seudo	-4326
small	-4327
stdin	-4328
tests	-4329
times	-4330
wards	-4331
▁CARD	-4332
▁CORO	-4333
▁Data	-4334
▁FAIL	-4335
▁HIRE	-4336
▁HOST	-4337
▁LAST	-4338
▁LIST	-4339
▁Lock	-4340
▁NONE	-4341
▁NORM	-4342
▁Name	-4343
▁Oper	-4344
▁PyCF	-4345
▁Read	-4346
▁SInt	-4347
▁SMTP	-4348
▁TLSv	-4349
▁Time	-4350
▁UInt	-4351
▁WAIT	-4352
▁ZERO	-4353
▁bits	-4354
▁calc	-4355
▁ciph	-4356
▁deep	-4357
▁drop	-4358
▁fdel	-4359
▁fold	-4360
▁form	-4361
▁frag	-4362
▁free	-4363
▁fset	-4364
▁imag	-4365
▁inet	-4366
▁isol	-4367
▁kill	-4368
▁more	-4369
▁pool	-4370
▁retr	-4371
▁shap	-4372
▁shut	-4373
▁side	-4374
▁sour	-4375
▁tilt	-4376
▁trim	-4377
▁used	-4378
▁utco	-4379
▁uuid	-4380
▁when	-4381
000000	-4382
ACTION	-4383
AGGREG	-4384
CONFIG	-4385
CQUANT	-4386
ENDIAN	-4387
EXITED	-4388
Entity	-4389
Equals	-4390
Format	-4391
LINEAR	-4392
LITTLE	-4393
LOCKED	-4394
MEDIUM	-4395
MEMBER	-4396
NATIVE	-4397
OBJECT	-4398
Object	-4399
PECTED	-4400
PENDED	-4401
POLICY	-4402
Prefix	-4403
RANDOM	-4404
REMOTE	-4405
Region	-4406
SIGNAL	-4407
SYNTAX	-4408
TABLES	-4409
TIONAL	-4410
TRIPLE	-4411
UNLINK	-4412
VERIFY	-4413
WINDOW	-4414
aenter	-4415
anager	-4416
atcher	-4417
atures	-4418
author	-4419
before	-4420
bucket	-4421
byname	-4422
device	-4423
finder	-4424
finish	-4425
getopt	-4426
getter	-4427
ifiers	-4428
inator	-4429
intype	-4430
lshift	-4431
onents	-4432
opaque	-4433
origin	-4434
packed	-4435
phrase	-4436
ponent	-4437
quires	-4438
reason	-4439
secret	-4440
secure	-4441
signed	-4442
static	-4443
unpack	-4444
▁BATCH	-4445
▁EXTEN	-4446
▁Merge	-4447
▁Named	-4448
▁PARSE	-4449
▁PAUSE	-4450
▁Queue	-4451
▁TAKEN	-4452
▁TRANS	-4453
▁TUPLE	-4454
▁Write	-4455
▁catch	-4456
▁cause	-4457
▁clock	-4458
▁codes	-4459
▁delta	-4460
▁email	-4461
▁execv	-4462
▁fstat	-4463
▁getin	-4464
▁hosts	-4465
▁kwarg	-4466
▁lstat	-4467
▁major	-4468
▁merge	-4469
▁minor	-4470
▁mutex	-4471
▁named	-4472
▁nargs	-4473
▁numer	-4474
▁order	-4475
▁paths	-4476
▁pause	-4477
▁posix	-4478
▁resiz	-4479
▁setUp	-4480
▁shape	-4481
▁shift	-4482
▁suite	-4483
▁touch	-4484
▁typed	-4485
▁uname	-4486
▁urlun	-4487
▁weeks	-4488
ADDRESS	-4489
Context	-4490
HANDLER	-4491
INALITY	-4492
INCLUDE	-4493
KEYFILE	-4494
PARSING	-4495
PENDING	-4496
PRESSED	-4497
REPARSE	-4498
TRIGGER	-4499
acement	-4500
amerate	-4501
argspec	-4502
boolean	-4503
buffers	-4504
complet	-4505
cookies	-4506
decoder	-4507
defined	-4508
delitem	-4509
dialect	-4510
encoded	-4511
fileobj	-4512
formats	-4513
gregate	-4514
imiters	-4515
imitive	-4516
intersp	-4517
itional	-4518
ivation	-4519
loading	-4520
matcher	-4521
matches	-4522
members	-4523
network	-4524
onomous	-4525
payload	-4526
propert	-4527
proxies	-4528
rdivmod	-4529
serving	-4530
setattr	-4531
setitem	-4532
stitute	-4533
symbols	-4534
tempdir	-4535
threads	-4536
unknown	-4537
▁ACCEPT	-4538
▁ASSERT	-4539
▁BINLOG	-4540
▁FTPSSL	-4541
▁GSSAPI	-4542
▁KHSTAT	-4543
▁KHTYPE	-4544
▁RUSAGE	-4545
▁SFixed	-4546
▁STARTF	-4547
▁USESSL	-4548
▁active	-4549
▁asdict	-4550
▁attrib	-4551
▁author	-4552
▁blocks	-4553
▁bottom	-4554
▁detect	-4555
▁dotted	-4556
▁execut	-4557
▁infile	-4558
▁macros	-4559
▁oneofs	-4560
▁orelse	-4561
▁origin	-4562
▁parsed	-4563
▁pickle	-4564
▁possib	-4565
▁pubsub	-4566
▁really	-4567
▁screen	-4568
▁shared	-4569
▁signal	-4570
▁signer	-4571
▁unsafe	-4572
▁vararg	-4573
▁widget	-4574
COMPLETE	-4575
Cleanups	-4576
EXISTING	-4577
NONBLOCK	-4578
OVERFLOW	-4579
REDIRECT	-4580
RELEASED	-4581
SECURITY	-4582
TRANSFER	-4583
TestCase	-4584
cepthook	-4585
channels	-4586
compiler	-4587
conflict	-4588
contents	-4589
continue	-4590
declared	-4591
executor	-4592
ffective	-4593
finished	-4594
importer	-4595
modified	-4596
netscape	-4597
noescape	-4598
numField	-4599
optional	-4600
ordField	-4601
original	-4602
relative	-4603
segments	-4604
settings	-4605
starttag	-4606
symlinks	-4607
validate	-4608
▁ALLOWED	-4609
▁BTPROTO	-4610
▁Connect	-4611
▁Convert	-4612
▁HIREDIS	-4613
▁ILLEGAL	-4614
▁LITERAL	-4615
▁SOCKOPT	-4616
▁SUBJECT	-4617
▁TIMEOUT	-4618
▁astuple	-4619
▁blocked	-4620
▁boolean	-4621
▁bufsize	-4622
▁builder	-4623
▁cookies	-4624
▁dirname	-4625
▁discard	-4626
▁entries	-4627
▁execute	-4628
▁getcomp	-4629
▁getmark	-4630
▁getpeer	-4631
▁inherit	-4632
▁leading	-4633
▁logical	-4634
▁maxsize	-4635
▁metavar	-4636
▁missing	-4637
▁ndigits	-4638
▁openssl	-4639
▁pending	-4640
▁profile	-4641
▁results	-4642
▁returns	-4643
▁scandir	-4644
▁starmap	-4645
▁symlink	-4646
AGGREGATE	-4647
AVAILABLE	-4648
COMPLETED	-4649
CONTINUED	-4650
EXCEPTION	-4651
LogRecord	-4652
NEGOTIATE	-4653
PARAMETER	-4654
SUSPENDED	-4655
TEMPORARY	-4656
anonymous	-4657
arguments	-4658
buffering	-4659
interface	-4660
keepalive	-4661
parameter	-4662
prefixlen	-4663
rfloordiv	-4664
subdomain	-4665
▁DATETIME	-4666
▁MULTIPLE	-4667
▁PASSWORD	-4668
▁RESERVED	-4669
▁Register	-4670
▁Response	-4671
▁SUPPRESS	-4672
▁absolute	-4673
▁abstract	-4674
▁annotate	-4675
▁autospec	-4676
▁basename	-4677
▁contents	-4678
▁creation	-4679
▁distribu	-4680
▁fetchone	-4681
▁fragment	-4682
▁iterator	-4683
▁iterkeys	-4684
▁provider	-4685
▁requires	-4686
▁sentinel	-4687
▁shutdown	-4688
▁subclass	-4689
▁subgroup	-4690
▁tearDown	-4691
▁teardown	-4692
▁typecode	-4693
▁typename	-4694
▁viewkeys	-4695
DELEGATION	-4696
Descriptor	-4697
PieceField	-4698
REFERENCED	-4699
dependency	-4700
encryption	-4701
properties	-4702
serializer	-4703
validation	-4704
▁CANCELLED	-4705
▁FTPMETHOD	-4706
▁FieldName	-4707
▁IPRESOLVE	-4708
▁NAMESPACE	-4709
▁Serialize	-4710
▁TIMESTAMP	-4711
▁addresses	-4712
▁blueprint	-4713
▁buffering	-4714
▁construct	-4715
▁container	-4716
▁converter	-4717
▁dataclass	-4718
▁digestmod	-4719
▁fieldName	-4720
▁fieldname	-4721
▁filenames	-4722
▁formatter	-4723
▁formatvar	-4724
▁prefixlen	-4725
▁readPlist	-4726
▁utcoffset	-4727
▁viewitems	-4728
AlmostEqual	-4729
TRANSACTION	-4730
disposition	-4731
lementation	-4732
▁Connection	-4733
▁autonomous	-4734
▁conversion	-4735
▁converters	-4736
▁decompress	-4737
▁difference	-4738
▁expanduser	-4739
▁passphrase	-4740
▁transition	-4741
▁viewvalues	-4742
▁writePlist	-4743
distribution	-4744
imitiveField	-4745
interspersed	-4746
▁CARDINALITY	-4747
▁annotations	-4748
▁assertWarns	-4749
▁corecursive	-4750
▁environment	-4751
▁combinations	-4752
▁microseconds	-4753
▁organization	-4754
▁DefaultRegion	-4755
▁DomainStrictN	-4756
▁itermonthdays	-4757
▁nestedmessage	-4758
▁repeatedgroup	-4759
▁RepeatedString	-4760
20	-4761
26	-4762
27	-4763
30	-4764
48	-4765
5_	-4766
60	-4767
AE	-4768
AG	-4769
AW	-4770
At	-4771
DF	-4772
DL	-4773
GP	-4774
HE	-4775
IW	-4776
LB	-4777
LN	-4778
LT	-4779
LZ	-4780
OW	-4781
TD	-4782
TS	-4783
WB	-4784
WX	-4785
Wr	-4786
au	-4787
cv	-4788
db	-4789
dn	-4790
gb	-4791
go	-4792
hs	-4793
iq	-4794
ms	-4795
oD	-4796
og	-4797
oj	-4798
rt	-4799
DH	-4800
so	-4801
yx	-4802
00_	-4803
ALF	-4804
ANG	-4805
APP	-4806
ARE	-4807
AST	-4808
BRK	-4809
BUS	-4810
CAR	-4811
CHO	-4812
CHR	-4813
CIP	-4814
CTL	-4815
CTR	-4816
CTS	-4817
CWD	-4818
Can	-4819
Cls	-4820
Col	-4821
DEF	-4822
DGE	-4823
DLY	-4824
ICE	-4825
IDE	-4826
INY	-4827
IPX	-4828
KER	-4829
LIP	-4830
MEN	-4831
MOD	-4832
MTU	-4833
OME	-4834
ONY	-4835
OUS	-4836
Out	-4837
POP	-4838
PUR	-4839
RCV	-4840
RDS	-4841
RNG	-4842
ROL	-4843
RSA	-4844
SDI	-4845
SEC	-4846
SEG	-4847
SIS	-4848
SNA	-4849
SND	-4850
STO	-4851
STY	-4852
Set	-4853
TCH	-4854
TRA	-4855
TTL	-4856
UID	-4857
UME	-4858
WER	-4859
_16	-4860
_2_	-4861
_40	-4862
ale	-4863
bar	-4864
beh	-4865
but	-4866
cho	-4867
cle	-4868
csr	-4869
cwd	-4870
det	-4871
dst	-4872
edo	-4873
ful	-4874
ged	-4875
gnu	-4876
gre	-4877
ier	-4878
iet	-4879
inv	-4880
kcs	-4881
let	-4882
mov	-4883
nap	-4884
off	-4885
oke	-4886
ove	-4887
pad	-4888
pkg	-4889
ral	-4890
rgb	-4891
src	-4892
ude	-4893
uld	-4894
ume	-4895
upt	-4896
utf	-4897
ybe	-4898
▁Bu	-4899
▁CA	-4900
▁Co	-4901
▁DY	-4902
▁ED	-4903
▁EM	-4904
▁FF	-4905
▁GR	-4906
▁HO	-4907
▁IS	-4908
▁IX	-4909
▁Is	-4910
▁NL	-4911
▁OR	-4912
▁SS	-4913
▁SW	-4914
▁TZ	-4915
▁Tr	-4916
▁US	-4917
▁WE	-4918
▁be	-4919
▁bo	-4920
▁bs	-4921
▁cb	-4922
▁cm	-4923
▁dh	-4924
▁dk	-4925
▁em	-4926
▁eq	-4927
▁et	-4928
▁ft	-4929
▁gs	-4930
▁js	-4931
▁lp	-4932
▁mg	-4933
▁os	-4934
▁pb	-4935
▁ps	-4936
▁ti	-4937
▁ui	-4938
▁we	-4939
ATER	-4940
Attr	-4941
BASE	-4942
BIND	-4943
BLUE	-4944
BOSE	-4945
Body	-4946
CRED	-4947
CRLF	-4948
DECL	-4949
DETA	-4950
DGRA	-4951
DIFF	-4952
DIGE	-4953
DISK	-4954
FFER	-4955
FINI	-4956
FORE	-4957
HALF	-4958
HASH	-4959
IDLE	-4960
INST	-4961
INTE	-4962
IRWX	-4963
JUNK	-4964
Json	-4965
LEFT	-4966
LOOK	-4967
LZMA	-4968
Last	-4969
Lock	-4970
MAIN	-4971
MUST	-4972
Mask	-4973
Mult	-4974
PEEK	-4975
PRIV	-4976
Part	-4977
RAME	-4978
RAPP	-4979
RECO	-4980
REPE	-4981
ROSE	-4982
ROWS	-4983
SDAY	-4984
SEEK	-4985
SENT	-4986
SHIP	-4987
SITE	-4988
SKIP	-4989
SMTP	-4990
SOLE	-4991
STMT	-4992
STOR	-4993
TECT	-4994
TEMS	-4995
TERM	-4996
TIPC	-4997
Text	-4998
UNIQ	-4999
UNIX	-5000
VISI	-5001
YEAR	-5002
ZERO	-5003
ZONE	-5004
ails	-5005
aise	-5006
amma	-5007
atic	-5008
cram	-5009
deep	-5010
defs	-5011
desc	-5012
ende	-5013
etwe	-5014
fast	-5015
font	-5016
fork	-5017
fstr	-5018
hild	-5019
hout	-5020
ials	-5021
ieve	-5022
ifil	-5023
imer	-5024
impl	-5025
imum	-5026
iple	-5027
lify	-5028
lush	-5029
mary	-5030
mean	-5031
mime	-5032
notA	-5033
notB	-5034
null	-5035
oday	-5036
ofts	-5037
oftw	-5038
opag	-5039
pbyn	-5040
peed	-5041
pgrp	-5042
post	-5043
proc	-5044
recv	-5045
reqs	-5046
road	-5047
seed	-5048
side	-5049
star	-5050
sync	-5051
uler	-5052
unny	-5053
utes	-5054
when	-5055
yles	-5056
yped	-5057
▁AMP	-5058
▁BOO	-5059
▁CAP	-5060
▁CER	-5061
▁Com	-5062
▁DNS	-5063
▁DOT	-5064
▁DSA	-5065
▁Doc	-5066
▁EIS	-5067
▁END	-5068
▁HCI	-5069
▁IGN	-5070
▁IOE	-5071
▁ISS	-5072
▁LOW	-5073
▁ONE	-5074
▁ROW	-5075
▁Raw	-5076
▁SCM	-5077
▁SEL	-5078
▁SET	-5079
▁SIO	-5080
▁SYS	-5081
▁TCO	-5082
▁TCS	-5083
▁amt	-5084
▁api	-5085
▁bin	-5086
▁bis	-5087
▁cli	-5088
▁cpp	-5089
▁cpu	-5090
▁fch	-5091
▁ftp	-5092
▁gre	-5093
▁how	-5094
▁idx	-5095
▁iso	-5096
▁mix	-5097
▁mkd	-5098
▁ops	-5099
▁pur	-5100
▁pwd	-5101
▁rgb	-5102
▁tar	-5103
▁tbs	-5104
▁tok	-5105
▁tol	-5106
▁unc	-5107
▁vis	-5108
▁was	-5109
▁who	-5110
ABORT	-5111
AFTER	-5112
ALIVE	-5113
ALLOW	-5114
ALONE	-5115
ATIME	-5116
BACKS	-5117
BROAD	-5118
Bytes	-5119
CANON	-5120
CHOST	-5121
CIFIC	-5122
DGRAM	-5123
ENTER	-5124
ENTRY	-5125
ERRUP	-5126
EVENT	-5127
FILES	-5128
FORMA	-5129
Flags	-5130
GRESS	-5131
HIBIT	-5132
IMAGE	-5133
IMPLE	-5134
INPUT	-5135
LICIT	-5136
NAMIC	-5137
ORDER	-5138
POOLP	-5139
PURGE	-5140
Param	-5141
Popen	-5142
QUEUE	-5143
RAGMA	-5144
RETRY	-5145
REUSE	-5146
RIDGE	-5147
RTHDR	-5148
SHAKE	-5149
SHARE	-5150
STRIP	-5151
STYLE	-5152
SUMED	-5153
TIMEO	-5154
UNITS	-5155
ailed	-5156
aiter	-5157
alloc	-5158
aries	-5159
assth	-5160
bases	-5161
below	-5162
caped	-5163
cdata	-5164
clock	-5165
codec	-5166
coord	-5167
dated	-5168
delay	-5169
eager	-5170
eater	-5171
echar	-5172
edirs	-5173
emany	-5174
errno	-5175
ersal	-5176
eterm	-5177
exist	-5178
fetch	-5179
flush	-5180
heast	-5181
hints	-5182
igned	-5183
ility	-5184
inite	-5185
later	-5186
lient	-5187
links	-5188
macro	-5189
magic	-5190
maker	-5191
nargs	-5192
nodes	-5193
notab	-5194
pager	-5195
query	-5196
resol	-5197
retch	-5198
rompt	-5199
rules	-5200
sched	-5201
spawn	-5202
stype	-5203
swith	-5204
total	-5205
tract	-5206
trunc	-5207
upper	-5208
urity	-5209
usted	-5210
ustom	-5211
visit	-5212
while	-5213
xattr	-5214
▁AUTH	-5215
▁AUTO	-5216
▁CERT	-5217
▁CRLF	-5218
▁DONT	-5219
▁EKEY	-5220
▁ENET	-5221
▁EPOL	-5222
▁FION	-5223
▁FORB	-5224
▁Fast	-5225
▁GetC	-5226
▁HAVE	-5227
▁JUMP	-5228
▁JURI	-5229
▁LEFT	-5230
▁MAIL	-5231
▁MARK	-5232
▁PAGE	-5233
▁PKCS	-5234
▁PRIO	-5235
▁PROC	-5236
▁PROT	-5237
▁Pipe	-5238
▁Pool	-5239
▁SERI	-5240
▁SHUT	-5241
▁SIZE	-5242
▁Type	-5243
▁Wait	-5244
▁alph	-5245
▁atan	-5246
▁canv	-5247
▁cast	-5248
▁does	-5249
▁dont	-5250
▁east	-5251
▁echo	-5252
▁fast	-5253
▁fget	-5254
▁flow	-5255
▁font	-5256
▁hStd	-5257
▁heap	-5258
▁helo	-5259
▁ifil	-5260
▁lamb	-5261
▁leap	-5262
▁mech	-5263
▁meta	-5264
▁noop	-5265
▁only	-5266
▁opts	-5267
▁pair	-5268
▁pers	-5269
▁prot	-5270
▁radi	-5271
▁rema	-5272
▁rows	-5273
▁rule	-5274
▁runc	-5275
▁sets	-5276
▁span	-5277
▁sslo	-5278
▁stmt	-5279
▁tags	-5280
▁take	-5281
▁tell	-5282
▁undo	-5283
▁univ	-5284
▁want	-5285
▁what	-5286
ACTIVE	-5287
ARISON	-5288
CEDURE	-5289
CIPHER	-5290
COMMIT	-5291
COOKIE	-5292
COROUT	-5293
Column	-5294
Config	-5295
DEPREC	-5296
DIGEST	-5297
ENTIAL	-5298
FILENO	-5299
Filter	-5300
GSSAPI	-5301
ISSUER	-5302
LICATE	-5303
LINING	-5304
Logger	-5305
MAPPED	-5306
MARKER	-5307
MASTER	-5308
MENTED	-5309
NETROM	-5310
NOTIFI	-5311
NOTIFY	-5312
NUMERI	-5313
OFFSET	-5314
OUTPUT	-5315
Parser	-5316
REMOVE	-5317
RENAME	-5318
RESULT	-5319
RESUME	-5320
RETURN	-5321
SINGLE	-5322
STREAM	-5323
STRICT	-5324
TELNET	-5325
TERMIN	-5326
TIFIER	-5327
UNIQUE	-5328
UNSPEC	-5329
UTABLE	-5330
aining	-5331
anchor	-5332
arrier	-5333
behind	-5334
button	-5335
chunks	-5336
closed	-5337
cludes	-5338
commit	-5339
consec	-5340
criter	-5341
defect	-5342
defrag	-5343
elines	-5344
endtag	-5345
errupt	-5346
etween	-5347
events	-5348
ferred	-5349
itical	-5350
leader	-5351
limits	-5352
macros	-5353
manent	-5354
margin	-5355
normal	-5356
omatic	-5357
oreign	-5358
pacing	-5359
passwd	-5360
points	-5361
random	-5362
ranges	-5363
region	-5364
reload	-5365
rshift	-5366
search	-5367
select	-5368
shared	-5369
simple	-5370
tempts	-5371
turtle	-5372
uction	-5373
unsafe	-5374
verify	-5375
▁Array	-5376
▁BRAIN	-5377
▁Close	-5378
▁ECONN	-5379
▁Float	-5380
▁Gener	-5381
▁INDEX	-5382
▁INTER	-5383
▁MONTH	-5384
▁RIGHT	-5385
▁SPEED	-5386
▁STACK	-5387
▁TOTAL	-5388
▁Typed	-5389
▁WRAPP	-5390
▁WSTOP	-5391
▁XATTR	-5392
▁chain	-5393
▁chang	-5394
▁clean	-5395
▁coded	-5396
▁ctype	-5397
▁defer	-5398
▁dicts	-5399
▁execl	-5400
▁expir	-5401
▁flash	-5402
▁getfp	-5403
▁getgr	-5404
▁heapp	-5405
▁hooks	-5406
▁hours	-5407
▁initi	-5408
▁inner	-5409
▁maybe	-5410
▁mount	-5411
▁nanos	-5412
▁newer	-5413
▁opmap	-5414
▁outer	-5415
▁pbkdf	-5416
▁plain	-5417
▁popul	-5418
▁punct	-5419
▁quant	-5420
▁quiet	-5421
▁recip	-5422
▁regex	-5423
▁reuse	-5424
▁shear	-5425
▁shell	-5426
▁sleep	-5427
▁slice	-5428
▁speed	-5429
▁stand	-5430
▁style	-5431
▁super	-5432
▁thing	-5433
▁tiget	-5434
▁trail	-5435
▁trunc	-5436
▁types	-5437
▁unget	-5438
▁units	-5439
▁unset	-5440
▁varkw	-5441
▁wraps	-5442
▁xpath	-5443
ALLBACK	-5444
CHANGED	-5445
CLUSIVE	-5446
COLUMNS	-5447
CONSTRA	-5448
CONTROL	-5449
CORRECT	-5450
DISABLE	-5451
DSTOPTS	-5452
EXPIRED	-5453
FAILURE	-5454
FEATURE	-5455
FOREIGN	-5456
Failure	-5457
HOPOPTS	-5458
INFORMA	-5459
MAPPING	-5460
NOTHING	-5461
PARTIAL	-5462
RESTART	-5463
RITICAL	-5464
ROUTINE	-5465
Request	-5466
Section	-5467
UPDATES	-5468
VISIBLE	-5469
WITHOUT	-5470
aintext	-5471
aliases	-5472
allowed	-5473
arshall	-5474
ational	-5475
bufsize	-5476
callers	-5477
changes	-5478
compile	-5479
consume	-5480
control	-5481
daymask	-5482
delattr	-5483
dynamic	-5484
element	-5485
entence	-5486
futures	-5487
heading	-5488
ignored	-5489
ilities	-5490
ination	-5491
inherit	-5492
instanc	-5493
keyname	-5494
longest	-5495
mailbox	-5496
mission	-5497
napshot	-5498
nonzero	-5499
ocation	-5500
oftware	-5501
opagate	-5502
ordinal	-5503
padding	-5504
parsing	-5505
partial	-5506
pointer	-5507
profile	-5508
reading	-5509
registr	-5510
retries	-5511
subtype	-5512
unbound	-5513
variant	-5514
windows	-5515
without	-5516
▁BININT	-5517
▁IMPORT	-5518
▁ITIMER	-5519
▁NORMAL	-5520
▁NamedT	-5521
▁POLICY	-5522
▁SELECT	-5523
▁SOURCE	-5524
▁SSLKEY	-5525
▁SYNTAX	-5526
▁UNSAFE	-5527
▁atomic	-5528
▁attach	-5529
▁backup	-5530
▁bisect	-5531
▁cafile	-5532
▁capath	-5533
▁chunks	-5534
▁closed	-5535
▁colorm	-5536
▁commit	-5537
▁compar	-5538
▁contin	-5539
▁defect	-5540
▁depend	-5541
▁enumer	-5542
▁evalex	-5543
▁events	-5544
▁exists	-5545
▁expect	-5546
▁factor	-5547
▁failIf	-5548
▁family	-5549
▁fdopen	-5550
▁fromfd	-5551
▁frozen	-5552
▁fspath	-5553
▁getcwd	-5554
▁getdoc	-5555
▁getenv	-5556
▁getopt	-5557
▁getter	-5558
▁grants	-5559
▁height	-5560
▁insort	-5561
▁limits	-5562
▁listen	-5563
▁locate	-5564
▁millis	-5565
▁netloc	-5566
▁opaque	-5567
▁opener	-5568
▁openfp	-5569
▁reload	-5570
▁rotate	-5571
▁sample	-5572
▁scalar	-5573
▁sender	-5574
▁should	-5575
▁spawnl	-5576
▁spawnv	-5577
▁states	-5578
▁unique	-5579
▁unwrap	-5580
▁whence	-5581
CONNECTS	-5582
DONTWAIT	-5583
ERRUPTED	-5584
EXPECTED	-5585
FUNCTYPE	-5586
INSTANCE	-5587
NOTFOUND	-5588
REPEATED	-5589
RESOURCE	-5590
ROLLBACK	-5591
Reserved	-5592
SDICTION	-5593
ToString	-5594
absolute	-5595
abstract	-5596
accepted	-5597
activate	-5598
blocking	-5599
contains	-5600
criteria	-5601
deepcopy	-5602
examples	-5603
explicit	-5604
external	-5605
features	-5606
ibraries	-5607
ingError	-5608
integral	-5609
interpol	-5610
interpre	-5611
irection	-5612
language	-5613
newlines	-5614
notAfter	-5615
oftspace	-5616
override	-5617
pgettext	-5618
refcount	-5619
requests	-5620
resource	-5621
roadcast	-5622
rotation	-5623
sendfile	-5624
sentinel	-5625
spawning	-5626
suffixes	-5627
tokenize	-5628
verrides	-5629
▁BOOLEAN	-5630
▁CHARSET	-5631
▁COMMENT	-5632
▁COMPILE	-5633
▁CSELECT	-5634
▁Comment	-5635
▁Current	-5636
▁DYNAMIC	-5637
▁FTPAUTH	-5638
▁GENERIC	-5639
▁KHMATCH	-5640
▁OPENSSL	-5641
▁PRIMARY	-5642
▁PROCESS	-5643
▁SERVICE	-5644
▁TLSAUTH	-5645
▁Version	-5646
▁WARNING	-5647
▁acquire	-5648
▁actions	-5649
▁asctime	-5650
▁buffers	-5651
▁builtin	-5652
▁channel	-5653
▁cleanup	-5654
▁collect	-5655
▁confstr	-5656
▁control	-5657
▁counter	-5658
▁decimal	-5659
▁dialect	-5660
▁encrypt	-5661
▁escaped	-5662
▁explain	-5663
▁findall	-5664
▁forward	-5665
▁fromhex	-5666
▁futures	-5667
▁generic	-5668
▁gethost	-5669
▁gettext	-5670
▁ifilter	-5671
▁listdir	-5672
▁literal	-5673
▁localns	-5674
▁minutes	-5675
▁outfile	-5676
▁outline	-5677
▁partial	-5678
▁pointer	-5679
▁preexec	-5680
▁prepend	-5681
▁recurse	-5682
▁reducer	-5683
▁restore	-5684
▁restype	-5685
▁runcall	-5686
▁running	-5687
▁shallow	-5688
▁sources	-5689
▁startup	-5690
▁storage	-5691
▁stretch	-5692
▁subtype	-5693
▁success	-5694
▁summary	-5695
▁tmpfile	-5696
▁unbound	-5697
▁urlopen	-5698
▁welcome	-5699
BROADCAST	-5700
CHARACTER	-5701
COROUTINE	-5702
DONTROUTE	-5703
EXTENSION	-5704
GENERATOR	-5705
KEEPALIVE	-5706
MALFORMAT	-5707
MULTILINE	-5708
NOSUPPORT	-5709
OPERATION	-5710
PROCEDURE	-5711
PROTOCOLS	-5712
RECURSION	-5713
RECURSIVE	-5714
TIMESTAMP	-5715
alignment	-5716
construct	-5717
converter	-5718
enticated	-5719
filenames	-5720
formatter	-5721
frozenset	-5722
ification	-5723
iterables	-5724
notBefore	-5725
pbynumber	-5726
responses	-5727
secondary	-5728
separator	-5729
ternative	-5730
▁ENCODING	-5731
▁EXTENDED	-5732
▁FILETYPE	-5733
▁Internal	-5734
▁RESPONSE	-5735
▁SEEKFUNC	-5736
▁SPECIFIC	-5737
▁VARIABLE	-5738
▁XINCLUDE	-5739
▁argtypes	-5740
▁baseName	-5741
▁capacity	-5742
▁casefold	-5743
▁classify	-5744
▁datetime	-5745
▁declared	-5746
▁discover	-5747
▁failures	-5748
▁findtext	-5749
▁finished	-5750
▁fromkeys	-5751
▁fullname	-5752
▁globalns	-5753
▁hashfunc	-5754
▁initargs	-5755
▁instream	-5756
▁keepends	-5757
▁language	-5758
▁leapdays	-5759
▁modified	-5760
▁multiple	-5761
▁operator	-5762
▁override	-5763
▁pathconf	-5764
▁pencolor	-5765
▁provided	-5766
▁readinto	-5767
▁relative	-5768
▁reloader	-5769
▁resolver	-5770
▁samefile	-5771
▁sendfile	-5772
▁sizehint	-5773
▁starttls	-5774
▁stringnl	-5775
▁suppress	-5776
▁tokenize	-5777
▁unescape	-5778
▁unixfrom	-5779
COLLATIONS	-5780
DEPRECATED	-5781
ENTICATION	-5782
FromString	-5783
IDENTIFIER	-5784
LineNumber	-5785
MEMBERSHIP	-5786
PIPELINING	-5787
SEQUENTIAL	-5788
WHITESPACE	-5789
appcontext	-5790
assthrough	-5791
attachment	-5792
collection	-5793
conversion	-5794
derivation	-5795
filesystem	-5796
operations	-5797
privatekey	-5798
processors	-5799
terminator	-5800
validators	-5801
▁CONDITION	-5802
▁EXCEPTION	-5803
▁INVISIBLE	-5804
▁Semaphore	-5805
▁TypedDict	-5806
▁aggregate	-5807
▁callbacks	-5808
▁challenge	-5809
▁chunksize	-5810
▁cookiejar	-5811
▁effective	-5812
▁exclusive	-5813
▁fillcolor	-5814
▁formatarg	-5815
▁getparams	-5816
▁groupdict	-5817
▁intercept	-5818
▁isolation	-5819
▁languages	-5820
▁maxlength	-5821
▁operation	-5822
▁parsedate	-5823
▁propagate	-5824
▁protocols	-5825
▁remainder	-5826
▁transport	-5827
▁undefined	-5828
▁universal	-5829
▁urldefrag	-5830
ALTERNATIVE	-5831
CONNECTIONS	-5832
CONSTRAINTS	-5833
Description	-5834
IMPLEMENTED	-5835
INFORMATION	-5836
INTERRUPTED	-5837
LINECOMMENT	-5838
NUMERICHOST	-5839
NUMERICSERV	-5840
UNSUPPORTED	-5841
initializer	-5842
transaction	-5843
▁BRAINPOOLP	-5844
▁COMPARISON	-5845
▁GetCurrent	-5846
▁appcontext	-5847
▁autoescape	-5848
▁capability	-5849
▁components	-5850
▁compressed	-5851
▁consistent	-5852
▁containing	-5853
▁delimiters	-5854
▁descriptor	-5855
▁generators	-5856
▁getdefault	-5857
▁getsockopt	-5858
▁iterencode	-5859
▁localtrace	-5860
▁population	-5861
▁serialized	-5862
▁tokeneater	-5863
▁unexpected	-5864
▁unfinished	-5865
▁untokenize	-5866
▁writelines	-5867
ColumnNumber	-5868
authenticate	-5869
requirements	-5870
▁NONEXISTING	-5871
▁conditional	-5872
▁destination	-5873
▁executemany	-5874
▁followlinks	-5875
▁formatvalue	-5876
▁getpeername	-5877
▁getsockname	-5878
▁globaltrace	-5879
▁initializer	-5880
▁iscoroutine	-5881
▁multithread	-5882
▁punctuation	-5883
▁translation	-5884
distributions	-5885
unicodestring	-5886
▁JURISDICTION	-5887
▁commonprefix	-5888
▁distribution	-5889
▁multiprocess	-5890
▁tostringlist	-5891
SOCKETFUNCTION	-5892
▁TemporaryFile	-5893
▁possibilities	-5894
▁removeHandler	-5895
▁unicodestring	-5896
▁contextmanager	-5897
▁kwonlydefaults	-5898
▁singledispatch	-5899
34	-5900
35	-5901
45	-5902
50	-5903
62	-5904
70	-5905
7_	-5906
86	-5907
CC	-5908
CY	-5909
Co	-5910
DC	-5911
DY	-5912
Do	-5913
EQ	-5914
GN	-5915
GW	-5916
HA	-5917
HC	-5918
IV	-5919
JO	-5920
KB	-5921
LR	-5922
NK	-5923
OG	-5924
Of	-5925
On	-5926
QC	-5927
RR	-5928
Se	-5929
Su	-5930
TB	-5931
UI	-5932
VL	-5933
WH	-5934
WO	-5935
XF	-5936
_9	-5937
cb	-5938
cd	-5939
cn	-5940
dm	-5941
eb	-5942
ee	-5943
fy	-5944
gi	-5945
gu	-5946
ja	-5947
li	-5948
ng	-5949
nu	-5950
qp	-5951
qv	-5952
sU	-5953
tl	-5954
uu	-5955
vl	-5956
wo	-5957
wp	-5958
yz	-5959
ze	-5960
zy	-5961
▁Q	-5962
16_	-5963
571	-5964
ALG	-5965
ANK	-5966
ARC	-5967
ARM	-5968
ATH	-5969
CAT	-5970
CEP	-5971
CHK	-5972
CLE	-5973
CRC	-5974
Cre	-5975
DEL	-5976
DIV	-5977
Div	-5978
EFF	-5979
ELE	-5980
ELL	-5981
EOR	-5982
End	-5983
FAM	-5984
FLI	-5985
GAN	-5986
GEX	-5987
GRE	-5988
GSS	-5989
Gre	-5990
ILY	-5991
INN	-5992
INV	-5993
LET	-5994
LID	-5995
LLC	-5996
LUS	-5997
Len	-5998
Lib	-5999
And	-6000
DTD	-6001
EXP	-6002
IGH	-6003
Low	-6004
MAN	-6005
MED	-6006
MET	-6007
MIO	-6008
MUL	-6009
Mem	-6010
Msg	-6011
NEL	-6012
NOF	-6013
NOW	-6014
NTP	-6015
Num	-6016
OBJ	-6017
OHT	-6018
ORI	-6019
PID	-6020
PWD	-6021
REQ	-6022
RET	-6023
RON	-6024
ROP	-6025
ROZ	-6026
RTS	-6027
RUP	-6028
SEX	-6029
SID	-6030
SMB	-6031
SNI	-6032
SQB	-6033
SQL	-6034
SSE	-6035
SSH	-6036
STD	-6037
STI	-6038
TEQ	-6039
TIM	-6040
TIN	-6041
TMP	-6042
TRL	-6043
TTO	-6044
Tag	-6045
UAL	-6046
UCT	-6047
UDF	-6048
UMF	-6049
Var	-6050
WAN	-6051
WID	-6052
Win	-6053
ZIP	-6054
acy	-6055
adj	-6056
adv	-6057
aff	-6058
alg	-6059
ape	-6060
arm	-6061
arp	-6062
asv	-6063
bit	-6064
ble	-6065
blk	-6066
chr	-6067
cir	-6068
cok	-6069
csw	-6070
cum	-6071
dol	-6072
dss	-6073
edP	-6074
egg	-6075
egr	-6076
eil	-6077
eol	-6078
equ	-6079
eta	-6080
ety	-6081
fas	-6082
fri	-6083
has	-6084
hdr	-6085
hor	-6086
ied	-6087
igr	-6088
inh	-6089
itr	-6090
lar	-6091
leg	-6092
lif	-6093
lok	-6094
mgr	-6095
mid	-6096
mit	-6097
mro	-6098
ney	-6099
ACC	-6100
CAC	-6101
CPU	-6102
GID	-6103
HCI	-6104
ODS	-6105
OWN	-6106
SCR	-6107
WAS	-6108
fds	-6109
nil	-6110
ntp	-6111
onB	-6112
osf	-6113
otp	-6114
ots	-6115
pen	-6116
pic	-6117
ptr	-6118
pty	-6119
pub	-6120
pwd	-6121
qdn	-6122
qsl	-6123
rto	-6124
saf	-6125
sil	-6126
sis	-6127
sup	-6128
tab	-6129
toa	-6130
tol	-6131
tos	-6132
uff	-6133
ulo	-6134
ump	-6135
utc	-6136
way	-6137
wch	-6138
yes	-6139
▁Al	-6140
▁BD	-6141
▁CN	-6142
▁EQ	-6143
▁FA	-6144
▁GE	-6145
▁GN	-6146
▁HT	-6147
▁IV	-6148
▁LF	-6149
▁Lo	-6150
▁ME	-6151
▁OB	-6152
▁OC	-6153
▁PS	-6154
▁Pr	-6155
▁SA	-6156
▁SC	-6157
▁TH	-6158
▁To	-6159
▁UP	-6160
▁Wh	-6161
▁bc	-6162
▁bp	-6163
▁br	-6164
▁cy	-6165
▁dm	-6166
▁dn	-6167
▁fg	-6168
▁fw	-6169
▁go	-6170
▁gt	-6171
▁ln	-6172
▁mp	-6173
▁mu	-6174
▁mv	-6175
▁ne	-6176
▁oo	-6177
▁pm	-6178
▁rf	-6179
▁rm	-6180
▁rp	-6181
▁sn	-6182
▁sw	-6183
▁tl	-6184
▁ul	-6185
▁ww	-6186
2231	-6187
3270	-6188
ALPN	-6189
ANSL	-6190
ANSP	-6191
ATMP	-6192
Args	-6193
BEST	-6194
BEUI	-6195
BUIL	-6196
BUSY	-6197
Base	-6198
CENT	-6199
ASY	-6200
RDM	-6201
_11	-6202
▁ia	-6203
▁io	-6204
▁ye	-6205
ALUE	-6206
BARE	-6207
CHOR	-6208
COLL	-6209
COMM	-6210
CONS	-6211
COPE	-6212
COPY	-6213
CTTY	-6214
CUMF	-6215
DEMP	-6216
DENT	-6217
DICT	-6218
DIRS	-6219
DISP	-6220
Data	-6221
Date	-6222
ECON	-6223
ENVI	-6224
FACE	-6225
FIED	-6226
FIFO	-6227
FILL	-6228
FINE	-6229
HOPS	-6230
High	-6231
IMAP	-6232
IMUM	-6233
JOIN	-6234
LAGS	-6235
LAIN	-6236
LIBR	-6237
LING	-6238
LOAT	-6239
LOSE	-6240
LOUT	-6241
Less	-6242
Loop	-6243
MIOS	-6244
MMAP	-6245
MODI	-6246
MODS	-6247
MOTE	-6248
MOUS	-6249
MOVE	-6250
MSVC	-6251
NODE	-6252
None	-6253
ONCE	-6254
ORDS	-6255
PAIR	-6256
PART	-6257
PECT	-6258
PGRP	-6259
POCH	-6260
POSI	-6261
PREC	-6262
PROF	-6263
PROV	-6264
RCPT	-6265
REDO	-6266
REGI	-6267
RETO	-6268
RINT	-6269
ROPT	-6270
Read	-6271
SERI	-6272
SERT	-6273
SORT	-6274
STED	-6275
SUSP	-6276
Sout	-6277
TAGS	-6278
TALK	-6279
TERS	-6280
TEST	-6281
TIES	-6282
TOWN	-6283
TRAP	-6284
TRUE	-6285
UNDO	-6286
Unit	-6287
WARD	-6288
WARN	-6289
WAYS	-6290
WORK	-6291
West	-6292
_16_	-6293
_1_0	-6294
_2_0	-6295
abet	-6296
acer	-6297
akes	-6298
aldo	-6299
409	-6300
Exp	-6301
Inc	-6302
JEC	-6303
LCR	-6304
NPN	-6305
OOB	-6306
POX	-6307
PTS	-6308
RFC	-6309
_12	-6310
syx	-6311
2109	-6312
ALTY	-6313
Byte	-6314
CTRL	-6315
DENY	-6316
ICMP	-6317
Inst	-6318
SAVE	-6319
Skip	-6320
VIRT	-6321
appl	-6322
atal	-6323
ativ	-6324
aves	-6325
cale	-6326
cand	-6327
coll	-6328
cols	-6329
cond	-6330
cons	-6331
dang	-6332
dead	-6333
demp	-6334
ecol	-6335
eger	-6336
elen	-6337
eral	-6338
erce	-6339
erse	-6340
extr	-6341
fail	-6342
four	-6343
guar	-6344
high	-6345
icle	-6346
igno	-6347
iles	-6348
imag	-6349
inja	-6350
ious	-6351
ixto	-6352
keqv	-6353
lang	-6354
leap	-6355
lees	-6356
leno	-6357
lish	-6358
lobs	-6359
lost	-6360
lots	-6361
mock	-6362
mutu	-6363
nnot	-6364
nstr	-6365
onDo	-6366
onic	-6367
orar	-6368
pars	-6369
pred	-6370
prin	-6371
prod	-6372
rain	-6373
rate	-6374
rawq	-6375
rena	-6376
repl	-6377
rout	-6378
scol	-6379
seek	-6380
sequ	-6381
sity	-6382
soon	-6383
sort	-6384
tain	-6385
this	-6386
ulus	-6387
unds	-6388
unge	-6389
unit	-6390
ural	-6391
usem	-6392
very	-6393
wind	-6394
wire	-6395
▁**_	-6396
▁API	-6397
▁APP	-6398
▁BIG	-6399
233	-6400
IMM	-6401
NCY	-6402
AEAD	-6403
CKED	-6404
CURL	-6405
IRDA	-6406
PRET	-6407
_10_	-6408
etry	-6409
euid	-6410
expt	-6411
prev	-6412
yzzy	-6413
▁Bad	-6414
▁CBA	-6415
▁CRA	-6416
▁DEL	-6417
▁DER	-6418
▁DEV	-6419
▁DIR	-6420
▁Dat	-6421
▁Dll	-6422
▁EIN	-6423
▁EUC	-6424
▁FMT	-6425
▁GRE	-6426
▁HEX	-6427
▁ISO	-6428
▁MIX	-6429
▁OCT	-6430
▁POL	-6431
▁PyJ	-6432
▁RAD	-6433
▁REG	-6434
▁Sub	-6435
▁TAR	-6436
▁TCI	-6437
▁TIO	-6438
▁TRY	-6439
▁Tcl	-6440
▁URL	-6441
▁Use	-6442
▁VSW	-6443
▁WCO	-6444
▁acl	-6445
▁age	-6446
▁alg	-6447
▁bid	-6448
▁big	-6449
▁cat	-6450
▁csh	-6451
▁cte	-6452
▁cum	-6453
▁dfa	-6454
▁dic	-6455
▁dll	-6456
▁dry	-6457
▁dsa	-6458
▁dyn	-6459
▁egg	-6460
▁fac	-6461
▁fan	-6462
▁gcd	-6463
▁hal	-6464
▁iid	-6465
▁inp	-6466
▁ipv	-6467
▁isl	-6468
▁ist	-6469
▁jwk	-6470
▁lex	-6471
▁lic	-6472
▁low	-6473
▁lru	-6474
▁lvl	-6475
▁mfa	-6476
▁mon	-6477
▁nof	-6478
▁nos	-6479
▁nto	-6480
▁oct	-6481
▁one	-6482
▁pad	-6483
▁pat	-6484
▁pow	-6485
▁qop	-6486
▁rle	-6487
▁rng	-6488
▁sav	-6489
▁seg	-6490
▁sel	-6491
▁syn	-6492
▁tan	-6493
▁the	-6494
▁tty	-6495
▁vol	-6496
▁xid	-6497
▁xor	-6498
▁yes	-6499
24_	-6500
flt	-6501
ncy	-6502
▁uc	-6503
Algo	-6504
FICI	-6505
HIDE	-6506
IVED	-6507
Open	-6508
eeds	-6509
ichr	-6510
meta	-6511
tick	-6512
▁CIR	-6513
57600	-6514
ANGLE	-6515
APPLE	-6516
ASCII	-6517
BRACE	-6518
CALLS	-6519
CERTS	-6520
CODER	-6521
COLON	-6522
CREAT	-6523
CTRUN	-6524
Cdata	-6525
DECLA	-6526
DEFER	-6527
DROPP	-6528
EMPTY	-6529
ERRNO	-6530
ERRUN	-6531
EXITS	-6532
FALSE	-6533
FLOOR	-6534
FSIZE	-6535
GRADE	-6536
HOSTS	-6537
HTTPC	-6538
HTTPS	-6539
INCRE	-6540
INTVL	-6541
IZONT	-6542
Index	-6543
Input	-6544
Instr	-6545
LAYED	-6546
LOGON	-6547
METRI	-6548
MITED	-6549
NALED	-6550
NAMES	-6551
OLLOW	-6552
PATHS	-6553
PAUSE	-6554
RDOPT	-6555
REACH	-6556
SETUP	-6557
SLASH	-6558
STACK	-6559
STAND	-6560
STATI	-6561
Space	-6562
Suite	-6563
TAINS	-6564
TOOTH	-6565
Token	-6566
Types	-6567
UNTRY	-6568
UPDUP	-6569
USESH	-6570
VIOUS	-6571
Watch	-6572
acter	-6573
adder	-6574
akeup	-6575
alone	-6576
andom	-6577
anner	-6578
apsed	-6579
cause	-6580
cipal	-6581
clamp	-6582
click	-6583
ctype	-6584
deque	-6585
dicts	-6586
dummy	-6587
edata	-6588
elist	-6589
emode	-6590
endly	-6591
esize	-6592
esmtp	-6593
etabs	-6594
exact	-6595
force	-6596
fpdef	-6597
globs	-6598
gramm	-6599
115	-6600
163	-6601
Max	-6602
SRV	-6603
XCL	-6604
FRAG	-6605
INSZ	-6606
RDWR	-6607
WILL	-6608
_512	-6609
blem	-6610
dedS	-6611
need	-6612
ocus	-6613
▁adv	-6614
▁bye	-6615
▁cAl	-6616
▁pax	-6617
CERTP	-6618
DUPFD	-6619
GANIZ	-6620
GETLK	-6621
INNED	-6622
ITEMS	-6623
Lease	-6624
aware	-6625
handl	-6626
icast	-6627
idate	-6628
idmap	-6629
ients	-6630
iline	-6631
imize	-6632
inger	-6633
inity	-6634
isdir	-6635
istic	-6636
itude	-6637
liter	-6638
loded	-6639
login	-6640
lover	-6641
lower	-6642
minor	-6643
mouse	-6644
oname	-6645
opsis	-6646
popen	-6647
posix	-6648
quota	-6649
refer	-6650
rency	-6651
reuse	-6652
rowid	-6653
rsize	-6654
scape	-6655
schem	-6656
space	-6657
stamp	-6658
stemp	-6659
timer	-6660
track	-6661
trail	-6662
trigr	-6663
units	-6664
vides	-6665
witch	-6666
yield	-6667
▁Auth	-6668
▁BACK	-6669
▁BASE	-6670
▁Bool	-6671
▁Boun	-6672
▁CALL	-6673
▁CAPI	-6674
▁CMSG	-6675
▁CODE	-6676
▁Call	-6677
▁Cont	-6678
▁DATA	-6679
▁DROP	-6680
▁ENUM	-6681
▁ENVI	-6682
▁EXEC	-6683
▁Emax	-6684
▁Emin	-6685
▁Exit	-6686
▁FINI	-6687
▁GRND	-6688
▁HASH	-6689
▁HOUR	-6690
▁ITEM	-6691
▁KEYS	-6692
▁LOAD	-6693
▁NAOL	-6694
▁NAOV	-6695
▁NotS	-6696
▁PORT	-6697
▁PREC	-6698
▁SALT	-6699
723	-6700
CFG	-6701
MRK	-6702
_0_	-6703
kgd	-6704
18__	-6705
FLSH	-6706
▁BRK	-6707
▁ETX	-6708
▁hdr	-6709
▁ifs	-6710
CHILD	-6711
LEASE	-6712
PERMS	-6713
THIRD	-6714
asian	-6715
cribe	-6716
loped	-6717
uched	-6718
▁SEND	-6719
▁SETI	-6720
▁SIGP	-6721
▁SIGV	-6722
▁STMT	-6723
▁TCSA	-6724
▁TRUE	-6725
▁UINT	-6726
▁acct	-6727
▁adap	-6728
▁anon	-6729
▁atol	-6730
▁card	-6731
▁ceil	-6732
▁cell	-6733
▁chal	-6734
▁city	-6735
▁conv	-6736
▁cord	-6737
▁cred	-6738
▁cryp	-6739
▁demo	-6740
▁diff	-6741
▁dims	-6742
▁dmax	-6743
▁dmin	-6744
▁elts	-6745
▁erow	-6746
▁flat	-6747
▁fred	-6748
▁getb	-6749
▁getn	-6750
▁getr	-6751
▁getw	-6752
▁hard	-6753
▁hasj	-6754
▁high	-6755
▁hint	-6756
▁isal	-6757
▁kwds	-6758
▁maps	-6759
▁maxD	-6760
▁mean	-6761
▁meth	-6762
▁most	-6763
▁mset	-6764
▁must	-6765
▁nntp	-6766
▁objc	-6767
▁page	-6768
▁pars	-6769
▁pbuf	-6770
▁peek	-6771
▁pkey	-6772
▁plat	-6773
▁pmin	-6774
▁proc	-6775
▁resp	-6776
▁roll	-6777
▁rset	-6778
▁seal	-6779
▁setn	-6780
▁sing	-6781
▁smax	-6782
▁smin	-6783
▁srow	-6784
▁stem	-6785
▁stor	-6786
▁strs	-6787
▁subn	-6788
▁tail	-6789
▁task	-6790
▁them	-6791
▁uidl	-6792
▁void	-6793
▁work	-6794
▁zero	-6795
ASSIGN	-6796
ATIONS	-6797
ATMPVC	-6798
ATTRIB	-6799
npn	-6800
CRYP	-6801
HERE	-6802
NDLR	-6803
_301	-6804
_302	-6805
_303	-6806
alpn	-6807
some	-6808
▁RFC	-6809
▁SUC	-6810
▁TAG	-6811
▁elt	-6812
2965_	-6813
CIMAL	-6814
InXML	-6815
PRINT	-6816
RANCH	-6817
TRACK	-6818
_100_	-6819
basic	-6820
delta	-6821
denom	-6822
graph	-6823
lasti	-6824
major	-6825
unctx	-6826
▁arcs	-6827
▁gzip	-6828
▁hton	-6829
AUTHOR	-6830
BLOCKS	-6831
BRIDGE	-6832
BUTION	-6833
BUTTON	-6834
CACERT	-6835
CESSED	-6836
CLTIME	-6837
CONVER	-6838
CTRUNC	-6839
Cancel	-6840
Create	-6841
DEVICE	-6842
DISTRI	-6843
Daemon	-6844
ERRMSG	-6845
FORMED	-6846
Fields	-6847
GETSIG	-6848
GNIZED	-6849
GROUPS	-6850
HIDDEN	-6851
Incons	-6852
KERBER	-6853
LATION	-6854
LINGER	-6855
NDELAY	-6856
OMETRY	-6857
Output	-6858
PARAMS	-6859
PASSWD	-6860
POINTS	-6861
PUBKEY	-6862
QUEUED	-6863
RACKET	-6864
RDBAND	-6865
RDNORM	-6866
RDONLY	-6867
RECORD	-6868
REDUMP	-6869
RESIZE	-6870
REVOKE	-6871
SCRIBE	-6872
SETSIG	-6873
SPARSE	-6874
STATES	-6875
STRUCT	-6876
TCLASS	-6877
TRMIOS	-6878
Thread	-6879
UNRECO	-6880
Update	-6881
VISION	-6882
WRBAND	-6883
WRNORM	-6884
acters	-6885
advise	-6886
aglobs	-6887
amount	-6888
anteed	-6889
arenas	-6890
around	-6891
asdict	-6892
assign	-6893
atible	-6894
atomic	-6895
cached	-6896
cafile	-6897
called	-6898
caller	-6899
283	-6900
Add	-6901
17__	-6902
Doct	-6903
PASV	-6904
This	-6905
octl	-6906
▁Add	-6907
▁KRB	-6908
▁PKG	-6909
▁csv	-6910
DEPTH	-6911
FATAL	-6912
FLICT	-6913
sleep	-6914
▁Coun	-6915
▁YEAR	-6916
ATEWAY	-6917
Caller	-6918
JECTED	-6919
Loader	-6920
POISON	-6921
Runner	-6922
arshal	-6923
capath	-6924
cbreak	-6925
celist	-6926
change	-6927
choice	-6928
classt	-6929
coders	-6930
colors	-6931
column	-6932
coming	-6933
common	-6934
compos	-6935
cripts	-6936
declar	-6937
delete	-6938
delims	-6939
dempot	-6940
dlopen	-6941
dotenv	-6942
echars	-6943
echeck	-6944
encies	-6945
endian	-6946
epilog	-6947
ertext	-6948
exists	-6949
family	-6950
farray	-6951
fercmd	-6952
fplist	-6953
gories	-6954
height	-6955
inates	-6956
isions	-6957
issuer	-6958
itedir	-6959
logger	-6960
mapped	-6961
minate	-6962
notify	-6963
ometry	-6964
opener	-6965
oraise	-6966
paragr	-6967
parsed	-6968
quotes	-6969
regexp	-6970
render	-6971
repeat	-6972
resgid	-6973
resuid	-6974
reused	-6975
roller	-6976
sUsing	-6977
signer	-6978
sizeof	-6979
spaces	-6980
states	-6981
stdout	-6982
target	-6983
topics	-6984
traces	-6985
uments	-6986
unistr	-6987
unwrap	-6988
▁ASCII	-6989
▁ATTRS	-6990
▁BLOCK	-6991
▁CLOSE	-6992
▁CSTOP	-6993
▁Clear	-6994
▁EADDR	-6995
▁EBADR	-6996
▁EHOST	-6997
▁EMAIL	-6998
▁EPOCH	-6999
scc	-7000
ECDH	-7001
scop	-7002
▁UDF	-7003
▁cnf	-7004
AGAIN	-7005
IFIER	-7006
ORIES	-7007
PAREN	-7008
WORDS	-7009
agram	-7010
erefs	-7011
false	-7012
▁VEOL	-7013
CLIENT	-7014
DECLAR	-7015
DECnet	-7016
SETLKW	-7017
Socket	-7018
hidden	-7019
nowait	-7020
uhyper	-7021
▁BASIC	-7022
▁EDEAD	-7023
▁ETIME	-7024
▁EVENT	-7025
▁EXTRA	-7026
▁Event	-7027
▁FALSE	-7028
▁FLAGS	-7029
▁FLUSH	-7030
▁FOUND	-7031
▁FRAME	-7032
▁FRESH	-7033
▁Final	-7034
▁FromM	-7035
▁HTTPS	-7036
▁IOCMD	-7037
▁IOCTL	-7038
▁Inter	-7039
▁MAGIC	-7040
▁NAOHT	-7041
▁PROJE	-7042
▁RELAY	-7043
▁RETRY	-7044
▁SCOPE	-7045
▁SIGIO	-7046
▁SIGRT	-7047
▁SLASH	-7048
▁SOCKS	-7049
▁TCGET	-7050
▁TRUNC	-7051
▁UNPRO	-7052
▁WEXIT	-7053
▁WHITE	-7054
▁WTERM	-7055
▁YESNO	-7056
▁after	-7057
▁arena	-7058
▁array	-7059
▁autho	-7060
▁batch	-7061
▁below	-7062
▁blank	-7063
▁cfile	-7064
▁chmod	-7065
▁clamp	-7066
▁clrto	-7067
▁colno	-7068
▁const	-7069
▁corge	-7070
▁curve	-7071
▁degre	-7072
▁denom	-7073
▁deque	-7074
▁deter	-7075
▁dfile	-7076
▁dklen	-7077
▁drive	-7078
▁esmtp	-7079
▁exact	-7080
▁exist	-7081
▁fault	-7082
▁floor	-7083
▁fname	-7084
▁fpath	-7085
▁fwalk	-7086
▁getpw	-7087
▁globs	-7088
▁green	-7089
▁hline	-7090
▁inser	-7091
▁intro	-7092
▁ioctl	-7093
▁largs	-7094
▁links	-7095
▁lockf	-7096
▁maint	-7097
▁mkdir	-7098
▁model	-7099
HLT	-7100
PGP	-7101
oji	-7102
pkcs	-7103
rsrc	-7104
▁box	-7105
ANONY	-7106
Async	-7107
Child	-7108
FETCH	-7109
LNEXT	-7110
endee	-7111
▁TINY	-7112
▁WEEK	-7113
▁sqrt	-7114
DETACH	-7115
Failed	-7116
LIPSIS	-7117
LOOKUP	-7118
STYLES	-7119
WERASE	-7120
finite	-7121
iflush	-7122
itimer	-7123
styles	-7124
▁AMPER	-7125
▁RLock	-7126
▁above	-7127
▁gamma	-7128
▁msgid	-7129
▁multi	-7130
▁nFile	-7131
▁needs	-7132
▁onkey	-7133
▁outfp	-7134
▁parts	-7135
▁place	-7136
▁plist	-7137
▁plugh	-7138
▁power	-7139
▁qname	-7140
▁radix	-7141
▁rargs	-7142
▁remov	-7143
▁renew	-7144
▁rfile	-7145
▁rglob	-7146
▁rrule	-7147
▁rules	-7148
▁separ	-7149
▁serve	-7150
▁simpl	-7151
▁simul	-7152
▁slave	-7153
▁slots	-7154
▁stale	-7155
▁stamp	-7156
▁stdev	-7157
▁subst	-7158
▁swift	-7159
▁takes	-7160
▁tback	-7161
▁templ	-7162
▁throw	-7163
▁timer	-7164
▁timet	-7165
▁today	-7166
▁topic	-7167
▁traps	-7168
▁tries	-7169
▁undef	-7170
▁visib	-7171
▁waldo	-7172
▁watch	-7173
▁wfile	-7174
BADFILE	-7175
COLLECT	-7176
CONSOLE	-7177
CREATED	-7178
CUMFLEX	-7179
DECRYPT	-7180
DEFINED	-7181
DEFINER	-7182
DELAYED	-7183
ENABLED	-7184
FICIENT	-7185
FOREVER	-7186
Factory	-7187
GENERIC	-7188
Greater	-7189
HANDLES	-7190
ILLEGAL	-7191
INDEXES	-7192
INTEGER	-7193
IZONTAL	-7194
KEYWORD	-7195
LENGINE	-7196
LIMITED	-7197
METRICS	-7198
MISSING	-7199
BODY	-7200
RUPT	-7201
pasv	-7202
▁two	-7203
▁www	-7204
CLEAR	-7205
Numer	-7206
PPPOX	-7207
ROZEN	-7208
WIDTH	-7209
oDots	-7210
scale	-7211
shape	-7212
uffle	-7213
yesno	-7214
▁CTRL	-7215
▁NNTP	-7216
▁Open	-7217
ATMSVC	-7218
ECONET	-7219
FAMILY	-7220
USESTD	-7221
Window	-7222
dollar	-7223
egrity	-7224
equals	-7225
nocond	-7226
pubkey	-7227
safety	-7228
▁FLOAT	-7229
▁IDEMP	-7230
▁VALUE	-7231
▁accum	-7232
▁bgpic	-7233
▁fatal	-7234
▁jinja	-7235
▁rmdir	-7236
▁sixto	-7237
▁terse	-7238
▁years	-7239
ANKLINE	-7240
ENVIRON	-7241
LIBRARY	-7242
Liberal	-7243
METHODS	-7244
Matches	-7245
NETBEUI	-7246
NETLINK	-7247
NEWLINE	-7248
NOATIME	-7249
NODELAY	-7250
OFFLINE	-7251
ONESHOT	-7252
PASSIVE	-7253
PATHMTU	-7254
PATTERN	-7255
PENALTY	-7256
PERFORM	-7257
PKTINFO	-7258
PREVENT	-7259
PRIVATE	-7260
PROTECT	-7261
REACHED	-7262
RECORDS	-7263
REFRESH	-7264
REFUSED	-7265
RESULTS	-7266
RETOPTS	-7267
REVOKED	-7268
RUNTIME	-7269
Release	-7270
SPECIFI	-7271
STOPPED	-7272
STORAGE	-7273
SUSPEND	-7274
THREADS	-7275
TIMIZED	-7276
TestRun	-7277
Timeout	-7278
UNREACH	-7279
USESHOW	-7280
VIRTUAL	-7281
WAITALL	-7282
WANPIPE	-7283
WARNING	-7284
abetize	-7285
aceback	-7286
adapter	-7287
applied	-7288
article	-7289
atetime	-7290
between	-7291
blocked	-7292
callees	-7293
capabil	-7294
ceivers	-7295
celines	-7296
changed	-7297
charref	-7298
cleanup	-7299
115200	-7300
wakeup	-7301
▁focus	-7302
▁lseek	-7303
▁xyzzy	-7304
Doctype	-7305
OVERRUN	-7306
compare	-7307
complex	-7308
counter	-7309
country	-7310
cryptor	-7311
display	-7312
edPoint	-7313
enabled	-7314
encrypt	-7315
endings	-7316
exclude	-7317
expired	-7318
failure	-7319
ference	-7320
filters	-7321
flowing	-7322
fopaque	-7323
forever	-7324
forward	-7325
fstring	-7326
grouped	-7327
handles	-7328
ificate	-7329
ignores	-7330
ilshift	-7331
imezone	-7332
inality	-7333
include	-7334
indexes	-7335
irepeat	-7336
irshift	-7337
istency	-7338
ityFunc	-7339
license	-7340
limited	-7341
linelen	-7342
listdir	-7343
literal	-7344
locking	-7345
logging	-7346
netmask	-7347
newline	-7348
oformat	-7349
opcodes	-7350
orarily	-7351
ordered	-7352
parency	-7353
parsers	-7354
pending	-7355
reached	-7356
reamble	-7357
related	-7358
ression	-7359
results	-7360
routine	-7361
runtime	-7362
sendall	-7363
sequent	-7364
service	-7365
shorten	-7366
sibling	-7367
signals	-7368
spacing	-7369
subject	-7370
subpart	-7371
tarfile	-7372
tearing	-7373
ternate	-7374
tionary	-7375
tracing	-7376
unicate	-7377
updates	-7378
usemask	-7379
veloped	-7380
watcher	-7381
workers	-7382
wrapped	-7383
writing	-7384
written	-7385
zipfile	-7386
▁ACTION	-7387
▁ACTIVE	-7388
▁ANCHOR	-7389
▁ANENUM	-7390
▁APPEND	-7391
▁APSout	-7392
▁BDADDR	-7393
▁BRANCH	-7394
▁BUFFER	-7395
▁Binary	-7396
▁Buffer	-7397
▁CANNOT	-7398
▁CLIENT	-7399
▁DIGITS	-7400
▁EPROTO	-7401
▁EXPECT	-7402
▁FAILED	-7403
▁FORBID	-7404
▁INSERT	-7405
▁IPPORT	-7406
▁ISSUER	-7407
▁LOCALE	-7408
▁LOGGER	-7409
▁MONTHS	-7410
▁NEGATE	-7411
▁NEWOBJ	-7412
▁OPTCRE	-7413
▁OPTION	-7414
▁POSTAL	-7415
▁PRAGMA	-7416
▁PRESET	-7417
▁Pseudo	-7418
▁RESUME	-7419
▁Reader	-7420
▁SIGUSR	-7421
▁STDERR	-7422
▁STDOUT	-7423
▁SUPDUP	-7424
▁SYSLOG	-7425
▁Simple	-7426
▁Single	-7427
▁Socket	-7428
▁TCSBRK	-7429
▁TIOCMB	-7430
▁TIOCSS	-7431
▁UNIQUE	-7432
▁USWest	-7433
▁WIFSIG	-7434
▁actual	-7435
▁altsep	-7436
▁amount	-7437
▁asname	-7438
▁banner	-7439
▁barney	-7440
▁cached	-7441
▁caller	-7442
▁choice	-7443
▁chroot	-7444
▁concat	-7445
▁csharp	-7446
▁custom	-7447
▁dedent	-7448
▁define	-7449
▁device	-7450
▁digits	-7451
▁direct	-7452
▁divide	-7453
▁divmod	-7454
▁entity	-7455
▁execve	-7456
▁expose	-7457
▁fileno	-7458
▁fixers	-7459
▁freeze	-7460
▁fromis	-7461
▁ftLast	-7462
▁getint	-7463
▁geturl	-7464
▁gmtime	-7465
▁hidden	-7466
▁invoke	-7467
▁jstype	-7468
▁lchmod	-7469
▁lnotab	-7470
▁locked	-7471
▁lpAttr	-7472
▁margin	-7473
▁maxlen	-7474
▁mgfunc	-7475
▁minute	-7476
▁mixins	-7477
▁mkpath	-7478
▁mktemp	-7479
▁modify	-7480
▁months	-7481
▁mounts	-7482
▁native	-7483
▁nbytes	-7484
▁normal	-7485
▁obtain	-7486
▁obtype	-7487
▁opname	-7488
▁permut	-7489
▁phrase	-7490
▁plural	-7491
▁prompt	-7492
▁rawval	-7493
▁redraw	-7494
▁reduce	-7495
▁regexp	-7496
▁reseed	-7497
▁resize	-7498
▁resume	-7499
▁rewind	-7500
▁rights	-7501
▁rounds	-7502
▁runctx	-7503
▁runner	-7504
▁scroll	-7505
▁sendto	-7506
▁setopt	-7507
▁signed	-7508
▁sizeof	-7509
▁skipIf	-7510
▁sorted	-7511
▁sparse	-7512
▁sqlite	-7513
▁sslobj	-7514
▁strong	-7515
▁struct	-7516
▁submit	-7517
▁teredo	-7518
▁tolist	-7519
▁tracer	-7520
▁tzname	-7521
▁unctrl	-7522
▁unichr	-7523
▁unlink	-7524
▁unread	-7525
▁unsign	-7526
▁upload	-7527
▁waitid	-7528
BYTECODE	-7529
CERTINFO	-7530
CHECKSUM	-7531
COMPILED	-7532
CONSUMED	-7533
CRITICAL	-7534
DECLARED	-7535
DECODING	-7536
DISABLED	-7537
DONTNEED	-7538
DateTime	-7539
EXTERNAL	-7540
Endpoint	-7541
FALLBACK	-7542
FASTOPEN	-7543
FILETIME	-7544
Failures	-7545
Filename	-7546
HOPLIMIT	-7547
HOSTNAME	-7548
HUGEPAGE	-7549
INTERNAL	-7550
Instance	-7551
KEEPIDLE	-7552
KERBEROS	-7553
LISTONLY	-7554
LOCATION	-7555
MODSINCE	-7556
NORETURN	-7557
NOTIFIED	-7558
NOUNLINK	-7559
PEERCRED	-7560
PROGRESS	-7561
PROVINCE	-7562
Priority	-7563
READONLY	-7564
RESPONSE	-7565
Resource	-7566
SEQUENCE	-7567
SUPPORTS	-7568
Sequence	-7569
UNCLOSED	-7570
USERNAME	-7571
WILLNEED	-7572
accessor	-7573
affinity	-7574
ampwidth	-7575
asyncgen	-7576
attempts	-7577
autospec	-7578
buffered	-7579
bytecode	-7580
charsets	-7581
complete	-7582
constant	-7583
consumed	-7584
dangling	-7585
defining	-7586
delslice	-7587
detached	-7588
exponent	-7589
fallback	-7590
friendly	-7591
hostmask	-7592
httponly	-7593
ingInstr	-7594
itruediv	-7595
keywords	-7596
lemented	-7597
lifetime	-7598
listener	-7599
literals	-7600
loopback	-7601
maintype	-7602
mappings	-7603
memcache	-7604
messages	-7605
mimetype	-7606
ministic	-7607
multiple	-7608
mutually	-7609
networks	-7610
nnotated	-7611
onDomain	-7612
openfile	-7613
operator	-7614
patchers	-7615
pathname	-7616
patterns	-7617
producer	-7618
property	-7619
randbits	-7620
reserved	-7621
revision	-7622
sections	-7623
sentence	-7624
setmaker	-7625
setslice	-7626
snapshot	-7627
software	-7628
specific	-7629
teardown	-7630
terminal	-7631
trailing	-7632
trigraph	-7633
ualstack	-7634
unixfrom	-7635
username	-7636
warnings	-7637
▁Barrier	-7638
▁COMMAND	-7639
▁CRASHED	-7640
▁Counter	-7641
▁DELAYED	-7642
▁DocFile	-7643
▁EREMOTE	-7644
▁ESCAPES	-7645
▁FAILURE	-7646
▁GREATER	-7647
▁Generic	-7648
▁INHIBIT	-7649
▁IOCSIZE	-7650
▁Invalid	-7651
▁Literal	-7652
▁Manager	-7653
▁NEWLINE	-7654
▁ORGANIZ	-7655
▁PENDING	-7656
▁PRECERT	-7657
▁RUNNING	-7658
▁SSLCERT	-7659
▁SUCCESS	-7660
▁UNICODE	-7661
▁UPDATED	-7662
▁VERBOSE	-7663
▁WRAPPER	-7664
▁WaitFor	-7665
▁Warning	-7666
▁adapter	-7667
▁aliased	-7668
▁appname	-7669
▁archive	-7670
▁arcname	-7671
▁assertT	-7672
▁authkey	-7673
▁authuri	-7674
▁backlog	-7675
▁bgcolor	-7676
▁bymonth	-7677
▁changed	-7678
▁checker	-7679
▁chunked	-7680
▁ciphers	-7681
▁classes	-7682
▁codeset	-7683
▁compact	-7684
▁complet	-7685
▁complex	-7686
▁compute	-7687
▁created	-7688
▁csvfile	-7689
▁declare	-7690
▁decoded	-7691
▁decrypt	-7692
▁defects	-7693
▁degrees	-7694
▁depends	-7695
▁descrip	-7696
▁elapsed	-7697
▁enabled	-7698
▁enqueue	-7699
▁entropy	-7700
▁errpipe	-7701
▁exports	-7702
▁fnmatch	-7703
▁foreign	-7704
▁fromutc	-7705
▁fullurl	-7706
▁general	-7707
▁getattr	-7708
▁getfile	-7709
▁getfull	-7710
▁getinfo	-7711
▁getitem	-7712
▁getlist	-7713
▁getname	-7714
▁getserv	-7715
▁gettemp	-7716
▁getuser	-7717
▁getweak	-7718
▁groupby	-7719
▁hexlify	-7720
▁idempot	-7721
▁integer	-7722
▁isident	-7723
▁isprint	-7724
▁iterdir	-7725
▁lambdef	-7726
▁license	-7727
▁linesep	-7728
▁manager	-7729
▁marshal	-7730
▁matched	-7731
▁maximum	-7732
▁members	-7733
▁mkdtemp	-7734
▁mkstemp	-7735
▁modname	-7736
▁modulus	-7737
▁netmask	-7738
▁numeric	-7739
▁operand	-7740
▁overlay	-7741
▁padding	-7742
▁pendown	-7743
▁pensize	-7744
▁perform	-7745
▁popitem	-7746
▁problem	-7747
▁project	-7748
▁publish	-7749
▁purpose	-7750
▁pybytes	-7751
▁radians	-7752
▁randint	-7753
▁rcpttos	-7754
▁readall	-7755
▁records	-7756
▁recvmsg	-7757
▁refresh	-7758
▁regions	-7759
▁relpath	-7760
▁restval	-7761
▁revoked	-7762
▁runeval	-7763
▁scripts	-7764
▁section	-7765
▁segment	-7766
▁setmark	-7767
▁shuffle	-7768
▁skipped	-7769
▁spacing	-7770
▁startof	-7771
▁statvfs	-7772
▁stopall	-7773
▁subnets	-7774
▁symbols	-7775
▁sysconf	-7776
▁tabsize	-7777
▁tarinfo	-7778
▁tempdir	-7779
▁timeval	-7780
▁toaddrs	-7781
▁trusted	-7782
▁typeTag	-7783
▁typeobj	-7784
▁updated	-7785
▁urandom	-7786
▁urljoin	-7787
▁urlsafe	-7788
▁vstring	-7789
▁waitpid	-7790
▁wordsep	-7791
▁wrapped	-7792
▁wrapper	-7793
ANONYMOUS	-7794
APPLETALK	-7795
BLUETOOTH	-7796
ByteIndex	-7797
CALLBACKS	-7798
CANONNAME	-7799
CONNECTED	-7800
CaseClass	-7801
CordField	-7802
DROPPABLE	-7803
EnumField	-7804
EventLoop	-7805
FIELDSIZE	-7806
FieldMask	-7807
HANDSHAKE	-7808
IMMUTABLE	-7809
INCORRECT	-7810
INCREMENT	-7811
INSTANCES	-7812
InfoInXML	-7813
KEEPINTVL	-7814
LARGEFILE	-7815
LevelName	-7816
MERGEABLE	-7817
NAMESPACE	-7818
Namespace	-7819
ORIZONTAL	-7820
PUBLICKEY	-7821
QUALIFIER	-7822
RESOURCES	-7823
SEQPACKET	-7824
Successes	-7825
aldecoder	-7826
alencoder	-7827
ambiguous	-7828
arshaller	-7829
automatic	-7830
cancelled	-7831
candidate	-7832
challenge	-7833
checkable	-7834
classname	-7835
classtree	-7836
completed	-7837
condition	-7838
configure	-7839
connected	-7840
container	-7841
copyright	-7842
dataclass	-7843
decimalnl	-7844
delimiter	-7845
divisions	-7846
exclusive	-7847
faceError	-7848
fieldmask	-7849
fragments	-7850
framerate	-7851
ibuteList	-7852
increment	-7853
interning	-7854
metaclass	-7855
multicast	-7856
nerframes	-7857
optionals	-7858
osfhandle	-7859
overrides	-7860
paragraph	-7861
pointhook	-7862
presented	-7863
principal	-7864
protocols	-7865
publickey	-7866
recursion	-7867
represent	-7868
resolvers	-7869
scheduler	-7870
symmetric	-7871
tokenizer	-7872
transport	-7873
unordered	-7874
valuerefs	-7875
▁BINBYTES	-7876
▁BoundedS	-7877
▁CONFLICT	-7878
▁Database	-7879
▁ELLIPSIS	-7880
▁External	-7881
▁FINISHED	-7882
▁INTERNAL	-7883
▁Programm	-7884
▁Protocol	-7885
▁READFUNC	-7886
▁ReadFile	-7887
▁SOCKTYPE	-7888
▁StringIO	-7889
▁TEMPLATE	-7890
▁TRANSFER	-7891
▁WSTOPSIG	-7892
▁WTERMSIG	-7893
▁activate	-7894
▁adapters	-7895
▁apilevel	-7896
▁askyesno	-7897
▁assigned	-7898
▁atomends	-7899
▁botframe	-7900
▁builtins	-7901
▁bytecode	-7902
▁capitals	-7903
▁capwords	-7904
▁childerr	-7905
▁compname	-7906
▁comptype	-7907
▁contains	-7908
▁copyfile	-7909
▁critical	-7910
▁decompos	-7911
▁describe	-7912
▁disabled	-7913
▁division	-7914
▁elements	-7915
▁elliptic	-7916
▁evaldict	-7917
▁executor	-7918
▁exploded	-7919
▁extendee	-7920
▁facility	-7921
▁failfast	-7922
▁finditer	-7923
▁fromaddr	-7924
▁fromlist	-7925
▁fstatvfs	-7926
▁funcname	-7927
▁getEvent	-7928
▁getfirst	-7929
▁getouter	-7930
▁hashAlgo	-7931
▁heappush	-7932
▁hostmask	-7933
▁idstring	-7934
▁implicit	-7935
▁interact	-7936
▁internal	-7937
▁ismethod	-7938
▁iterlist	-7939
▁joinpath	-7940
▁lineterm	-7941
▁listener	-7942
▁longname	-7943
▁mailhost	-7944
▁maintype	-7945
▁maxlevel	-7946
▁maxsplit	-7947
▁messages	-7948
▁netscape	-7949
▁newstate	-7950
▁newstyle	-7951
▁ngettext	-7952
▁nofollow	-7953
▁overlaps	-7954
▁patterns	-7955
▁positive	-7956
▁prepared	-7957
▁previous	-7958
▁proactor	-7959
▁progress	-7960
▁provides	-7961
▁pythonic	-7962
▁readlink	-7963
▁readonly	-7964
▁received	-7965
▁reversed	-7966
▁revindex	-7967
▁rollback	-7968
▁rounding	-7969
▁rowcount	-7970
▁samestat	-7971
▁security	-7972
▁selected	-7973
▁selector	-7974
▁settings	-7975
▁simulate	-7976
▁singular	-7977
▁sockaddr	-7978
▁sortTest	-7979
▁starargs	-7980
▁subtitle	-7981
▁subtract	-7982
▁suffixes	-7983
▁supernet	-7984
▁tabulate	-7985
▁trailing	-7986
▁truncate	-7987
▁typeargs	-7988
▁urlparse	-7989
▁urlsplit	-7990
▁variance	-7991
▁varnames	-7992
▁warnings	-7993
▁yeardays	-7994
ADDRCONFIG	-7995
AUTOCOMMIT	-7996
CHARACTERS	-7997
COMPRESSED	-7998
CountEqual	-7999
FNOSUPPORT	-8000
HTTPClient	-8001
JsonString	-8002
SHIFTEQUAL	-8003
STANDALONE	-8004
SUFFICIENT	-8005
UNCOMPRESS	-8006
UNEXPECTED	-8007
algorithms	-8008
basestring	-8009
bpbynumber	-8010
compatible	-8011
completion	-8012
contiguous	-8013
debuglevel	-8014
etransform	-8015
excepthook	-8016
fileobject	-8017
guaranteed	-8018
ingerprint	-8019
intermixed	-8020
irectional	-8021
makeResult	-8022
namespaces	-8023
onBlocking	-8024
optiontype	-8025
redirected	-8026
returncode	-8027
revalidate	-8028
subactions	-8029
subparsers	-8030
subprocess	-8031
substitute	-8032
testMethod	-8033
textdomain	-8034
threadsafe	-8035
unverified	-8036
▁AUTHORITY	-8037
▁Condition	-8038
▁CordField	-8039
▁DUPLICATE	-8040
▁DataError	-8041
▁DomainRFC	-8042
▁EXCLUSIVE	-8043
▁EnumField	-8044
▁HEXDIGITS	-8045
▁Integrity	-8046
▁MAXREPEAT	-8047
▁METHODOPT	-8048
▁MergeFrom	-8049
▁MessageTo	-8050
▁OCTDIGITS	-8051
▁PROXYAUTH	-8052
▁SERIALIZE	-8053
▁SSLENGINE	-8054
▁TRUNCATED	-8055
▁WCOREDUMP	-8056
▁WIFEXITED	-8057
▁WriteFile	-8058
▁arguments	-8059
▁arraysize	-8060
▁blankline	-8061
▁blocksize	-8062
▁broadcast	-8063
▁cFileName	-8064
▁cancelled	-8065
▁colormode	-8066
▁connected	-8067
▁copyright	-8068
▁coroutine	-8069
▁decimalnl	-8070
▁delayload	-8071
▁enumvalue	-8072
▁extracted	-8073
▁fillvalue	-8074
▁finalbody	-8075
▁firstline	-8076
▁formatted	-8077
▁fpathconf	-8078
▁framerate	-8079
▁getLogger	-8080
▁getbuffer	-8081
▁getheader	-8082
▁getmodule	-8083
▁getsource	-8084
▁getstatus	-8085
▁getturtle	-8086
▁immutable	-8087
▁importKey	-8088
▁insertion	-8089
▁installer	-8090
▁interrupt	-8091
▁lastgroup	-8092
▁lastrowid	-8093
▁libraries	-8094
▁linebelow	-8095
▁localedir	-8096
▁localtime	-8097
▁lowercase	-8098
▁metaclass	-8099
▁monthdays	-8100
▁mousemask	-8101
▁myfileobj	-8102
▁nFileSize	-8103
▁numerator	-8104
▁optimized	-8105
▁overwrite	-8106
▁permanent	-8107
▁plaintext	-8108
▁platforms	-8109
▁preferred	-8110
▁processes	-8111
▁quantiles	-8112
▁quotechar	-8113
▁quotetabs	-8114
▁randrange	-8115
▁responses	-8116
▁sampwidth	-8117
▁setlocale	-8118
▁shapesize	-8119
▁sixtofour	-8120
▁softspace	-8121
▁subscribe	-8122
▁subscript	-8123
▁templates	-8124
▁tiltangle	-8125
COLLECTABLE	-8126
UNAVAILABLE	-8127
alternative	-8128
annotations	-8129
coordinates	-8130
declaration	-8131
denominator	-8132
dlopenflags	-8133
environment	-8134
identifiers	-8135
inheritable	-8136
interpolate	-8137
interpreted	-8138
itepackages	-8139
multithread	-8140
replacement	-8141
unspecified	-8142
▁APIVersion	-8143
▁BIGCHARSET	-8144
▁BINUNICODE	-8145
▁CATEGORIES	-8146
▁CIRCUMFLEX	-8147
▁CreatePipe	-8148
▁GENERATION	-8149
▁INFILESIZE	-8150
▁POSITIONAL	-8151
▁PROJECTION	-8152
▁RepeatedPr	-8153
▁SUBPATTERN	-8154
▁TIOCSERGET	-8155
▁WHITESPACE	-8156
▁WIFSTOPPED	-8157
▁addheaders	-8158
▁additional	-8159
▁assertDict	-8160
▁assertLess	-8161
▁astimezone	-8162
▁attrgetter	-8163
▁authobject	-8164
▁autocommit	-8165
▁cAlternate	-8166
▁characters	-8167
▁ciphertext	-8168
▁clearstamp	-8169
▁commonpath	-8170
▁compatible	-8171
▁cssclasses	-8172
▁debuglevel	-8173
▁decorators	-8174
▁dependency	-8175
▁dictionary	-8176
▁doCleanups	-8177
▁dwReserved	-8178
▁encryption	-8179
▁excepthook	-8180
▁expiration	-8181
▁expression	-8182
▁extraglobs	-8183
▁fieldnames	-8184
▁findCaller	-8185
▁formatweek	-8186
▁formatyear	-8187
▁fromstring	-8188
▁generation	-8189
▁getMessage	-8190
▁getheaders	-8191
▁getmarkers	-8192
▁getmembers	-8193
▁getproxies	-8194
▁gettempdir	-8195
▁gettimeout	-8196
▁getwelcome	-8197
▁groupindex	-8198
▁identifier	-8199
▁implements	-8200
▁initialize	-8201
▁isasyncgen	-8202
▁itemgetter	-8203
▁iterations	-8204
▁lookbehind	-8205
▁maintainer	-8206
▁maxlinelen	-8207
▁namespaces	-8208
▁operations	-8209
▁paramstyle	-8210
▁permission	-8211
▁persistent	-8212
▁printError	-8213
▁readermode	-8214
▁readframes	-8215
▁readmodule	-8216
▁recipients	-8217
▁registered	-8218
▁resizemode	-8219
▁returncode	-8220
▁revocation	-8221
▁screenName	-8222
▁screensize	-8223
▁searchpath	-8224
▁separators	-8225
▁skipUnless	-8226
▁sourcehook	-8227
▁stacklevel	-8228
▁startswith	-8229
▁subprocess	-8230
▁subsequent	-8231
▁substitute	-8232
▁suiteClass	-8233
▁testRunner	-8234
▁tofiledate	-8235
▁undeclared	-8236
▁unreadline	-8237
▁urlunparse	-8238
▁urlunsplit	-8239
▁widgetName	-8240
AlmostEquals	-8241
CdataSection	-8242
DISTRIBUTION	-8243
EqualityFunc	-8244
GSSNEGOTIATE	-8245
MessageField	-8246
MethodsUsing	-8247
UNRECOGNIZED	-8248
ationalError	-8249
constructors	-8250
friendlyname	-8251
invalidation	-8252
multiprocess	-8253
organization	-8254
pathsegments	-8255
registration	-8256
representers	-8257
▁APSoutheast	-8258
▁CERTIFICATE	-8259
▁CONDITIONAL	-8260
▁CloseHandle	-8261
▁DOUBLESLASH	-8262
▁MAXFILESIZE	-8263
▁StringField	-8264
▁UNPROCESSED	-8265
▁WEXITSTATUS	-8266
▁WIFSIGNALED	-8267
▁alphabetize	-8268
▁assertIsNot	-8269
▁assertRegex	-8270
▁cardinality	-8271
▁communicate	-8272
▁comparators	-8273
▁compression	-8274
▁constructor	-8275
▁deletechars	-8276
▁denominator	-8277
▁enumeration	-8278
▁formatmonth	-8279
▁formatvarkw	-8280
▁getTestCase	-8281
▁getcompname	-8282
▁getcomptype	-8283
▁getrandbits	-8284
▁idempotency	-8285
▁intercepted	-8286
▁isgenerator	-8287
▁microsecond	-8288
▁nullcontext	-8289
▁passthrough	-8290
▁replacement	-8291
▁represented	-8292
▁resultclass	-8293
▁shearfactor	-8294
▁showwarning	-8295
▁standardMsg	-8296
▁startupinfo	-8297
▁unsubscribe	-8298
▁writeframes	-8299
Inconsistency	-8300
LINESTATEMENT	-8301
RegexpMatches	-8302
USESHOWWINDOW	-8303
USESTDHANDLES	-8304
authenticated	-8305
authorization	-8306
checkinterval	-8307
datescalendar	-8308
instancecheck	-8309
subclasscheck	-8310
upportedError	-8311
witchinterval	-8312
▁MessageField	-8313
▁ORGANIZATION	-8314
▁PRECONDITION	-8315
▁WIFCONTINUED	-8316
▁authenticate	-8317
▁canonicalize	-8318
▁capabilities	-8319
▁continuation	-8320
▁currentframe	-8321
▁descriptions	-8322
▁errorHandler	-8323
▁errorhandler	-8324
▁fromfiledate	-8325
▁getclasstree	-8326
▁getgenerator	-8327
▁getincrement	-8328
▁milliseconds	-8329
▁permutations	-8330
▁sameopenfile	-8331
▁threadsafety	-8332
▁transparency	-8333
▁writePlistTo	-8334
AUTHENTICATION	-8335
ElementHandler	-8336
ErrorException	-8337
foreignmessage	-8338
implementation	-8339
ingInstruction	-8340
recursionlimit	-8341
▁CreateProcess	-8342
▁DatabaseError	-8343
▁DomainLiberal	-8344
▁InternalError	-8345
▁POSTFIELDSIZE	-8346
▁ResponseError	-8347
▁allowcomments	-8348
▁assertGreater	-8349
▁bidirectional	-8350
▁compresslevel	-8351
▁decomposition	-8352
▁decompressobj	-8353
▁deterministic	-8354
▁formatvarargs	-8355
▁gethostbyname	-8356
▁gettempprefix	-8357
▁readPlistFrom	-8358
▁testCaseClass	-8359
▁uninterpreted	-8360
InfoInXMLFormat	-8361
onBlockingLease	-8362
▁CONNECTTIMEOUT	-8363
▁DefaultHandler	-8364
▁ExternalEntity	-8365
▁IntegrityError	-8366
▁InterfaceError	-8367
▁PrimitiveField	-8368
▁getfullargspec	-8369
▁getinnerframes	-8370
▁getouterframes	-8371
▁implementation	-8372
▁shapetransform	-8373
LogRecordFactory	-8374
▁lpAttributeList	-8375
04	-8376
33	-8377
36	-8378
37	-8379
39	-8380
40	-8381
41	-8382
42	-8383
43	-8384
44	-8385
46	-8386
47	-8387
49	-8388
51	-8389
52	-8390
53	-8391
54	-8392
55	-8393
56	-8394
58	-8395
59	-8396
61	-8397
63	-8398
75	-8399
82	-8400
94	-8401
AH	-8402
AI	-8403
AM	-8404
Ag	-8405
BC	-8406
BF	-8407
BK	-8408
CD	-8409
DU	-8410
EF	-8411
EH	-8412
FK	-8413
FW	-8414
Fr	-8415
GA	-8416
GH	-8417
GT	-8418
Ge	-8419
HW	-8420
He	-8421
IA	-8422
Id	-8423
It	-8424
LF	-8425
Me	-8426
My	-8427
NB	-8428
NF	-8429
NL	-8430
NV	-8431
NY	-8432
OO	-8433
PD	-8434
PS	-8435
PU	-8436
RF	-8437
RW	-8438
SZ	-8439
Sh	-8440
Sy	-8441
TC	-8442
TW	-8443
TZ	-8444
Tk	-8445
UU	-8446
UX	-8447
VR	-8448
WT	-8449
XN	-8450
XZ	-8451
YT	-8452
ZY	-8453
[_	-8454
],	-8455
da	-8456
dl	-8457
gg	-8458
gm	-8459
gy	-8460
ha	-8461
hl	-8462
hr	-8463
iN	-8464
kl	-8465
ld	-8466
lx	-8467
nn	-8468
nv	-8469
ob	-8470
oi	-8471
pg	-8472
pv	-8473
py	-8474
ql	-8475
ri	-8476
ry	-8477
sb	-8478
sd	-8479
tk	-8480
tn	-8481
tt	-8482
uf	-8483
ux	-8484
wt	-8485
ww	-8486
xn	-8487
xp	-8488
yc	-8489
122	-8490
301	-8491
608	-8492
ABS	-8493
ACP	-8494
AIO	-8495
Ass	-8496
CBC	-8497
CCC	-8498
CLC	-8499
CMD	-8500
DIM	-8501
DLE	-8502
DUM	-8503
EIC	-8504
EON	-8505
FPE	-8506
GOP	-8507
IRO	-8508
ISG	-8509
ISV	-8510
IZE	-8511
KEE	-8512
LEx	-8513
LSR	-8514
MEL	-8515
Mul	-8516
NAC	-8517
NEC	-8518
NOB	-8519
Nan	-8520
OFS	-8521
OID	-8522
ONC	-8523
ONL	-8524
PEX	-8525
PIP	-8526
Per	-8527
Pro	-8528
QDN	-8529
REW	-8530
RPC	-8531
RRP	-8532
RST	-8533
RTM	-8534
SEM	-8535
SLE	-8536
SPC	-8537
SPI	-8538
STP	-8539
STS	-8540
Sec	-8541
TAR	-8542
UGE	-8543
UTE	-8544
UTT	-8545
UTU	-8546
Val	-8547
XTH	-8548
YTE	-8549
_05	-8550
_1_	-8551
_64	-8552
adL	-8553
afN	-8554
aly	-8555
arb	-8556
arc	-8557
aro	-8558
car	-8559
cas	-8560
cer	-8561
cli	-8562
cos	-8563
cut	-8564
dmp	-8565
ems	-8566
eng	-8567
ese	-8568
far	-8569
fav	-8570
fid	-8571
fre	-8572
frm	-8573
gat	-8574
gmt	-8575
har	-8576
hes	-8577
iid	-8578
inc	-8579
ino	-8580
inp	-8581
iny	-8582
ius	-8583
ken	-8584
kst	-8585
ler	-8586
lst	-8587
lwp	-8588
maj	-8589
mat	-8590
med	-8591
nee	-8592
now	-8593
oop	-8594
pat	-8595
pes	-8596
pip	-8597
rad	-8598
rea	-8599
DRD	-8600
LNE	-8601
MCH	-8602
NOP	-8603
ROO	-8604
cdf	-8605
dns	-8606
gle	-8607
hit	-8608
rog	-8609
rop	-8610
tro	-8611
urt	-8612
uss	-8613
usy	-8614
vas	-8615
ves	-8616
vin	-8617
vpn	-8618
wor	-8619
zer	-8620
▁AO	-8621
▁BM	-8622
▁CB	-8623
▁CC	-8624
▁Cn	-8625
▁Cs	-8626
▁EG	-8627
▁EW	-8628
▁En	-8629
▁Et	-8630
▁FE	-8631
▁GA	-8632
▁GS	-8633
▁Kw	-8634
▁LT	-8635
▁Le	-8636
▁Me	-8637
▁Mn	-8638
▁NW	-8639
▁Pd	-8640
▁Pf	-8641
▁Pi	-8642
▁Po	-8643
▁SB	-8644
▁Sc	-8645
▁Sk	-8646
▁So	-8647
▁WR	-8648
▁XT	-8649
▁cv	-8650
▁cx	-8651
▁ed	-8652
▁fc	-8653
▁ga	-8654
▁hi	-8655
▁it	-8656
▁ld	-8657
▁lg	-8658
▁ls	-8659
▁nc	-8660
▁nv	-8661
▁of	-8662
▁pg	-8663
▁pi	-8664
▁pt	-8665
▁px	-8666
▁rs	-8667
▁rw	-8668
▁rx	-8669
▁tt	-8670
▁xo	-8671
4608	-8672
ABLY	-8673
ADIC	-8674
ALOG	-8675
ANAL	-8676
ANON	-8677
ANTS	-8678
ANUL	-8679
ARER	-8680
ASCA	-8681
Auth	-8682
CEIL	-8683
CKET	-8684
CONG	-8685
CURE	-8686
DIRA	-8687
DUCE	-8688
EDED	-8689
EMAX	-8690
ENTA	-8691
EXTE	-8692
FDLY	-8693
GTEQ	-8694
HOLE	-8695
Host	-8696
ICRO	-8697
IECE	-8698
IFLN	-8699
150	-8700
AMP	-8701
Clo	-8702
ERM	-8703
Gnu	-8704
IPC	-8705
LOP	-8706
NOH	-8707
OPY	-8708
Pay	-8709
cla	-8710
ilo	-8711
loo	-8712
prt	-8713
rag	-8714
▁FT	-8715
▁Sm	-8716
▁TU	-8717
▁ms	-8718
▁mt	-8719
▁ns	-8720
1200	-8721
AMPM	-8722
CING	-8723
ITAL	-8724
LEAK	-8725
LESS	-8726
LOST	-8727
MONE	-8728
MSGS	-8729
NXCL	-8730
Node	-8731
OFFD	-8732
ORTR	-8733
Only	-8734
OrId	-8735
PPED	-8736
PRNT	-8737
RAMB	-8738
RDLY	-8739
REET	-8740
RELA	-8741
REST	-8742
SEAL	-8743
SECT	-8744
SSLA	-8745
TEMT	-8746
THOP	-8747
THUM	-8748
TPAR	-8749
Tear	-8750
UNTR	-8751
USES	-8752
UUCP	-8753
VRRP	-8754
XFRM	-8755
_1_1	-8756
_307	-8757
aced	-8758
acts	-8759
agic	-8760
alle	-8761
amil	-8762
ampm	-8763
anis	-8764
anit	-8765
apes	-8766
apms	-8767
ased	-8768
ases	-8769
aton	-8770
audi	-8771
ayer	-8772
blue	-8773
clud	-8774
crls	-8775
dest	-8776
edoc	-8777
enet	-8778
ents	-8779
enun	-8780
eols	-8781
ered	-8782
eric	-8783
etes	-8784
find	-8785
gacy	-8786
gers	-8787
hide	-8788
icto	-8789
idiv	-8790
ileH	-8791
ions	-8792
irec	-8793
ison	-8794
itor	-8795
iver	-8796
izes	-8797
mast	-8798
mmon	-8799
FUT	-8800
INO	-8801
INQ	-8802
Map	-8803
SON	-8804
dop	-8805
egd	-8806
tra	-8807
▁CY	-8808
▁Lt	-8809
▁Lu	-8810
▁Pl	-8811
▁td	-8812
▁tk	-8813
▁um	-8814
BADH	-8815
Mode	-8816
REAL	-8817
SEOF	-8818
adex	-8819
aned	-8820
arty	-8821
msec	-8822
namp	-8823
neof	-8824
opri	-8825
opyt	-8826
orth	-8827
pall	-8828
pick	-8829
qual	-8830
rack	-8831
rawl	-8832
rele	-8833
rlen	-8834
role	-8835
sets	-8836
stop	-8837
tarb	-8838
tilt	-8839
umed	-8840
undo	-8841
unop	-8842
vary	-8843
warn	-8844
▁APN	-8845
▁ARC	-8846
▁Cal	-8847
▁DET	-8848
▁DLE	-8849
▁Det	-8850
▁ERF	-8851
▁ERR	-8852
▁EUN	-8853
▁GNU	-8854
▁HIG	-8855
▁IsC	-8856
▁KER	-8857
▁Mod	-8858
▁New	-8859
▁OFF	-8860
▁PAY	-8861
▁PIN	-8862
▁PSE	-8863
▁RAI	-8864
▁RAN	-8865
▁RAR	-8866
▁SUN	-8867
▁THO	-8868
▁TUE	-8869
▁Tim	-8870
▁VDI	-8871
▁WED	-8872
▁WRI	-8873
▁ath	-8874
▁bad	-8875
▁bet	-8876
▁cac	-8877
▁cle	-8878
▁crl	-8879
▁dmp	-8880
▁fer	-8881
▁fma	-8882
▁fol	-8883
▁fre	-8884
▁fut	-8885
▁hor	-8886
▁ind	-8887
▁ior	-8888
▁isc	-8889
▁isq	-8890
▁lat	-8891
▁let	-8892
▁lit	-8893
▁lry	-8894
▁man	-8895
▁mir	-8896
▁mul	-8897
▁nid	-8898
▁nod	-8899
BIO	-8900
EXE	-8901
OCR	-8902
REM	-8903
kel	-8904
roy	-8905
rue	-8906
sue	-8907
til	-8908
vis	-8909
▁EF	-8910
▁SK	-8911
▁SU	-8912
▁Se	-8913
227_	-8914
Left	-8915
VOKE	-8916
anto	-8917
fqdn	-8918
kely	-8919
oing	-8920
same	-8921
secs	-8922
ting	-8923
▁STI	-8924
▁Top	-8925
▁cos	-8926
▁cut	-8927
▁ent	-8928
▁ffi	-8929
▁mro	-8930
▁nmd	-8931
▁nor	-8932
▁nsm	-8933
▁nth	-8934
▁pan	-8935
▁pic	-8936
▁ppv	-8937
▁pst	-8938
▁pun	-8939
▁rol	-8940
▁sil	-8941
▁sin	-8942
▁sts	-8943
▁tds	-8944
▁tie	-8945
▁toa	-8946
▁tor	-8947
▁try	-8948
▁upt	-8949
▁urn	-8950
▁vir	-8951
ABAND	-8952
ACCEP	-8953
AEast	-8954
ALERT	-8955
ALIAS	-8956
ANCEL	-8957
ATIVE	-8958
Alias	-8959
BUILT	-8960
BUTES	-8961
CATEG	-8962
CEXCL	-8963
CHAIN	-8964
CKACK	-8965
CREDS	-8966
CURSH	-8967
Cache	-8968
CanUn	-8969
Conns	-8970
DIREC	-8971
FRAME	-8972
FULLF	-8973
GETFD	-8974
GMENT	-8975
HUGET	-8976
IESLI	-8977
IFBLK	-8978
IFREG	-8979
INESS	-8980
INFIN	-8981
INVIS	-8982
IRWXG	-8983
ISREG	-8984
IXGRP	-8985
KEYBO	-8986
LOWFI	-8987
LeftO	-8988
MCAST	-8989
MLINK	-8990
MTIME	-8991
Multi	-8992
NEVER	-8993
NFLOG	-8994
NOCWD	-8995
NODEV	-8996
OLLAR	-8997
OPNOT	-8998
OSERR	-8999
300	-9000
860	-9001
ABI	-9002
ALE	-9003
CEN	-9004
Los	-9005
ODD	-9006
TIS	-9007
TOS	-9008
ULE	-9009
UTH	-9010
YEL	-9011
lis	-9012
nfa	-9013
▁Mc	-9014
▁nd	-9015
▁nw	-9016
▁nx	-9017
LEGE	-9018
LENT	-9019
Loss	-9020
SEMI	-9021
bran	-9022
dens	-9023
elta	-9024
iang	-9025
iate	-9026
late	-9027
maxy	-9028
olve	-9029
sate	-9030
snan	-9031
umpa	-9032
util	-9033
▁All	-9034
▁FRM	-9035
▁ODB	-9036
▁PUB	-9037
▁blk	-9038
▁chr	-9039
▁pyt	-9040
8601_	-9041
ABILI	-9042
ANENT	-9043
Delta	-9044
IFLNK	-9045
INITI	-9046
IXOTH	-9047
LEGED	-9048
Oneof	-9049
PAIRS	-9050
PIECE	-9051
PORTS	-9052
Party	-9053
RDLCK	-9054
REATE	-9055
RESOL	-9056
RTMPS	-9057
SATIS	-9058
SCTTY	-9059
SETFD	-9060
SOCKT	-9061
SPARC	-9062
SQLdb	-9063
SUNDO	-9064
SUPER	-9065
State	-9066
TIALS	-9067
TWICE	-9068
UATED	-9069
UNNEL	-9070
WATCH	-9071
WERPC	-9072
WINCH	-9073
WITCH	-9074
acker	-9075
ahead	-9076
ality	-9077
ambda	-9078
ammar	-9079
ashed	-9080
ategy	-9081
cator	-9082
ceptH	-9083
cntrl	-9084
coded	-9085
colno	-9086
ctest	-9087
cular	-9088
depth	-9089
eader	-9090
edict	-9091
endid	-9092
endor	-9093
eners	-9094
ening	-9095
enums	-9096
erals	-9097
escap	-9098
eteRE	-9099
SFF	-9100
SSA	-9101
api	-9102
bir	-9103
eln	-9104
▁CE	-9105
▁CI	-9106
▁CU	-9107
▁Cc	-9108
▁Cf	-9109
▁EU	-9110
▁LI	-9111
▁PL	-9112
▁TN	-9113
▁TP	-9114
ADel	-9115
IGMP	-9116
ONDe	-9117
asic	-9118
itim	-9119
yaml	-9120
▁Can	-9121
▁Cor	-9122
▁Cre	-9123
▁Cut	-9124
▁EOR	-9125
▁LIS	-9126
▁RES	-9127
▁blo	-9128
▁bro	-9129
▁gap	-9130
38400	-9131
BLINK	-9132
COLOR	-9133
avour	-9134
birth	-9135
corre	-9136
eterS	-9137
eting	-9138
etype	-9139
forms	-9140
fresh	-9141
https	-9142
ialog	-9143
idata	-9144
idrss	-9145
igint	-9146
iglob	-9147
ignum	-9148
ilers	-9149
ining	-9150
iring	-9151
kargs	-9152
leave	-9153
loose	-9154
mount	-9155
msgid	-9156
negot	-9157
noday	-9158
odata	-9159
ogger	-9160
otstr	-9161
otype	-9162
posed	-9163
ptime	-9164
reqed	-9165
scope	-9166
serAg	-9167
setup	-9168
sideB	-9169
signo	-9170
svcrt	-9171
union	-9172
uplex	-9173
ution	-9174
utive	-9175
utput	-9176
xhtml	-9177
ytype	-9178
▁BROW	-9179
▁CEOT	-9180
▁CHEC	-9181
▁CIBA	-9182
▁CONT	-9183
▁CRTS	-9184
▁DAYS	-9185
▁DIFF	-9186
▁DUMP	-9187
▁ECAN	-9188
▁ENOC	-9189
▁EOWN	-9190
▁EPRO	-9191
▁Etop	-9192
▁FIOC	-9193
▁GetH	-9194
▁HOOK	-9195
▁INST	-9196
▁ISIG	-9197
▁ITER	-9198
▁IXON	-9199
AAL	-9200
LDE	-9201
POW	-9202
ctb	-9203
eur	-9204
ird	-9205
oto	-9206
pur	-9207
urn	-9208
▁hW	-9209
DETE	-9210
etur	-9211
extn	-9212
hers	-9213
prov	-9214
tras	-9215
▁Bot	-9216
▁EIL	-9217
▁IOL	-9218
▁STX	-9219
▁csd	-9220
▁dec	-9221
▁had	-9222
▁pem	-9223
▁rmt	-9224
OFILE	-9225
SIXTH	-9226
UMNAC	-9227
anext	-9228
ersco	-9229
erset	-9230
europ	-9231
ibull	-9232
igent	-9233
photo	-9234
regid	-9235
▁DEFA	-9236
▁LITE	-9237
▁LOST	-9238
▁Left	-9239
▁List	-9240
▁MINE	-9241
▁MOVE	-9242
▁NAWS	-9243
▁NOEX	-9244
▁PLUS	-9245
▁Pack	-9246
▁Peek	-9247
▁RSQB	-9248
▁SENT	-9249
▁SIGT	-9250
▁SSLv	-9251
▁STOP	-9252
▁SUND	-9253
▁TCIF	-9254
▁THUR	-9255
▁Unit	-9256
▁VREP	-9257
▁adds	-9258
▁aiff	-9259
▁asso	-9260
▁atof	-9261
▁cate	-9262
▁cdll	-9263
▁cols	-9264
▁comb	-9265
▁cosh	-9266
▁ddir	-9267
▁dead	-9268
▁dele	-9269
▁dere	-9270
▁doco	-9271
▁edit	-9272
▁erfc	-9273
▁expo	-9274
▁getE	-9275
▁getM	-9276
▁hWnd	-9277
▁hasH	-9278
▁href	-9279
▁iget	-9280
▁imod	-9281
▁inch	-9282
▁ipow	-9283
▁isAl	-9284
▁isat	-9285
▁isop	-9286
▁istr	-9287
▁jump	-9288
▁leaf	-9289
▁lsub	-9290
▁mach	-9291
▁maxm	-9292
▁minD	-9293
▁nfas	-9294
▁nlst	-9295
▁none	-9296
▁nonl	-9297
▁nout	-9298
▁plus	-9299
ANO	-9300
EST	-9301
ISL	-9302
JAR	-9303
Zip	-9304
chg	-9305
dge	-9306
oub	-9307
ALAR	-9308
Junc	-9309
NOIN	-9310
SPRE	-9311
WEEN	-9312
noop	-9313
quit	-9314
refo	-9315
regs	-9316
slot	-9317
unce	-9318
▁BUC	-9319
▁CUT	-9320
▁ELN	-9321
▁ESR	-9322
▁wno	-9323
ISLNK	-9324
NONET	-9325
PUBLI	-9326
RIDAY	-9327
SREDO	-9328
dgeit	-9329
inact	-9330
instr	-9331
restr	-9332
stale	-9333
stric	-9334
unops	-9335
users	-9336
▁fmod	-9337
▁inde	-9338
▁prox	-9339
▁quer	-9340
▁rang	-9341
▁rcls	-9342
▁reco	-9343
▁rect	-9344
▁regs	-9345
▁sand	-9346
▁sinh	-9347
▁sugg	-9348
▁tent	-9349
▁tpar	-9350
▁utct	-9351
▁vert	-9352
▁will	-9353
▁wind	-9354
▁ycor	-9355
460800	-9356
ANULAR	-9357
ATMARK	-9358
BINDTO	-9359
BREAKA	-9360
CEEDED	-9361
COMPON	-9362
DEFINE	-9363
DODUMP	-9364
EPBIND	-9365
ESCAPE	-9366
ETWEEN	-9367
EXLOCK	-9368
FROZEN	-9369
ITALIC	-9370
LICIES	-9371
NAMETO	-9372
NESDAY	-9373
NESTED	-9374
NKTYPE	-9375
NOCTTY	-9376
NODIRA	-9377
NOFQDN	-9378
NOTICE	-9379
OFLUSH	-9380
ORTEST	-9381
PERROR	-9382
PERSID	-9383
PLICIT	-9384
PROHIB	-9385
PROXYT	-9386
Public	-9387
REGION	-9388
RIGHTS	-9389
SCALAR	-9390
SCRIPT	-9391
SNDBUF	-9392
SPNEGO	-9393
SRDOPT	-9394
SUBSCR	-9395
SYSLOG	-9396
TOCORE	-9397
UNLESS	-9398
ZIPPED	-9399
BEL	-9400
DRA	-9401
Ptr	-9402
SEW	-9403
SLT	-9404
dEx	-9405
wid	-9406
▁PI	-9407
▁Pc	-9408
▁Pe	-9409
▁Ps	-9410
▁TL	-9411
▁TM	-9412
▁Tk	-9413
▁lt	-9414
ADDI	-9415
Form	-9416
STAN	-9417
TTOU	-9418
WOUL	-9419
alls	-9420
ecdh	-9421
retr	-9422
▁NIS	-9423
▁STO	-9424
▁TER	-9425
▁Ter	-9426
▁eng	-9427
▁hid	-9428
▁mid	-9429
▁sid	-9430
723_3	-9431
DRAWN	-9432
ISUID	-9433
PLINK	-9434
PORTR	-9435
aches	-9436
dExpr	-9437
delln	-9438
estUn	-9439
outin	-9440
▁ADDI	-9441
▁EMSG	-9442
▁EXTA	-9443
▁NSEW	-9444
▁TLDS	-9445
▁hotp	-9446
▁tabs	-9447
▁turt	-9448
MAXBEL	-9449
NOEXEC	-9450
WOULDB	-9451
alUnit	-9452
astart	-9453
caches	-9454
clause	-9455
cnonce	-9456
condex	-9457
consts	-9458
contro	-9459
coords	-9460
cwrite	-9461
direct	-9462
doprog	-9463
dumper	-9464
earday	-9465
eballs	-9466
ecture	-9467
egated	-9468
endant	-9469
ensure	-9470
entral	-9471
ermask	-9472
errers	-9473
ersect	-9474
estore	-9475
exattr	-9476
extend	-9477
extras	-9478
failed	-9479
fdelay	-9480
frsize	-9481
getAss	-9482
getset	-9483
grants	-9484
hashes	-9485
ibrate	-9486
imeout	-9487
inalia	-9488
inline	-9489
intell	-9490
isplay	-9491
lector	-9492
licate	-9493
linest	-9494
minflt	-9495
minute	-9496
mpress	-9497
msvcrt	-9498
mtable	-9499
AME	-9500
GES	-9501
LAT	-9502
SCN	-9503
USP	-9504
bot	-9505
nod	-9506
sys	-9507
tup	-9508
▁iq	-9509
▁rv	-9510
▁wS	-9511
942_	-9512
FIRM	-9513
PLEX	-9514
REME	-9515
THON	-9516
imod	-9517
page	-9518
▁EID	-9519
▁PAT	-9520
▁SAT	-9521
▁SYN	-9522
▁ahi	-9523
▁inc	-9524
▁isM	-9525
▁isx	-9526
▁myp	-9527
▁shm	-9528
▁sni	-9529
ACCES	-9530
DSUSP	-9531
izing	-9532
munge	-9533
nvcsw	-9534
odate	-9535
templ	-9536
▁FLAT	-9537
▁Mult	-9538
▁down	-9539
▁iqmp	-9540
▁marg	-9541
▁setx	-9542
▁wSho	-9543
CLAUSE	-9544
CONGES	-9545
DIFFER	-9546
INABLE	-9547
NONAME	-9548
adjust	-9549
newtab	-9550
numpat	-9551
numsub	-9552
oletes	-9553
ospace	-9554
pecial	-9555
protos	-9556
racket	-9557
readed	-9558
rename	-9559
report	-9560
setpos	-9561
subset	-9562
tional	-9563
toaiff	-9564
toward	-9565
traced	-9566
trings	-9567
tuples	-9568
tzinfo	-9569
untime	-9570
verrid	-9571
▁ALTER	-9572
▁APPEN	-9573
▁APPLI	-9574
▁After	-9575
▁BELOW	-9576
▁BSDLY	-9577
▁CAMEL	-9578
▁CASCA	-9579
▁CFLAG	-9580
▁CHORD	-9581
▁COMMA	-9582
▁Child	-9583
▁EDEST	-9584
▁EIDRM	-9585
▁FIONC	-9586
▁Flags	-9587
▁Funny	-9588
▁HIGHE	-9589
▁HOOKS	-9590
▁ISEOF	-9591
▁IsOut	-9592
▁LFLAG	-9593
▁MAXRE	-9594
▁MITER	-9595
▁NONCE	-9596
▁Names	-9597
▁NotSt	-9598
▁PAGES	-9599
11_	-9600
FIB	-9601
mys	-9602
niv	-9603
tpl	-9604
▁BL	-9605
▁MB	-9606
▁Nd	-9607
▁OV	-9608
LACK	-9609
RAID	-9610
TBSY	-9611
TITY	-9612
ives	-9613
mort	-9614
▁Dec	-9615
▁LWS	-9616
▁MAL	-9617
▁SUM	-9618
▁cir	-9619
▁exe	-9620
▁jwt	-9621
▁lly	-9622
▁ont	-9623
▁rer	-9624
BLACK	-9625
CLAMP	-9626
Flush	-9627
LINUX	-9628
UNLCK	-9629
_227_	-9630
_4122	-9631
ample	-9632
bsize	-9633
enced	-9634
mysql	-9635
▁RawV	-9636
▁isub	-9637
▁rate	-9638
▁setT	-9639
▁setp	-9640
▁setr	-9641
▁sety	-9642
ABSTRA	-9643
DECODE	-9644
ICOUNT	-9645
LOCALS	-9646
SETFIB	-9647
UNSAFE	-9648
_3_2_0	-9649
areful	-9650
argest	-9651
estate	-9652
mortem	-9653
nivcsw	-9654
▁Exten	-9655
▁LOGIN	-9656
▁OVERR	-9657
▁PATCH	-9658
▁PLUSE	-9659
▁POLLN	-9660
▁READD	-9661
▁READY	-9662
▁Regex	-9663
▁SIGXF	-9664
▁SOMAX	-9665
▁SetIn	-9666
▁Share	-9667
▁TCSAD	-9668
▁TELNE	-9669
▁TTYPE	-9670
▁TYPED	-9671
▁Token	-9672
▁UNITS	-9673
▁VDISC	-9674
▁VINTR	-9675
▁VKILL	-9676
▁VSWTC	-9677
▁VTIME	-9678
▁XAUTH	-9679
▁addch	-9680
▁adopt	-9681
▁alpha	-9682
▁alter	-9683
▁autor	-9684
▁baseW	-9685
▁brows	-9686
▁brpop	-9687
▁chdir	-9688
▁click	-9689
▁crypt	-9690
▁cterm	-9691
▁delch	-9692
▁deleg	-9693
▁delim	-9694
▁demoj	-9695
▁disco	-9696
▁einfo	-9697
▁errno	-9698
▁expan	-9699
BOX	-9700
DSS	-9701
PAD	-9702
PSS	-9703
Pol	-9704
RSS	-9705
Rol	-9706
UTQ	-9707
lnk	-9708
▁IM	-9709
▁IU	-9710
▁gp	-9711
Cert	-9712
IFUN	-9713
UNIT	-9714
atus	-9715
ceil	-9716
held	-9717
metr	-9718
ntop	-9719
salt	-9720
▁Bin	-9721
▁GIV	-9722
▁NUL	-9723
▁gid	-9724
COUTQ	-9725
HNDLR	-9726
IMAPS	-9727
OVERF	-9728
abled	-9729
iform	-9730
odeEx	-9731
olist	-9732
utime	-9733
verbo	-9734
ypass	-9735
▁GONE	-9736
▁TEXT	-9737
▁suid	-9738
▁wild	-9739
ECTIVE	-9740
MAGENT	-9741
MINATE	-9742
Policy	-9743
RMFAIL	-9744
SYNCNT	-9745
Status	-9746
arable	-9747
bypass	-9748
enames	-9749
ernKey	-9750
falloc	-9751
isable	-9752
itable	-9753
lapped	-9754
▁ALLOW	-9755
▁ECHOK	-9756
▁GIVEN	-9757
▁IUCLC	-9758
▁SIGCH	-9759
▁UNCHE	-9760
▁doRol	-9761
▁false	-9762
▁famil	-9763
▁fancy	-9764
▁fixup	-9765
▁ftCre	-9766
▁funco	-9767
▁funcs	-9768
▁getch	-9769
▁getre	-9770
▁gname	-9771
▁immed	-9772
▁inode	-9773
▁insch	-9774
▁instr	-9775
▁isblk	-9776
▁ischr	-9777
▁isdir	-9778
▁isend	-9779
▁iskey	-9780
▁islnk	-9781
▁ispkg	-9782
▁isqrt	-9783
▁isreg	-9784
▁isvis	-9785
▁leave	-9786
▁lexer	-9787
▁makeP	-9788
▁mange	-9789
▁metro	-9790
▁minim	-9791
▁msecs	-9792
▁mycmp	-9793
▁napms	-9794
▁nodel	-9795
▁oparg	-9796
▁pages	-9797
▁pydll	-9798
▁quick	-9799
Eph	-9800
hsv	-9801
obe	-9802
rcv	-9803
▁FD	-9804
▁FR	-9805
▁FS	-9806
▁OU	-9807
BOLD	-9808
ITOR	-9809
SYSC	-9810
TTOM	-9811
UPTO	-9812
ecmd	-9813
erts	-9814
wnam	-9815
▁BIT	-9816
▁FUN	-9817
▁MIS	-9818
▁asy	-9819
▁lrx	-9820
▁pkg	-9821
▁tee	-9822
▁unp	-9823
Ephem	-9824
LACEH	-9825
MOUNT	-9826
OCLEN	-9827
SCALE	-9828
STALE	-9829
UTYPE	-9830
YPEER	-9831
areto	-9832
errer	-9833
stime	-9834
topic	-9835
unnel	-9836
▁arch	-9837
▁hdrs	-9838
▁incl	-9839
▁nice	-9840
▁para	-9841
▁pert	-9842
▁unop	-9843
CANNOT	-9844
ERRORS	-9845
FRAMES	-9846
PLACEH	-9847
ceName	-9848
gtitle	-9849
msgrcv	-9850
native	-9851
tunnel	-9852
▁CQUIT	-9853
▁ENOTE	-9854
▁Union	-9855
▁adobe	-9856
▁atanh	-9857
▁ratio	-9858
▁reduc	-9859
▁resid	-9860
▁route	-9861
▁ruler	-9862
▁setre	-9863
▁sinfo	-9864
▁space	-9865
▁tname	-9866
▁trait	-9867
▁udata	-9868
▁unify	-9869
▁untag	-9870
▁urlen	-9871
▁where	-9872
▁withd	-9873
▁wlist	-9874
▁xhtml	-9875
1000000	-9876
2000000	-9877
2500000	-9878
3500000	-9879
4000000	-9880
BINLINE	-9881
BLOCKED	-9882
COUNTRY	-9883
CPPTYPE	-9884
Calling	-9885
Content	-9886
DECIMAL	-9887
DECODER	-9888
DELIMIT	-9889
DSOCKET	-9890
DSTADDR	-9891
Default	-9892
ENGINES	-9893
ENTERED	-9894
Expired	-9895
Foreign	-9896
FuncPtr	-9897
GZIPPED	-9898
Getattr	-9899
21_	-9900
ECB	-9901
NCH	-9902
RIM	-9903
RIO	-9904
XTP	-9905
nnn	-9906
▁NC	-9907
▁NS	-9908
▁NT	-9909
▁Nl	-9910
▁vm	-9911
▁vr	-9912
CHAN	-9913
HIGH	-9914
STAB	-9915
TING	-9916
_407	-9917
look	-9918
▁ADD	-9919
▁REC	-9920
▁Win	-9921
▁alo	-9922
▁dme	-9923
▁ldn	-9924
▁von	-9925
DEPEN	-9926
INGLE	-9927
▁	-9928
e	-9929
_	-9930
t	-9931
a	-9932
r	-9933
s	-9934
i	-9935
o	-9936
n	-9937
l	-9938
d	-9939
c	-9940
E	-9941
p	-9942
m	-9943
u	-9944
T	-9945
O	-9946
R	-9947
g	-9948
f	-9949
N	-9950
A	-9951
I	-9952
S	-9953
L	-9954
C	-9955
h	-9956
P	-9957
D	-9958
b	-9959
y	-9960
v	-9961
k	-9962
U	-9963
M	-9964
x	-9965
F	-9966
w	-9967
G	-9968
B	-9969
Y	-9970
H	-9971
K	-9972
V	-9973
2	-9974
W	-9975
X	-9976
q	-9977
z	-9978
3	-9979
1	-9980
4	-9981
6	-9982
j	-9983
Q	-9984
0	-9985
*	-9986
5	-9987
Z	-9988
8	-9989
9	-9990
7	-9991
J	-9992
,	-9993
[	-9994
]	-9995
